fe00fe01ffff0000fefffe0000fe000101fefe01fe000100ff00ffff0001ffff000001fe000000feffffff01fefefe0100feff0101ff0001000000ffff01ff01
0100feff0101fefe0001fe00fe00000001fe010101feff00fffeff00000100fffffefefffefefefe01000101ff00000000ff000000fe01fffeff01fe01fefe00
01feffffff010100000000fefe0001fefffeff0001ff0000010000fe00ff00ff000000ffff00ff00ff000100fffe01fefffe01ff01fffefefefffe0101fe01ff
fefe01fefe00feff0000ffff000100fffefe00ff01fe0000fffe0000fe01fefeff00fe000001ff0101fe0000fe0101ff00fefefe0101fe0100fffffffe01ff01
0000000101fffefe0101fe0101fffefefffe00feff01fe010001feffff01fffe0101fe00000001fe0001ff0101ff000000fefe01feff010100feffffffff00fe
fe01fe01fffefe0100ff01ff0001fffefe010000010101ff0000ff00fffefffefffeff0101feff000001fefffefeff0101fffe00fffe00ff0100fe00fffe00ff
01ffff01000001ffff00010100ff01fe0101fffffffe01fffefffffefefffefffeff01010101fefe00ff01feff01ff0100000000ff0001ff00ff00fffffe00ff
ff000101fe0101fe01fe0100fffffe0101010000fe010100fffffffffffefe01fffeffffff00ff00ff0001fffe0001ff0100ff010001ff01ff01ff01fffffe00
01ff000101fffefe0101ffffff0101fefffefe01fffe00fefeff0001ff00fffe0101ff01010000010101fe0000feffff0000fe0101fe010000ff010001010000
fe0100ffff01fe00fe0001feff0001ffff01fffeff01fffffe0000ff01fefeff00feff00fefeff0101feff00fe01fffefe00ffff00fefe01fe00ffff0100fefe
ff01ffff01ff00000000010000ff01ff00010001ff01feff00fe01fffe00010101feffff010000ff000001ff01fe00fffe01ff00fe000100fe00ffffff01fe00
0000fefe0100010100ff01fefffe00ff01ff0100feff0001feffffff0001fffe0001fffefffe00010000fefe000000fe01fffeffffff00fefefe0101fffe00ff
01ffff0001010001fefe01ff00ffff00fe00fefefe01000001ff0001fffe00fffe01010001ff000001ff000001fefffffefefffe00ff000001fefe000001fefe
ff00010000fefefe01feffff00fefe000100fefefe01fefffe01fefe0101fe00fefffefeff01feffff00fe0001fefffe0101fe01fffffeff00fe000001fefe01
0101fefefefe00fffe0000ffff01fe01000101fe00ff010001ff0101feff0101fe01000001fffe01ff00000101feffff00000100fe00fefffe000100fe01ffff
0000fefeff0001ff0000fffefeffff00ff01fffe01ff01fe0001fefefffffefe00fefffe00ffffff01ffffff000101feffff0001ff00fe000001fffefefefe00
000100fffeff0101fffefeffff01fffffffe0100fe00fffeff00fefe0001fe0000ff0101fe00ff01ff01000000ff00fe010001ff00fe00ffff0101ff000000fe
010101fe0101ffffff00ff00010001fe00fefffefe01fe01010000fefe010001ff00fffe0001ffff0001ffffff01fefeffff0101fe00feff00fffe0101010001
fe00fffefffeff00ff00fefeff010100fefeff00010000010101fffe0100fe000000fe00fffe0101010101ff010000fffe01fe00ff000000ff01ff0101ff01fe
ff000100ff00000101fefe00fe010000ff00ff0101fe00ff0001fffe0100ffff00fefeff000100ff01fffe01fe0100010000fe0000fffe0000ffff00fefe0001
01fffefe01fe01ff0001000101fffeff01fe00fefefe00ff00fe01fefe0101fe0000010000010101fefffffeff0100fffffefe01ff0100010101fefffefeffff
ff0000ff0000ff01fe01fe0000fe000100ffff00ff00feff0000010001ff0101ff01feff01010100fefffefffefffffeffffff00fefefeff0101feff0100ff01
00fffefefe00ff00fffefe01fffeff0001fe01fe00fefffe01feff01ff0000ff0100fe01fe01ff0101fffeff01000101fe00ff00ff0101fe000100feffff00ff
fefffe000100fe00010001fefefe0001feff01ff0101fefffe0000000101fe0100fe00fefe010100fe0101feff01000000ff00fffffeff010001fe00fefe01ff
