feff0101feff000001fefeff0000ff000101fe0101ff00fe00ff00fe01fefffefe0001ff01ffff00ff000000ffffff0000fe010000fffefe00ff000000000100
0100fefe00fffe0000fe0101fe0100fefeffff01ff000000fe00010001fffefefffffe010101fffe01fffefeffff0001fffefe00ff0101fe00ffff00fffefefe
fe01fe0100ff0101fffffffe00ff01000001010101010000fffefeffff01fefe0001fffe00ff01ff0000fefffe0100ff0000fffe00ff00ffffffffff00fe0100
01ff01ff0001fffe0100fffe00fefe0000fe000000ff00fefe00fffffe0000000100fe00ff00ff01fefe01fefefffefffe00fefe01ff00fefffeffff00ffff00
01ff0100fe00fefe0101ff0100010101fe0101000000ff01ff01ff010100010001ff0000000001feff01ff000101fe01000100feff01fffefffefefefefe00ff
fefeff01fe01ff010001ffff01fefe0000feffff00ff01fe01fe010101fe010101fffefefffe0001ff00ff00ffff00010001fefffe010100fffe00fefffe00fe
010001fefe0001fe01fe00fefffe00fe00fe01ff01feffff0000ff0000fe00feff0001fffefe00fe00ff0000fffe0001ffffff01ff0001000100000000000000
00fffeff010101fe01feffffffff0100feff00fe0000fe00fffeff0001fefe00010000ffff0100010000fffe000000fe0101fe010000010101fe00000001fe00
fe010000ff0100fe01fe00fe01feff010101fe00fe0100fe010001fefe01fe00ff01fffffefe01fefe00fe01fe0000ff0100fefe0001fe0000fefefe00fefefe
ff0100fe00feffff0001010101ff01fe010001fffe0101ff0101fefe01fefe01000101010101fe00ffff01ff00000001fe00000001fe0001fe01ff010101ff00
00ff000001010100fffffe000100fefeffff01000000ffff00000100ff000001ff00ff010101feffff01ff0001fffe01000101000100ff00fffffefe0000fffe
00fe01fffefffe0001fffffe0100feff01ff0100ffffff01fefefe00fffffe00ff00ff00ff00feff000101fefffefe01ffff01ff010101fffffefefefffffe01
fefeff00ff000101fe0101ff00fe01feffff01fffe01feff01fe01ff010100ffff00ff0100fe00ff00010101ffffff0000fefe01fefffe0100fffe01feffff01
feff00ff01fefeff0000ff01fffffffeff01fefffe000100fffefe01fefe01010001ff00fe00010000ff000001ff01fefe010101ffff01fffe00ff010001fefe
fffefe00fefffffe0000fffffe01fffeffff0001ffffff000101fffffe0001000101ffffff000001fe010000000100ff00ffff0100fe0101ffff0000fffffe01
fefefeff00ff01000000feff00ff01fffe00ff00fffe01fffe0000000101feff00fe01ff000000ff0001fe00fefe0100fefefe01fe0001fffffefffeff00ffff
