0000ff0001feffff00fe01fffffe00ff0101fefe01ff00ffffff00ff01ffff0100fefffeff000100ffff01fe01fffefe0100fe00fefe000101fe0001fffeff01
01fe00fefe01ff0100fe0000fe0001ff000000ff00fffe01010101ff0000fefe00fffeffff01ffff010100000101fefefefeff0000feff01fffefffffefffeff
01fffffffeff000100fffffffefefeff010000fe00ff01fe01fe01fffefefefe01ff00ff01ffffff00ffffff00ff010100fe00fffefffe00feff00010000feff
00010101ff00fffe0101ff000001ff00fefefffe01fe01fe000001010001ff0000fe00000100ff010100fefe01ff010100ff00fefefe0000feff01fe0000ff01
00fffe00010100fffeff01fe0100fefeff010000fe0000ff0001ff00fffefeff01ff0000fffe010101010101fffefefefefeff0001fe0101010100ff00000000
0001fffeffffffff01fe00fefffe00010000ff0001010100fe00ffff01fe00010100000100feff01fe00fefe00ff00fefffe00fefefefe00fe01ff00feff01fe
feff01fffe0100fefeff010001fe00fffffffefffe01ffff0000fffffeffff01fe01010001fe00fe01fefffefe0000fe00feff000101ffffff00fffe0001ffff
0001fffffefefe01ff01000100fffe00010101fffffe0100fe0001fe0000fffe00010000fe0100fefefe0101ffff00000000ff01fe00fe010100fefeff0101ff
fefeffff00fe0001fe0101fe00ff01fefffe00ff00fe0100ffff01ff010100fe0101fe0001feff00fefffefe01feff0101fe0000feff010100ffff0100010001
fffe010001fffefe0100fffeff01000100fe01ff0101fffefffffefeffff010101ff0001ff0101fe01ff010100000001ff00ff0100ff01ff00ffff0000ff01fe
ff00fffefe01fffeff01fefefefffefe01fe01ffff01fffeff010001fffefeff0001fe0100fe010101ff01fefefe01fffffe000101feff00ff00fe00feff01fe
00fe0100fffffeffff0000fefe01ffffff00fe01ff0001fe01fefffefefe0001fe00ff01ff0101ff01fe00fefefe00fffefffefe01fe0101ff00fe000001fe00
01fffe01fffffefe0000fefe010000fefe00feff0101fe01fffeff01ff01ff00fefffffefeff0100ff00fffe01fefffefe010100fefffe00010001ff00000000
fefffe0000fefeff01ff010001fe01fe00000000feffff000101fe00ffff00fe0100ffff01fffefe000000fe00ff01fefe000101fffefe00fe0101ff00fe0000
00fffffefe010001fefe01fefe01fe0000fe00fe01fffe01fe0001fe01ffff01feff0101feff01ff00fefffe0000fefffefe00fe000101ff00ff000100feff00
fefefefffe01fffe00fe01fffefeff01ff010100fefffe0100ff0000fe00010100ff01fffe01ff00fe01fe01fffefe0001ffffffffff0100feff01fefe01fefe
fe0000ff00fe00feff01fffe01010100fe01fffe0001ffff000100ffff00fe010001fefe0001ff01010001ff00fffeff0101ff010100fffffefefefffefeff01
feff0101fffe00fe0100fe00fe01fe00fe01fe00fffffe01ff0100fefe0000fe0100000101000001fefe0101ff01fe00feff0001010001fefefffefffeff0001
000100010100ff00ff00fffffe00010000010001ff01feff0001fefffefeff00feff0000fe01fe0001fe0100ffff01ff00ffffff0100fffffffffffffe00fefe
00fffefe00fffeffffff0100ff010101fffffe01ff0101ffff00fffffffffe0100fefe01000001fffefffe0100fffe00ff00fefe000101fe0001ff0100ffff01
01feff0001fe01ff000001ff00ffff00feff00fefefffe0101ffff00fefffe00fe010101fefe0101fe0101fefe010101ff00fefffe01000000010000fffefefe
ffffff0100fe00feff000001ff0001fefe000100fffe01ffffffff01fffefffefefeff0100feff0001fe0000fe0100fefefffe01fefffe00fe000100ff0001ff
fefeff01fe00fffffffffffffefffe00fefe01fe01ff01ff00010000fffe00000101ff00000000fefefeffffff0101fffeff0100fe00fefefe0100fefefefe00
feffffff01fe01ff0001fffffffffe00feffff0001010000000001fe01fefefefffe0100fefe00ff01fffe0000fe000100fffffefe0000fefffefe0000010000
