fe00ffff0000ff0000fe01fffe010100feffffffff00ff01fffefe0001010000fe0000ff00ff0000fffefffe0001feff010101ff0101ffffff00ff000001fffe
00fe01000000fe0001fe01fffe01fffeff0100ff010000fe00010000fe01fffeff00fe00fe0100ffffff01ff00fe0001fffffe01ff0101fe00fe01ff00feff00
fffe0100ff00000101000101ff01fffe01fefffe010100000100ff00ff00fefe010000fefefe0100ff00fefefffeff0101fffefe0000000101ff0001ffff00ff
ff0001ff0001fe01fe010001fe01ff01fffefe00fe01feff0100fffe000100010100000001fffeff000101ff01fefefe00fe010000fffe0001ff01010100ffff
fffe000100ff01010100fefe01fe0101fefe0000ff000000fe01010001ff00fe01fe01fe01feff00fe0101fffeffff00fefefefe00fffeff0000fffefeffffff
0100010101fefffefffe00fe0001fefe00ff0101fe010001feff00fe0001fefe00fefffffffffe00ff0001fefe01ffff0001feff0001ff0000feff00fefe01fe
ff00fffe01ff01000101ff010101fffe01fffffefffefe01fefe000101ff0100fffffe0001fffefe00fefe01ffff0001ff010100ffff01fefffe00ff01fffe00
ffff01fe00fffefe01ff01fefffe00ff01fe0101fffffeff01fe0001fe00ff010101fe01fe01ff010101000000fefe0001ff010000010001fffffffe000100fe
ff000100fefffeff01fefefe0101fe00fefe00fe010101fffffe00ff000001ffff0100fe0000fefffe01fe000101fe01010100fe00ffff00000001fffe010101
0101fefffe00feff0000fe0001fe0101fe01fe0100ff01ff00ff000100ff00ff0001fefffefe00fefffe000001fffefefefffffffe00fefffffe00fffe010001
ff00010100fe01ffff01fe000000ffff0001010100ffff00ff0100ff00fffffefeffffff0100fe010100fffe01fe00000001ffff00ffffff01010001feff01fe
fe0000ff0101ff000101ffffffffff01feff0000fe00ff00fefefefe00fefefefefe01fffe00fefe0101ff01fe00fefffefe01ffff00000101010101fefffffe
01ff00ff01feffffffff0100feffffff01fffefffe01fe0100ffff0001fe01fe01fffefffefffefe000000ffffff01ff00000001fffffe01fefeffffffffffff
ff0000ffff0101ff0000fe0101fe00fe00ff00fffe01feff01feffffff00fe00fe01fe010001000000fe010100feff01ff01fe00fe01fe01fe01fe00fe0100fe
fe00010100ff00fffeff00ff01feff0001000000fe00010001ff0000fffffefefefe01fefefffffe00fe0001fe0100feff0100feff01fefeff00fe0100ff0100
fefefe00fffefefe0101fffefefe0000fe000100010100ff010001010100fe00ffff00000001fffffefffffe01ff01fe00010100fefefe00fefefe0001fe0000
