00ffff00fe00fefffffeff01ff0001feff0001fffffe01fe0101ff01fffe0101000100fe01fe01ff00fefe0100000100fe01feff01fefefe0100fe00fe0000fe
01fe01fe0101ffff01fefe01feff01fe0101ff0101ffff0000010000fefffe000001ffffff01fefe01fe0100fe000001fffffefe00fe00fefe010001fffefefe
00fefffefffeff0000fffe000001ff00ff0101fe00fe000101ff0001fefe0100ff0101010100ff00ff01fefe01ff01fe0001fffe00ffffff0001fefefeffff00
0101ffff01fe0000ffff00feff010101fe01fe0000000001ffff00fffeff01fe01ff0001ff000000ffff00fffffe0100feffffff01fefffe000000fe0001ffff
