ff01ffff00000101fe0100ff0100fe01feffff01fffffefe00ff0101fefefefefe01fffefefefe01feffffff0100fe01fe00fffffefeffffff01fefe000000fe
01fffe01000001ffffff00fefefe01fefe0101fefe0100ff01ff01fffefe0000ff00000000fefefe01010100feff01fffe00ff01fffe01fe0000ff00fefe00fe
fffe0101ffffffff0001fe01fe0001fefe01fefe00ff0001ffffffffff00feff00fefffeff00fffe00feffff010000fe00fffe0001010000fe01ff01fffeffff
ff0101ff0100fe0100010000fefefefffeff0100feff00fe00ffff000100ff00ff00fe01ff0101feff0100ffffffffff010101fffe0000feff0101000100fefe
01000101fefe00000000ffffffff00fffffe00fefffffefe0001feff01fffffefe010000fefefffe00fffe0000fe0000ff01fffefefe0000ff01fe00fefe01fe
fefefe0001010001fe00fffeff0001fe00fefe00fe000000fe0000fefe01fe01ffff01feff0100fefefffe01ffff0100ffffff00fefefefefffefefffe01fffe
fefffeff01fefefefeffff010001fefe00fe010000fe00ffffffff000001000100fffffe00fffe01fe000101fe0000ffff01fefeffff00fe00fe00fefe010100
0001fe00fefe00feffff0000fe01ff00fffffe01fe0100fefffefefe00fffefe01ff00ff0101010001ff00fe01000101ffff01ff0000feff0100fffe00feff01
fe010101fefefe01fe00fe000101fe010100010100fffe01feff01fe0000ff01ff01ff010000fe01feffff00000000fe00ff0001fefe0000000001ff00ffffff
0000000100fe0001010001fefe00010100ffff01fefefe0000fe01ff000100fefefe00fffffefe0100fefe01fffefffefeff00ff00fe0001ff00fe00feff00fe
00fe0101ff0100ff00fffffffffeff00fefeff00ff01ff0100fe00fefeff01fefefe0101ff01fe00feff01ff0101fe0001fe0101ff01ff01ff0001fefe00ff00
000100feff010101fefffeff01fefffeffff00fefe01000001fffe01fe00000100ffff0101fefe00000100ff0000fffeffff0100ff00ff0001ff0101fffe01fe
fefefe00feff01fe0000fefe0001fffffffefffffefe01feff00fefe000001000001fe0001fefefe01ff0100ffff00ff0101feff0000fefefe01ff000100fefe
01fefe00ff01fffeff00000000fefe00ffff00010100fefffefe000100fffffe01fefffeffff00fffefeff01ffff00fe0000010101fefe00ff000101fefe01ff
000000fe01fffffefefefe01fe01fe0000ff0000000001fe0001fe00fe01fefefe0100fffe0001ffff00feff0100fefefe01fefeff01fffe0100fffe00010101
01ff000100fe00ff0001ff00fe01000000fe00fe0000010000fefefe00fffffffefeff0100ff00fe0000ffffff010101000001000101fe0000fffe00ff010100
