01ff00feff01feff00fe0001010100fefffeffff00feff0101fffffefffeff0101010101fe00000001fefe00fffe00fe0000ffff01ff01fefe01fffeff000100
0101feff00010000fe01ff0100fffefe01ff0001ff0001fe00ff010101fefffffeffffff01fffeffff01fefeff01fffffe010001fe00fe0101010100ff00fffe
ffff01ff0001fefffeffff01ff0001ffffff0100fefe01fefffefefefffefeff0101feffff01fefefffe0101010101fe0000ffffff00ff00fffe000101ff0000
01ff000101ff00fefefe000101ff01ff0000ffff000100fe00fffffe00000101fe000001ff00ff00fefe01fffefefeff01feffff00feffff000100feff00fe01
