fe0101fe01ff0100010001fe00feffff0101fffefefffefefeff01feff00ff010101fefe01fffffefe00000000fffe0100fe000000000101000000fffe00feff
fffffffe01fefefffefe00fe0000ff01fffeff01ff01feff0000feff0001fe0100ff00fe0001ff01ff0100010001fe00ff00fe0101fe01000100fe00fefefefe
000100fffe00ff01fffe01fffffeff0100000000feff0000fffe0100010000fe0000ff00fffe00fe01fefefeff00fefffe00ff01ff0100010101000100010100
fefffe0101fe01ff00fe01fe0000fffffefefe010001ff0001fe01ffff01ffff0100fe00fffe0100fe01fefeffff01fefe01fe0101feffff0100fffefe0101fe
