000100fefe00fefffe00fffe01fefeff01fefeffffff0000fefe00fe00fffffefe00fefe01ffffff00fe0101000000fe010100ff010101fffe01fefeff000101
00fefefe00fefeff00feff000100010101feffff00000100fffefeff01ff0001000101010001fe00fffeff010101ff00fe01fffeff0100fefe010100fe000001
000001fe0001fe0100fffe000101fefffffe00000001feff01fefffe0101fefe0100ffff0000fe0100010100ff01ff000000fffffffe000100feff0101ff0000
01ff01fffe00ff0101fefffe01ffff01feffff00fffefefefeff00ff01fe00fe01010001fffeff0001fffffefefffffe00fffe01ff01fe0101ffffff0001fefe
