00fefe01fefeff00fe000000fe0001fe01ffffff00feff000000010001000000fffe00fffe010000ff00ffff010100fefefe0101fffefffe00ff00fe01ffff01
00fefefefffffeff01fffefffefefe0101ffffff000100fe0100feff01fefe01ff01fffefffefffe01ffff00fffefe010000fe0000ffff00000001feffff0001
fffffefefefefffefefe01010100fe0100ffff00ff0101010100010000fefeff01fe0001fe010000ff01000001feff01feff0000fe00ffff0100fefefe01fe01
fffe01fffefeffffffff00fe01fe0100ff01ffff00fe01feff01000101ff0100fefe0101ffffff00000101fffe0000000000fefe01fffefefe01fffefffeffff
fe01fefffffffffffefe01ff01000101fefefe00fe00fffeffffffff01fefe01fffefe010100ff00ff0101fe0001ff00000100fefffe01ffff010001ff01fe00
fe00fffe00fefefe0000010100ff00ffff0100feffff00000001ff01fe00fefe01fffeffff01fffefe01ff01000000fffe01feff00feff00ff00ffff01ff00ff
000100fefe01feff00ffffff00fefffeff0000fe00ff010001ffff01010001feff01fefefe01010101fe0101ff0001010001feffff00fe000100ff01010000ff
feff00fffefefefeffff00feff0101ff01fefe01010001fe00fffeff0100fefe01fe0000ff0101ff01ff00fefffefe000101fe00fe00fefe00ff010100ff0000
00000000000000000000000000000000000000000000000000000000000000000000000000000000000000000000000000000000000000000000000000000000
fefe01fefe00fffffe010101ff01fefefffeff00010000fe00fffefffe0101fffe0100fefefe000001fffefefefefe00fffe01fe0101fe01feff00fefffeff01
fffefe01fefffe01fefe01000100ff00ff00010100010000feff0100fffffffffe0001fe00fe01fe01fe01ff00000101fe00fefe01000001fffffefffffffeff
fffeff0100ff01ff01fe01feff0001fffe00fefe010001000001ff010101fe01fe00fe01000101ffffff01ff010001feff0000000101000000fe00fefffffefe
0001fefeff00ff01fffffffe000000ff01fefe00fe0100fffefe0101fffe0100ffff01ff0101fffffe01fffffe000100feff000101010100000001fe0101ff01
00fffffefe00ff00fe010000010000fffe00ff0100fefeffff00ff00000100fe01ff0101fefe00ff0000ffff0101fe0000000001fffefefe00fefe0100fe0101
010100fffefffe01fe00feff0100010000ffffff00ff0001fe0001fefeffff0001fffffffffe01fffffffefffeffff01ff01fffe00feffff000101fe00ff0001
fffffffefffe0001fefe0101fffeff0000fffffe0100ffff01ffffffff01fffefe00fe0100000100000000fefe01fe0001fefe01fffffe01fe010001ffff01ff
feffffff01010100010100ff0101ffff0100000000fe01fefeff010001ff000100ff01feff0001ff0101fe0001fffefe0100fe000000fe0101fefffe00ff01fe
00000000000000000000000000000000000000000000000000000000000000000000000000000000000000000000000000000000000000000000000000000000
fffe000101fefffefffe0001000101fe000100fefffefefefeff0001000001fefefffefe00ff01fffe0000ff010101ff0001000101fefe01ff00fefe0000ff00
fffe0101feffffffffff00ff01010100ff0001010000ffff010101fe010001fefefffeff00ff00ffff010001feff0101ffff00010001feffff01ff01ff0000ff
0101fefefefefffe01000101fe01fffffefefeff01ff00ff01fefe00fffffefe01ff00fefeff0101feff0101ff0000fffe01fe01ff0100fefefeffff000000fe
fe01fe010101fefefe000001ff010101fffefffffe01fe0101feff01ff0101ffff0001ff00fefe01ff01fe0001010100010001fffefe0000fffe01ff0000fe00
ff00fe00ffff01fe00fe0100fe01fefefe0001fefefe00ffff01000000fe000101fefefefffffe00ff0100010100fe01ff01ff00fffe01fefefefe0101000101
fffefffe01010001fffe00fe010000fffe0000ff0100fe00010000ff00ff00fe00ff010101010101010100fe000100fe000001ff0101000001000101fefe00ff
fe000101fffffeff01fefefe01ff0001ff00feff01fefefffeff00fe010000feffff0100fe0000feff01fefffffefffe00010101fe01000001feff01ff01ff00
01fe010100ffffffff01000100fefffefefeffffffff01fefe01000101fefffeff0000fffffefe0000fe000000ff01ff00ffff0100fe01010000fffffffeff00
00000000000000000000000000000000000000000000000000000000000000000000000000000000000000000000000000000000000000000000000000000000
