0101fefefe0001ff01fe0000fe00fefffefffffefeff01ff00fe0101fffffefffffffefffffe01fe00fffefe0100fefe010001fefeffff01ff0000ffff0100ff
ff000100fe00ff01fe00feff0101ffff0001ffff0100ff01fe0001fe01fe0000fe0000ff0101feffff01feff0000fe0100ffff00ff0000feff00ff00fe00feff
0100fefeffff0100000000fe000000fe00ff00010100fffe01010001ffff00fefeff0101ff00fe010101fe01fefe01ff01ff00ff01ff000001fe01010101fefe
fefeffff000100fe01ff0101fffefffffe01ff000001fefe0001fffe00ff01ffff01ffff000000fefe000100fe00fe00fe0000ff0001fe00010100feff01fffe
