00fefefeffffff0100fe00ff0101fe00ffffff00fe01fefeff00ff0101ff00fefe01fefe000101ffff010000ff0000fefe00feff00ff01010000fe0001fe00ff
01fe00fe0000010101ff01ffff00ffff010101fe010000feff010101ffff0101ff0001fe00feff0100fe01ff000000ff00fe01000000fe00fefe000001ff00ff
feffffff01fffffeff00ff00fe0101ffff000101fffffffeff01ff00ff0001fe00fe0101fefefe00000101fe00fffefefe00010001fefffefffe00fefefefffe
010000010000ff0001fffffffeffff01ff0000ff0001feffffff0001fffefe01fe00fe0000fe00fe00ff01ff0100fe00ff01ff0000fe000000fefffefe0100fe
0001fffe0001fe000100fffffefffeff00ffff01fffefe00ff00ff01fefffffe010101000000010001000100ffff01fffe01fffe00fe00fffe0100ff00feffff
feff0000fffe01fe01ff0101fe000001010101ffff000101ff00fe0001ffff01fe00fe0000ffffff0001fffefe0001fffffe00fe00fffffefe01fefe0000feff
0001feffff0000fffe00fe0001fefefeff0000ff0101fefeff01ff000000ff0101fe01ff00000101ff01ff010000ff0000ff00fffe0000ffff01ffff01ff0101
0100fefe01fefe0000ff000000010001fe0100010100ff0000010000010100fffe0100ff01fe0101ffff01feff00fefe0101ff01fe00fefffefeff0001010000
00000000000000000000000000000000000000000000000000000000000000000000000000000000000000000000000000000000000000000000000000000000
010100fffe01fe0100ff0101fefefeff01fe0001ff01fffe01fefefefefffffe010001fe01fffffffeff0001feff01ffffffff000101fe01fe01feff0000ff00
feff00000100fe000000fe000100fffe0000ff00ffff01fe010001fe0001fe00000000fefffefe01fe00ff0001ff01ffff00fffffffefffe01fefe00fefe0000
fffefffe01fe01ffffffff00ff01fe00fe000101ff0101fe000001fffe00fefffe00fffffe0001fe01feff0101fe01fe01fe01fffe01ff0000feff0000000001
01fe00ff00fefe00feffffff00ff00fffeff00ffff0100ffff00ff00feff01fffe01ffff01ff0000fefffffefe01ff000000fefe0101fefefe0000fe01feff01
ff01ffffff01fefffe01fefe0000ff0100fefe01fffe01fefefe0001fe00ff01fefe00feff0101fefe00ff01fefefe010001fe01fffefe0101fe01fefe00fffe
fffe01feff01fffefe00fe01fefffe00000001fffefffffefefffe01feff010001feff0001ff0101feff01fefeff0001feffff01fe01fe010101fe010000fffe
feffff00010101010100fe00feff0000010100ff01000000fe0101000000feff0000fe00ff0001feffff00fffe000101010100fefefe01fefefe0100fe0000fe
01fe0101fe010101010001fefefffe0101fefeff01ff01fefeff00010100ff01fe0101000000000000ff01fe0101fe00feff010101fefe0000fe000000010001
00000000000000000000000000000000000000000000000000000000000000000000000000000000000000000000000000000000000000000000000000000000
01fe000101feff01000101010100fe01fe00ffff0101feff00ff000001ffff00ff0001fe0000fefffe00fe01feff01ffff0000fffffeff01fe00fe0101fefeff
ff00ffffff00ff00fe0001fe00fe01ffff00fe01fffffe0101ff0001feff0000010100fffeff00fefeff010001ff00feff010000fffe0000feffff00ff01ff00
01000101ff0001ffffffff010001000100fe01feff00fe0101fe01ff0101fe0001ff00feff0101ff00fffffe010000000001fffffffe01fefeffff01fffeff01
fefffffeff00ff01000001010100000001fe01ff00ff01fffefefefe00000100fefefffffe0101fe01fffe00fffe000100ffff00fefeff01ff01fe01fe01ff01
ff010001fffeff00fefffefe000001ff0101fffe01ff00ff000101ff0101fffe00010101feffff01fefffeff00fefe01010100ff00fefefe00ff01fe00000100
feff00fffeff00ff00ffff0001ff01fe010001fe01fefefe00fe01fefe00fe000101ff0101010101fefefefe00fe0100fffffefe0100fe010101ff0001ffffff
ff01ff00ff00fefe00fe01fe01fe01fefe01fefffffffefefeff000100fffefeff00ffff0100fefe0100fefffefe00ff0001fe01ff010101fe0000fefe00ff00
feffffffff01fffffe0001ffff01fefe01ff0100fe0101fe01000000ff01feff00010000000000fefe01ff010001fefe01fffe01ff00fffffefffeff0001fe01
00000000000000000000000000000000000000000000000000000000000000000000000000000000000000000000000000000000000000000000000000000000
