fffe01ff01feff0001ff0000fe00fffefffeff000000feff0100ff01fffffffffe01fffe01ff0000fefffefefeff0000ff010101fe0100000100000101ff0100
01fefffffefe01fefe00fffefeff0001feffff0000fe01feff01feff01010000fffefe00000100ff01ff0101ffffffffff0101fefe00ff000101ffff01ff00fe
fffeff00ff00fffe010001fffefefffefe01fe01010000ff01feff0100fffe00fe0000fe01ffffffff000101ffffff00fe01ff0001000101fe0001fffeffff01
fefe000001fe01fe010001ff01fefffffefffe01fefe01ff00fefefe0001ff00feff01fffffffefefeff00fefefffffffe0001fe010000fe0101fe010000ff00
fe01000000fe0100fffffffe010001ff01fe01000001ff01fffefeffff000001ffff01ffffffff010100ff00ff01fe00fe01ff0000feff00010001010000fe00
fffefffefefffe01fefe01fe01fefffe0100ff00ffff0100fefe00ff01ff01ffff0001fe01fe00fefffffefeffff00ffff0001ffffffff01feff01ffffffffff
01010101fffffe0000ffff00fe01fe01fe01ff000100fffe0000feff0001ff01fe0100ff0100fffeff0100000101ff00010000fe00feffff0101fffefeff01ff
fefe01000100fe01fe0100ff00fe000000000001ff00fffeffffffff0000feffff00ffffff0100010000fe0101fffe01fe01fe000001fffffefe010001feff00
01000000fefe0000fe0001ff0001fefefe0000ff010000ff00000100feff0100fffe0101ff01ff0000ff01ff01fefefe01ff0101feff0101010101feff000001
01fffe000001ff0100fe01fffeff00fffeff0100010101fffffefe01ff00fe010100fffefeff00ff000001fe00fffffffeffff0000000001fe0101fffffffe01
fe01fe010101fe01fe01fe01ff01fefffe0000fefefffffffeff00ff0001000000fffe0000fe0000ff01ff00010001fe0001ff01fefe01ffffff01fffefe01ff
00ff0101000001fefeff01fe01fefefe00ff010101010101ff01fffe0001fe01ff00fe01fffe01fe00feff00010101fe01fe010101fefefe01fefefe01fefefe
fffefffefe0101fefeff0000feffff0000fefe01feff010000ffff00ff00ff00fefe000000fefefe00ff0100ff0001fe010100ff00ff00feff00fe00fffefffe
ff01ffff0100fefffe0000fffe01fffe01fe00ffff0000fefe0000ff01ff010101ff0101fe00010100fe00fe0100fefffffefffffe00010001fefffeff01ff00
01fe00fe01fe01fe0001ff0000fe00fffefefefe000101fe00fffeff000001feff01fffe01ffff01fefffefefeff0101fe00fefefe00ffffff0101fe01000101
01ffff0101ff01ff00feff0101fe01ff01fe01fefe00fefe01000101fe00fffe000001ff00ff00ff00fe00fe01ff000101ff01ff01fe010100ffff00fe01fe00
01ffff0000feff0100feff00fe0100000101fffeff01fe00fe01000000fefefffe01000001ffffff01feff00fffe0100ffff00ff0000fe00ff00010101fefffe
ff0101fe01fe000001feffff00fefefeff00000001010100fefefe010101010001ff00fefefffffffe01ffff01fffffe01ffff0100ffff0100feffff0100fe00
00fefffefffe0101fefffefeff01ffff01ff000101fffefffffffefeff00fefeff0000fefffe01feff01ff01fefefe00fffe00fe00ff000100fe01feff00fe01
fe00000000000000010100ffff01fffffefefffefe01fefffffffe01feff00ffff000001000101ffff0101010101ffff01fe01fffeff01fffeff0000ff000001
010000fe01fffffefefe0001fe0001ffffff00000000ff00ff000000fe010100fffe010001ff00000000ff01feff00ff010000000001feff0100feff01fffefe
ff000000000101feff010001000000fffefe01fe0101fefe00ff00ff00ff010100010100fe01fe00000001ff01ffff010000ff0101ff00fefefefefffefeff01
01fefefe00fe000001feffff000100ff00ffff00ff000001fffe01fe000001ff01fe00ff000101ff01ff01fefe00fe0000fefffe0000010100fe00fefffe00fe
fe01fe00ff0100fe0000fe0100feffff0100010101ffff00fffefefffffefffefffffe00fffefefe01ff00ff00fffffe0101000001fefefffffeffffff01fe01
