01000000ff000000feffff01ff0101ffff0000ff0101fe0100fffefffefffe0100ff0000ff000101feff000100000001fffefe0100ffff00fe01fe00ff01fe01
000001fefffe01fe010100fe000001fefffe0001fefefe01feff010100fe01000001fffeffff0100fe010100fe00fffe00fffeff0001feffff00ffffff000000
0100fffffffe010101fefffe000000000101fe01fefe00010001000001ff01fe01fffffefe0000feff00fe00fe00ffff00ff0000fe01000101ff0001ff0101ff
fe0100fe000101fefe01fffe010100fffe000100ff00fe00fefefefe0001ffffffff0000fffffefe01fe0001ffff01ff0000ff010100fefffe0001fffffefffe
00fffefe00feff01ffffffff0101fffefeff00fefffefefefe01ff00ff000101fe010101fffffeff01feff00010101fe000100000000ff00ff0001010001fefe
fefe0100fe00fe00fe01fefefffefefffe00ff0000010100fe00000100010100ff00fffefe0001fffffffefe00ffff000101fffe01ff00fe00ff010101000001
01fe0001fffefe01ff00fe01fffe01fe0000fffffeff0101fefffe00ff00fffefffeff0000000001fe0001fe01fffe01fefffe00fe000000ff01fe0001fefe01
00feffff0000fe00ffffff01fefefe01ff00fefffe0101feff01feff0100ff00fe00feff01010101fe00fefeff00fffefe00ffffff0101ff00fefe01fe01ff00
01fe0100fefefeff000101ff00ff01ff0100fe01ff00fe00ffffffff01fe010100fffefe00fefe00fefffe00ff0001010100fe00fefefefe01feff00ffff01ff
ff0100fe010000ff01fefefe000001fffeff00feff01000000ffff0000ff0001ffff0000feff01fe0001ff01fe000000000000feffff0001fffefefe0000fefe
fe010101fe01fe00fefe0001ff01fe00fefe01fffe000101ff00ff01ff0100010100fefefefefffe0101fffefffefe000000fe0001ff00fe0101fe00fefe0001
fe000001ff01ff0001fe01000001fffffeff00fe0000feff01ff00ffff00ffff00fefe0001ff00fefefe00ff00fffe01fefe01ff0101000100ff01ff01fe0001
01feff0100010001fe00fffffe000101fe00ff00ff00ff0001ff0101fe000101ff00fefffffe0001ff00ff01ff0100fe00fe0101ff00fe01fffefefffe01ffff
0101fe0000fffe0101fffe0101fefefe01fffe01ffffff01fffffeff01fe00ff00fe00000000fefffefe00fffefefefefeff01000000ff0001feff01ff01ff01
00fffffefe00fefe0101fe0101fe00fffffffe0000010100000101fffeff0000fefefffffe01fe0101fefffe00fffffe0000ff0100fffefefefe0101fffeffff
ffff01feffff000100ff01000000ff01fefefe00000000fe0101fe00000001010000fffe000101ff0000fefffeff01fe00feff0100fe0100010100fffe01fffe
