feff0000feff0101fffffe01ffffff0000fffe010100fefeff00fefffffefe01fffffe01fefe00fe00fffe01ff0000ff00fe00fe01fefefffefe00fffeffff01
fe01fe01000001ff01ff0101fefefefe00ff01000001fe01fe01fffe0001ff0100fe01fefe010101ff01ff0001fffe01fefe01fe0100fe00fffeff01ff000001
fefe00ff0000ff01fefe01fe010100fefe01fe0000ff01ffff00ffff01ffff0101000000fe0101fe00000001fe0001ff0000fefe0100ff00ff0101fffeff01fe
0101fe0001fe0000fffefe01fefffefe00fe01fe01fe0101000001feff000000000000feffffff0000fffffffe000000fefefe01fe01feff01fe01ffff000101
fe00fe01fffffffefe0100ff01fe01ff010100ff01ff0000fefffe0000ff00fe00ff010101fefeff00feff00ffff0000feff01ff000101000100fe0000fe0000
fefefe00fe00fffe00ff0000fffefffe0101fe010001ff01ff00ffff00ff00ff0001fe000000fe0100ffff01fefffeff0001fffe00fffefefefefe0100010101
ff010100ff0101ffffff0101ff00fffe01000000000100fe0001fffffe00fe0101010001feff00fffe0000010100ffff00feff010001fffe000101000001fe01
00ffff000101ffff01fe00ff00fe000100fe010100ff01000101ffff0000000100fffefeff00fe00fefefffeff0101fe0100fffeff0001000001ff00feffff00
ff01fffe010101fefffffeff01fffeff01feff0100010100fefffe01ff0101fffe01ffffff01fffffe00ffff01fffeff0101000101ffff01fefffefeff0000ff
ffff01fe00010101fffffefeff0001fe00fe01ff01fe01000101000100ffff010000fefe000101ff00ff0000ffff0001fffffeff010100fefeff01fffefeff01
ff00ff00ff0101fe01fe000001ff00ff0101ff000101ff0001feff01fefffe00fffffefe0100fefe01ff00ffffff00fefefefffe00fe00ff01ff00fffffffeff
01010100ff01fffeff01fe01ff0100fefe0001ff0001fe01fefffe01fffeff01fffefe01feff01fefefefe0101fe0101fefefe01fe01ff010000ff00fe0000ff
000101ff01fffeff010001fffe0001ff00fefffeff00fe01fefefe0000ff0000fe01ff000001fefe01fefe01fe0101ff00fe0001ff000000ff0000ffff0100fe
0000fffe0101fe010101ff00010000010101fe0100fffe01ff00fefe0100000001fe00fefe01ff000000ff0100fffeff01fefffffeffff01ff010101010101ff
01ff01fefefefefefefffffe01fefe01ff00ff0100fe0000000101010100ffff0101ff01ff00fefe00fffefffeffff01fefefe00ff01fe0001ff01fefe00fffe
ff01fe01fefe00ff0001fffffe00fe01fe00ff00ffff0101fe00fefefffffe00ff01ff01fefefeff01fe0100fefefefe00ff0000ff0001fefefe00fe01000101
00000000000000000000000000000000000000000000000000000000000000000000000000000000000000000000000000000000000000000000000000000000
00000000000000000000000000000000000000000000000000000000000000000000000000000000000000000000000000000000000000000000000000000000
00000000000000000000000000000000000000000000000000000000000000000000000000000000000000000000000000000000000000000000000000000000
00000000000000000000000000000000000000000000000000000000000000000000000000000000000000000000000000000000000000000000000000000000
00000000000000000000000000000000000000000000000000000000000000000000000000000000000000000000000000000000000000000000000000000000
00000000000000000000000000000000000000000000000000000000000000000000000000000000000000000000000000000000000000000000000000000000
00000000000000000000000000000000000000000000000000000000000000000000000000000000000000000000000000000000000000000000000000000000
00000000000000000000000000000000000000000000000000000000000000000000000000000000000000000000000000000000000000000000000000000000
