fffefffffefe00ffff01feffffff00ff00fe000100fe01010100010100fe010101ffff0001010001fffe01ff010001feff010101000100fefefefeff0100fe00
fe0000000101ffff00ff00ffffff01000100fffffffefffefffefe00010001fefffe01010101fffffffe01fffffefe00fffe010000ff00ff0100010100ff0101
fefeff00fefeff0100fe01fffffffe01fefffefe01fefeff0101fffeff0001fe00fefffe0100fffefe000000fffffe000101ffff01ffff0100ff0001feffffff
ffff0001ff01fffe00ff010101ff010101fe010101fffefe00fe01000101fffffe010000fefe00fefe0101feffffffff01fe010000ff00ff0000fffffe01fe00
fffe000101000100fefefffffe00fffe01fe0001fefefffefe0001feff01fffe00fe00ffff0001ff01fe000001fffefe00fe0001fe00000100ff01fefffe0101
ff010101feff01ff01ff00fe000101fe00ffffffff00fe010101010000ff0100010100ffffff0100ff00000000ff00fefffefefefeff000001010000ff00ff01
00000001ff01000101fefe00fe01feff01fffeff010100ff00feff00fffe00ff00fefffe010001ff01feff00fe01fefe010000ff01fefefffe0101fffffefffe
01fefffefefefffefffeff0001ff000001fffffeff01fefffefeff01fffefefffeff00ffff00ff00fe0100ffff000100fe00ff0001ff000101fffffe00010000
00000000000000000000000000000000000000000000000000000000000000000000000000000000000000000000000000000000000000000000000000000000
000101fe0101ff0000feff00fefe0101000000fffffe0101fefe010000ffff01010101010101feffff01000100010101ff00000100ff00000000ffff0001ff00
0001fe00010100000101fefffffffe0001fffe01fe00fe00ff01ff0100000100000100fe0001fe010101ffff0100feff0000000101fe0100fe01fffffe0100fe
01ff00feff00000000fe01ff010100ff01fefeff0100fefefeff000000ff010100ff00ff01fe00fffeff01000001ffff01fe010101ff0000000101fffefffffe
fefffffeffffff000000fe00fe010001fe0001fffffefe0000000000ff01ffffff00ff01ff0000010000ff0000feffff00fe01ff00fffefe01ff0101fefffeff
0100fefefffe000000feff00ff01ff0101ff01fffffe00fefffe0101fffffffe00fffefefefefffffe01ff01ff01fffffe0001ff01010001ff00fffe00010000
ff01ffff000101000100010001fe01fefffefffefefffefefe010100ff01fffe01ff01ff010100fe000000fefe0001ff00ffff000001feffff010100ff0001fe
0100fefeffffff010001feff01ff0100ffff0101ff00ff010100fe0001000100000100fefeff01010000ffffff01ff01fffefefeff01ff00feff00000101fe01
000001fffe01ff01fe01feff0001010101fefe000101010100fefe01fffe0001feff0000fefffeffff000101feff000100fe0100fe0000ff00000000010100ff
00000000000000000000000000000000000000000000000000000000000000000000000000000000000000000000000000000000000000000000000000000000
00000000000000000000000000000000000000000000000000000000000000000000000000000000000000000000000000000000000000000000000000000000
00000000000000000000000000000000000000000000000000000000000000000000000000000000000000000000000000000000000000000000000000000000
00000000000000000000000000000000000000000000000000000000000000000000000000000000000000000000000000000000000000000000000000000000
00000000000000000000000000000000000000000000000000000000000000000000000000000000000000000000000000000000000000000000000000000000
00000000000000000000000000000000000000000000000000000000000000000000000000000000000000000000000000000000000000000000000000000000
00000000000000000000000000000000000000000000000000000000000000000000000000000000000000000000000000000000000000000000000000000000
00000000000000000000000000000000000000000000000000000000000000000000000000000000000000000000000000000000000000000000000000000000
00000000000000000000000000000000000000000000000000000000000000000000000000000000000000000000000000000000000000000000000000000000
00000000000000000000000000000000000000000000000000000000000000000000000000000000000000000000000000000000000000000000000000000000
