01feff000001ff000000fffeffff00fefefe01ff0101fe00fefefe0101fefefffffeff00fe00ff00fefffe01fe0101ff01fefe010001ff01ff01fefe00feff01
010001feff000100ffff0000fe000001feff00fefe000001ff0101ff000000000101fffe00fffe01ffff00ff01fffffefefe00000000ff000001fe01fe000100
fefe0000fffe000000fefefefeffff010001fefefe01fe010100fe00000000fffe0001ff01fe00fefefffefefe0001fe01fffeffff000000fe0101fefeff00ff
00feff01fe0100ffff0101ffff0100ff00000001fffffe01ff01fe01fe0001fe00ff0001010001010000ffffff00ff01ff01ff01ff0001fe0000fe010100fffe
