fefffe01fffe01fffffefe0000000000ff00000000fefefe0000000100fe01feff01ff0100ffff01ff00fefe0000fe000100010001fe0101fe01fe00010000fe
01fe00000100fe01000101ff01fe00feff0001fe0001fffefffefefeffff0000fe01000100ffffff00fe00fefefffe00fe0001fe01feff00feff01ffff01feff
fffffefefeff0000ff00fffe0000000101fe01fefefefffffffe01ff0101fe00fe0000010000ff01fe0100ff0100ff00fffe00fe0100feffff0101fffefe01fe
ff00ff010101fefe0100fffefffe000001fe0000fefeffff010100fefffe00ff01ff00fefe0001fefffefffe00000100fefeff00010001fffe00ffff01ff0001
fe00ffffff0001feff01fe0001fe0101ff01feffff00010101fe0001ff01ff00fe0101fffeff0101ff0000ffff00ffff00ff000100fe00fffffefffe00feff00
fe0001000100000000ff000000fffffefe00000000fffe000100010101fffefefe01ff0101fffe01fffffe010100ff0001ffff00ffff00ff01ffffff00ff01ff
000000ff01ff01fefffeff01000101010100fe01fffe0101000101000001fefe00fe01fefefe01fe00000000fefe010001ff01ff00fe01ffff01fffeff00fffe
01000001fe0000fefffffe00fffefffffeff0101fe01ffff0000ff000001fffefffe01000001ffff00ff00ff00fe010101ffffff0101ff010100ff0101fe01ff
00010101fefefe01fffe00fe00ffff00fe00ff01fffe0100fe01ff0000ff00ffff01ff01feffff01fe00fe01ff01ff00fefe01fffe0001fefe00fe0000ff0001
fe00ff0101fffefeff010001ffff00feff01feffff0101fe01010101fefe0100fefe000001fffe00fffe01fffe000001fe0000fefffe00fe0000fefefefefe01
01ff0000fefe000101ff01ff00000100fffffe000101fe01feff01ffff00fe010100ff01fe0000fe00fffffe00fefe0001fe01fe00ff00fe01ff01fefefffe00
ff00fe0001ff00ffffff0100fffefefe01fefefefffefe000000fe01fe000000ff010001fffefe01ffff0000feff0000fe0101ff000100ff00fefefffefffe00
0101feff00fe0000fffe00ffff00000101fefe01ffff00fe0100010000fe0100feff0100fffeff00fefffe01fffefeff010001ff00fffeffff0101fefe000100
0100fe0100fe00fefe000001000101ff01fffefe0101ff00fefffe0100fffe00ff00ffffff01ffffffff0100ff0101fffe00fe00000100ff00feff00feffff01
feffff00ff010100ff0101fefffe0000010001fe0001fefe0001ff0001fe00fefefe00fe01fe00010100fe010001fe0101fefe01fe00fefefe00ff010001feff
00fffffe01fe00000000fffe000100fe01fe0100fffeff01fffffffe01fe01fefe00ff01fefefe00010001fefefe01feff0000fffefe01010100fe0000fe0001
00000000000000000000000000000000000000000000000000000000000000000000000000000000000000000000000000000000000000000000000000000000
00000000000000000000000000000000000000000000000000000000000000000000000000000000000000000000000000000000000000000000000000000000
00000000000000000000000000000000000000000000000000000000000000000000000000000000000000000000000000000000000000000000000000000000
00000000000000000000000000000000000000000000000000000000000000000000000000000000000000000000000000000000000000000000000000000000
00000000000000000000000000000000000000000000000000000000000000000000000000000000000000000000000000000000000000000000000000000000
00000000000000000000000000000000000000000000000000000000000000000000000000000000000000000000000000000000000000000000000000000000
00000000000000000000000000000000000000000000000000000000000000000000000000000000000000000000000000000000000000000000000000000000
00000000000000000000000000000000000000000000000000000000000000000000000000000000000000000000000000000000000000000000000000000000
