fefeff0100ff01fefeffff000000ffffff01fffe00fe000001fefffffefe00ffff01ff0100fe00010001feff01fffe00ff0001feff00ffff0100fffe0101fffe
fe00fe0001fefe00fffe01fffe00ff01ffffff01fe01ff00000101fefefe0100ff01fefffefeff00fe000100ff00fffe01fe00000000fe010100ff01fe01ff01
feff00fe000000fffefe000100ffff00fefe00000001fe0000feffff01ff0001fffe00fe01feffff000101ff00fefe00fe01feff00fffe0000fefffe00000001
fe00ffff0001ff01fffe000100fe0100fffe00ffff0100ff01fe0100fe01fefe0001ff0001ffffff0101010001fefffffefe01fffefe0100fefffe00ff01ff00
01ff0001fefefe0001ff0101ff0100010101fffe010100fefefefe010000000101fefeff0100000001fffefffefe00fffefe00ff01fe000001fffe0101feffff
01ff010001feff010000fffefe00feff00ffff00fe01fe000100fe0001ff0000010000ff0101ffff0000feff00feff0000fe01fe01fefe0001000100000000fe
fe000101ff01fe01fffe01fe000100fffe00fe00fe00fefefffe01feff0101fe0000fefffeff00ff00fffeff0001ff01000101fefe00fffffffefefffe01fe01
0101ffff00feff000000ff0001feff0000ffff00ff0000ff0000fefe00fffeffff010100feff00fe01fe010001010000fe01fefffeffff01fe0000fefffeff00
00000000000000000000000000000000000000000000000000000000000000000000000000000000000000000000000000000000000000000000000000000000
fefe01fefe01ff01ff00000100feff0001ff00fe01ff00fffeffff0101ff01ff010101ff00feff01ff00fe0100fefe010001ff0101fffefefe0100ff00fffffe
fffefe0001fe01fefffe00010101ffff010001fffe00fefeffff01fe00000000ff00ff01ff00010001fefe00fe01fe01fe000100fe0101fe01ff0000ff01fffe
00fffe01ff00000001ff01ffff00ff01fe00fffe00fe0101010101fe000000fffe01000100fefe01ff00000100fffefffefeff01fefefffe010101010101fefe
ff0100fefe01ffff0100fe0000010101fffe0001000001000100fe01ff00ff00ffff0100ffff01ff01fffe01fe01ff0101ff01ff0101ffff00ffff0100000001
00fffeffff01ffffff01feff0001ffff00ff00fffffefe01fefe01ff0000fffe0000fe000000fefffe00feff0001feff00fefeff0101feff00fffefe01010001
01fefefffeff000001000001fffe0100ff010100fefe000100feff01ff01ff00ff0101000101fefffeff01ffffff01fe01ffff00ff000101fefe01fffe0101fe
00fe00ffff01ff01fe010100ff01010100fffffeff0101fe000001fffe000000ff010000feffff010101feff0001fefe0101fffffffe01fefeff00fefefe01ff
00ff010101fefe0101fe0000fe00fefffeff010001ff00fffffeff01ffffffff010000ff0001fefefffeff01000000feff0101ff00010001fffe00fefffffeff
00000000000000000000000000000000000000000000000000000000000000000000000000000000000000000000000000000000000000000000000000000000
00000000000000000000000000000000000000000000000000000000000000000000000000000000000000000000000000000000000000000000000000000000
00000000000000000000000000000000000000000000000000000000000000000000000000000000000000000000000000000000000000000000000000000000
00000000000000000000000000000000000000000000000000000000000000000000000000000000000000000000000000000000000000000000000000000000
00000000000000000000000000000000000000000000000000000000000000000000000000000000000000000000000000000000000000000000000000000000
00000000000000000000000000000000000000000000000000000000000000000000000000000000000000000000000000000000000000000000000000000000
00000000000000000000000000000000000000000000000000000000000000000000000000000000000000000000000000000000000000000000000000000000
00000000000000000000000000000000000000000000000000000000000000000000000000000000000000000000000000000000000000000000000000000000
00000000000000000000000000000000000000000000000000000000000000000000000000000000000000000000000000000000000000000000000000000000
00000000000000000000000000000000000000000000000000000000000000000000000000000000000000000000000000000000000000000000000000000000
