ff00feffffff0001fe01fe00ffff0101000000fefe01ff00010001fffe00feffff0001fe0000fffe00ff0101010100ff0101fe0000fefffe010001fe0001fe00
01fe00fe010100fefefffe0100fe0101fffefe01fe0101fe0001feffff0100fffefe00ff01fe00fffffefffe0000fefe0001ff01fe01fefefefeffffffff0001
feffff0001feffff00fe000101ff01fe01fefe00fefffe00fe0101000000ff00fe00fffe00feffff0000fefffefffe00000000fefe01fffe0001fefffe01fefe
ff00fe0000fefffe00fefefe0001fffefeffffffffff00ffff01fffffffffefffe00fe0100000000fe0000fe00feffff000101ff0001fe0101ff00ffff0100fe
fe0100ff01ff00fe00fe00ff01fffefe010001feff01fefe0001fefefffe00fffefe01fe00feffff00ff00fefefe01ff01fffefe01fffe01ff0100fefe0101fe
ff0000fefffefe00ff000001fffefffeff01ff0100ff000000fffe010100fe0101fe000001fe00fffeffff010100fffe00fe01fefe00fffefe0100ffff00fefe
010001fffe000000ff01000000000001fffe01fefe00010001000001feff0000ff0101ff0000fe0101fe00fefe010000fe000001000101010101fffe00feff00
ff01feff01fffefffefe00fefffffe0101feffffff00fe00fefefe000101fefefefefffeff00000100fe00fefeff010100feffff010001fefefe000001fe00fe
00000000000000000000000000000000000000000000000000000000000000000000000000000000000000000000000000000000000000000000000000000000
01000000fffeffff0001fe01fffeff01010000ff01feffff01ff01fffeff0001010100fefefeffff0101fe00ff000001fffe0000ff01feff000101fffffe0101
0100fe000100ff00fefe00feff0101010001ff01fffe00fe00fffefffe0000fefe010100ffff00fe01fffffffffe01fe0101fe0100fe00ffff00feffffffff01
ff00fffefefffffffe00fe01fffeffffff00fe000000fe0101ffff010000fe01000101feff00feffff00ff01fe0101fe00feff01000001fefffe00ff01ff00fe
0001fffefefffefefe00ff01fffe00fffe000100ffff000101fe01ffff01fe0100ff010101fe0000ff00fefe000001fffefffe0100fe01ff00fefffeff01fffe
fffeff01fefeffff01fffefffe00fffe00fefffefe01fefe00ff01ff010001feff0101fe00010100fe01ff01fefefffffe01fe01feff00010101fffefefeff01
01ff01fe0101fefe00fffefffffeff01fefeff0101fffe01fe0100fe01000000ff010101fe00010100ff000101feffff01feff00fe00ffff010101fe01fe01fe
fffffe01fefe010100fe00ffff01ff0001fefe0100000000ff01fefefefe01000100ff00fe010100fffffefe0101fffffe000101fe00feffff0000ff00000001
fffe00ff0101ff0000fefe0001ff0100ff01000100fe000001fe0100fe0000ff01fe00fefe01fe01ff000101fffe010101fe0100ffffff01fe0101ff010001fe
00000000000000000000000000000000000000000000000000000000000000000000000000000000000000000000000000000000000000000000000000000000
ff01fefffefefe00fe01ff00ff01ff000101ff00ff01ff01fefe01ff01ff010101fe01ff00feff00fffffe01ffff010100010100fefffe00fefe00ffff00ff01
0101010101fefe0101ff010000fffe01fe0101ff00fefffe00fefe0001ff00fe00fffe01ff00fe0101ff0101fefe0100ffff01010101fffffefe010100ff0100
0001fe01fefe00000100feff00fefefeff00ff010001fffefe0101fefeff00fe00fe0101fe00fe00ffffff0101fe01fe0101ff00fe0101ffff0000fe0100fefe
00fe00ff01ff00ff01fffeffff01fe01fe000001fefeffff00fffe00fefefefe00fffe0000000000ff01feff010001010101ff00fefe01fefe00fffefe000101
01fefffe00fefe01fe010000feff01ff010001fefe01fffe010001fefe00ff00ff000101fffffeff0101fffeff00feffffff0101fefe0000fffffefefefefffe
ff0100fffffe00fffeff0100fffe0001fefeffff01000001fe01010100ff0000fefffe000001fffe0100ff00ffff00fe0000fefffefe000001fefe01010001ff
01000101ff010101fefeffff000000fefefffe01fe0001fffe010000feff00010101fefe0100ff000000ff0000fe000100ff0101feff01fefffeff00fffe00fe
01fe01010001fe00fefffefe01fe0000010101fffe010101000000fffffeff0101feff00ff0101feff010101fefffeff01ff00010100fe000101fefe00fe00fe
00000000000000000000000000000000000000000000000000000000000000000000000000000000000000000000000000000000000000000000000000000000
