fe01fe0001fe01ff00000000fffefefe000100fe00fe0101ff0001fffffefe010101ff0000fffffe01fefe0001000001fffe0101ff00fffefefffffefefefe00
fe01fe00fe00000101feff0000fffe00010001fe01fe00fe01fe01ffff0000fefefe000000ff01ff0001fffefffe0000fefe0100ff00ff010000ffffffff00ff
00feff00ff01fe010000ff0100fe0101fe01fefffefe0000fe0101ff0001fffffffe00fffefefeff00000000fe000101ff0101fefefffe01fe01fefefefefffe
00feffff0101010100fe00fefffefffffe0100fe00fe00fffeffff00ffff01fefffffefefefe01fe0000fefffffefe010001ffff0000ff01ff01feff00ff0000
