fe01fe01000100fffe01ff01fe010001fffeffff01ff0001ff01fe00ff01fefe0100ffff01ff0000fffefffeff00ffffffff000001ff00ffff01fffeff00fffe
01ff00fefeffffffff0000ff01fe000001fe01fefe00010000fe0100fffffefffe01fe01fefe0101ff00fffe01000001010001fefefe00fefeff0001fffe00fe
01ffff00010001ff01feff010000fffe01feff01feff01ffffffffff0101fefefffefe0001fe00010101010101fe01ffff01fe0100fe010001ff0001fe0001fe
000100ff00fffefeff00fe01ff0000ff0100ffff00fefefffefe01fefe00ff0000010101ff0101fffe000000feff0001ff00ff01ff0100fefffe00ff00fe0100
