0100feff01fe01010000fffe00ff00000100000101fffe01fefefe0000fefefe0100ffff00ff0001fefefeffff00fefe01feff01fffefffe00fffe0101fe01fe
010000fffeff010100ff00fefe01010000000000fe01ffff00000000fefeff01feff00fffefe000000fffffe01ff0000fffe010100ff00fefe01000100fe01ff
00fe00000001fffefefefe00fefefe0001fffffe01ffff00fe00ffffff000001ff00ffff00fe01fefffffe00ff00fe000000ff00fe01ff01fefefffeffff00ff
0000fe00000101fe00fffffefe00ff0100ff00fe01fffffeff00fffeff01ffff00010000fffe0000fffe000000ff0000ff00010100fffffefe000001fefe00ff
