0000feffffff01fe00fefe000100fe000001000101feffff0001ff00010000fefffefe00fffe0101ff010000000101fe0000fffe00fefffe01fe0001fe0101ff
0101010101fe01fe00fefe01fffefefffe01fe0101fe01fffefefffeff01fffe000100fffefffefffeff00fefe0000feff01fe0001fefe0000fffeffff0100ff
fe01feffff00fe01fefffefefefffe00ffff010001ff000001fefffeff0000fffefffefffefffe00fe010000ffff0000ffff01fffffe00fe0000010100fe01fe
0100fefefeff000000feff01ff0000fffe01fefe0100000100ff00000001ff00000100ffffff000001fffe00fffe01010101feff0101fffffefe010000ff01ff
01ff00000000fe0000ff0000ff000001feff0000fe01ff0000ffff0000feff01010101ff00ff00fefe000101ff01fefe0100000001fe01fe010001ff0000fe01
0000010101ffff010100fffe0100ffffff0100fffe000101fefe010101ffff01fefe00ff01ff01fe00000000fffe00fefe00fe000000feff00fefe00ff01ff01
010101fe0101feff0100fe01ff000100fe010101fffefffffffe0001fffefe01010100fffffe01ff0100fefffeff0100fe0000ffffffffff01fefe00feffffff
0101fe01fe01fefefefefe01ff01ff01ffff01ff01feffffffff01fe0100ff000000000001fffefe01ff000100fe0100fefefffe0001ff0001ff01010100ffff
00000000000000000000000000000000000000000000000000000000000000000000000000000000000000000000000000000000000000000000000000000000
fe00fe0001fe00fe01ff0100ff0100ff010100000101010100ffff00fe00fffe010001010000ff00ff01ff0001010000fefffe00fefffe00fffffe01000001ff
ffff0000ff01fe0100feff0000000100fffeff0001ff01ff000101fefe00fe00fffe01ff000001010100fe01fe01fe010000010100fefffe00fffefeff0101ff
00000100fefefe01fefe00fefffeff0100ff00ff01fffeff0100ffffff00fe01fffefffe00000101fffe01ff00fffe010100fe0100ff0001ff00fffe01fefe00
01fe0000ffff01fffeff0101000001fe0101fefeffff01feffff0001fe0101ff01000001fe00ff00fefefefe00ffff01fe0101fefeff01000100ffff0101fe01
fe00fffe0000fe00fe01fffe000100feff0100ff00ff0001fffffffe0101fefefffe010101fffe0101fe0101fe01010001fe01fe00ff00000101fe00000000fe
01fffe0100fe01feff0101000100fffeffff01ff01fe00fffeff01fffffefe010001fe0100fe01000001fe0000ffffff010000ffffff00fefefe0100ff00fefe
00fefe01fe00fffefffffefffe01fe01fffffe00fe00feff0001ffff0001fe000101fe00fefeff0001fefffffefffe00fe0101ff01fe00010101ff0101fe00ff
fe0100ff0001fefeff00fefefe01ff00feff00ffff0001010000fe00fefefffffefe00010001fe01fe01fefe0100ff0000fe000100ff0001fefefeff0100fffe
00000000000000000000000000000000000000000000000000000000000000000000000000000000000000000000000000000000000000000000000000000000
01feff00ff0001fffe000101feff01ff01fefffffe01000001fe01000001ff00fefefffffefefe01000101fe0000fe00ff01fffefe00fe010100fffefffe01ff
feffff01fe01ff0000fe0101ff010000fefefffe01fefefffffefefefe0101feffffff01010000fe0000fefeff00ff00fefefefe00fffe01010101fefe00ff00
0001fffffe0100fefffffe00ff01fefeff01feff0001ff0000000000fe00fe000001fffe00fefe0000fffffe00fefeff01000000fefe0100fe00feff01ffff01
00fefffffe0100feff0001fffe01fefe0001fe01ff01fe00fe00ff01000100fe01fffffeff000000fefffe0001010000fe00fffefe01000000000100ff010100
fe01ffffffff010000fe00fefeff01fffe01ff01010000fe00fefefe01fe0001fe00010001000101ff00000101fe0000fe00fe010100fefffe0101fe010001fe
0100fffffefe01fefefefffefe00ffff010001feffffff0100fefe0000fefffe01fe01ff0100fffe010100fffe01fefe00ff000000fffe000100fffeffffff01
fffefeff0100fe0001fefe01ffff0101fefe0001ff0001ff0101ff01fefffffffefefffefffffefe00fefe0100fffefeff0001010101010000fffffffffe01fe
fffeffff0101fffeff0001fefffefffefffe01ff00fefeff0000ff00ffffffff00fffe0000ff00fefe00ff00fffffffffefffffeff0100fefffefeffff0100fe
00000000000000000000000000000000000000000000000000000000000000000000000000000000000000000000000000000000000000000000000000000000
