000000fefeff00ff0001fe00ffffffff00ff00fe01ff010100ff00fffffe0101ff01fefefffeff00ff0100010000fe0001fefffe0100fe0101010000000100ff
0101fefffe01fe0001ff01fffe00fffe01fe0000010000ff01fe0001fefffefefffe00010100fefefe000000fe00010101000100fffffefeff01010101ff0100
010100fefe000101ff01ff0100ff0101fffefefe0001010100ff00fefe0001ff0000ff01ffff0000ffff00fffefffe00fffeffff010100fffeffffff0100fffe
ffffff01ff0001fffeff000100ffff0000ff00010001ffffff00fffffefe0000fffe0000ff0100fffffffffffeffff000001fefe01fe0100ff00fe00ffffffff
fe00fffefffffe000100fefe00fe00fe00fefefe0000fefefeff00ff0100ff0001010000010100fefe0001ff0100ff00fefe00fe00000001fe00fe01feff0100
00fefefefe01ff00fefffe000100ff00fefefefffe00fffffefe0000fefffe010000fe0001feff00000100ff01000100ff0101ff01ff0101ff0000ff01fffe01
fffffefe0100fe0101000101fe00fe0000000101fffffeff00fe0101ff0101fe0101fefe00ffff01ff010000feff010101fffffeff00ff010001fffeff0101ff
01ff01ff00fefeffff01ff01ffff01ffff01ffff00feff01fffffefffffeff01fefefe00fe01fe00fe01fe0001fefffe010000fe01feff00feff0101fe01ffff
ff00fffe01fe0101fe0001fffe0000fffefffe00ffff0000ff01000001ff00fe0001ff01fffefe01fffe01ff00ff00fffe0101010000fefe0101feff01fe0001
0100ff01ff01fe01fefffffe00fefe00feff00fe000001ff01fe00010001fe0100fefe00fe0100fefeff00fefefe0000010001fefe01feff000101ffff000101
ff00fe00ff0100fe01fe00fefffffefefe01fe000001fe01fe00fe00ffff01fffe00ffff00000101fefeff00ffff0101ffff00fe00fe000101ff01fe00fe0100
fe0100ffff00fefeff01010100fe00fffeffff01fe010101010000ffff010001ff00fffeff000000fefeffffff01feff01fffffefffffefffefeffff0101ff00
00fe01fefe000100ff01fefe0100ff00feff01fe0001ff00fe01feff0100fe0100feff0001fe00fe0000000101fefeff0101fe010101fe01fe00fefeff0100fe
0001fffffefe0101fffffe00fffe0101fffffe00000000fe0101ff010000fefffefeffff00010000feffff010001fffe00fe0001fefe000100fefe0001010100
fe00fefeff01fe0001ff0100fe01fffe00ff0001000100fe010000ffffff010001ffff01fffefe01fefefffe01ff0101010000ff00010100ff00ff0001ff0001
ffffff00ff000001ff01010101fefe000000ffff01fffffe01feff01fe01000101fffeff000001fe00fffe01fefffffefe00fe00000100fe0001ff0001010100
