fe00fefe00ff01fefefe010101010100ff01010000ffff010101fe0101fe00fe00fe01fe0001ff01010000feffff0000fe000001ff0100ff0100fffe000100fe
0100fefeffff0000fefffffefe00fefe0000fefe0100ff0001fefe0101fefefeff010101ff000001fffefeffff00ffffff0001ff0100fe000001fe01fffeff00
01fe0000fefffffe0100010000feff01ffff01fefffe0000fffe0001ff0001fe0100fffe0100ff00fe0000ff01ff0100ff010000fe00ffff0101fefffeff00ff
fefffe0000ff0001fefe00fefffeffff010001fe00fefe00ff01fefefefe0000ffff00fffe01ff0001ff00fefe0000010000fefefe00ff01ffff0001fe01feff
ffff000100010100ffff01ffffff00fe010000ff01010100010001000001ff010101feffff01fffe0001fefefffffe0001000101ff0101000100ffff0001fefe
0101fe0000ff01ffff00ff00fe0000ff0101fefffe00ffff01fefffffe00fffe00ff01ff0101fffffefffffefefe0100fe01fffeff000100ff00ff000000ffff
000000fefffe010000ffffff000101ffff0000ff00ff0000fe0000fe00fe01ffff01ff01feff01ff01fffe010000000001fffffeff0101000100fe010000fffe
fefffffffefe01ff0101fe00ffff0000fe0000ff00ff0101ff01fe0100fe0101ff00ff00fe0001000100fe00ff010100fffe0100fe010101feffff01ff01fe00
fffefe00ff01ff0001ff01fe00feff00ff00fffe01fe01fe01fefefffffe00ff0101fe00fffefe010100ff0000feffff000001ffff00fe01ff010101fe01ff00
00fffeffff0001feff00ff01feff0100ff01fffe0001fe0001fefffffe00ff00000000fefe010101010000fe0000feff000101fefffe01000100fffefeff00fe
fffeff00ff0001fefefe00fe01fffffeff00fffffe0100fffefe010100fe01ffff01fefefe0001ff0001ffff01fffffefffe0001ff01ff0101ffffff00010001
01ff0000fffefe00fe01fffe00fe0101ff00ffffff00feff00010100fffe00ffff0000000100fefffffe01fffffe00fe0001ff010101fe00fffeffff01ff00fe
00ffff0100fffffefffe01010001feff010100fe0001feff00ff0101ff0100000000fe00ff000100feff01ff000000fffe01fe01fffffe0001fe00fe01fe00ff
ff0101ff00fffefffffefefefeffffff00fffe010001ff00fefe0101fffe00ffff0000ff0101fe00fe01fefe01ff01fe0001feff00fefefeff0001010001ffff
00ff01000101fffffeff01ff0101fe01fefffe0000ff01ff01fe01fffe0101ffff0001010000fe000000ff01fefeff01fe000101010001ff00fefefefefefeff
fffefffeff0100fffefe0101fefe01fefffffe00ffff010100ffff01fffe0101ff01ff0100010000fefffffe01fffefffe0100000001fe00000000ff00ff0001
ffff0101ffff00ff010100fefe0000fffffe00010101feff000001fffe010001fffe00ff000101ffff01ff000001fefeff01fffe000000fffffffffefefefffe
0001fffffe01000101fe00ffff01ffff010100ff00000000fe00feff0000fefffe010100ff01fefe0000fffeff00ff00fefffeffff00ff00010100fe0100fefe
00fe00fffffe01ff01ff00feff01fe0000fefefefefe01fffefe00ff01ffff000100fffe0000fe00feff01000001ffff00ff01000100ffffff0001fffffeffff
01fffefe0101fe01fefe0101ffff0000fe00ffffff00fe00fe01ff00fffe01ff0100ffff01fe00feff00fffe00feff0100ffff01ff0001ff010100fe0000fe01
feffff00fe01ff00ff0000fffe00fe01ff010001fe01fffffffe00fefefffefe0100ff0000ffffff000001fe01ff01ffff0000ff0100feff0100fefffe0100fe
01fffe01010101010101fffffe0101ff01fe0100fe0001fefe00ff01fe0001feffff0001fefefffefeff00fe01fffe0101fffefffe000001fe01feff00feffff
fffe0100feff01ffffff0100010100fe0100feff00fefffeff01fefe0000fffefefeff00fe000100010100fefe00ffff0101feff00ffffff0001fefeff00fe00
ff01fefffeff0001ff0000fffe0000fe01010000fe01ffff010000ff00ff01000101fe00ffff01ff0001000100feff00ffffffff0100fefefeffff00feffff00
