ffffff00000000ff0000fe0101fefe01010000fffe00fefe000001fefffefe010001feff00fe01fffefeff010000ff01ff010101fefe01010100fe00feffff01
000100ff01fffffffefffefefe0101ffff0001ff01fe00fffeff0001fffefffefe000000fffffe00ffff0101fe0000ff000000feff0001ff000000ffffff0001
fffe00feff01ff000100000101feffff00feff01feff0001010000fefffe0101fe01ff01fe00000001ffffff00fefffeff00fffe000001fe00ff010001000000
fe01feff01fefe010000010000fe000100fe0101fe00fffefe0100feff00feff00010100ffffff0001010001fe01fe0001fe0100fefffefe0001ffff000101fe
