00ffffff00fefe000100ff0101fe00feffffff01000001010001010001ff000101fefe00fe0001fe00feff00fefefe00fefeff0001fffefefefffffffe00ff00
010101010000fefe0100fffefeff00fefefffffefffe000000fe01ff01000001ff0000fe00ff01ff0000ff01fe01fffe0101ffff000000fefefefefe01fffe01
0101fffefefeff0000fe01fe0101fe0000fefeff0101fefefe0000fffefefe01ff00fffefffe00ff00ff00ff01ffffff00000100feff00ff01fe01010001fefe
00fffefeff0000feffff0000feff01000001ff0001ffff01fffffefefe01ff010101ff00feff0101ffff01fffffe00feff01ff0100fe01ff01fffeff0001fefe
