fe00000100fe01fe0101fe010001000100fe0000fefe00ff01ffff0001ff01fffe01fe0001000000fefefe00000000ff0000000000fefeffff01feff01fefffe
fffe01ffff01fffe00fffe01fe0100fe00fefffefe00fe00ffffff00010001fe0000fffffefefefffeff0100fe0100fffe00fe01ff01010001fe00010000fe01
fe01fefeff0101fffffe0001fe00feff00ff0001ff0001fe01ff0000010000fe00fe0101ff01fefffffffefefe01fe0101000000feff00ff0000fffefefeffff
0100ff01ffff00feff01000100fffefe00010000fefffefffe0100fefe00ff01ff00fefffe000101fffffefe0000fe010000fefffeff0001fefe010101ff00ff
00fffe00fefffeffff00fe000100ff00ffff00ffff0000ff0101fffeff0101fe00ff01ff0100fe01010100fffffe01ff0101fe0100fe01fffe0100ffffff00fe
ff01ff00ffffff01ff00ffff00ffff0100ff000101feffff01feff0101ff01fefefeff010101000100feff00000000fefeffff000000ff0000000001000100fe
feff00fffeff01ffff01fe00ff01ff010001fefe00000000fe01fefefe01fe00fefe0100000101000101feff01fe00010101010001fffefffe01ff01ff000000
ff01fe0101ff000101ff0101ffffff010101fe00ff00ff00ffff01000001fefffeff010000ff0000ffff01fe0101fffefffffeff00fefffffe0000fe01000001
0100ff0000fe00fefe0100feff01fefe00ff01ff01fe00fe01fffffe01ff01ffff00ff0000ff01fe0001feff01ff00fe00ffff00fe00feff01fefefe01010100
01fefefefefe0000fe00fefffe0000fe010000feff01feff00feff010000fefe0001fefe01010101fe0101fffffe01fffe00ffff010001fffefeff0101ff00fe
00fefffefe01ff01fe00ff00fe01fe0100fefe00feffff00fe0000fe01ff000101fe00ffff01fffe01fe010100feffff00010000ff01ff010100fefe0000ff01
00fefffefffefe00ff000100ff0101fe0000fffe0000ffff01fefeff010001ff000000fe01fe000000fefefffefefe01fefefeff0001ffffff00ff0100fe00ff
000100fefe0101fffffeff00ff010001fffefeff01fefffe00fffeff0001fffe0001fe0000010001fe00ffff01fefe01010000ffff00feff0000fe00fffe0101
01fffffe00fffe00ff00010000fe00feff0101ff0001ffffffff01ffffff00ff00feff0001fefffe00ff0101fefeff01ff010100010000fefe00fe0001fe0001
fffe010001ff00fefefe00fe01fefe0101fe010001fe00010100fe01fe00fefefe00fe0100ff0100fefe0100fe0100010000fefffe0101ff000101ff00fffffe
0100fe0000fe00010101fefeff0000fffe01fefefe01000100fefefe01ff00fefe01fe01feffffff01fffeff0001fe01fe000100feff00000000fe01feffff00
00000000000000000000000000000000000000000000000000000000000000000000000000000000000000000000000000000000000000000000000000000000
00000000000000000000000000000000000000000000000000000000000000000000000000000000000000000000000000000000000000000000000000000000
00000000000000000000000000000000000000000000000000000000000000000000000000000000000000000000000000000000000000000000000000000000
00000000000000000000000000000000000000000000000000000000000000000000000000000000000000000000000000000000000000000000000000000000
00000000000000000000000000000000000000000000000000000000000000000000000000000000000000000000000000000000000000000000000000000000
00000000000000000000000000000000000000000000000000000000000000000000000000000000000000000000000000000000000000000000000000000000
00000000000000000000000000000000000000000000000000000000000000000000000000000000000000000000000000000000000000000000000000000000
00000000000000000000000000000000000000000000000000000000000000000000000000000000000000000000000000000000000000000000000000000000
