fe0001fffefe0000fe01ff00fe0101fe00feff000001010000fffe000000fffeff00fffe00fe01000001ff0000fe00fefe00010000fe00fe010000ff0001fffe
00feff000001feffff010100fe000101fefffefe01ff00ffff0101fefeffff00fe010001fffefeff0001fe010000010001fffeff0100ffff00ff00feff00fffe
01fefffefe010000fe01000100ffff00fe0101ff0001fefefefe01fffffe0001feff01ffff01feff0100fefe0000ffff0000010000fe000101feff0100feffff
01fefeff01fefefe0101ffff00fefeff0001ff01ff01feff0001fefefe0101fe00fe01fffe00fffe0101ffff000001fefffefe0101ff00feff01ff0100fffffe
00010101000000fefe0000ffff0100fe010001010001feff0100fe01010000fe01fe00feff00feff0001000101ff00fffeff01feff0001ff01ff01fffe010000
00ffff000101fe0101feffff01ff01fffffe00ff01fe0000fffefe0100fefe00fefefe00fefefffe01ff00fe00fffffefe01ff00fe01feff0000ff00fffefefe
00fffe00ff01ffff00010000fefe01010100feff00fefeff01fefeffff01ff00fffefeff0101feff00fe0000ff01fefefeffff00fe00ffff0000fefffffffeff
fffeff0000000101000101ffff0000ff00fffffffe01fffefe010101fe00ff01ffff01ff00ff0100ff00feff01fe01fe000001ff0101fefffe0000fe010101ff
00000000000000000000000000000000000000000000000000000000000000000000000000000000000000000000000000000000000000000000000000000000
00fefffffe00fe0001fefeff00ff01010000fefefefe01feff000001fe01ffffff0101fe01fffe00fffe0100fe0000ff000000fe01010101fefffefffffefffe
000100fe00fefeff000100fefe01fffffe00fffffffe01000000fe010100010100ff01feff01fefe01ff0000000101ff00fefe00fe01ff01fefffe010101ffff
fffefe01fefefffe00ff00000001ffffff01ff00ff01ffffff00000100000000ff01feff01fffe00ff00010100000101fe0100fefe01ff0101feff00ff0100fe
01ff010001feff00fe00ff00ff01ff000101ff00010101fefe000001ff010001fe01fffffffefe01ffffff01ffff0001fefeff010100000001fffe0101fffe01
fffffe00fe01fe01fe00fffefe01fe01ff01fe01fffeff0001fe00010001feff010100fffffeff0000fe00ff010001000001000100fffeff0100fe0000010101
00fefffffe01fffefe0101010100010101fe00fefe010100010101fffe01fe01fefefffeffffff0101010100fffffffefe00fe0100feff000100fffefe01feff
fe00ffff01fefe0001000101fe0000feff00000000ffffffff00ff010100fe0101fefeffffff00000100fe0001ff01fe01fefe00ffffffff0000ffffff0000fe
fffefe00fefefeffffffff0101fffe01ffffff01fe01fe01fefeff0000ff0101ff00feff01fe0101ff000000fffeffff0100fe000000010100fefe00fe000100
00000000000000000000000000000000000000000000000000000000000000000000000000000000000000000000000000000000000000000000000000000000
00000000000000000000000000000000000000000000000000000000000000000000000000000000000000000000000000000000000000000000000000000000
00000000000000000000000000000000000000000000000000000000000000000000000000000000000000000000000000000000000000000000000000000000
00000000000000000000000000000000000000000000000000000000000000000000000000000000000000000000000000000000000000000000000000000000
00000000000000000000000000000000000000000000000000000000000000000000000000000000000000000000000000000000000000000000000000000000
00000000000000000000000000000000000000000000000000000000000000000000000000000000000000000000000000000000000000000000000000000000
00000000000000000000000000000000000000000000000000000000000000000000000000000000000000000000000000000000000000000000000000000000
00000000000000000000000000000000000000000000000000000000000000000000000000000000000000000000000000000000000000000000000000000000
00000000000000000000000000000000000000000000000000000000000000000000000000000000000000000000000000000000000000000000000000000000
00000000000000000000000000000000000000000000000000000000000000000000000000000000000000000000000000000000000000000000000000000000
