0100000100fe00ff00ffffff01fefffeff0100ff01feff0001fe0000fe0001010100fefffe0000feff0100010000feff000000fefe00fefffe0000fffefeff01
fe0000fe00fffe01fefefe01fefe0101ff0001feffffffff01fe0101ffff01fe00fe01010100fffefe00fefe01ff01fefe01fefeff01fe01fe01010100000101
ff010000fefefeff00fefe01fefeff00fffffefeffffff0100fe0100feff0000fffeffff00fe01fe01ff00fe000101fefe01fefe0000ff0001fffefffeff0000
0101fe000001010000ff00feff0100ff000001ff010001010001ff01fffe0101fe0001feff00fe0000ffff00fe01ff01fefe00ff000000ff0101feffff01feff
