feff0100ffff0100fefe01fffefefefefefefefffe0001ff01ff0100fefe00ffff01fefffe00fffffefe010000fffffffefefffffe010000ff0001fefe01fefe
fefefefe01feffff00ffffff00fe0101fe00ffff00000101ff00ff01ffff0101fffefffe0001fefe01fe01010101fefe00ffffffff00ffff000100fffe010000
fefe0000000000ff0001ff00feffff00fefefe010100000000ffff0001fe01fe0100fe0000ff0101fe01ff01010100fefffefffefefefeff0000010100fe00ff
fe0000fe00ffff00ff00ff00fffffe00fe00ff01fe00ff01fffffffe000001000100fe01fe000100fefeff0101000000fe00010100fe00fe000100fe00010000
fefffffeffff01fffe00010000fffffe01ff01ff0001000101fefefefe01fefefeffff0100feff01ff01fefffe01feff010000fefffe0001010001fefe00feff
ff00fefffe01feff0001ff0000ff01ff010100feff01feff00000101fffe01ff0001010101fffefefe00ff0001fe0100ff0000010100fe01ff01010001fefffe
fffffefefffefefe00ff0100ff01ff00010000fefeffff0001ff000101ff010101fe000001ffffff010000fffeff00fffefffffeff0100ff00feffff01feff01
0100fffffefffe01ff0000fffe01feff00ffffff00ff0100fffe01000000ff01fe01000100fffefffffefefe0100fffffffeffffff0101fffe01ff0101000101
01fe01000101010100fe0001ffff0000fefefffffefe0100fffffe00ff01feff0101fe01fe010001ff0000ff00fefffefe01fefeff00fe0000fe00fffefe0100
fffffeff00fe01fffe00ff00fffefefe01ff00feffff0000ff000001ff01ffff00ff01ff000001ff01fefeff01fe0100ff0100ff0001fe00ff01fffeffff00ff
01fefffe01ff00ff000101010000010100fe01ff01ff0001fe01fe00fffffeff010100fe00fffe01fffe01fe00ff00fe01ff01fe000101feff01ff010100ffff
00fe00feff000101fffe00fffe00fffe01fe01fe00000100feff01000001fffffefefe00ff01000000ffff0100fffefefe00fe01fe0101ffffff00fe000100fe
fe00fefffe0001fe000001feffff00ff0100feff00fefefeffff0100ff00feff0000fffe00fe00fffffffffffe01fefe01fffefe01fe0101ff01fffeff01fe00
0100fe01fe000101fffeff000001fffe01ff0101ff01feffff01ff01fffe01ffff00010001fffffefffefe01feff00ff00ffffff010001ff0001ffff01fefe00
00ff000001ff0101fffe01fefefffefffefefffffffefe01fe000000ff00fefffe01fe00feffff000100ff0001ff01fe00fffe0001fefe01010000010000fe00
00ffff00feffff0101fffffefeff0000000100ff01000001ffffff00ffff010000000100fefe00ffff01fffffe0000ffff0000000001fefeffff0001fefefe01
ff0100fefe0001fe0101010101ff01fe0101010001fe00ffffff010001fffefe01000001fefefe0000fffe00fffffefffffffe01fe0000fe010100fefefefeff
fefe0101ff00fffe0101feff0001ff000100fefffeff0000ff0101010001010001fe000100fefffe0001fffeff01010100ff01fe0101fe01ff010001fe00fe01
fffeffff01ff0001fffe00ffff01ff0101fe0001fefefefefe01fffe00fefe00000000fe01fefffeffffff0000fffe01fefffffe01fe01fe00ff00ff0001ff01
00010001ff01fe01fe01fffe01010001ff01fe0100fe0100fffffefe01fefffffeffff0000fffefe01ffff01fefe0000fe01ff01010101ff000001fefffefffe
fffefe000000ff00fffe0100fffe01fefe0100000001fe01010100ff000101ff01fffefe01ff00fffe01ff01fefffffe010101000000ff00fffe00ff01fefffe
0101fffe01fffffeff0000feff00fe0101feffff00ff010001fefffeffff0000010100fffe00fffe00ff01fe01ff01fffe01ff000000fe0000fffefe00fe01ff
fe01fffefe0001fe0001fe000001ffffff010001ff00ff0101fe01ff0101fe01ff0100feff0000ff000000010000fffffffe0101fe00fefe01fe010100ffff00
fffeff010001feff01ff000000fefffefe000101ff01feff00000100fe01ff000001fffeff0101fffefe000101fffefefe01fefe01feff00ff000000fefe01fe
