01fe00fe0000fffffefeff00fe0101ffff00fefefe0001feff0101fefefeff000001fe0000000100fe010101fe01fffe0100ff010101fe00fe0001ff01feff00
ff000000fe0001ffffff01fe00fefe0000fe00000001ff00000000fefefe00fffeffffff00ffff0100fe00ff01ff000100fffe00fffe01ff00fffeffff00fe00
00fe00fefffffeffff00ff01ff0000feffff0000010100010100fffe0001fe00fe00fefe00fffeff0001ff0100fffe000101ff0100fe01fefe00000100feff01
0101fffffeff01fefe000101ff010000fe00ffff0100fe00fffefe010100fe000001ffff010001fefefeffff0101fefe0001ff00feff00fefe0001000000fefe
fffe01fe01fefefe010001fffffffe01fe01ff010100ffff00fefe01fffe01ff000100010001ff0101ff010001010100fffffeffffff0000fe0101fefe0101fe
fffefeff00fefe00feff0100feff0001feff00fefe01ff01ff0101fe01fe00fefeff00010100000100ffff01fe00000101feff01fe01010101fffffe01000001
fe00fe00ff01fefffffefffeffff0100fe00ffffff0000fefffffe000101fe00fe00ff01fe01ff00000101fffe01000001ff000101fefe000000010101ffff00
00fe000100feff01fe00fffeffff0100fefefefeff0101fffe00ff000001ff0000fefe0001fe0100fffffffe00ffff010000fffe01ff0101fe01ffff0000ff00
ff01fffffefe01fe01fefe01fe010101fe01fffe0000ff00fe01ff000001ffff00fffffe0101fe01fe00ff00fffefe01ff01ff0000fffe0000fefe01fe01fe01
feff01010001ffff0000ff010100feff01fe01fffeff0001000100010100fe00fffefffefffe01fe000001ff01fe01feff0101fe0001ff01fe01ff0000feffff
ffff00ff01ff00fffe01fefffefe00010101fefffffeffffffff0100ffff0000fe0100fefefe00fffefffefffffe00ffff00000101feff00fefe01feff01fe00
ff00fe00feff0100ff0000fe00fe0101000000000001fefffe0100fe00fe010100fefefe00ff000001fefe00ff0100feffff00feff0000fe00fffeff01000001
fe010100fffe0000ffff0100fe00fffefe01fffe01fe010001fe00fe00fefe0001fe01fe0101ff0101fefefe000100fffeffff01ff0100fffffe00ff01feffff
01000000fffffffeff01fefe00010101fefffe00010101ff0001fffe00feff000100feff01ffff00ffff00fffffe01fefffefe00fffefefe0001fefffefe0000
01ff00fe01ff01fe0100ff01ff00ff0000fe0001fefefe0001ff01fffeff0001fe000001fffe00ffff00fefe01ff00fefffefefeff00ff01ff00010001000100
fe01fe01fffefe00fe00fe01fe00fe0101ff0000fffe0001fffffefffefefefe00fefeff0001ff00ffff01ff0100ff0101fe00fefefefeffff01ff01fefefffe
