0001ff0000fefeff0101010101fe01feff01fefe00fe00fe00fe0000fe000100fe000100fe0101ff01fffefe0001ff01010001ff01fe0001010101ff01fe0001
0100fffe01feff000000feffff0001fe0101fefefe00ff01fe01feff00000001fe0001fe0000fe0100fe0001ff010101fefffe00fe010100ffff00ff00fe01ff
00fe01000100ff0101000001000101fe0100fe01ff00ff00fefffffe01ffff010001feffff01010101fffe0001feff01fefe00010000010000fe0001010101ff
00ff0100fefe0000fe0101fefffeffffff01fe01fe01ff0100ff01feffff01feff0001fffe01000101ffff000001fefe00ff0100010000fffe0000ffff01fe00
fefefffeff0000fe010000fefe0101fe000001ff0000ff0000fefe01fe0100fffe0001fe0001fffe00fe01ff0000ff01ff000000ffff01010001feffff01fe00
fffe01fe01feff0101000001fe01fffeff00feff0001ff01ffffffffff0001ff01010100feff0000fffeff00fefe00fefffffeff000001fefffefe01ff01feff
fe000100feff01ffffff010100ff010001fe00ff0001ffff00ff0000ff01ff0101010000fefffeff000000010100fe01000100feff010100fffefffefffefefe
fefefe0101fffeff0100000101ff01000000fe0101fe0000fffe0000ffff00feff01fe000001feff000101ff0000fefe0101000000ffff010101fffffefe01ff
00fe010000ff0101fe01ffffff01fe00fe00ff00ff0000000100000101ffff00fe01fffe01feff000000010000fe01010100fffffeff01ff010101fe00ff00fe
fffe0101ff00fe0100fefefefefe01feff0001010101fe01fe01fe0000fe00fffe00fe00ff0101ff0000ffff0000ffff00fe00ff00ffffffff010101fe00ff00
ff00fffe000001ff000001fe0101ff01ffff01fffe000001fefeff0001fffefefe0100000001000101ff0101ff010101ff00010100ffffff0100000100ff0000
00ff0101fefeff0001ff0100ff0100fe0101fffe00fefefefe00ff000101ffffffff01fefeff0001fefefefffefeff00ff00ff00fffe01fe00fe000000ff0000
ff000101fe0100fefe0101ff00fefefe01ffff01ffffff00ff01ff00fefeff000100ff00000101fe00fffffefe00ffff010101000101ff0100ffff01fffffe00
feffff01fefffe0000fe00fffffffffe0101fe01fe00fefe0000ff01ff0001fefffeff010100ff0000fefe01fffefffefe01feff00feff01ffffffff01ff0101
ff000100fefefefe0100010000fe0101fefe00fe0001010100fe0100fffffffe00fefffffe0000fe00000000fe00ff010000fffffeff0000ff00ff01ff00ff01
feff0001ff000001fe01fe00000101ff00fefefffffffe00fffeff01ff01fffffefffefffe01ff00ff00ff00feff00ff01fe01fe00ff010100fffeffffff00ff
