ff00fefffefefefefe010001fefe01fefeff01fffeff010000ff01feff010100ff0101fefe0100fe010101fe01ff0101fe000001fe00fe000001010100feff00
fe000001ff00fe0000feff0000fe0000fffefffe010100feff0101010001000001fe00fe01fe01ff01fe01000100fffefeff000001ff00fe00fffe0000fe01ff
0000000101ff01fe00fffe0101fefffffefeff00ff0000fffeffff00ff00000001fe0000feff00ffff00fefefe01fe01000001fefefefefffe0000ff0001fffe
ff01fe0101ff0000fffffe01fffe01ff0000fffe0100fe00ff0001010101fffe010000ff01ff010001ff0000ffff00fffe00ff0000feff01fffefefffe0000fe
0100fe00010101ff0100ffff00010100feff00fe01010001ff000100fffffe01feff0100ff0000fffffefefeff01010100000001fefe01fe00fffefe0100feff
01fe0001ff0101fe0001ffff010101ff01ff01fffe000100fe00feffff00ffff0001fe0100fffefeffff0101fffefe00010100fe01ff0101fffffefe0101fe01
00fefffefe0101fffe01fefefeff00000101fffe000001fefe01fffefe00fe0000ff0100fefeff00fefe010001000101fe00ff0000000101010100ff00fe01fe
fffefffe0000fefffeff01feffff00ff01fffe01010001ffff01fffe000101ffffff01fffe00fe00fffe0001fefefe00ffff00fefffe00ff01000101ffff00fe
00ffff00ff01ffff000000ffff01fe01fe01fffe010000000000fffe0000fe010101ff0001ff0000fefefe00fffefe00fe00fe00fffeffff0000fefe01fe0100
01fefffe01ff01fffe01ff0100ff0100ff01000001fffe0000fe000000fffe0000ffffff00010101fefeff01feffff0001fffffffffefefffe01feff0100fffe
fefe00fe000100ffffffff0101000100fefe01ffff01fe00fe00fffffefefefefe00fffffffe0101fe0000ff0000ff00fffe0000010100fffefefffffefeff00
fefefe01fe0000ffff000000000000fe00fefffffefe0001fe010100fe0001feff0100ff010100ffff0100fffe01feff01feff00fe000000ffff00fe00fffeff
fffe00feffffff00ff0100feffff01fefe010001fefe0101fefe00fe00fe01000100fe01010000fffe00fe01000000ff00fffffeff00010100fe01ff0001feff
ff010100fe00fe00ff00fe0000000001ff0001000000010101ff00fefffefe000101ff0101010101fe0100ff0101fffe00fe00fffefe0000ff00ffff0100fefe
fffffffe0100fe000000010101feff0101000101fefffe00fe000001fe01fefeff010000000001ff01feff01000000ff0101fefffefffffe0100fe0001fe01ff
fe00fe01ff000101000101fffefffefeffff0000fefeff01ff00ffff010001ff010001fe0101ff00fffeff000101fe01ff01fffffe00ff000100fffefefe00ff
fffe0000fffefe0101fffe01fffffe00ff010000ff00ff00ff010100fefefe0001feff01fefe0100fffefeff0000fefffffffffefefe01010100fefe0100fe00
01fe0101fffe00feff01fffefe0101010100010001feff01fefefffe00feff00feffff0100fffffe01010101feffff01ffff01ff01ffffffff010101fffefe01
01fffefe00feff01fefe0100000000fe00ff01ff000000ff0101000100fffeff01ffff00feff01fefeffff010001fefe010000fefffefefefe0000fffe000101
ff01fe0000fe0101ff0101fe01ffffff0100fe00ff00ff000101ff00fffffffe00fffe00fffefe01fe0101ff000000fffe00fe0000fffe01fefe0001fffeffff
ffff00010101fe010001fe01ff01000000ff01fffefe0000fefe00ff00fe0001feff01fe01fefe0000fffffeff01fffe0100fe0100fe0001ffff00feffffff00
fefefe0100fefe0100000000fe0100fe01fe00ff0101fe00010000feff0100fefefe00ff01fe00fe00fefefe00fe01fefe0101fe00fffefe01feff0100000100
fe00fe0001fefeff0000fe00fffefffe00010000010001ff00ff00fe00ffffffff01ff000100fe01feff01fefe0101fffffeff0100000101ff01fffeff010000
000100fe01feff00ffff0101000100ff00010100fe01feff0000fe01fe01ff000000000001fffffe00ff00fefe01fe00feff01010100ffff00ffff01fffe00fe
