fffefefefffefe0000000100fefefeff01fffefffefefefe0001feff00ff01fe00ff0001fe010101fefffefffeff00fe010100fe00fefeff00ff000101feffff
01fe00000101ff0100ff01ff00000000feffff010101fffe01feff01fffeffffff00feff010101fefefffeffffffff01fffe0001ffff00feff0101fffe0000ff
ff00ff0000ffffffffff00ff00fffeff0000fe01fffffeff0000fffe00000000ff01fe01fefefe00fffe01fffefffe01fffffe00fe00ffffffff01fe01000001
fe00000000feffff0100010001fe010001010100fefe0001ffff01000000fe000000000100ffff01010100ff01fe0000fe01ff0001fe00fe00fefe010100fefe
00fe000101ff01fefe00000000ff0001fefffefe00ffffff0001ff0101ff0100fe00fffeff010100010000fe01fe00ffffff000001ff00ffff00000100000001
00ffffff0000fffffffffffe01feff01fe0000ffffff00ff01fefffffefeff01fefefe00fefe01fffe0100ff01ff000000ffff00000001010101fffe0101fe01
fefeff01ff0101fe00fffeff01fe01fe0000ff010101fefffeffffffffff01fefefe0101ff01fe000000fe0101feffff00fffe00ff00000100fefe000100fefe
01fefffe0101feff01010000fefffefe0101010001fefeffff0101fe00ff0000000000010100ffff0000ff0000fefffe00000101fe01fe00000100fffffffffe
00000000000000000000000000000000000000000000000000000000000000000000000000000000000000000000000000000000000000000000000000000000
fffefeffff01fffe010100fe00ff010000ff010001fffeffff00fe01fffe0000ffff01ffff0101fefeffff01fffffeff000101fefefe01000101ff01fffe00ff
00fefffffefeffff0000ffffff010000feff0100fefffffffffe00fefefffffe00010101fefffeff000001fe0000fffe00fe00fefe0101fe0101ff01ffff00ff
fe0100010100fffefefe01ff01fefffffefe010101fefefffffefffe01010100fe000101ffff010101ff01fffeff01feff00fefe0100fefffefffefefefeff01
01fffeffffff00ffff0100ff00fe010100000100feffff0000fe0101fefeff01fefefe00ffffffff00ff01fe01fefffefe010001fe0100ffff01feffff0101fe
00feffff0001fefe00ff01fefffeffffffff0101000000fffe00ff01fffeff01fffefe00fffffffe010000ffff000101ffffff01fffefe0001fe01ff00ff0101
00010101feffff00fe010000feff01fe000000010101fefe01fe01fe01feff0100fffffe00ff010101ff01fe00fffe000001ffffffff0101ff0000000100fefe
ff01ff01ffff010100fe01ff010101ff010100ff010001feffff0100fffeffffffff01ff0100fffe000101fe000100000001fe00ff000001ff000101fffeff01
ffff0000feff01ffffff01fffefe000100fe01000001ff01ff00fffefeff01fffe00ff00ffff0101fe00fe01000101feff01000101fffffeff010100feff0000
00000000000000000000000000000000000000000000000000000000000000000000000000000000000000000000000000000000000000000000000000000000
00fe00fffefeffff0001ff000100fe000101000000ff0001ff000101ffffffff0101ff01ff01fffefe01ff0100ff0001ff01ff01fefe01fefffffefe0000feff
fe010000fefe00fffe01fefffffefe0101000000feffff01ff01fffffe01ff01ff01000001fffe0100fe01000001010001fe00ffff00fe01ff01ff01fe0001ff
00fe00010001fe0101fefffe00ffff0100fffeff010100fefffffefffefffefffffe000101ffff01ff0101feff0101fe0100feff01ff00fefffe01010001fe01
ffff0001fe01fefe00ff0000ff00fffe000101fffefe01ff00fffffeffff00fe0000fefeff00ff000000fe0101fffefe00ff0100fefe00fe01fe000000fffeff
010000000100ff00010001ff00ff00fefe0100000101fe01000001fe00ff01ffff01000100fffeff0101ffffffffff0101ff01ff0101fffefefefffe01000000
ffff01000100feffff0101fefefefeff010001feff00fe0001fe00ff0100fffefeff00000101ff0001ff01fefe00fe00010101fe010101ff01feff00fefffe00
ffff00fefefe01010101fe01fffe00fefefe000101fe00ffff00fe00ff01ffff0000fefffe0000fffffe01fefe0100fe00fe0101fe000000fefefe0101fe01ff
01000001fe0100fefeff00feff0100ff01ff00fffefefe010000fe010001ff01feff00fffeff01fffffefeffff010100fe0100feff010101fefe010001fffefe
00000000000000000000000000000000000000000000000000000000000000000000000000000000000000000000000000000000000000000000000000000000
