fffefefefeff0001fffefe0001000100fe01ff01000101ff00fe00ff01fe01ff0000ff01ff0101fffefefe01feff00feffff00fefe01ff01ff010100fefffffe
fffefefe0000feffff00feff01ff010100ffff01fefffe01fe00fefe01010100000101fefe010101ff0101ff00ff000001fe000100fffe00fe0001fffeff0001
00ff000001fe01010100ff01ff0000fefffefefeffff0101010100fe01010000fe01feffff01fe00fe01fffefffeffff0000ff00ff0001000000ff000101fefe
01feff00fe000101fe00fe000000fe00fefe00feff0001fffffffffefe000000fefe01fe00ff0101fffeffff0000010101fefe00ffff0000fe01ff000001ff00
fefefe01010100fffefffeff01ff0001010000ff01fffefefe00feff00fffffffffe01fffffefe0101ff01fefffe01ff00fffffeff00fefe000100fffefe0001
ffff00ffff00fe01fffffe000100fe0101fe01fe000000feff0100000100fffe010101ffff0000fe01fefffe00ff0001fe010001ffff01fffe01000101ff0000
fefe0100ff01fefeffffff00fefffefefe0101fefffffeffff00fe00feff00ff000001ffff01000001010001ff01fffefffe01ff010000ff01fffffe01fffffe
ffff000000ffffffffff01ffff0000ff000000fefe000000ff00ffff01fffefe010000000001fe00fffefe00fffefeff000100fefffeff01010101fffe0000fe
00000000000000000000000000000000000000000000000000000000000000000000000000000000000000000000000000000000000000000000000000000000
feff00ff0101feff0100fffefefefe000100fefeff00fffe01ff01ffffff0101fefffffffefe01fe01fefefe0101fefe00ff000100fe010100ff010100feffff
00fe00fefe01fefeffff00ff00fefefe01000001fffe0000fefefffe0100feff0001000001feff00ff01fffffe01fe00fe010100fefffefeffff0100fffe0001
fefe0001ff00ff00fffefe0001ff0100fefeff000001ffff00fe00fffffffeffffff00fe00ff0101feff0001010101ff01000101ff01feff0101ff01fefefffe
00000100fe0001fffe0100feff0100fffeffff00ff01fffe000101fffeff01010101fefefffefe0001ffffff01fe000100ffff00ffff00000000fe01ff010000
00fefe01fe000001feff01fefefeff01fffffe0001fe01fffefefe0100000001fefffe0101fe010101feff000000ff000100fefe010100ffff000001feff00ff
ff010101fffffefffefeff00ffff0000ff0101fefffe00ff01fffffe00fe010000fe00fffeff01fe01fe01000101fe0001fefefe01010000ffff00000100ff01
000001ff00ff01fffffefefe010101fe000001ffffffffff01ff0000fe00fefefefffefefe01000101ff01fefe01fe0000fffefffffeff01fe010101fffeff00
0100ffffff0001fffeff0101feff00fefffe000000fefeff01010100fffffeff0100fefffffe01ffff0101000101feff010100fe0100ff000001fffeff01fffe
00000000000000000000000000000000000000000000000000000000000000000000000000000000000000000000000000000000000000000000000000000000
fefe00fe01fffe0001ffff0001fe0001fefffeff01fe01ffff00fe00fe01fe01fffe01ff01fe00ffff00fe010000ff00ffff00ffff010001010101fe0000fffe
01feff01000100ff00fe00fefefefefe0001fffe01fffefe0000feff01feff0100010101fffe000001ff0001000101fe0100fefffeff01feff010101ff000000
0101fe01ff01000001fe000100fffeff00010001ff000001fe01ff000000ff010000fe010100ff0100000000ff0100fefe0101ff0101fefe0101fe01ff01fffe
01ff01ff00ff0000fffe00fffe01fffe01ff00fefffe0101fefe0101fefe01fefe000100010001fefffe01ff00fe00fe00010001ff00fefe00ffff01feff0100
fe01ff01fe0100000100ffff010000010000fe00fe01fefffffffffefe01fefffeff00010000fefefeff010000ffff01000101fe01fe010100feff0101fe0000
01ff01000001feff0101010001fefffe01fe01fe01000001ff000000feff0000ff01fffeffff000101000001fefefefeffff01ff010101fefe010101ffff01fe
fe010000fffffffe00ff01010001fe000000fe01fe00fe000100fffeff00ff01fffffe00fe01fefe00ff01ff00fe01feff00ff00fefffe00fe010000ffff0100
ff0001fffefe00000101ffff00fffe01000101feff010101fe01fefefefffe010000ff0000ffffff000101ff0101fe0000fe010000fffeffffff010000fefffe
00000000000000000000000000000000000000000000000000000000000000000000000000000000000000000000000000000000000000000000000000000000
