00000000fefeff0001fefefffefefeffff00fefeff01fffeff010101fe0001fe0101000101ff00fffe01feff0000fffefefffe000000fffe00fe010001fe0001
00fe01fffefefe01fe00fffe000001fe01fefefe000101ff0001fefeff000100fe0001fffe0100fffe00fe00fe0101fefe0000ff01fe0000fefffefeff0000ff
0001fffefffe0001fffffe00fe00fe01ff00fffe00010000feff0101fefefffefe00010100fe010001fe00fffe01ff0101feff01fffe00000101010001010101
0001fefe00ff01fffe01fffefffe01fffefefffefe01fe000100fffffe0001fe0000feff01ffff0001fefe01ff010000000000fffffffe01fe010000fe01fe01
0101ff0000000101fffe00ff00fefffefe0000010001010001fefe00ff010100ff0001fffefffe01fefefefe00fffeff00010001ffff010100feffffff000000
00fe0100ff00fffe00fe01fe00fe0001feff000100fe00fe0100ffff00fffefeff01fffffefffe0000ff00ffffffffff00ffffffff01fefefeff0100ffff0101
01ff0000ff01010100fe0001fe00ff000101ffff010100ff00fffffe00ff00fefefe00feff00fffefe000101ff0101fefeff00fe00fe0100fffe01fffe0001ff
00fefe010001feff010001feff01fe01fefefffffe01fefe000101ffffffffff01fe0101feff01ff000001ffff01ff0001ff01ff00ff010000fe0000ffff01fe
00000000000000000000000000000000000000000000000000000000000000000000000000000000000000000000000000000000000000000000000000000000
00fffefffe01fe00010000ff0101feff00feffff01ff00fffe00ff00ff01feff0001fffffe00fe0100ffff00fefeffff0100fefefe0100fe01fe0000ff00fe01
ff00fffe0101ff0000fe00010100fffffe0101feff00010100ff01ff01fe0001ff01fefffe01feff00fefeff0100ff000101010100fe010100010000fe010000
0101fe0100ff01fe00fffe00fe0100fefffefeffffff000100ff01ff000101ff00feff00fffe010101ff0001fefffffeff00fe01fffeff00fefefffffe0001ff
010100000101ffff000001ff0101fe0100fe00fffffffe00ff0100000001ff00fe00fefe01fefe0101ff000100ff0001fe0101fffe00fefefeff010100010101
01000100fefffffe00feff000101fefe01fe010100ff00fe0100010000ff00fe00ffff000100fffe01fffefffefeff00ff0101ff00ff01010100ff01fefeffff
0100fe000101fffe00ffffff000100fe00fe01fe010100010000ff0001fe0001fe01ff0000fefe00fffffffffefe0101fe000000fe00fffefe00fffefffe01fe
fffffeff00000000feffffff000100fe01ff0000010000feff00fe00ffff0101fefe01ffffff000001fe01fefe0000000101fe01fffefefefe0000010001ffff
01010101fffe01fe0100ff01fffffefeff0101fe000101010101ff01010000ff000100000001feff01fefe0100feff0100fffffefffffefe0100fe00000100ff
00000000000000000000000000000000000000000000000000000000000000000000000000000000000000000000000000000000000000000000000000000000
feff0100010101ff0001fe0001feffff0000010001010000fefeff01000001fffefeff01ff00fe01010101ff0001fe01fe0101ff00ff0100ff0100ff0000fefe
0101ff0001fefeff010100fefeff00010000fe0001fefe0001000100fffffffe0001ffff010000ffff010000fefe0100fe000101feffff0101fefe01fe010001
00fe01fe000100fe00fffffefffefffefefffefffffefe0100ffff00fefeff00fe01fffffeff0101ff010000fe01fefefffe0000fffffe000101010000fffe00
0001fe0000fefffe01ff0101feff0100ff00fffffffefe0100fffeff000000fe01ff0101ffff0000feffff01fe010000fe00fefefe0100ffffff0101ff01ff01
00010001feff0000ff0000fe0100010100ff00ffff0101fffefe0000ff0001fe00fe0101fefe000101ff0001ff010100fe01ff00feff00fffe00feff0100ff00
00fe0001010000fefe00ff00fefe0101fe010000ff010100010101ffffff010000ffff00ff00fefefe0000ff01fffe01fe0100fefefe0000010100fefffeff00
fffe01010001ff01fefeff00010101fe01fffefefe0101ff00fffeff0000ff01ff00fe010000ff01fffe01fe0100fefffeffffff00fefffe0100feff0001ffff
ff01fe0000fe0000000100ff01ff0000fe01fe00fffe00fe0100ff0001fffe01fefe01fe00feff0100fffffffe01fe01fffefffe010001ff00ff0000fffeff01
00000000000000000000000000000000000000000000000000000000000000000000000000000000000000000000000000000000000000000000000000000000
