fffefefe00fe00000100fffefe0101fffefefeff00fffefefefefeff00fe01fefefe0100fe0001fefffe000100fffefe01ff0101fffefeffff0101ffff0100fe
ff0101fffffefffefffeffff01010100fefefffe010100fe00ff010001010000fefffeff00fe00ff0100fffffe000101fffe00010001010001ff00fffefefffe
00fefffefefe01ffff0001fffe00fffefffe01fefe0101feff01feffff00fefefeff010101ffff000101010000ff01fe01000100fe00fefefe000001ff000000
fe0101ff00fffeff01ffffff00feff0000fffeff00fffefffe01010000fe00fe00ff0100feffff01fffeffff00ff0101fefe00fe0001fffefefffe01ff01ff00
