ff0100fefeff0100fefe010001ff0001ff01ffffff0101fffe00ffff0100fefefefffe0100ff0000fe00fe00fefffeffff01000001000001ff00ffff01fffe00
00fe0100ff01feffff000000fe00010100fffe00fe00fe01fefffe01ff0001fe01ff00ff00ff00ff01fefffffe0000fffffe0101ff00ff00fe000100fe00ffff
fffe00000101010101ff0000fe0101010001fffffefe000000fffe00000101fefe0000ffff0001fe000100fefe00010100fefffffeffff010101fffefffeff01
01fe00ffffff01ff00fffeffff01feff00fefffe00fefe0001000001fffffeff0000ff01ff0101fe000101fe00fefffe00fffefffe01fefffefe000100fefffe
0100fe0100ff01fefefe0100000101ff0100010100ff01fe010001fffe00fe00ffff01ff00fefefefe0101fe00ffff01ffff0100fe0000fe000000fffefe00fe
ff01ff01ff000100ff01ff01feff010101fe00fffeffffffffffffff00ff0000feffff0000fffe01fe0100ff010001fefefefeffff0100fe010100ff00ffff00
01ff000101fe00010100fefffffeffff00ff00000101feffff0001feff010000ff00fe00fffe0100ffff000101000000fe0001fefffefe0000fffffe00fe00ff
000101fe010101feff01feff0001ff0001fffffefefffefefe01fefe0001fffe00ff000100fffe0000feff00fefe00fe0101000000fffe0001ff00feffff0100
feffff0001fe010000fffe0001fefe00000000ff0100fffeff0000fe00fe00fefe010100fe01fefefffe0001fe00fffe0001ff00000101ffff0000000000ffff
010000ff010000010100ff0001ff010001ffff00fffffe01fefffffeff00fefefe00ffff01ff00010100feffff010000010100ffff01fffefe01fffe0101fefe
01fe01010101ff00ff01000100010000ffff0101fe0001feffff0101fffefe00fe00feff00ff00fe01fefe01000000ffff00feff0101ff010100ff00fefeff01
fe010001fefefe00feff00fe00fefefefeff0001fefeff00feff00fefffe00fe01fffefffe0001fe00ff01fefeff01fefe010001fefefe00fffffffefe00fefe
00ffff0100fe00fffefffffeff0101fefefffefe01ff000001fe010001fefefffffe0001feff00000101fefe010000fefefe0001fefe00010000feffffff0101
ff0101fe0101fefefffffe01fefe01fefffe00010101fffe01ff0100feff00000000fefe00feffff00ff00ff00000000fffe01fefe00ff0100fefe00ffff0100
ffff01feff01fe00feff000000ffff0101ff00fefeffff0101ff01fe00fffe01ff00ff0101fefefeffff00fffe0101ff01fe01ff00fffefe00fe000000ff0000
feff0100fffffffffeff00ff00fe0000fefffeff010100fffe00000000ffffff0000fe010000feff0101000100ff0100fffefe00fe00fe0001ff00fefe01ffff
