0001ff01ff0001fffffefe01ff010001000101fffffffefe0000fffe01ff0100ff01fe01fefe0000ff00fe00fffffefffefe00ff01000000fefefffe00fefeff
feff01feff00fe01ff01ff0000fffefffe000100fe00fffefefe0100fefeffff00fe0001ff01fffffe0001ffffff0001fffffffffffffffe01000101ffff01ff
fefe00ffff00ffff01feff01feffff0101ff01ffff0101feff00fe00ff0001ff0101000100fe0001fe0001ff01fe010001fffe0000ff0000fefe00fffe00fefe
01fe01ffff01feff0001fefffe00ff01fefefefeffff01ff0000fe00fefefe00000000fe0100ff0101010001fe00fe01010001fe00fe01fefe0001ffff00fe01
0001ff0101fefffe01fefe0001fe010000000001ff0000fffffefe0000ffff01ffff0101ff01fffffefe00fe01feff010101fe0101fe01fefe0000ff000100fe
010001fe00ffff00fe010001fefffefeffff01fffeff010100000100ff00ffffff01ff00fffe00fefe01fe000100feff0100fffeffffff01ff01010001fefe00
ffffff01ff01ff01fe00fe00fffe000100fefe0001feff01fffefe00fffffe00fe01fefefffe01fe01fefffffe01ffff0100feff00fefe01ff01feffff000100
fe0001000000fe01fe0101ffff01ff000100ff00fffeff000000fe01010001feff01ffff01ffff00fe01feff00feffffff00fefe0000ff00fe0100fe010101ff
fffefefffefe01000101ff00fe0000fe00ff01fffefffefefefefeff00ff00ff0001fe01fffefffe0100fefffe01000001ff0001010001fe01fffefefffeffff
01fe01ffff01ffffff01ff010101fffefefefe0001fefffffe01fe000101010001ff00ff00fe0001000000fefe01fffe01fe01ff0001fffe0101feff01fffe00
0101fffefffefe0001ffff01000001fefe00fe01ff01000100feff00ff0000ff010101fffe0000ff0000fe01feff0101ff01ff0101fffefefefeffff01000100
000100ff00000001ff00feff0101010100fefefffefeff01fe00ff0101fefe01ff01fefe010000ff01ff0100fefe01fffffffe01fffeff00fffefefe00fe0100
ff00000001fefefffe00010101fefefe01ff00fe01ff0001fffefefe00fe01fffeffffff010101ff00fffe010100ffff01fffe0000ff0100ff01ff0100ff0101
010001ff00fffe0101fefffefeff0100fe01fe0101000101ff01fe01fffe00ff01ffffff0000ffff01fffe000101fe00fefefefeff01fe01fe01ffff00fefe01
01ffff01fffefe0000fe00fefefffeff00fffeff01ff00fefeffffff00fe010100feff010000ff000100fffffeff01fffffffeff0001fffefefe00ff0000fefe
feffff01fe01ff01fefeffff01fffe00ffff00fe01fe0100010000ff00fefefe0101fe00fffffefe00ff0101ff00fffffffffefefefffe00fffe01fe00ff00fe
ff010000ff01ff0100fefe00ffff00fffefefe000100ff01fffe0001fe01ff000001feffff01fefe0100fefefe00fe01ffffff00fffe00fe0000ff0001fefe01
0100fffefeff0101ff00fe010001ff0001fe01fe00fffe0000ff01000000fffeff00ff000100000000fefe0001fffe00ff00feffffff0100fe01010100fffeff
fefe010000feff01ff000001ff00ff010000fe00fe01ff0101ff01ff000101feff0100fe0000fe00ff00ff00fefefe0001fefffefffffefe01ff01fffffeff01
ff0001feff0100000101000100fe0000feffffff000101fefeff00fe01fe0001ff0100fe00ff00ff0000fefffe01000000fffffe00fefe01fefefeff00000000
01fffeff010100ffffff010101ff0000fefeff00010101ff01fe000100000000fe01fffefeff00fe0001fe010000fe01000101fe00fffefffeff00ff01ff0000
fffefefeff000101fffffefe0100ff01fffffefffefeff0101fffefffeff000101ffff000000ffff0000ff0101fefe01fe00fe0101fefffe01fe01ffff01fe00
000001fefe01ffff00fe010101ff00fefffefe01feff00fefeff0000feff010000ffff00fe00ff01fffe01fffe01fefe01ff00fefeffff0100010000ffffffff
ffff0000ffff010001fffe0101ffffffffff00fe00ff0001ff000001fffefefffffe01000001fe01010100fffe01fe01010000fffffe0101ffff000100fefe01
