00fefffffe01fffe00fe00ffff00ffff01ff01010000fffeff0101fe00fefffeffff000100fefeff0001feffff00010000fefe01fefffe00fefe00fefe000001
fe01ff00fe0000feffffffff0101010100fffefffe0101fe0000fefe010100fffe010000fefffe00fffefffeff00fffefffeff0001fffeffff01ff01fefefe00
0100ff0101fe01000001ffffff00ff010000fffe0000ff01fffffe00fe0101000100000000fefe010001010101fe00fe0000010101feff000101ff00fe000101
01feff0001ff000100fefe01fe00ff0001fefffffefe00fefffeffffffff00fefe00fefffefffe01fffeff01ff00fe01fe01fe00ff0000ff000101ffff01fefe
01fffe01feff00fe01010101fe000001010101fffffefefe00fe000100fe000100feff00ffffffffff00fe00fe00fefe0101fefeff000001fefffffe01ff0001
fffffefeff0100ff00fffffe00ff01fffe0101010101000101fe0000ff010100fefefe00ff010000ffff010001ff0000ffff00ffffff010001fe00fefffe01ff
fffffe010000fffeff00010000ff01ff01fefe000100fe01000000feff00ff010001fefefe0101fffefefefe0100fefffe01feffffff00000000fefffe0000fe
0101000001fefefeff01feff0001000101fe00000001fffffe010100fe00feff00000001ff00fe000001010001fe01ff01000100ffffff0101ffffff00000100
00000000000000000000000000000000000000000000000000000000000000000000000000000000000000000000000000000000000000000000000000000000
fffe01ff01fffeffffff0101fe01fefffffe01feffff00fe01feff0101ff0101fe0100010101ff00fffefe010101ff0100ff01010101ff01000000ff00fe00fe
01fe0001feff0101fe0101fffffe0000fe000000ff01fe00fe01ff01fe00fefffffe01fe00ff01fffefe00fe01000001fe00ff000000ff0001fe0101fe0100fe
fe00fe0101feff000101010100fefefe01ffffff01010001fefffe0000000001fffefffe000101ff0101ff0000fe00fe01010100010100fe0100000001000000
000101fefefefefeffffff0101ffffff0000ff00feffff0100fefe00ff0100ff01fe00ff00fefeff010001fefe01ff00ff01fffe010001fe0001fe01fefe01ff
feff010001ffff00fe0001000101000100fefe00ffff0101ff01fefefe01feff010001fefeffff0001000000fe00000000ff00fefe01fffefe00fe01fffe01ff
0000fe01fe010000ff01fe0000000101fe0001ff0000fe0000000000ff01ff010101000001fefffefefffffeffff0101fffe0001feff0101ff0101feff01ffff
feffff00fefffeff00010101feff0001fe0000fe010001fe00fefffffefffe000100ff00fefffefe00ffff0101feff000000feffffff00ff01fffffefffeff01
010100ff0001fffe010001ff000001fe00fe01fefe000101ff0100feff00ff0101fe0000fefffe01fffffefe0001ff01fe01ffff0100feff00ff0000fe010101
00000000000000000000000000000000000000000000000000000000000000000000000000000000000000000000000000000000000000000000000000000000
00000000000000000000000000000000000000000000000000000000000000000000000000000000000000000000000000000000000000000000000000000000
00000000000000000000000000000000000000000000000000000000000000000000000000000000000000000000000000000000000000000000000000000000
00000000000000000000000000000000000000000000000000000000000000000000000000000000000000000000000000000000000000000000000000000000
00000000000000000000000000000000000000000000000000000000000000000000000000000000000000000000000000000000000000000000000000000000
00000000000000000000000000000000000000000000000000000000000000000000000000000000000000000000000000000000000000000000000000000000
00000000000000000000000000000000000000000000000000000000000000000000000000000000000000000000000000000000000000000000000000000000
00000000000000000000000000000000000000000000000000000000000000000000000000000000000000000000000000000000000000000000000000000000
00000000000000000000000000000000000000000000000000000000000000000000000000000000000000000000000000000000000000000000000000000000
00000000000000000000000000000000000000000000000000000000000000000000000000000000000000000000000000000000000000000000000000000000
