0001ff01fffffe01fe01ffff0100feffff00ff0100fffe01ff0101010000fffe0100fffffefeffff0001ff00fefffe000001010101fefefffeff01ff01fe00ff
00feffff01feff00010100feff01ff01ff0100fefffefeffff0101ffff00fe0101fe01fe00feffff01ff010100fe010100fffefffe01fffe00fffffe01ff00fe
0001feff01fe00fe00ff0000fefeff0000fefffefeff00fe0001fffffe0100ff01ff00ffff01feff0000ffffff0000fefe00fefeff000100fe01fe01fffeffff
fe0000ff010101ff0100fefeff0101fefe0000fffe01ff0000ff010101fe00ff000000000101fffeff01ff00010001fffffffe01fe0001fe010000ff00ffff00
fe0001fe010101ffff01fe01fe000001fe0000ff00fffffe00fffe01ff000000fffffefffe000000fefffefe01000000fe0000fefffffeffff01fe0101fefe00
fffe0101ff0000fe0000fe000101010100feffff00ff000001010000fe00fefe01feff00fe00fffeff0001ffff00fefefffefe010101fe000001010100fe0101
ff00fffffe01fffefeff0100fe01fffe00010101010101fefe0001000101ff010000fe0001fefe00ff00fe01fe01ff000101ff01fefe0001fe01010101010000
01ff0100fe0101fefe0000ff000100fe0100fe00fffffffe00ff00fe000001000101ffffffffff01ff000101ff01fffffe000001000000010101fefffffffe01
0001ffff00ff000100fe0000fefefffeff0001fffffe00fe00ff01fffefe00fefe01fe000000ff00ff0100fffefffeff010000fe01fefefffeffff00fffeff00
00fe0101fe01fffefe0100ff00fe00fefe0000feff00fffffe01fefefe01ff0100fffe00ffff00000101fffefffe0001fe01fefeff0101010001feffff00ffff
ff010001fefffe0001ff01fefefe00fe0101fe0101fffefffffe00ff00010101fe000101fe010101fefffefffffe0100fffe00fe0000000101ff000101ffffff
fefefefffeff0100fefeff01ff0000fe01feff0000010101010101000101ff01fe01fe0101fffe00fefe0000ff00feff00fffffe000100fe01fe0001fe010101
000001fe00ff00000001feff000001fefffe01fefe00ff0100fffefefeffffff00fefffffe0101fffefffe01fe00010001ff0000fefe010100ff01fefe010000
fe00fffe01010001ff000101fefe00ffffff000100fe0101fe010100feff01fefefe00fe010000fefe0000ff00010101fffffe01fefefffe01000101000101ff
00010100fe0101fefeff010000fefe01fefffe0000feff01fffe0101ff01fffefe010001fefefe00ffff010101fffffffeff00fe01fefefe00010001fe000000
0001fefffffe010000fffffe01fefffefffeffffff00fe000001fefe00fefefefe00fe01fffffefe01ff01fe00ff0100fffffe0100fefe0001ffff0001fe01ff
00fe01000001fe00fffe00ff00010000ff00000001fe00fffffe00fe0000fe00000000fefeffffff00fefffffe010101fe0101fe00ff0100fffefffffffffe00
ff0000fffefe0000fe0100fe01fe0000fe00ff01feff00ffff0101fffe0000ff01ff01000000ff00fefefeff0000ff000100ffffff01fefeffff00fefeff0100
010100fffe0001ffffffffffffff0101ff00ffff00ff0101000000fefffe0101ff00ff01fefe01ff01ff01fe010000fffefefe010001fe010000fe0000fe00ff
000001010100fe0101feff0100fe00000100fe01ff0100fffffe01fe00010001ffff01000100fffeffff00ff00ff00000101fffefeff010001ff00fffefefeff
0001fffe00fe010101fe010001010100fe0100fffffe010101ffffffff00fffffe0001010000ffffff01000100ff01ffffff01fefefe01fffe01fffffe000100
010100fe0101fe01fffe0101ff01010001feff00000001fffefe00fe01000100fe00ff00fffe00fffeff01ffffff0001fffe01fe01fe00fffeff01fe00fe0100
ff00ff010101fe0101fefefffefe0001fffefffefe00fe01feff01fe01ff0001fffffffefe0101fe0000fffefffe0100fe00fe01ffff00fe00fefeff01010100
ffffffff010001ff00fefeff01fffe00fefe000100fffffefefe00ff0100ff01fffffe00ff01fffffefefeff00ff0000fe0101fe00ffff01010101fefefffeff
