ff01ff01fe01fffffffe00fffe0101000100ff00000101fffeff01ff010000fefffe00010001000100fffffefffe0001fe0001000000ff01fffe0101fffffe01
feff0101fefeff01000000fe000100ff00fefefe01ffffff01fefefffe0100fffffeff01fe0000ff010001fefe0000fffffefffe01000001fefe01fefffeff00
fe01fe01fffe01fefffffe0101ff010001fffffefe01fefffefffe010100ff00fe00ff00ff0100fe00fe01000100ff0101fe0100ff000100fefffffffffffeff
000000ff01fe01fe0000000101fe0101fe00ffffff01000100fffe0000fffffe00000100fe01000001ff00ff01fe00fe00feff01fffefe01000101fe0101ff01
ff0001000001ff00fe00fe00ffffffff01fffe00ff0001000100ffff00fffe01fffeff0100fffe01fefefffffe00fe000100fffe010101fefe00fe00fe00ff00
fffffffefffeff01ff00ffff0000fffffffefe000001ff010000ffffffff0000fefeffff010100ff00ffff0001010001ff01feff01fffe0000ff00fe01ff0101
00fe00ff0100000001000000fe0100fefe01ff0000fffe0001010001010001fe01fffefe000101fffffffffe00000001fefffffeff00fefeff000101fefefe01
ff010000fe01fffefffffe01fe0100ff01fffefe0001feffffff01fffffe0000fefefe0101fefefefffe01fefeff000000fe00fe010000fffffffeffff01ff00
01fffe00fffffffffe00ffffffffff00010100fefffe01ff010000feff00feff010100fefeff0100fffe01fefe01fffe000101ff000101fffeff0000fe0100fe
feff000100ff0000ff0000fffefe01fe0100fefffeff00ff00ff00fffeff01ff0101fefefffe0001ff010001fffeff000101fe00ff010101ff01000100ffffff
00ff01fffe01000001010001fe00fefefeff0100ff0001ff01fe0001000000fe00fe000000fefeffffff01ffff00feffff01fefe010100fffe01ff0000ff01ff
00ffff00feff0100ff0101fe0101fffe0000fe00000101fe000000ff00fefefe0101ffff01ff000100fffffefeff01ff00010001fe01fe01fffefeff01feff01
01fffffefeffff00fe000101fffe0001fe00fefffe01ff010000ff01ff01010001ff00fefffefefffe01fe0001fefe0101ffff0100010100ff0001fefe01ff01
ffffff01010100ffffff0001fe01ff01feff000001fffffffffe0101fe010001feff01fe01feff0000010000fffefefeff000100000101fe0101ffff01feff01
0000ff00fffefe00fe000000ff00fe00ff0001ffff000001fe00ff01010000fe010001fefffefe00000000feffff0101feff01fffefe01ff00ff01feff0001ff
010001ff00feffff0000fffefefeff0100fe000100feff00010001ff0000ff00fe0000feff00ff0101fe000100fffefe000001fe010000fefe000000fe0000fe
00ff01fe01feff010100010000fefffefe00fefeff00fefe00fe0100fefe00ff01ff01ff01fffffeff00ff01ff01fffe0100fe00fffefffefeff01ffff0100fe
01ffff00fefeff010101ff0000ff0100feff01ff0101fe01fe0101fefe0100fffffeff00ff00ff000001fffeff01fefffe0100ff0101fffeff00fe01fefffe01
00fefffeff01ff00000001feff010000fe01fffffefffefe0001ff00feff010101fe00ffff0101fe0100fe0101feff00fe00fe00ff01ff00ff00ff00ffff00fe
01feff0101fefe00ffff00fffefe01fe00ff01fefe0000ffffff01ff0101fefffeff00fe01fefe000000fe000000fe01fefe00ff0001ff0100ff010100ff01ff
00fefffffe000000ff0100fffffeffff01fefe00fefefffffefefefefeff00feff00fe00fe01fffffefffeff00000101ffff01ff0000fefefefe00ff010001fe
00fe01fffeff00fffffefffffe0001fe01000101feff01ff01feff0000fffffffefffefe0001ff0101fffe010101000100fffefefe0101ffff0000fe000000ff
ff00fefefe0100fe000100fe01ffff01fe0101010101ffff01ff01fe01fe0100fffe01fffe01000100fefe0001fe0001fe01010100ffff01feff00fe00ff0101
ff000000fe0100fffe01fefe0001000100ff01fefe00fe00fe01000100010101ff00fffffe0001fe0000ff010101fffe01ffff00ff010000feff00fffe01fe01
