00fe00ff01fffffffefefe0001fe010100010000ff0001fe01ff01fefffffe00fe0000ff00fffefffe00fe00fefe00fe00fffe0101fefefffe0101fffefefeff
0100010101010000fe00fefeffffff00ff0100fe010000ff00fffe00fffe00ff01ffff0000ff00ff00ff0101fffe00fffefe0101fffe00fffffe00fffeffff01
ff01ff01feff00fefffe0001010000feff0101ff01fe01000000ff0100010101feffff000001000100fffe01000100fffe0000fffeff00ff00010101fefe0000
00fffe0000ff01fe01ff0101ff0100010000ff01ff01fe0100fefeffff01000101ff00ffff00fffffefe010000000101fffe00010001fe01ff01ff0001000100
01fefefe00ff01fe0100fefe0000fffffe01fffe01fe010101fe010101feff00ff01ff0100ff00ff01feff00ffff01fefffefeff01fe01000101ff0000fe0100
feff00feff01ff01fefefe00000101000001ff00fefe0100fffefffefe0101ff00fe00feffff00ff000001fefe01fffe01fe00000000feffff000101fefefe01
fefe0000ffffff00fe01ffff010101fffeff01ff0001000101fefefefffe000100feff010100000101ff010101fefe01fe00ffff0100fffffe00feff01ff00fe
0001000100fefe00ff000000fefe0101fe0000fe01ff01010000fefffeff0100010101ffff0100fe010100fefefe0001fefffffefffffefe000000fefe000101
01fffefefffffffeff00000001fffffe01000101fefffffefefffffefe0101fffefe0101fefe00feffff000000fefefffe000000ff01fefeffffff01feff01ff
fffffffefffffefffffffffe01000001fefe0001feff0101000001ff00ff0100010001fefffeffff01fffffe00010101fffffe000101fffefffffefeff010001
fffefe00ff010101fffefefe01ff0101ff01fe0100ff010100ff01fffefeff01ffff000101fefe00fe01ff0000fffefe0100ff0001fe00ffff0000ff000001fe
fffe00010001fe0000fe0000ff010000fefffefffe0001fffffffe01ffff0001000001000000fe000101fffefe01fe0100ff01fffffe00ff00fe00fe01fffffe
0101fe01fefe00feff0101fe00fe0100fefefe0101ff010001fffffefefffe00ffff01ff00fefffe01000101ff00fe01ff00fefffefeff0101fe0101fe01fffe
feff00ff0101fffeff0100fffefefeff0101ffff010101fefffefe0100fffefefe01000100ffff00ffff0100fffe0001fe00fe0100fffefefe010000ff000001
ff01000101fffffefefefffefffefe0101fefefffffe01fe0000feff000001fe000000ff0101010001fefefffffe00ff00fefe0100fffeff00fefefffe0100fe
0100fffeff0100ff0101000000ff0100010100fffffefefeff0100feff00fffffffeff01fe01fe01fefffe0101ffff00feff00fffe00010100ff01fffe00fe01
