ffff01ff010101010000fefeffff01ffff0100fe010000000001ffff00feff0000fffffe010101fefe0000fefffffffe00ff0000ff01fefffe00ff01ff010000
0100feff0101000100ffff0100fefefffe0000fe00010000ff00000100fe01fffffeffff000001fffe01feff00feff000000ffffff01feff010000ffffff01ff
ff010000000000ff0000ff00010101fffeff01010100ff01fe0000fe00fe00fefeff00ffff0001fe01fffe010000fe00fe0001010100fe000001fefffeffff00
fefe0001fe010000fffe00fffffeff00010101ffff00feff0001fffefe01ff00fffe0001fe0101ffff0100fefffffe0100000000ff00fffe0101ffff00010000
ff0001feff000101010100fffffe01fffeffff01fefffefe00ff00fe000101ff00feff0000fe0001fe01ff01000001fefe0100ffff01fe01fefe0100fe0101fe
ff00fefffe000100fefefe010101ff01ff0000fe0101fefffffefefefe00ffff0101fefefeff00fffefffefe010001ff01fefffe00ffff0101ffff0000ffff00
fefffe0101fffe00fffefe010101fefe0100fefffe00ff01fffefefefe01ff01000100ff01ff000001010000ff0001000100fe00ffff00fefe00ff0101fefefe
fe01fe00fffeff01000001ffff00000101ff0101fe01fefffffe000101feff01fe01feff00fffe00fe0101fe00ff01000100fffe01feff000001fffefeff00ff
01ffff0100fe01010000fefefefefffffe00ffff0000fefefe0000fefefffffe0000fefe01fffe000000fe00fe0101fffefffffefefe01010001010001000100
ff01010100feff01fffffefffe01010001fefe01fe0101010000fffe0101fe00ffffff0001ff01fe000100feff010101ffff0000ff00ffff01ffffff0000ff00
00feff000000fffeff0000fe0000ffffffff01fffe00ff00fe01ffff000100ff010100fefefeff00fffefffffeff0001ff0001fefe00fe0000000000feff0001
ffffff00ff00fefffefe00ff000001fefe000000fe0001fffffe0100feff00fe00fe0101010101ff010100ffffff000100ff00ffff01fe01010101fe00ff01ff
fe0001fe010101fe00ff00ff0000fefeff0100ff00fefefe000000fffeff00feffff00fefffe00fffefefe0000fffe00fefffe01fffe00010000ff00ff01fffe
fffffffefefffe0001ff010000fffffe00ff01fe01fe01fe01010100fefe01ffff00ffff000001ff0000fefefefe0100ff0100fe0001fe0101010000ffff0000
00ffff01ff0001ff00010000ff010101fe00fe00fe01010001feff000000fffe0101fefeffff0100ffff00fe00000101fe00feff00fefeff00feff0101010101
0100fefffefe01feff01fffffeff01010100ffff0000ffff0001ff010101fe01feff01fe01ff01fe0001ff01feff01fe0100ff01fffefffefefffe01fe010101
