00ff00fefffffffefefeff0100fffefe00fefefe00fffe00fe0100fe00fefe010100ff01000101000101000001fffffffe00fe0101ff000100fefe00ffffff00
01feff01fefefefefe000000ffff0101feff01fe01ff0000ff01ff00fe0000ff01000001ff01fe000000fefffefffffefe00fffefeff0001fefe000001010101
fefe01000101fe01ff00fffe00010000ffffff01ff00ff00ff00fefffeff00ff01fefefeff0000fefefe0101fffefe0000fe0101fe01fe0000fffefefeff0101
fefe0100fffeff01ff01fe0001ff01fffe00feffff01ffff0101fffe00ff010101ff01fefefeffff01ffff0100ff01000001fffe0000fffffe0000fffefeff00
