ff0000ff000001fffe0000ff000001fffe0000ff01ffff0100fe01ff00fe00feff0001fe00fe010000fffefe01fefeff01ff00fe010101000101fe0001000000
ff0100fe01010101ff0100fe0001ff00ff01000000fffffefe000101ff00ff010100fe000001ff00fffefffe00ff01ffff000000000101fffffeff000001fe00
00010101fe0100fe01ff00fefe0001ff01ffff01feff0000000100fe000000fe00fefe01feff01ffffff00fefffe01fe01fffffeff01010100fffe0101000001
ff0101fe0001fffe00000001fffffefffefefefeff00ff010101ffffff010000fffe000101fffe00fefffe0000ff00ff0100fefe00ff0101fefe00ff0100ff00
