0100feff01000000ff00ff0100ff01fefeffff00ff010100ff01ffff0001ff00fe01fffefffe010001fe00fffefffefefffe0101010100fe000001fefefffe01
01fefeffff00fffffefefe000101fffffe00ffffffff00000001ff0100feffff000101ff01fefe000000010001ff00000000ff01fe000001fefefe0001fe0100
fe00fe000001feff01fe00ff00fffe01fffffffffe01ff0001ff01000101fefefffe00fefffe01ff01fffffefefffe00feff00feff01feff010001ff00ff00fe
fe00fffefefe0000fe0100fffe00fffffefe000101010001fffeff010000fffffffe01fe00010001ff0101010000ffff0101fffefffeffff010100fefe0001ff
000100ffffff00fe01fefe00fe01feffff0100ffffff010001fe00fffffefffffe0001fefe00ff000001fefefe01fefefffeffff01fe0100fe010101ffff0100
00fe0100feff0000fe0101ff000101010001010000000001fffe00fffefeffff01feffff0100fffffefe0101010100ff0001fe010000010000fffefeffff0001
fe00fefffefefeffff00ffff00fefefeff0101fefe01ff01fe0001fe0101feffff01fe000100ff00fe010101000100fe00fffeff010101fe0100fe0001fefefe
fe00fe000001fe00fe010000fffe01000001ffffff01fefffefefefefefffe00000001ff000001000001feff0000fffe00fffeff0101fe00fefe00ff00fe01ff
000000fe0001feffff01fefffffffe01fffe0100ff00fe00ff00fefe000100fefefefe01ff010000ff01fffefe0001feffff010000feff0001000000fefe00fe
0100000100000100fe0100fffe0001feff00fefefeff00fe00feffff01fffeff010000fffeff01fe00000001feff01fe01fefefe0100fefe010000fe01fe01ff
000000feff0100ff01fe00feff010100fefefffe0100fffe00ff00ff00fefffe0100feffff01ffffff00ffff01010101000100ff010101010101000000feff00
000100fe0001fffefefefffeffff000101fe01fe00ff0101fffeff00ff01fffe01feff0100fffeff000101ff0001fffffffe0101fffefe010000000100fe0000
ff01fffffe01fffeff01feffff01fffe00ff01fefe0101010001010000010101ffff00ff00ffff00000100ff0101000101fffffe00feffffff01fefefffffffe
ff01fe01fffe000100fefe00ff01fe00fefeffff00ff00fefe01ffff0001fefffefe0101ff0100ff01fffe00fefe00fefffe00fe0101fffe0100fefefe01ff00
ff01feffff01feff01ff0100fe0101fe0001ff00fefefefefe0101feffff0101010001feffff0101ff00fffeffff00fe01fefefe01fefeff00feff00ff0101ff
fefeff00ffff00ff0101fe00fffe01fe010100fffe0101fefe0100fe0001ffff0100fefefffeff00fefe00fefffffe01010001fffffeff01ff00fffeff0001fe
