0001fe000001010100ffff01fffeff00feff00fe00ff0100fefefe00000101fefefffffe0101fe0001fe0000fffe00000101fffffeff0101fefffffe00fe0100
fffffe0100fe0100000101fe01010100fffffe000001fe01fefe01ff00ffff00fe00ff00fe00000001ff01fffefefefeff01000001fe01010101fffe0001fe00
fffefffeff0000000001fe01fffe01ff01ff0001fefffefe0001ffff01ff000000fe0101fe0100010100feff00fe0000fefe00ffff00feff00fefefe01ff01fe
fffe0101fe0000ff01000000fffe01ffffff0101fe00fefefeff01fe00fe01fe01fe000100ffff00fefe0001010101ff0000feff00fefe00ff000101fffe00ff
01fffe0101fe00000101feff0000fffe000101ff0001ff0100fe01fe000101fe0100fffefefffffefe01fe0100000101fe00ff0101fffeff00ff0101fefe0001
fe01ff01fefffefffffe01fffffe0101000101fefffe0101010000ffff01ffff0101ff0100ff0001ff00ff01ff000000fe0101010101fffe010101fefefefffe
ff000001fefe00000000000001fe000000fefe0000fe0001fffffe00fefe01010100ffff01fefffefe000101fefffe000001feffffff00fefe0101fffffffeff
fffe0100ff0101000000ff0000feff000101ffff00ff01ffff010000fefe01fffe00ff00fffeffff01fe0101ff00ff01000000ff00ffff000001010000fffe00
00000000000000000000000000000000000000000000000000000000000000000000000000000000000000000000000000000000000000000000000000000000
ffff00feff01fe0001ffff00ff0000010100fefefe0001ff01ff000001fffefffffffefffeff01000100ff0101fe0100ff0001fefe0101ff0000fe00fefe01ff
fffffe01fe01ffff00ff0001ff00000101fffffffe0101ff0001fefe00fe01fffe0001fe01ffff00feff00ffff000100fe000101fefffe0001feff01ffff0100
01010101fe01ff0101fe000000fffeff010100ff0101ffffffff010101000000fe0101fe00ff01010101fe0100010101fffefefefefefe000000feff010100fe
01fe01fefe01fefffe0000ff0000ff0001fefffefe0101fe01fffffeff01fe000101000100000001010000fefefeff010101ff01000001000000000101ff01ff
fffe0000fefe01000001000000000001fefefe01fe000001010100ff0001ffff00fe0001fefefefffe0101ff010000ff00ff01fe01fefefffffefefeffffffff
fe0000fefe000001ff000000fffeff01ff0000fefffeffff0001fffe00fffefeff0101fe0100ffff0101feff01feff00fffe0100fe0000ffff01ff01000000ff
01010000ff01fffefe01ff01ff010101fe0001ff01ffffffff01fffeff0001ff0000fffffffe01fe010000fe01fefefe0101fffefefefeff0101ffffff010100
0100ffff010000fe01ff01fefefefe010100fffefefffeffff0000010001010001fe010000ff010000fe01fefe010100ff00ff01fffffe01fefe000001010001
00000000000000000000000000000000000000000000000000000000000000000000000000000000000000000000000000000000000000000000000000000000
feff00fe00ff0101fe0101000000fffffffeff00fffffefe0101fe0101ff01fffe000001fffe0000fe0001fe00ff00feff00fffe00feff0101fefffe0000fffe
000101000001ff01ff01fefffe000001fffe000001fffeff01fffeff0100fefffffe00fefffeff01fe0101feff0101ff00fffffe0101ffff0000ff010001ffff
00fe01ff010000fffefffeff01ff0001ffff0001feff00010100ff01fe000000ff01fe000101010000ff01feff00fe0001fffffe01fe010000fe00fe01fefe01
ffff0000fe000000000000ff0001fe010101ff00ff0000ff0000ff00ff00ffff01feff000100ffff0000ff00fe01fe01fffeff000001fe0001fe0000ff0100ff
ff01fffefe010001fefefffe0101ffff0100fe01fefffe01ffffff00fefefe01fefffe01fe01ffff01ff010000fefe01fffffe0001fe01fe01000001fe01fe01
0000ff0101ff01feff01010001fe00000001fefefefe0101feff01010000fffe01feff0100fefeff01010001fe010100fe00fe0000ff00fffeff0000fe01fefe
01fffe0000ff0001ff0100000001ff010101fefefeff01fefeff00fe0101fe01feff00fffefeffff01fe000101fffe01fe01fe00ff0101fe01ff0101fe01ff01
ff0101fe00fe01feff01ffff01010001feff0100fefffefe01ff000100ff01fffffffeff00fefffe0100fefe00fffe00ff00ff00ffff01000100fffffe01ff01
00000000000000000000000000000000000000000000000000000000000000000000000000000000000000000000000000000000000000000000000000000000
