01fffe00fffeff00ffff00010101fe0000ffff0000000001fefffffefffffe00fe0001000000fffe00ff00fffffefffffe00fe00fe010100ff01010001fe0001
fe00fe01fffeffff0101fefeff00ffff01fe0001fe01ff0000feff0101fe00fe01ff01fe01fefffe00ff0100fe01ff010100010000000101ffff01fe01000001
ff01fffe00fe0000ff00ff010001ffffff0001ff01fe00fefffe01fe00ff0001fefe0101ff01fefe000101fe0101fefffffe00fe0100fffefe00ff00feff00ff
ff01000101ff01010101fefe0000fefeff00000101fefefe01000001ffff0101fefe000001feff01010001fe010101ff01feff0000fffffefe010101ffffff00
010100fffefefe01ff0000fffffffffffeff010101fe01ffffff01ff01fe00ff010000000100fefe01fe0001fffefe0001ff00ffff0001feff0000fffe0100ff
fffeff0101ff0000fefffe01fe01010100ff0000ff010100fe00feff0000ff0101fffefffffe00ff00fe00fe0101ff00fe01fffe01ff01ff00fefefe01fffe00
0000fefe000100ff00fefe0100fefefefe00ff01fffffe0101fe01fffe01fefe0000fe01fffefe00feff0001fefffefeffffff00ff00ff0100feffff0100fefe
fefefe0000ff01feff00fe01fe0101fe010100fe00fefefefe0101fffefe0101000000fefffe01ff000101ff00000000fffe0101010101fe01ffffff000000ff
01fe0001010000fffefe01fefe000100ff000100fe00fe0000ff01ff00ff00ff00ff01fe0001feff01fe00000101ff01fe00ff00ff000000fefefe00fe010100
ffff01fefefe00ff010001fe01ff01ff00ff00fefe01feff0101fe01000001fe000001feff0001fe00000100feffffffff0100feff01000000fe00ff01fefffe
ff010000fe000001fefe0000ffff01fe0101fe01fefeff0001ff01ffff00fe0001fefefe0101ff00fffffe00fe0100fefefefefefe00ff0000fefefe0001fe01
01fe01000101ffff00fe0101fefeff0100000101010101ff0000fffefffeff0101fe0101fe0001fefe01fffefffffe00fffffe0001010001ffff0000fe0101ff
fe0000ff0101fefe00fe01ff01fffe00fefeff0101fffe01ff000100000000ff01fffefefffefefeffff01ffffff01ffff0101fe00fe0001ff01fefeff0101ff
01fe00fe0100010100ff00fefe0101fffffefefefffefffffeffff00feffffff01fffefe01fffeffff0101000001fe00ff00ff01ff0101ffff0001000101feff
010001fefefffe0100fefe0001feff01feff01fffefefeff010101ff01fffffeffff00fefefeff000100fefefe0001000100ff01ff01fefeff0100010000ff00
fffe00000001fe0000ffff01010101ff010000010000010101ffff00ffffff010101ffff01ff0100fefe01ff01fe00fe01ffffff01feff0100fe00ffff00feff
010001ff000100ffffff00fe01fe010101ffffffff01ffff0000010100ff0001ff01fefeff01fe0100fefffffeff01ff00fe00fe0100010000000101fe01ffff
00feffffffff010101010101fe01fefffffeffff01fe00ff01ff00010101ff01fefefffe0101ffff00010100010101feff01fffe00fe00fffe01000001feff01
fffefe00000101ff01fe000000ff00fefffffefe000101fffefe0101010001000001fe0101fefe01fefe00000001000101feff00fffffeff00fefeffff010101
0000fffffe01fe01feff00000100fe00ff01fffefefe0000fe01fffe010101fe0101fe000001ffff0100ff0100feff00ffff0100fefffefefe0100ff00fe0100
ff00fefffe0001ff01ffff000000fefe0000ff01ff00ff0101000101fe01ff0001ff000000000001010100010001ffff00ff0100fffefe01fffeff010101fffe
ffff01ff00ff000000ff0101fffe00fefe00ff0101fffe0001ff0001ff00fefefefe01ff010101fefe010101fefe01ffff01fefffefeffffffff0101feff01ff
feff01ff0100ff0101ff0101fe00ffff0101fefefefeffff0001ffffff01ff01fffefe0100fffefe01ffff00feff01fffefefe01fe01feffffff0001fffffffe
01ff00ff0001ff01ff01feff0100feff01feff0100fffeffff0101fffefefeff0101fe00ffff0000fe00ff01ff000101ff00ff00000100fffffe0000ffff0000
