01fefffffe00fe0000fffe0101fffffe00fefffeff01feff01fe0101fffe01fe00fe010001feff0101ff00fe000001fffefefeff01ff0000ff01ffffffff0100
ff0101fefe01ff0100000100ff01ff01fe00fe0100ff01ffff00fe00fe0000010100fefeff01fffe0100fffe010001fefefffffe0001feff0101fffe00ff01fe
00fe00ff00feff00fe00fe0000feff0001fe0001ff00fe0101feffff00fefffe01fefe000000fefe000101fffffffeff01ff000100fe0101ff000000ff01fe00
00fefefefe0100fffe0100feff000101fffe010100feffffffff0001ff00fefefffefe0101ffff01feffffff00feffff0100ff01010001ff00fefe00fffeffff
010101fffe00fefeffffff0100fe01ff0100fe01010001000101fefffffeff0101fe0100fe00ff01ff01fe00fe010101fffe01ffff00fefe0100ff0001feffff
fefffffefe0100000001ff010101ffffff0101fffeff01fe01ff0000feff00fe010000010100fffe00ff010001fffe0000fefe01ffff01fe01fe000001fefe00
ff00ff01fefefe000100ff01fffffeff01ff00fffe00feffffff0101fefefefefe01ff0101ff01fe010000fe01fefeffff0100fe00fe01ffff0001fffe010101
0101fe00010001feff01fefeff010100ff01fefe0100fe00fe0101000001ff00fffffeff0101ff00ffff010101010001fffe01ff010001fefe01fffeffff0001
00000000000000000000000000000000000000000000000000000000000000000000000000000000000000000000000000000000000000000000000000000000
00ff000001fefeff00fefffefeffff00ff00fffe01fe0000fe0000010000fffffefeff0000010101fefefffe0001fe01fefe0000fefe00fefe01fefffffefe01
01fe00ff00fffffffe01010000fe00fefffe0101ff00000100fefefffffffeffffff01fe0100ff01fe00fe0101fe0100fefefe00ff0000fefffe010000010001
fffe01fe00fffffe010000fffefeff00fefffe00010101000001ff01fffefffe01fefeff00ff0101fe0000feff01ff00fe00fe01feffff010101fffe0001fffe
0100ff00fefe0100fe0101fffeff0100fefefffe00000100fffffffe010001010101ff01000000ff01000001fffefeff000000fefefefefefe00fe0100fe0000
fffefffffffffe010000fe0101fe0101fefe01fffefeffff01feff01ffff0101ff01ffff00ff00ffff0101fe00ff01fe01ff00feff01feff01fe01fffefffe00
000101ff010100fe00ff00ff01ffffff00ffff0100ffff0101fffefffefffeffff01fefffffe0000ff01fe00feff00fefe01fe01ff00fefffffeffff01ff0100
ff00ffff0000fefefefeff0100fe0001ff00fffe01fe0101fe00fffe0000000001ffff01fe000001000101feff01fe010100fffe0101000100fefe00fefeff01
fffefffefe00ff0000fffe01fe00fffefefe0001ff00ff0101fffffefe000001fe00fffefffefffffeff0000fe01010000fefe0101fe01fe0100ffff0001ffff
00000000000000000000000000000000000000000000000000000000000000000000000000000000000000000000000000000000000000000000000000000000
0101fe0100ff0001fefefefe00ff0100000000fe00fe01fe010000fefefffffefe01fefeff00ffff0001fffeff0000fe0101ff000001fe01fe01fe01fe01ff00
0001ff01fefffffeffff0001ff00fe01fe01ff00fe00fe01ff0101fe0100ff00ff00fe00000000fefe01fe00ff00fe0000fefe0101ffff00010101fe00ff00ff
fe0101fe010101fe0000ff0100fffeff00fffe01fffefe010100010001ff00fffffffffffe00fffe01fffffe00fefefe00ff00fe01fffe00fffefeff01fe00ff
ff01fe0000fffefffffe00ffffffffff00ff01fefe01feffff01010000fffe00000100000001ffff00fe01fffffffefefeff00ff0001fffffefe00ff00000001
feff0001000001fefe01fefefe00fe01feff01fffefefe0101fffe00fffefeffff00ff01fffffe01fe01ffff00fefefefefe01ffff0101ff010101fffe0001fe
0101fe00fffefeff0000fefe0000ff0101feff01fefe010001010101ff0100fe00feff00000001ff01fffe01ff0100ff0000ff000101010000fe01fe01ffff00
01ff0000feffff01ff0001010100000100fefffe0001fe00fffffffe00ffff0100fffe00fefe00fffffe00ff00ff01ffffff0101ff00fefefefe01fffeffff01
fffeff0100000100fffe01ff00fefffe00fefe00000100ff01ff01feff0000fe00ff0001fe000100fffe0001fffe0000010001fefe01000001fffefe00fffe00
00000000000000000000000000000000000000000000000000000000000000000000000000000000000000000000000000000000000000000000000000000000
