0000fe01fffffffffe01fefefffe0100ff000000fe00fefffe010001feff0001feff0101ff0101ffff000001010100fe0101000101000000fe01fefefeff00ff
fefefeff000001ffff00ff00fe0101ff01fffffe000101000100ff00000000fe0100ff01010001ffff01ff0001ff01fe0101000000fffeff010100010000fe00
ff00fefffe0100000001ff00ff00fffffffe000000ff01fe010101fffefefefe00ffffff0001ff00ff0101feff00fefe01fe01fe00ff000100fe01feff01ff00
fffefffefefe01fe01000001fe01000100fefffeffff0001fe01fe010100ff00fe01ff01fefefefe0101fffe00010000ff0101fe00fffefe00fffe00ffffffff
0000ff0000feff010100fefe01fefeff00ff010001010000010100ffff00fffffefefe01ff0001ffff0000feffff0101ff01ffff00000100ffff01010000ffff
0100ff0000010001fffffeff01fefe0001feff01fffffefe0100000000fe01ff00fffeff01fefefe00fefe0000fe0001feff010001fe00fe0101010101fe01fe
fffe0001ff01ffff0101fefefe0001ff00fefffe01ff01feff0100ff0001fefefffe0100feffffff00fefe01fe0001fe01fefe01fffffefefffe010001fefefe
fefe01fffefefeff0001ff010000ff0000fe01feff01fffe000101fefefffefefe01fffffe01ff0100fefffffefffe0100ffffff01fe00fe00fefe01fe000001
00000000000000000000000000000000000000000000000000000000000000000000000000000000000000000000000000000000000000000000000000000000
00ff000001fe01fefefefe00fefffe00fe00fe010000fe0000fffefffffeff01ffff010100fe0100fffe00fe01ffff0001fefeff00fefeff0001000100ff0000
0001fe0100fe01ffff01fefefeff0001fefe0001fe0001010100fe010100ff0100fffe0100ff01fe00fe0001000101ff00fe01fefe00fe01fe00fefffefe01ff
fe000000ff00ffffffffffff010001fe01ff01ff00fffe01000000fffefeff01feff01fefefeff0100fffe0001ff01fefe01fe00ff00fefeff01fefefe0000fe
ffff01ffffff0000ff010100fe010001ffffff00feffff01fefe010001fefffefffe010100fffffeffffff00fffffefffefefffffe0101fe0100fe00000000fe
00feff000100fefefe010100ffff000001ffffffffffff00fefffe01fefeff0001010100fefefefe00ff00000000fe000100ff00000001000100010101feff00
0001ff0001fe000100fefe01fffe01fffeff0001fefe0001feff00fffe0001010100fefffeff00fffefe000101ff010001fffefe00ff000101ff01ff00fe00ff
fffffe0001ffff01010000010100fe01fffefefffefffe00fefe010000ffff00ff0001feff00feff00fefffffe00fe000000fefefffefe0101ff0101feffff01
fefeff00ff0101fffeff010101fefe0100ff01fefefefffeff01fffffefffffefffffe0100000001fe00ff01ff01fefe0000fefffefefe010100fe0001fefeff
00000000000000000000000000000000000000000000000000000000000000000000000000000000000000000000000000000000000000000000000000000000
ff0101fe00ff01fe00fefe0100fe01ff00fe000100ff0100ffff01feffff0100010100ff0001ff00ffffffffff0100ffff00fefefe01ff01fe01010100fe0000
fffefefffffffffe0000fffeff01fffffeff0000ff010000feff00ff01fe00fefeff0100feff01ffff01ff0100010100ff01ff000000fffefe0000ff01ffff01
0101010100fefe010000000000feff0000fe00fefefe0100fefe0000fe000100feffff00ff0001fe0000fe010101fe000100fe00fffefefe00ff000001fffffe
ff00fefefeff000001fefe01ff0100000100010101010000ffff000100fefe00fffeffff01fefe01fe00fefefffffe0001fe010101fe01ff0001fefe00ff0100
fefe010101feffff01ffff01ff0000000000fefe01fe010100fffefe00ff01ff01ffff01fe0100ffff000100fffffefe0000fefefffeff01fefefe01ff010101
fefefefe000100000000fffe0101fffefeffff0001fe01fe01ff00feff010000fe00fe010001fe0101fe01ff01feff01ff0101ff00fe00010100fe00010100fe
fefe0000ff01fffffffe0001ff01ffff00fe000101fe00fffefffeffff00ff00ff000100feff00fe00fffe01fffe0101ff0001ff010100fffefffeff00feffff
fe01ff01000100fe01fffffe01fefefffefe01ffff00fefefffffeff0000ff0100feff01000100010101fffe00fe00fffe01ff01fffefffffe0000ff01fffeff
00000000000000000000000000000000000000000000000000000000000000000000000000000000000000000000000000000000000000000000000000000000
