01fffeff00fffe0000010000fffeff00ff0100fefe00ff01feff01fffffe00010101ff0101fefffefffefe00fffeff010101fefefe0000fe01fe010100010001
fe0001fffefe01ffff01fefffefe01fe00000000ff01feff00ff010000ff01ff01feffff0000fefeff00000000fffefe01fefeff0000fe00ffff000001010101
0000000100ff00fffffe00fe01ffff0100fffe0001fefffe010000fe00010101000100fffe01fefefe010101fe0100fe01ff00010001000101fe0100fefe01ff
00ff0101fe0100000100ff010100ffff0000fffe0001fffe00fefe0000fe01ff0101fe01fefe01fe01fe0100feff0101fefefffffe0000010000feff01fefefe
