00fefe0001000101fffefffffefefe0001ff01fefffefe0000feffff01feff0101fffeff0100010100ff0000010101ff00fe000000000100ff01fe0101fffeff
00feff010001ff00fefffefe0001ffffffff01ffff000000ffff0001fefeffffff00fffffe01feff00ff00ff00fe00fffffefffffefefe00fffe00ff0101feff
01feff01fefeff010101010100000101fffe01000001ffffff01fe01fffffffe0000ff0000ff0001fefefe00fe01fe0101fe00fffe0001fe00ff0100ffff0000
0100ff01000001ff0101fffeff01ff00010001ff01fe0001fe0001fefefe010001feff01ff00ffff0100ffff010001fe000001fe01ffff00fefe00ff01000100
feff000100ff00ff010000ff00000100fefefeff00ff00010000ff000000fffefeffff0101feff0000fe010101fe01ffff00fe01fe00fffefe00ff01fefeff00
0101feff00fefffefffffefffeff01ffff01fefefeffff0101ff00feffffff0101ffffffffff00010100ffff00fffffefe00ff00fe01ff0100ff000101fffefe
0000ff01010101fffefeff0001ffff010001fe00fe0101fffefffffeff0001fffeff0100fe00010101fe010001fe00000001fe01ff0101010100fefefefeff00
0000fefe00ffff010101ffff00000100000100fffefe00fe0100ffffff01ff0100ff01fe000001feff0000ff0101ffff01010101fffefffffe01ff010100ffff
00ff0000fffe0101fe000100ffffffff01fefffefe000000fe010101fefffefe010101fefe000001fefefe00fefffefe0000fffe000000fffefe0101fffeffff
01ff00fe00ffffffff01fe000001ff01ff0000fffe00fe0001fffe0101fefe000001fefefffffe00fe00fe00fe000000feff01010001fe00fe00fe00fefe0101
fffe0101fefefe0000fefe01fefefefefe01ffff0100010001010001fe01fefffe00ff000000fffefe01fffefe0101ff01000100fe00fffeff01fffe00ff0001
fefeff0101000100fe01fe000000010101ff0100fefe0000feffffff00feff00ffffffffffff00ff00fffe000001010100feffff0001fffeffff00ffff0001ff
fefefe00feffff0001fffefffeff01fefe01ff00fffeff00010000ff00fe00ff00ff0001ffffff01ffff01ffffff00fefffefffefefe00feff0000fffffefe00
0001fefefe00fefe01fe00fefe00fe01fe010001fefffeff0101ff00fe0100fe0001010100ff01fe01fefffeff0001fe0000fe01fe0101fe0001fe010000ff01
fe0101000100010101ffff0001ff010001ff01ffff01ff00feff00fe01fe01fffefffefefe00ff01ff000001ff00ff01ff01ff010100feff00fe01fffffefe01
010000ff0001fe0100fe0100ff00fefeffff0001fe01ff0100ff01ff0101feffff0001fe01fe01fe01fe01fefffeff01fe01feff0000000001ff00ffffff01fe
fe00fffe01ff0100fe0001fffffffe01fefeff00ff01ffffff01fe0101ffff0101fefefefefeff01fffeff01fe0100fe0001010001feff0000fffe00fffefffe
ff00fffe0001ff010001ff00000000000101fe0101000101000101010000ff000100fefeff01fefefe01ff000101fe0100010001fe00010101ff01feff00fe01
fe01fe000001ff0101ff00fe0001fffefefefefefeffff0000ff01fe01ffffff0101ffff00fe0000fefe01fefe00ff00ff01000001ff00fefefe01fffe00ff00
fffffeff0100ff00010000feffff01fffe0001ff0000fe0100fefefe01fefffe0101fe000101fefffefe00000100fe01ff0101fefefefffe00fefffffffe01ff
fffe01fefe010000feffff00feff0101fffeffff01fefeffffffff00fffffeff0000feff00fe01fe01ff00ffff0000ff0001010001ff00fe00ffffff01fffffe
fe00fe01fefe000000fffe01fffffe0001000000fffffefefefefffefeffffff000100ffff00010101feffff000101fefe0101fffefe00fefefe0101fffe0100
00ff00fe0101ff00010000fe01fefefeffffff00ffff00fe01fe01000001fe00ff00fe01fefe00ffffffff00fefefe00fe01000000fffefffeff0001ff0101fe
01010100ff00fefefeff00fefe0001ff00fffeff01ffffff00ff00000101fe01fe0101000101fefffffefffe010001ff01ff0001010101ff010001fe01feff01
