fe00ffff0101fefe000001fffefffefffe00fe01fffeff0101feff01ff00ff01fefffe01fe0001fefe01feff00fefefefefe00010101fefe0001fe00ffff01ff
01fffe0000ff000000000000ff000101fe01fffffe01fe0100ff01fe00ff00fffe0000ff01fffffe0100ff000100fefe00ffff0000feff0001000101feff01ff
feff0000fe00ff0101010100fefe00010101fe01ff0001ff00feffff01fefefffe00ff000000fefe01010000ff01fffeffffff01fe010001fe00fffefffe0101
010001fe0100010001fe01fefefe0000ffff0100fffe00fe01fefeffffff010101fe00ffff00fffe00fe0100ff00000100ff0100ff00ffff010100fffefe01fe
01ff01ff00ff01fe00fefe01fefeff01fe00fe01fe01fe01ff01ffffff000000feff00010001fe00fe0101ff0101fffeff01fefe0000010101ff00ffff01fe00
00fffe00fe00fe0001ff0101fffffe0101fe0100fe00fefefffffefeff01ff00fe000100fe0001fe0100fffe0001fefe0100fefefffe0001ffff01010101fe00
0000ff0000ffff01ffff00ff01ff0101fefe000100feff0101fe0000fe000101ffff01fefefe010000ffffff010100ff01fe000100010001fffffeffff000001
fffffefffe01000001ffff01000101fffe00010000000101000000000101fefefefeffff00ff00feff00000101ff0000fe0101fe0000fefeffffff0101fe0100
00000101000101ff00fefefefffe0001ff00fffe01fefe0100fe00fffe0001fffefffffefffefe01fefe0100ff0001fefe0001fe00feff0001fefefefefeffff
0001ff0000fe01fefe00fefffefffffefe01000000fffe0000ff00ffff00fffe00fe01feff01feff01fe000101feff0101fe000001ff00ff0101fefe00feff00
fefe00010001fe0101fe000100fe00fe01feff00fffe000100fefeff01fe010100fefe01fe01fffefe0101000101fffefefeffff00fefeffff00fefe0001fefe
ff00feff00fe000000fe01ff01fefefffeff010100fffeff010001fe0100ffff0000fffffeff010001fe01fefe01fefeff0001fffefffffefefe0101fffe0100
01fefe01010000ff0100fffffefeff0001fe01fe010100fe010001010001fffffe0000010101feffffffffff010000feffff0100fefefeffff00ff01fffe01fe
ff01000000fe00ff00ff010100fe00fffefefefefffe01feff00fffe00010000fe0101ff0000000101fe00feff00ff0101fe00ff01fe01fefffefeff00fe00fe
00fffe0000fffe00fffffe00fffefffefe000000fefefefefffe0000fffffefefe01fe01ffffffff01010101ff01fe01ff01fefffeffff00010100fe00000001
feff01010100000101fe0101fefffe01ff0101fefe0000010100fffe01fe00fe0001feff000001fffefefffe0101fefefe0000fefe01fefefe000100ffff01ff
