fffffffe0100fefe01ff01feff00fe00000000fefeff00fefe0001ff0001fffefe0000feff01ff0101ff00fefffeff00feff0101010101fffffffffe01fe01ff
fe01fe0100ff010001fe01ffff01fefe0100fffe00feffff0000ff00fe0100fe01ff01000000010101fefefefe00fffe0101fefe010000fffefffffffe01fefe
0100fffe0001fe01fe0001ff000100000001ff0001feffff01feff00fe00fffffe00ffff000000ff01000100fe01ff01010000feffff0000fe00fe00fe01feff
0100fe01feff00fe01fe00fefe01fffeff0001fffffffe0100010101010001ff0000fffefefe01fe0100fefffe000000feff000101fffffeff0101fffffffeff
fe00fefe00ff00fffefe0101fe01fe000100000000fe01fefefe0000ff00fffe00fe0100fe010000fefe00ffff01fffe0101ffffff01fe0101feff00010000fe
00fffffefe00ff00ff000001fffefe00fe01010101fefe00000001ff01fe010001fe00ff0001ff01fe0101fffefefffe00fe01fe00fffe01ff0000ff0101ff01
ffff010101fe0100fe0000fe0100fefeff000100fe0100fe01fe0001010101fe0100ff01ff010100fffe010100fe0001fffeffff00fe0100feffff0000fe01fe
01ffff00fefe00fe01fe000100fefe0000fffffefffefe00ffff00000101ff00fe00fefefffe0001ffff0101ff01000101feffff00fffe00fe00fefefffffe00
00000000000000000000000000000000000000000000000000000000000000000000000000000000000000000000000000000000000000000000000000000000
0101ff0100ff01ff00fe00fefe01fffeffff01fefe0101fe0101ff01fefefeffff010100ffff00ff01fffeff01fefeff00010000feff01fe00ff01ff00feff01
ff00ff01fe01fefefe01fffe000100ff000101fffeff0100ff0001ffffffff0101ff0100010000ff000000ff0001ff0101fffffeff00fefe01fefe0100000001
0100fe00fe0100ff00fffe01feffffff01feff00fe0000fe01fe01fe01ff000101ffff000001ff01fe01fefffffefffe0100ff000001ff00fffffe01feffff00
01fffe0100fefefffffe01ff00000101ffff0000000101fe01fffe00ff00ff01010101ff00010000fffefe0101ff0001fefffe01fefe00010101000000fefeff
fe010101feffff01fefeff0101fe00fefffffefefe00ff010001ffff01ff00fefffffeff0001feffff0100fffe00ff01fffe01feff00fe01feffff0000000100
fefefefefe00fe010000000101ffffffff0100fe01010101010100010000000000010000ff00ff01000100fefefe0001fffe0101010100fffe01ff00fe0100ff
fefe0101fffe01fefeffff01000100fffefeff0101ff01ff010000000001ff0001ff00fefefe010100fefe01010100ff0101fe01000001ff0000fffeff01fffe
fefefefe0100fefffe0101fe00fe0000ffff0101fefefeff0101000000fffeffff01ff01ff0000feff0001fefe0000ffff01ff00fffeffffff01010101fe0001
00000000000000000000000000000000000000000000000000000000000000000000000000000000000000000000000000000000000000000000000000000000
0101fffe0100fe01fefffeff01fefe00fefffffe00ff00fffe01fffe01fffffe01fefffe0000fefe00fffffe01fffefffeff000001ff00fefffe010100fe00fe
ff01fffe00ff0000fffefe010001fe01fefffefe00000101fefe0101fefefffefffffefe01fefefefffffffffe010100000000fefe01000101ff010000010001
01feff00fffffffe000100fe01fffe000101fefffffeff0001ff01010000ff00fe01ff0101fe01ffff01ff010101010000fe00ff01ff0000ffff01fe00fe00ff
0100fe010000ff0001fffefefe0000fe01fffefefffe000100fe0001fefe01fe01fefe00000101fe000000fefe00fefe000001ff000100ff00ff00ffff0001ff
01fefe010100ff0001fffeff00fefe000100fefe01ffff0100ff01ff01ff0001ff01ff0000000100fffefeffffff00010101fefefe00fe0000fe01fffe000000
00ff0000fefe01010000fffe00ff000000000100fffe00ff01ff00feff00fefe0100ff00010001fe010000fefe00fe01fe01fffefffefe0001010001000001ff
00fffefe00ff0000000100fe00ffff0101ffffffffffff0101fefe00fe000000fe01fffefeff00ff0101fe010101ff00ff0001fe0100fe00ff0001ffff01fefe
0100fffffe00fe0100010001ff00010001fe01fefefefefe01fe00010000fe01ff00000101fe00010001000101fe01ff0001fe0000fefe00fffe00010001ff01
00000000000000000000000000000000000000000000000000000000000000000000000000000000000000000000000000000000000000000000000000000000
