fffe00fe010000ff01fe000001fefffeff0000ffff01fefe00ff01feff0101fffffe0001000101ffff0000ff010001ff00fe01010100fffefffe000000fe0101
fe00ff0100fffefefefeff0001fe00ffff00fe00fefffe00fe0101fe0101fe01ff00feffff0101fe00fefeff000100ffff01000100fefffe00ff000101000001
00010001fe0100ff0100fffe01fefeff0000fefe01ff01fffffffe000000fefe00fefeff00fe01ffff010001feffff00fe0101fffeff01fffe00fe0001fffe00
00fe01010000ff00fe01fffe01fe01fefeff00ff01fefffe01fe01fefffefe010001ff010001ff01fefefefe00fefe00fe0101fefefe0100ff01fe01ff0100fe
0000fe0101ff01fffe000001ffffff0000fffe01fefffffefefffefffefffffe0001fefe00fe0001fe00ff00fe0100fe000101fe01fe00fe00ff01000100fe01
fefeff00fe01fe00fe00fefffffefefe00fe010101fffffefffeffff01feffff0100fe01feff00fefe0100fffeff000000000100feff01010101ff010101ff01
feff0001fe0000fe00000000feff010000fe010101ffffff01010001ffff01ffffff010000fefe01ff0101fffe0101fe00fffffe0000ff0101fffefeffff00fe
ffff01ff00fefffe0000010000000101fe01fffefefe0000ff0001fffe000101fffe010100ffff00fe0001ff010001fffe0101fffefffe00fffeff01fffe0001
01fe01fe0100fefe00ff000001feff000001ff0000ff01fe01fe000001ff0001fe01ff0101010001fffefefefe0100ff01fefe00feff01feffff0001000101fe
01fe00ff00ffff01fe0101ffffffff0000fe01fefffe0001fe00fe00000100fefefeff0101ff000101000100ff00fffe0001fefffffe00fefe00000000000100
ffff00fefffffffe0100fe01fefe0000fffffeff0100fe010100ffff0100ff00ff00ff00fffe0000010100fefe0100ffff010100ffffff0001fe0101feff0001
0100ff000100fefefffe01fe01fffffe00ff00fefe0000feffff00ffff0001fefffefeff0101ff01fe01ff010001fffe010000fe01ff01fefe01fe000100ff01
01000001fefeff010000fe0101fffffe0000fffeffffff0100feff0000fe00ff01010001fe00ffff010000feff00fe01000000fe000101ffff0001ff00fffefe
feff00ff00fefe01fffffe00ff000001fefffefffe00000101ffff0101fe0101ff0001ffff01000000ff0001fe00010000fefffffe000100ff01ff00feff01fe
fe00ff010001fe0100000100fe010000010101fefe0100feff010000fe0101fe0000ffff0100000101ff01ffff00fe010001010101010001ff000001fe000001
00fffe01fefe0101fffe00ff00ff01fe01ffffff0000ff0000ff000000ffff01fffeff00fe01ff00ffff0100feff000000ff0100fffe00fe0101feffffff0000
0100ff00fffefe00010100010001ff01ff01ff0001ffff01fefe0100000000ff00ff00fe000100fe01ff000101ff0101ff010101fe010001fefe0000fffffefe
fefe01feffff01fefefe0001fefe0100ffffffff01fffefffe00fe00fe010000fe00fe0100fffffe00ff00fe00fe0001ff0000fe00ff01fffe000000fffe0000
ffff0001ff01fefffffefefe0001010000ff0000ff01fffffeffffffff00fffe000000fffe000100fffe01fefefeff0101ff00ff00feff00fefffe01fefefe00
fe01ff01fe01fefe0100ff010101ffff000101fe000000ff00fe00fffffe0001fffe01ff0101ffff000000ff0000ffff01feff01fe010100fe01fefe000100fe
00000100feff01fffefffe01fefe01fffefe01ffff0001fefe01000100feff00fe00fefefffeff01ffffffff0001fefe0001000100ff01fefffffe01fe00fefe
01010100fe00fe000000feff00fe00fffefffffe010100ff0100fe0101ff00fe010100ffff0000fe00fe0000ff00fffe00fffefefefeff01fefffe01fe010101
fffe00000000fefe01ffffffff010001fe0000ff0100fefefefefe0000feff01fe01fe0101fffefefffe01fefeff010000ff01fe00000000fefe01fefffffe00
ff000100feffff010101fe00fffeff00ffff01fe0101fe00ffff0100000000fefffffefefeff00fefffffe010101ff0101fe010100fffefeff00ff00fe01fe00
