0101fffeff01fefe01fefe00fffe00ff010100fefe00fefffe0101fefffe0101000100ff000100000000ff0000ff0000fe00fefe0100ff01000000ff01fefefe
feff0001fffeff00fe00fefe010100ff01ff01010000000001fe01ffffff01fefe01010100010001ff0100feff0000fe01ff00000001fffe01ff00fefe0000fe
fefe000100000101fefefefe0000fe0101fefefffe00fe0100fffefefefe01fe0100fefeff00fe00ff000001010001fe0001ffff00010000ff01fffffffe0101
fe01fe000101ff00ff0100fe00ff000100ffff01fefe000001ff01ff01fefefeff0100fffffefeff01fffffffeffff00fffffefeff00ff00fffefefe00fe0001
000001feff01ff00ff01fefe0001feffff01fffe00fe000100fe01fffefffefe00ff00feff01000000fffffffeffff000100ff00fe00ff00ffff01ff000100fe
feffff0001ff01010000feff00fe0000feff00fffefefffffe00010101fefe0000fefeff0100fe010001ff0000fe01fefeff000000feff0001000101fefeff00
010001fefffe00000000ff01ff010101fefefe01fffffe00fffefefefe00ff01feffffff0101010100ff000101fe00fe0001ff00fe01fefeff01fffeffff00fe
ff01fefffffeffff0000000000fe01fffefeffff01fffefffffffe0101fefe000100feff0001fefeff010101fefeff00feffff00fffe0100010000fefe00fefe
00000000000000000000000000000000000000000000000000000000000000000000000000000000000000000000000000000000000000000000000000000000
fefe01fefe00ff01fefefeffff00fffefe01feff0101fe01ff00fe00fefefffefe0100feff00000000fffe0001fe01ffff00ff0000ff0001ff000101010101fe
00ff0100000101ffffff01ff010001feff0001fffe010000fffe01ffffff00fefffe0101fefefffe000101ffff01010101fffefffe00fffeff0001fe00fefe01
0100fe00fffffeff01ff0100fe00ff0100fffe00fefe0100ff0101ffffff01010001fefefe00fefefe01ffffff01fefefffe010001000001ff01fe000000fe01
00feff01fefe01ffffff01fffe0100ff000101ff010100fefeffff0000fe0001fe00fe010101000001ff00fffe000100ff00fefffefe0000ff00fe000100fefe
ff0000fffeffffff00ff01fffffe01fe00feffff000000fe00010001ff01fefffe01feffff00feff01ff0101fe00fefffefefffffe00fe00fe00ff01ffff0001
0000fe01feff0001feff0100000001ff0001fefefe0001ff0100fe00fe00ff010000ff01fe00fe00feff0101ff01fefffefeff01fe0001ff01ff000000fe00fe
01fffeff01ff00fefe0000fffefefffefeffff000101fefeff01feff010000fefffe0000fe00fffeffff01fefefffe0001fffefeff0100fe00ff01ff00ff01fe
010101feff010000fffffefe00fffe00000000fffffffe0000feff00000001fffeff010001ff01fefffffefe0101fefefffe0101fefffeff01fe00ff01ff01fe
00000000000000000000000000000000000000000000000000000000000000000000000000000000000000000000000000000000000000000000000000000000
fe00ff000101feff00ff0001ffff0100fefeff0100ffffff01ff0000ff00fe00fefe0001ff01fe01fefe00fe00ffff000000010001fe0001fe01fe00fefe00ff
00ffff0100feffff00fffffe0000ff00fe01ff01fe010100fe01ffffff00fffefe010000fefe0100010000010101fffe00fffffefe010001fe0001fefefefeff
01ff01fefe00fffefffefe0001fe000001ffff01ffff00ff000000feff0101feff0000000001feffff00000000fefffffeff01fefffe0101fffe010101fffe01
00ff0100010101ffffff01feff01fe0001ff000100ffff0100fe000100fffefefe00000000000000fefeff01ffffffff01ff000100fe0100fefffffe0000feff
000001fefffe01fefe000001010101ff0001fe0000ff01fffefe01fe00feff01fe010000010001ff0101000001fffffffffeff01fefe0000fe0000010100fffe
feff01fe01fe000000fefe01fefffe01fffefe0000fefe010101fe00010000fffffefe010000fe00ff01fefeff00000001fffeff010101fe01fe00fffe00fe01
fe01fefeff00feff000100ff01000001fefffeffff000001feff00ff0101fffeff0001fefefffefe0100000001fefe0101feffff01fffffefefffefe00fe01ff
0101feff000001010001fffe00fe00000100fe0000fffe0101ff00fefffefe010100fe0000fefe0100ffff00fefe000001fffe0001ff01ff0001ffff0100ffff
00000000000000000000000000000000000000000000000000000000000000000000000000000000000000000000000000000000000000000000000000000000
