01fe000001ff00fe01fffe000001feff0001ff00fefffefffefffefefffefeffff00fefefe010100000100ff000101010000fe0101fefffefffe00fffeff00ff
0101ff0000010001fe0000feffff0000000000ff01ff00ff01fe00fffefffefefe00ff00ffff00fe01fffefefe000000000000fffffe01000001fe00ff01fe01
00000000fffe01fffffefffffe000000fffe0101ff010001fefe0000fffe000000fffefefffefffefefefeff00000000fe01fffffe0101ffff01fefeffffff01
ff00fe0000fe01fffe000001fefffeffff010101ffff00ffff010000fe000001ffff01feffff0001ff00ff01ff0001fe0000ff00fefe0001fe010101010001fe
feff01ff0101fe000100ff000101ff0001feff00ff0100ff0000feff000001ff00010001feff01fe01fe00ff00ffff0000ff00fffeff01feff000000ff000001
ff00000101fefe0001010000ff01fe01ffff000101ff000000fffffe01fffe00fe0001feffff01fe010100fe00010101ff0100000000fffe0101ff000000fefe
0101fefeff00fffefe00ff01ff00fffe00fefeff01fffefffffffefe00ff01ff00fe01fe0101fefeff0100fffe010000fffffe010100fffffffefeffff0001fe
ffff0000fefe0101000100010000ffff010001fe00fffefffefffeffff01010000010001fefe000000fe010100010000feff010001ff00fffe0001ffff0001fe
00000000000000000000000000000000000000000000000000000000000000000000000000000000000000000000000000000000000000000000000000000000
01000000010000fe01ff01ff0101ff01fe01000000feff01ffff010001fe00010100ff010001feff01fffe00ff01fefe00fe0101ff00ff00ff01fe0001fefefe
ff00ffff0000feff0101fffe01010000010000fe00fe00fffe00010001fffefeff000100000001ffff01feff01fe00010001ff01fefffeff01fe01fe00fffe00
00ffff000000fefefffe0000fffffe00feffff0000ff00ffff0000fffefe00feffff0100fefeff000000fffe00feff00fffe000100ff00fe01fe0001fe01feff
fefe0101010100feffff01feffff01fefeffffff01010001ffffff000001fe000101ff000100000000fefeff01fe00fefe0100fffe010101fefffe000000fe01
000000ffffff0000ff01fffefefffe00feffff00fe0001fefe010101ff0101ffff00ffff0000ffff0101fffeff0001ff01ffffff000000ff0100fefefe01ff00
fefe00fefefe00ff00fffffffffffffe00fe00ffff01fefe00feff00ff010100feff0100feff000101fffe01fffe0000ffff0001ffff010100ff0000ff00fe00
fe000000feff0101fefe00010000ffff01fefefefeff0001feffff010000feff0000010100fefeff00fe0000ff00feff0100000101000101fffefeffff010001
000000fe0001ff01fe0100fe010101fe01feff00fe01010000fffffe0100000100fe0101fe010101ff000100fe000001fe01feff0001fe010000fffefefe0101
00000000000000000000000000000000000000000000000000000000000000000000000000000000000000000000000000000000000000000000000000000000
00000000000000000000000000000000000000000000000000000000000000000000000000000000000000000000000000000000000000000000000000000000
00000000000000000000000000000000000000000000000000000000000000000000000000000000000000000000000000000000000000000000000000000000
00000000000000000000000000000000000000000000000000000000000000000000000000000000000000000000000000000000000000000000000000000000
00000000000000000000000000000000000000000000000000000000000000000000000000000000000000000000000000000000000000000000000000000000
00000000000000000000000000000000000000000000000000000000000000000000000000000000000000000000000000000000000000000000000000000000
00000000000000000000000000000000000000000000000000000000000000000000000000000000000000000000000000000000000000000000000000000000
00000000000000000000000000000000000000000000000000000000000000000000000000000000000000000000000000000000000000000000000000000000
00000000000000000000000000000000000000000000000000000000000000000000000000000000000000000000000000000000000000000000000000000000
00000000000000000000000000000000000000000000000000000000000000000000000000000000000000000000000000000000000000000000000000000000
