ff01fefffefefefefeff01fefe000101fe00000100ff0101fe0100000000fe00000101fffeffff0001fe01ffff0101ff010101000001fe0000ff00010100fe01
fffe01fffeff0101fffe0100ff0001fe01fefeff010101ff01fe00010001000001000101fe00fe0000fffe010000fe01ff00000001ff0101fffe00fffe01ff01
0001000001fe01ff00fe00010101fffffffeff00fffefefffefe0001fe01010100fffffe010100fefffffefeff0000fffffe0000ffff01fffffffffefe00ff00
fe0101fe000000ff0001ffff0101fe01ffff0100feff00ff00fffe0000ff00fe00ff010100fe01fffefefe0100fe01ff01fe00000001fffefffe00010101feff
fe0100010101fefffe00fffffeffff000000fefffe00fffffeff0000fefefeff010100feff0001fefefeff0101fe00fffefffe01fffefefefefefffefffefe01
fefe01ff00fefe000001feff00fefeff0100fe000100ff010001fefeff000101fe010000fefffe0001fffffeffff01fefffefffe0100ff000001fe00ff00fefe
00fffe000000fffe0000fffe00fe00ff00fe010001fefe00fe01fefefe00feff00ff01ff0000fffe01fe00fffe01fefe01feff0101fe0100feff01000100feff
ff00fe01000000fffe0001fffffe01fe0001010100ff00ff00fe0000fffffe000000fe01fffeff00fe00ff00ff01ff00ff00fe000100fefe00fffffe01fe01ff
ff0001ff000100feffff000001ff010000ff0001fe0101fe01ff00ff010000fffffefffefeff01000000000000ff00ffff000000fffffffffefe000100ffff00
feffffff00000101fefffffe00ff00fe00fefefe0001000000fe01ff0001fe01ff0001000101fe0100ff0001010000fffffefffefe01010001fefefe00000101
0000ff000001feffff01000000ffffff010101ffff00fe0001fe0100fffe01ff01fffefefefefefeff00feff010100fffffe01ff0000ff0000fefefe01ff01ff
0101ff010101ff010000ffff0100fe01ffffff01ffffff0000ffff01ff01ff00ffff0000ff00fffefefeff01ffff00ff00ff010101fe0001fe01fffffe0000ff
fe0001ff00ff000101fefffeffff01fefffeff0101010100fefffe01fe01ff00fffe01ff00ff0000fe0100ff01ff0100ff01fffffefe01fefeff00010001ff01
00fefffe01fefe00ff01fe01fffe01ffff00000101fe010001fefefe01feff000001fffefefe000001fe01fffe00ff010001010000ffff000001fe0100fe0101
0001ff00fe0000fe01fe01fefe000101feff00feff0100fe010000fffe0000fffffeff0101fe00000000ff0001ff0101fffefe000100010001fe0101fefeff01
0100ff000100fffefefe0000fe01fefefe00000000feff00ff0000ffffff000001fffefe0000fffffffefeff01fffe01feff0000fe00fffe0000ff01fe0000fe
0001feff00fe0101fefe01fe0101feff01010001fffe0100fefffe00fe0100feff010101ff00ff01fffefe00ffff000100fefe0000ff0000010001ff00fffefe
010101fffefe00ff00ff010000fefe00010000010101ff00010100fefefe00fffffe000001fefffffefefe00fefffefffe00fe01fffffefffe000000ff01fffe
00feff0100fe00feff00fe01fffe00fe00000101fffffefe00fffe01ff0101fffefeff0101fefefefeff01000000fe0000ff00fffffeff0101fe01ff0100fffe
ff0001fe00fe0101ffff0100fefefeff01ff00ff0101000001ffff01ff01ff00fefefffefe0000fe00fefe00fe00ff0100fefffeff01ff0000fffe0100ff00ff
0100ff0000feffff0000fffefefeff01fffefeff01fe00fe0101fffffeffffff00fefe00fe01fe01fefe0101feffff000000ff01fffffffe01000000fefefe01
0100ff0000000000feff00fefffefefe000001010001fefefe000101ff0101fffefe01ff01fefefe00fffefe0001ffff000100fffffefffffffffffefeff01ff
ffff010100000001fffe0001fe0100ff0000fe01fefe000100fffeff0101fefe01ff01fefffffe010000ff010101000100fe00fffefffffe01feff010101fffe
01fefefffefefefe0001fe00000100ff01ff01fffefefe01fffe01010000010100ff01fe000100fffefeff0001feff01ff00fe00fffeff00ffff000100fffe01
