fe01fefe0100feff010001fffffffefefffefffe00ff000000ffff0101010100feff0100ff000000fe010001fffe0000ffff000101fffe0000fefefeff00fffe
fe0000fffe000001ffff000001feff01010001fffe0101fe01fffeffff00fe010100fefe010001ff01ffffffffffff0101feff01ff01ff0001fe0101fffe0000
fe01fe00fe00fe0100fe00ff01ffffffff01010101feffff01ff01000000fefe00fffe01fe0100fe010100fefefe01feff0000fefe00fefe01feffff000001fe
01ff00ff0100ff00ffff00ff00feffff0000fffefe0000ff00010100feff0001ffffff0100fe00feff00fe0001ff00ff0001ffff00fefe010000fffffffeff00
010000fe0000010101fffe000000fe00010101ff01fffefffeff0000ff01fefefffffe01ffffff00fefeff00ff00fe0100fe01ff0000ff01fe0100ff01fefffe
0100feff00fffefe00fffe01fe01ff00ff01fe0001fe01fefffefe0100feff0101ff00ff01fefe01fffe00fe01fefe0000ff00fffefffe01000000ffff01ffff
01000100ff0000feffff0000fefffe00fefe0100ff0001fefeff00fffe0000fffeff01010000ff00010000fe000001feffffff0001010000ffff01000001ffff
fe0000feff01feff00fe0000feff00010101ffff000101feff00feff01000101000000ff00fe00ff0000ffffff00fffffffffeffffff010000ff00ff01fffe01
00000000000000000000000000000000000000000000000000000000000000000000000000000000000000000000000000000000000000000000000000000000
fe0100fefe00ff0101feff010100000100ff0000feff00fefe01fffe01fe000001fe00fffefffe0001ff0101fefefeffff0000fffe0001fefffefefeff00ff01
fefe00fe0100fe010000fe01ff01ff010001ff0000ff010000fffffefefe000000fe0001ff010100feffff0001fe000100fefffffe01fefffefffeff01ff0000
00fffffe00feffffff0000fffefffeffff01000100fe0000fffe00ff00ffffff01feffff01000100ff0001ff00fffeff0001fffffeff000101feff0100ff01ff
00fe01fffe0101fe00fe000101feff01ff01fefeff0000ffff01ff00fe00ffff00fe00fffe0101ff00010101ff000100fffefeff00fffe01ff0000fefefeffff
fe01ffffffff0101feff0101ffff01ff00feff00ff01fffe00ff00fffffffffefffe00fe01010000feff0101ffff0000010001000101fefefe010100fe00fefe
00010100feff01000001fefefefe00ff0001feff00ff01fefeffff000100fffe0100fe01ff000001fe0001ff0100ffffff00fefffe000100fefeffff00010000
ff01010001ffff010100fffeff00fefe0001fe00ff000000fe00fe01fefffe00fe0101feffff01feffff0001fe0001fffefffefefe010100fe0001ff0000ffff
fefe00fefffe0000000000fe00fefe00fefeff0000fe00ff0001fefefefeffff00fefe010001fe0000fffeff01000100ff0101fe0000ff01010001ff010101fe
00000000000000000000000000000000000000000000000000000000000000000000000000000000000000000000000000000000000000000000000000000000
00000000000000000000000000000000000000000000000000000000000000000000000000000000000000000000000000000000000000000000000000000000
00000000000000000000000000000000000000000000000000000000000000000000000000000000000000000000000000000000000000000000000000000000
00000000000000000000000000000000000000000000000000000000000000000000000000000000000000000000000000000000000000000000000000000000
00000000000000000000000000000000000000000000000000000000000000000000000000000000000000000000000000000000000000000000000000000000
00000000000000000000000000000000000000000000000000000000000000000000000000000000000000000000000000000000000000000000000000000000
00000000000000000000000000000000000000000000000000000000000000000000000000000000000000000000000000000000000000000000000000000000
00000000000000000000000000000000000000000000000000000000000000000000000000000000000000000000000000000000000000000000000000000000
00000000000000000000000000000000000000000000000000000000000000000000000000000000000000000000000000000000000000000000000000000000
00000000000000000000000000000000000000000000000000000000000000000000000000000000000000000000000000000000000000000000000000000000
