01fffeff00ff010001fffe00fefffffe01fe0000010000fffeff00010001fe00fe01fffffffe0100fffe00ffffffff0001fefe0101fefefe00fffe00ffffff01
fefffefffefe0000fefe00ff01fffe00010000ff000001fe0000fefeff00010100ff01010100feff00ff010100ff0000fe0100fffe00fffefefe00fffe0101fe
01fefe00fe01ff00fe01ff0001010001ffff00feffff0100ff01010101ffff0000fefefffffeff01ff00ff00fffefefe01fefefffe00000001fe00fe0001ff01
fe00000001ff0100ff01fffe01ff0001ffffff01000100fefffeff0001ffff000101fe0100fffffefeff0000fffeffffff01ff01fefeff01fe01fe00ff010001
01fe00fe00ffffffffff01ff01fe0001ff0001fe00fe00feffff00fe00fefffe01fe00ffff00ffff00ff00fefeff00ff00fe0101feff000000fe00ff00feff01
01fe00fffefeff0100ff01feff010101ff0100fffefe010000fefeff010001fefefe00fefffefe01fefe0101fffefefe01fefe0101fe0001ffff01ff00ff01fe
feff00ff01ffff0000fe00fefffe0101ff01fffffffe00fffe0100fffffe0101fffefe00feff01ffff00fe000001feff01010000fffffefefeffffff00010000
00fe01ff00ff0000ffff0101010001ff00ff01feff01feff000101ffff01ff00ff0000fffffefffffe01ffff0001ff000100ff0000fe0000fe0000fe00fe01ff
fefefffefffffeff0100ff00feff00ffffff01fffffefeffff01fe00010101ff01fe00fe01fe01fe01ffff01ff010100000101ff0001fe0001fe0000ff0100ff
fefe01ffffff0100fefffffe000100fffffffe01ff00fefefffe0100ffff01010000fefeff01fe010101010101ff00ff01000100000100fffe0100ff00feff01
00fe00fe000100fe0000000101ff00fe010001ff01010100fffe0000ffff01fefe000100fefefefeff00fffffe00ff01fffeff00ff00ff00fffffffe01fffe01
ff01feffff00fefffefe00fefefffffe01fffffffe010101fe01fe00000000fffefeffff000101ff01fefefe00fe00fe00ff0100ff01fffe010001fffffffeff
fe000001fefefeff0001feff00ff00fefe01fe0100fefffe00fefefffe01fe010101000000ff00fe010100fffefe01fefe0101fe01fe01fe01ff01000100fefe
ffff00fefefeff0000fffe0000feffff00000101fe01fe00fffeff010001fe0000ff00fe000001000101ff00fffefe00fe01feffff01fffeffffff010001fefe
01feffff00fffefeff00fe01ff0100fffe01ffff0100fe0000fefefeff01ff0100ffff00ff00ff00010100feff0100ff00ff010100ffffff01ff010101fe0101
01ff01fffe00ff01fefefe01fe01010000ff0101fefe0001ffff0101fe000001feff00000101fefefe00ff010000000001000000fe00fefefe010100fffffffe
