01fe00010100ff0000fe010000010101ff0101ffff01fe0100fffffeff01010000fe0000000001fe0101ff00010000fe010100fefe01fffefefefefefffe01ff
01ff01feff00feff0101ff01000000ff01fe000001feff0000fe00fe01010001000001000100fe01ff010101fffefe01fe0100ff0001feff0101fffeff01feff
00ff00fefeffffffff01ffff0000feffff0000fffefefffffe000101feffff00010101fe0100fefefffefeff00fffeffffff01010100fe00ff01fe0100000100
fffe01010100fefffeff01000000fe01ff01fe0001fefefeff01fe000101ff00fe00ff0000feff00ff00fffe0001ffff01fe0101ffff0100ff000000fe0101fe
01fefefffefffefefefefeff01fefffeff00fe0101fffefefe0100fffe000101fffefefe0000fffeffff00fefffe000000fffffeffff00fefffe0101010001fe
fefe00ff00fe010000ff0001fefffefffe01fffffeffff0100fefffe000001fe010100fffefe010001ff000100fe0001fffefe00fffe010000fefe00ff01fefe
fffe00010001fffe0001fe0101fffe01fefe01feff00fe01feff0000ff01ff00fffe00fefefe01fe00fefe010001fe00ff00fe00feff0000feff000000feff00
ff01fe01feffff00fefe000100fe00ff00ff01ff00ff00fe00fffeff01fe000000feffff0000fe00ff00ff0001010100fe01feffff0100feff00000001fe00ff
00ffff000100fefeffffffff000000ffff00ff00000000000001fffefefffeffff000001ff00ff01fe0101fe0100ff000001ff010000fffffe000100ff0100ff
01010000fefefe01000101fefefffeffff0000010100ff0001fe0101000100ff01fe0100ff01fe0000000100fefefe00fe00ff00fefffffe01010000fffffffe
ff01ff01fefefe0000ff0000ff01feffff000101fffe00fffefefefefefeff01ff01feff0001fe0100fe00ffff010101ffffff00000001fffffe010000ff0000
ff0000feffff01fe0100fe010101ff00ff00ffff01fffefefeff00ff0000ffff00ff01ff01ffff0000ffffff01ffffff01fe0001ffff000001ff010101ff0101
01ff01000100fffefe01fefeffff01ff0001ff01ff0001fe0000ff00ff01feff00ff01fe01fefffe0001010101fffefffe01fffffefffe010100ff00ff0100fe
0101fe0001fe010000ffff000001010001ff00feff01fe010000fefefeff010000fffe01fefefe010001fe01010000ffff01feff01fe01ff00fefe01fefffe00
01fffefe0101fe010001000100fefeff0101ff0100ff00000000fe0101fffeffff0000feff000001fe0001fffe00fffe010100fefe01fe01fe0000fe00ff0100
fe0000fe01ff0000feff00fe0000fffe01feff01fffefeffffff0000fefeff010000ffffff0000ff00fffe00000000fefefe01fe0000fefefeff000100ff0001
fefeff00ff0100010000ff0000fefe000100ffff00fefeff01ff00ff010101fffe0001fe00fefffe0001feff01000101fffe0101fe01fefe0101fe00fffe0100
feff01ff000000fefffeffff01fe00fefffefffe00fefefefffffe010000feffff00fefefe00010100ff01010100000100fefe000001ff00ff00fefeff010101
feff0001ff01fe0101fffeffff00ff0000fe00000001fffefefefe0101fffefeff0101ff01feff00fefeffff01010000fe00feff01fe00fffe00fe0001fffe00
ff00ff0001feff0000ff01fffefffe0001ff00fe00fefe00fe0000fefefffefe00ff01ff01ffff0100000101ff00ff01fffefefe0001ffff0101fe00fe0100ff
01fefefe00000001feffffff01ff000000fffffe0101fefe01fe01fe00fefe00fffffffeffff0101fe00fe01fffefeff01fffefefeff0000fffffe0000ff0001
ff01fffefefffffffffffeffff000100ffff0100fefeff00fefefe01ff01fefeff0101ff010100fefefe010001010000fefefefffe00fffe0000000000ff0001
feff010101fffe01fefffffeff00fe000100010101ff000001fefffffe01ff01fefe0101fffeff000100fefe01fe0000ff0001fe0100feff010000000101ffff
01feff000100ffff00fffeff00fe00ff01fffe0100fffefeff000100fe01ff00010100000101feff01fefefeff01ff01ff00010000fe0100fefefefefffefe01
