fefeff00ff01fefe000100feff01fefefefe01000101feff010101fe00ff000001ff00fe01fe0000fe01ffffffff00fffffefeffffff000101fefeff01fe0001
fefffefffe0001ffffff01ff00fefe01fe0001000000feff01fffe0000ff00fffefffe0101fe01ff01fffefe0001feff0001fffefeff0000000101fefffe01fe
01000100ff0101fe01ffff01fffe00fffefe01fe010101fe0100fefe01fffe0101ff010000fefe00ff00fffe01fe00fe00fffffe010001010101feff000000ff
ffff00fefefe00fe00010101fffefefefffe00ff00fe0100fefefefe00fe0000fe00fffe010001fffeff01fe010000fe0100000000ffffff010101fefeff01ff
fffe00fe0000ff01fe0000feff01fe01fefefefe0001010100fe01fe0001feffff0000fffffffefe0000ffff010001fefe00fefe01ff01000001ff0101fefe01
ff01fefe00010101fefffefe0000fe00ff00ff00feff00fe01ff0101010001000001fe0101fffe01ff000100ff01ff0101010000010000fe0000ff01fe01ff01
feff00ffff0001fe00fefeff01ff00ff00010001fefe01ff01fefffffffeff00fefeffff0001fffeff000001fe000101fffffe00fffeff010000fe01010000ff
00000001ff0100fffeff01ff01fffefffefefe01000101010000fffe01fffffffffeff000001010001fe000100fffefefe01000001ff0000000101fefe01fffe
01fefeff0000fefe01fefffe0001feff0100fefefffefeffffff01fe01fefe00fe000100fe01fffeffff0101ff00ffffffff0000010001feff01ff00fffe0101
feff0101fffe000101fe0101fe00fefe0101fefffffeff00fe01fe00fefe00feff01feff01ff0001ff00ff000001fffe01fe0101fe01fffe00fe01ffff000000
fefffefffe01ff00ff000001fffefffe010001feff010001fffeff010001fffefe0000fe000001ff0000ffffff01fffe010100ffff0100ff0000fffe0101ff01
00ff01fe0100ffff0100000101ff0101000001fefffe01fe0100fffe010001ff01fefffffeff00ffff0001ff00fe0101fffe0100fefe01fefffe00fefe0100ff
fe0001fe01fe010001000000ffff00feff00fefffffe00fefffe0100fe00fe01fe01fefefe00fffe01ffff01000100ff00ffff01fffefe0101ff01fefefffe00
01fefe000001ff00fefe00ff00fefe000101fefe0000ff00fefffffffe00feff00fefeff0000ff010000fe00ffff010101fe00ff01ffffff01fe0101feff0001
00fe01ffff01fffffeff00ffff00fe01feff0001fffffe0000fe01fe00fe010000000100fefffefffe0100fefffe01fefefffffefefffe0001010001fffffe00
01ff01feff000000fe000000fe01fffe01ff0000fefffe0100fe01fffffeffff010001fffffeffff00ff0101fffe01fefffffeff0101010100fffffefefeff00
00000000000000000000000000000000000000000000000000000000000000000000000000000000000000000000000000000000000000000000000000000000
00000000000000000000000000000000000000000000000000000000000000000000000000000000000000000000000000000000000000000000000000000000
00000000000000000000000000000000000000000000000000000000000000000000000000000000000000000000000000000000000000000000000000000000
00000000000000000000000000000000000000000000000000000000000000000000000000000000000000000000000000000000000000000000000000000000
00000000000000000000000000000000000000000000000000000000000000000000000000000000000000000000000000000000000000000000000000000000
00000000000000000000000000000000000000000000000000000000000000000000000000000000000000000000000000000000000000000000000000000000
00000000000000000000000000000000000000000000000000000000000000000000000000000000000000000000000000000000000000000000000000000000
00000000000000000000000000000000000000000000000000000000000000000000000000000000000000000000000000000000000000000000000000000000
