01fe010000ff01fffe0100fefefefeff00fe00ff0101ff00fe0001fefefefffe00fefffe0001010000ff00fe01ff00ff0100fefffefe000001feff010000ff01
feff00ff0001010100feff01fffffefffe000100ff010001ffffff01ffff00ffff00ff0001fe000100ff00feff01fefefeffff01fefffefe00fefe00fffeff00
000101ff00ff00ff01010100fffffefffefe00ff00ff000000feff01fe01fffefe0100ff00fe00fe01000001fe00fffefeff01fe01feff01fe0100fefe0000ff
fefffe01ff00000000fe0101fe0100feff0001fe0100010000fe010100ff0100fffeffff000000fe0101fefefeff01fefffefffefffefffe0100fefe01fe00fe
0100fe0000ff00ff0101feff01fe01fe01fffe00ff00fe0001fffffe0000ff0101fffeffffff01fe0001ff010000010001feff00feff00010100fe0100ff00fe
01ffff0000ff01fe01fefe0000fffefe0101fffefe00fe00ff000000000100ff01fe01fffe01fe0100fefffffffffefe0100ff01000100fffe0000fefffe0000
000001ff00fffe00fefffeff00ff010101fefe01ffff0001fefeff01ff01fffe00fe01fefefefe000101fffe01000000fe00fffffefefe0101fffe01ff0000fe
0100fe00fe000100fe01fe0101010100ff01ffff01fe01feffff0001fe0100000100fefe0100fffffe0000ff010001ff000100fefefeff0101fffe01000001ff
00000000000000000000000000000000000000000000000000000000000000000000000000000000000000000000000000000000000000000000000000000000
fe0101fe0100fefe00fffffffffefeff000100010100fefe0101000000010101ff01feffffff010001fffffffffffeffff00fe0001fefeff0100ffffff00fefe
fe0100010101fe0000ff01ff0101fefefe00fffefe00ffffff010001000101fefffe00ff00feff00ff01010101fe000101fe0000ffff00fe000100feff000101
ffff00fffeff0101000100ff00fffe01feffffff0101fffeff000001ff0100feffff01ff0100ff00fe0101fefeff0101fefe000101fffeff010100fffeff01fe
01ff010001fefffe0001fffffeff01ff01000101fffe01ff0100ff0100fffffffefefefffe01ff000100010000fe00ff0100ff0000ffff01fffefffefffefeff
0100ffff01fe00010000fffeff01fefe00feffffffffffffff00ff01ff0101fe00ff0100fffeff0100ff0100000100feffff0100010101ff0000010001fefffe
0000ff01feffffff00010100feffff01fe0101fefffefefffe00ff010101ff0100ffff0101ff01fe010000fffeffffff01fefe00010000ffff00fe0100fe01ff
00fffefe00000101fe01fefe00fe01fffe00fefffe01fffeffffffff00ff01ff0000feff01fefffffe010101fffe00fefe0000fe01fffffe000100ff01ffff01
fe00ffffff0000feff0101000101fe01000101ff01feffffff010100fefefefffe01ff0101010101fe00ff01feff000000fefeff01ff0100fe0101010000ff00
00000000000000000000000000000000000000000000000000000000000000000000000000000000000000000000000000000000000000000000000000000000
00000000000000000000000000000000000000000000000000000000000000000000000000000000000000000000000000000000000000000000000000000000
00000000000000000000000000000000000000000000000000000000000000000000000000000000000000000000000000000000000000000000000000000000
00000000000000000000000000000000000000000000000000000000000000000000000000000000000000000000000000000000000000000000000000000000
00000000000000000000000000000000000000000000000000000000000000000000000000000000000000000000000000000000000000000000000000000000
00000000000000000000000000000000000000000000000000000000000000000000000000000000000000000000000000000000000000000000000000000000
00000000000000000000000000000000000000000000000000000000000000000000000000000000000000000000000000000000000000000000000000000000
00000000000000000000000000000000000000000000000000000000000000000000000000000000000000000000000000000000000000000000000000000000
00000000000000000000000000000000000000000000000000000000000000000000000000000000000000000000000000000000000000000000000000000000
00000000000000000000000000000000000000000000000000000000000000000000000000000000000000000000000000000000000000000000000000000000
