01fe00fe0101fffefffefefefffffe0001fe0101fe0100010101fffffeff00fefefffefe010000ff0101fe0001feff010101fe0101fe01fffe01feff01fe01fe
ffff00fe00fe01fe0001fffefeff000001010001ff00ffff01ff01fefe0000fe0000fffe01000000fffe0100ff01ffff0101ff01fefeff01000101fe01fe01ff
ff01ff00fefe01fffe0100feff0101feff000100fffe01feff01ff0001ffff01fefeff00fefffffeff01ff01ff0001ff00ff01fffffffffeffff0101fe01ff01
0000fefffe01fe0000fffefe01fefe0101fe01fefe0000ffff0100fe00ffff01fe01fe00fe0100fffe0100fefefeff0001ffff01ff00fe00fffeffff0100fe00
fe010101fefe00ff010101fe01fe0000ff00fe00fefefefefefeff01fefffefe0000fefe01ff0001fffe0100ff0000fefffefffeff01ff00ffffff00fe000100
fe000001fefe00ff01fe00000100fffe01fe00ff00feffff01fffefe0100fe01fefefe010101ff00ff0100ff01fffeff01ff0000fe0000010000fe0100ff01ff
00ff000001fe00fe00ff0000ff00ffff010000ff0000ff00ff0001ff000000fefe01ff00fe0000fefe00feffff0000fefeffffff01fefffe00010100fffefefe
fe0000fe01fe01fe00fe010100feff00feff00fefffefe0000010000010001010100010101ffff00ff01fefeff010000fe010101ff01fefffe000101fe0101ff
00000000000000000000000000000000000000000000000000000000000000000000000000000000000000000000000000000000000000000000000000000000
fffe00fefe00ff01fe00fefefefe00ff0001fffeff0101000101fe0000ff00feffff01ff00feff00fffe00000101ff00fe00fffe01ff00fffeff00fffefefefe
fffefffefefeff0100fe01ff010100fefefeff00fffe00ff0000ffff0000ff0100feff00fe00ffff0000010000ff00ff01feff0001fe01ff01ffffffff010000
00ff01feff000000ffff000000fefefeff00ffffff010100fe00fffe01fefefefe00ffff000000ffff00fe010100fefe01fefefffe0001ff0101fffeff01ff00
00010000fefffe00fe0001ffffff0001fefe00fe01ff01ff01010101000101fefffffe0100fffffeff0000feff0001ff01ffff01fffffffe01fe00fe00ff0101
00ff00ff00ff0101fe01ff000000fe000100ff000101feff00fe000100000100ff01ff01ff0101fe00fefefeff01fffffe0000000001fffe000101ff01ffffff
01fffeffff01000001fefe0100fe000100ffffff00ffff010000ff00ff010001ffff00fe0101fe01010000ff01fe01010101fffefffefffeffff0000ff010101
feff01fefe01fe000101feff00fefe0000000100010000ff010000fefffe00fefefeff01fe00fe01fffe00fefefffefefefffffe00fe0101fe01fe01fffe00ff
fe0100fefefffe0100010100ff000100feff01ffffffff0001fffe000101fe01fe0101010101fffefefffe000000ff00ffff01fffffefffe01ff0000ffff0101
00000000000000000000000000000000000000000000000000000000000000000000000000000000000000000000000000000000000000000000000000000000
fe0000fe0001fefffe00fe0001010000fffe00fffffeff0101fefeff00feff0100ffff0001ffffff00ffff0001000001000100fffffe0000fe01ff0001ff0000
fefffe01000101ff0000000100ffffffffffff01ffffff010101ffff00fe01010100000101fe00fffe0001feff0001fe0001ffff01fffefffe01fe000101fefe
00feff00fe0101feff0001fefffefe00fefefe0000fefe00fefefe0000fefeffffff00000000ff01feffff0101ff01fe010100fe00fe0000fe01010101000100
ff0101feffff00ff0100fe000001000100010101fe01fefe00ffff010101ff00fefe000100ff0001fffeffff01fffefefefe00fe0000ff00fffffe0101ffffff
ff010100fffefffefe00fefefeff00feff01fffefe010000feff01fefffefe0000ff0100feffffff0100010001ff00000000feff01fefe010100ff01fe01fffe
0001ffffff01ff000101fe00fefffe01fffefefefe01010101fe000001ffff00ff01ff0100010000fe0000fe01fefe010101fffffefefe0101fe0100fffffe01
0100fefefe000000fefefe00fefefffe00ff01ff01ff00010001ff00fe0101fe01feff0001fe00fe0000feffffff0001fe010101ff01ff01fefefeffff000100
fffffe01fe01fe00fefffe0101fefefe01000101feff01ff010101ff01feff0101010001fffe00fefe0001ff00ff0001fe0101fffeff01fe0100feffff01feff
00000000000000000000000000000000000000000000000000000000000000000000000000000000000000000000000000000000000000000000000000000000
