fe0001ff01fffe00fefffffffefe0000fe000100ff010000000101fe0100fefffe01fefefefeff00fe0001fe01ffffff00fefe00ff01fffefefefe01fefffffe
0001fefe0000ff01fefefe01fffffe01fe0001fffffe010000fe0000ff010001fefe01fe00fefffe000001fe0101fefeff00fffeff010001fffeff0000fefffe
fffeff00ff00ffffff00ff0001ff0100ffff00ff0000010101010000fffffefffffffe0101ffffff01fe0101fe0100fffe01ffff00feff00feff01ff010100fe
01fffefe01ff0101feff0100fe00010000ff0001fffefeffffff00fe01fefffffffe0000010101000000fefe01ff000000ff00fffe0100fe01010000ff010001
00ff00ffff00ff01ff01fefefffefffefe01fffe0000fe01fe01fe00fffffe0000fefefe01ff01feffffff00010101ff00fe01ff01ff000001fe01ffff00ffff
fe00feff010000fe01fffe010001fffefefe0101fe00ffff01fffefeffff00fe010001ff01ff01ff010001fefe01fffffffffe00fffefffe000100ff00fe01fe
000100ff01fe000101fffe01ff010001fe000000fefffe01ff0000fffffefffffefffffeff01fe0000ff01feff0000fe0100fefe00fefefffefffefefffffe01
00010101fefe01010101fe0101fffffeff0001fefffffeffff00fefe0100010101feff010000fefffeffff00fffeff010001ff0100fe0100ffff01ff00ff0100
00000000000000000000000000000000000000000000000000000000000000000000000000000000000000000000000000000000000000000000000000000000
0000fe0100ff01feff0101ff00000000000000fefffeff01ff01000100ff010100ff01fffeff010100ff01fffe0000fefe00fffefefe01fefeff00ffff0001fe
ff01000000fffe00fffeff01000101010001ff01fffeff01ff0100010000fefeff000000ff00feff0000fffe0101fefe01feff010101feff0101ff00ffff0101
00ff01fffeff0101feff010101ff0100fe0100feff01ffff01fefffe01fe0001fefeff01fefffe0000ff00feff000001000001fffe00fe01ff0001ff000000ff
fefe0100ffffffff01ff01ffff0001ffff0000fe0000fe01ff0100fffeffff0101fefffe0100fe0100fe01fefe0001ffff01ff010100fe01fffeff01fe01feff
feff00ffffffff0100feff00ff0101ff00fe00fe0001ff00fefefffefefefe00feff01fe0101fffeffff01ff0101fffe00fe0001fffefffefe0001ff000000ff
010100ff00feffff00ff00fe01000100feffff01ffffffff00fe0001ff0101ff00ffff00fefefe01ffff00ff0000fe0101ff0101feffff010000fe00fe0001ff
0001feffff0001010100ff00fffffffe0101ffff0101fe01010100fefe01fe01fefeff00ff00ffff0101fefefffffefeff0001fffe01000000fefefffefe00fe
ff000100ff00feff00fffffefe01feff01fe01010101ff01ff00ff00010001fffe00fe01000001ff01feff0001fefe01fe0100fefefefe0000fe010000010101
00000000000000000000000000000000000000000000000000000000000000000000000000000000000000000000000000000000000000000000000000000000
00000000000000000000000000000000000000000000000000000000000000000000000000000000000000000000000000000000000000000000000000000000
00000000000000000000000000000000000000000000000000000000000000000000000000000000000000000000000000000000000000000000000000000000
00000000000000000000000000000000000000000000000000000000000000000000000000000000000000000000000000000000000000000000000000000000
00000000000000000000000000000000000000000000000000000000000000000000000000000000000000000000000000000000000000000000000000000000
00000000000000000000000000000000000000000000000000000000000000000000000000000000000000000000000000000000000000000000000000000000
00000000000000000000000000000000000000000000000000000000000000000000000000000000000000000000000000000000000000000000000000000000
00000000000000000000000000000000000000000000000000000000000000000000000000000000000000000000000000000000000000000000000000000000
00000000000000000000000000000000000000000000000000000000000000000000000000000000000000000000000000000000000000000000000000000000
00000000000000000000000000000000000000000000000000000000000000000000000000000000000000000000000000000000000000000000000000000000
