feffffff01fe000100ff0101fefffeff0100fe00fffe01fe00fe00fe0000fe01ff01fe0101ff01ff00000100fe0101fe00ff00fffefe010001fefefe01fffeff
01fe00fffffe01ff010001fefe01fefffefe01fefffffefffeff0101fe0101fe01feff0100010100ff0001fefeffffff00fefefe0101010001fefffeff01fefe
fe00feff01ff0101fffe00fe0001000001000100fffeff01fe00ff01000101ff00fe0001ffffff0001000100fefe01fefeff0000010101fffefefffefffffffe
00fe01fffefe01ff0001ff0001fefeff0100fffe00ff00fe010100ff00fffefe0000fffefeff00fefffe01000000ff01ff00fe0101010100fe01010100fffffe
ffff00ff0101000000ffffffff01fe0100ff01fffe00fffffffefe01fe01fe01ff0000fffffefe01ff0100fefffefeffffff010000fe00ff010101ffff0000fe
ff0100fefefe00fefeff0001fe00010001010101fe00ff01fe01feff0101ffff0101ff0100ff0001fefe0101000100ff000101fefffffffffeffff01ff0101ff
01fffffe0001ff0100fffe00ff01ff0001ff00fefefffe0000fe0000fffe01ff00fe00fe01ff0000fe0101fefe00ff000101feff000001fefffffefe0100feff
ffff000000fe00ffff010000000000feffff000001ff01ff00feffff01ff01ff00ff00fe0101000001fe00fe01fffffffe01feff01000001ff00ff01fe00fffe
00000000000000000000000000000000000000000000000000000000000000000000000000000000000000000000000000000000000000000000000000000000
ff0000ffffff000101ff0100fefffeff00fffe000101feff0101feff0000ff00000101ff010000ffff01fefeff00fefe01fefeffff0001feff00000101fffe01
fe01ffff00ff010100fe000000fe0101010000010000ff0000fffffffefeff0101ff01fefffe010000ff01ff0001010001fe01010001fe010001ff00010001fe
01ff010101ff010000feff01ff0000fe0001fffffe0000fe00ffff00010000ffff01ff00fefe01ff00ff01fe0001fefe0001fefffffefffeffff0100fe000000
ffff0000fe0001feffff00fe00010100ffffffffff00fefeff00fe01fefe01fffffeff00ff01feff01fe00fffe01000000ff0001fffe000100fffffe0001fefe
fffefefe01feff0100fe0000000001ff0100feff00ff0000010100ff00fefe0000fe0101fe01fffe00fffefefe00feffff01fe00010000fffeffffff010000ff
ff0001010000feffff00fffefefffefe01feff01ffffffff01fe01fe000100ff00fffefe01fe01ffff00000100fefe00ff00000100ff00ff0001000000ffff00
0001ff01010000fefffe00fefffe01fe01fe00ff01fffe00fefe00fe01ff0101feff000001ff01ffff0101fe00010100ffff0100fe00fffeff0101fefffffffe
ff0001ff010001ffff00010001ff01fefeff010101ff00feff00fe0001fffe00feffffff000000fefefefe00fffeffff00000101fe00ff00ff01fe0000fe01fe
00000000000000000000000000000000000000000000000000000000000000000000000000000000000000000000000000000000000000000000000000000000
00000000000000000000000000000000000000000000000000000000000000000000000000000000000000000000000000000000000000000000000000000000
00000000000000000000000000000000000000000000000000000000000000000000000000000000000000000000000000000000000000000000000000000000
00000000000000000000000000000000000000000000000000000000000000000000000000000000000000000000000000000000000000000000000000000000
00000000000000000000000000000000000000000000000000000000000000000000000000000000000000000000000000000000000000000000000000000000
00000000000000000000000000000000000000000000000000000000000000000000000000000000000000000000000000000000000000000000000000000000
00000000000000000000000000000000000000000000000000000000000000000000000000000000000000000000000000000000000000000000000000000000
00000000000000000000000000000000000000000000000000000000000000000000000000000000000000000000000000000000000000000000000000000000
00000000000000000000000000000000000000000000000000000000000000000000000000000000000000000000000000000000000000000000000000000000
00000000000000000000000000000000000000000000000000000000000000000000000000000000000000000000000000000000000000000000000000000000
