ffffff0000ff0101ff0100fe00feff00ffff00fe00010101fe01fe0001fefefeff010100000000ff00fffefffefefefffeff00ffff01fefefefefeff010101fe
00feff01fe00fffefe0000000000feff0001fe0001fe01ff0001fe000100fefffe01fffe010100fefefe01feff010100ff0101ff0100feff0000ffff00010100
feffff00010000ff01fffefe01ff0101ff00ff0001fffeff01fe01fe0001010100010000fe01fe0001feffff00ff010100fefffeffff01ff010100ff0101fe00
ffff0101ff0101010001010000fefeff00fefefe0101010001ffff0101ffff01fefe01ff00ff010101fefeff01feff01fffffffffefffe00ff00ffff0001fe01
0001fffe0001010000fffefe0000fffffeff01fffffe01fefefffe01ffffffff010101ff00010000fffeffffff00ff01ff00ff01ffffff01fe01010100fffe00
fefe010001ff01fffefefe00ff0100ffff00010000fefe00fffefeff0001ffff0001fffe01fefe000000fefe01000001fffefefffe01ffff00ff000100feffff
fefffffffffefffeffff00fffefeff00fefeff0000fffffefeff01fe00fe01ff0101fefe000101fefe01fe00fe0001ff01fe01ff0101fe00ff01010000ff00ff
fffffffffefefefffe0000fe01fefe010000fe0100ff0000ff0000fffefe000100000101ff010001fe01ff00000000ff000001fe0000ff01feff010100fe0000
ff000101fefe01010100fe00010101fefefe00feff01fffeff00010100fefffe000100fffffeff00fffe00fefffffffe000100ffff00fefe010001fe0100fe01
01ff0001fefefe00ff01feffff0000000001feff010000fe00fefefffefeff00ff010000010000010101ffff00fffffe000000feff01fe01fefe01fe0100ffff
01010101ffff01fffefe0000fffe00010101fe01fefffffefeff00fffefe0100feff000000fe0000fffefe0000fffe010100fffe0100010000ff0000000000fe
0001fffe000000fefe01fefe01ff0001fefffeff0100ff01feffff0000ffff010000feffff01000101ffff0101fefefe01fe01fe0100010101ff01ff0101feff
01fe0100000000000101fffffffffefe010101fefe00ffff000101fefe0100ff0100feff0000fe0001fffeff01ff01ff00ff00010101fe01fe0100ff01fffeff
fefffefefffffe000100fe0001fefe00fe01010001fefefffeff0000ff00fffefefffffffeff01fffe01fffffe01ff0101fefffefefe01fefffeff0101fe0000
ff000001fffe00fffe00fe01feff00000101fffefeff0101ffff01ff00fefefeff0001feff0001fe01fe01fffe0000ff00ff0000fe01000100fefe00ffffff00
01ff00fffffe010000fffe0101fefefe00fe00ffff01fe0100ffffff010000010101000000ffff01fffffeffff01fefffe000000fffffefe0001fffe00010101
0101fe0100fe010100fe0000ffff00fe01fe000001fffeff010000feff00ff01ff01ffff00000001fe01ff0100fefe01ffffff000000fefe01fe01ff010001ff
0001feff01fe00fe01ffff0001000100fe01fefffefefe00fefe01fffe00ff010101000101ff00feff0000fe01fe00fffe00fffffffefe0001ff010101ff00fe
0100fe01fffe000000feffff00fffe0000ff010001ff0100000000feff0001fffffe010001fe00ffff00fefffeff00feff00ff01fe01feff010100fe00000000
000100ffff01fefe01fffffffe01fefe01feff00ff0000ff01fe0101fefefe010101feff01fefffeff00fe00fe0001fefe01000101fffffffefffffefe00ffff
fe0000010001fe00fefe00010101fffefe01fefffefefefeff0101fffefe0001feff01fffe01feff00ff0100010000fffefefefefffe00fe01fffeff00fffe00
0101010101ff01fffeffffff00ffff01fffeff0101fffefe00ff00fefe01fffe010100ff01010101fe00fffe01fe01fffefe010001fe01fffe01fe0001fe0000
ff00010001fffe01fffe00fffe0100fffffefeff0101fffffe01fffe01ff01ffff0100ff01fffefefffffefefffefe01ff0000fe0100fffefffffffefe01fefe
010101feff00ff0000fefefe01fe0001fffefffffffe00010101fffeff0000ff01fe00fefffeffff010101fefe01fe01ff0101ffff01fe01fe01ffff00ff00ff
