fe0100fe00000001ff00fe000001fe00010100fe0001ff01010000fffffeff00ff00ff010000feff00fffe00ff000001010101fefe010000fe010101ff0100fe
010000fe00fe00fffe01ff0000fffffeff000000ff00feff00ffff0000ff0100fe0100ff0000fe00fe00010101fffffe010100fefe01fe01ff0001fffe000100
00ff0001fe01ff00ff0101ff0100feffff00fefe00010100ff0100fefffe00ffff0100010100fffffeff01fe0000fe0000fffefffe00ff0100fffe01000001ff
0000fefefe00fffe0000feff0100fefffefefefeff01ff01fe01fffffe00feff00fe01fffefffe0001000000fefeff000100ff01fefefffeffffff01fe01ffff
