feff010000ff00ffffff0101ff010101fffe0100fefffeff0000ff00ff0000fe0000010100fefeff01ff00fffffffffe000101feff01fe0000ff0000ffff00fe
00fffe00ff01fe00fe0101ff01feffff0100fe00ff01ffffff0001fe00fe00fffeff01fe00000100fe000001ff0001fffeff01feff01fe0100fe00000001fe00
ff00ffff0100ff0101000000fefeff0101fffefffefe00ff0001fefefe000001fefe00ff00ff000100000101fefffe01feff01ff01010001010000ff0001feff
ffff00010101ff0100feff000001fe00fefefe01ff010100fffeff010000000101000100feff0001fffe01fe00fefeff01ff01fe010001fe01fe0100ff0100ff
fffffffefeff0000fffeff00fefefefe00fffffeff0101fe00fffe01fe01fe01fe00ff01000101fe000000ff0000fefe0101fe01fefe00010101ff000100feff
fe01fefe00fffe0000ff0100fffe0100ffff01fefe0100ff00fefffffffffe00fefe0100fe00fffe010001fe0101ff00fefe0100fe00fefffefffe0101010001
00feff01ff00fefffe01ffff000101ff0100ffff01fefe00fefeff0100feffff0001ff010100fefe01fefefffeffff01feff010101ff01010001ff01feff00ff
fe000100feffffff010001000001ff0100fefe000000010101ff01fe01fe010101ff00fe0100fe01fffeffff0101fe01ff00fefffe01ff01fefeff00fe01ffff
010101feff01000000ffff00fe00010101fe010100fe01fefffe0000fe0001ffff010000ff00feffff010101fe00fefe00fe0101fefefe01fffefffe000100ff
010001feff00fefffffe00fefffffffefefeff010000fefffe00fefefffe0100ff00ff000100ff00ff01ff0001fe01fe0101fe0100fe0000fffe00fefffe0101
fe01fffe01000101ffffff00ffff01000000fe01feff000101fe0001fffffffefeffff00ff0001ff00ffff0001010100ffff000000fe01ffff01fe00010100ff
fefffffe01010101010000ffff01fefefffe00fe01ff0101fefe00feff01fefefefefe00fefefefe00ff00fe0000fffe01ffffffffff010100ff0101ff0000fe
fffffffffffffefe01feffff01000000ff01ffffff000000fefefffefffeff01fe01fe0100ffff0001fe01fefffeff01fffffffe0001fffffffffe01ff00ff01
fe0001fe00fe01fe01fe01fe00fe01ff01fffe000101fe000000010001fe01fe00fe00fffffffe01fffe01feff00ff00fe00fe0101fe0000ff0101ffff0000ff
0001ff0001fe00fffefe01fffe0001fffe0001fe0100fe00fefffffefe01fefefefeffff0000ff01000100fe0000000100fffe01ff00fffeff00ff00010100fe
0000fe0100fefefe00fefefe00010100fe01ff01fefffffeffff01000000ffff00fe000101010001ff000101000100fe0000fefefeff0101fefefeff00fefefe
