fffffe010100ff00fffefe00fe000101fe00fffefffefffe010101fe0100ff00fe01ff00fffe0100fefefefefffeff01fffefefe0001000000fefefffefefeff
ff0000feff0101fffe00ffff0100feff01fffffffffefffefe010101fffe00fffffffeff01fffe01feff010101fffffe00000000ff01ff0001ff01010000fe01
01000001fe01ffffffff00fe00feffff01fefffeff01feff00fefefe01fe01ff00000000feff0000fffeffff01fe0000fffeff00ff00ffffffffff0000ff00ff
fefe000101fefe00fe00fe0100ff01fe0000fe01ff00010101ffff000100000000fe00000001ffff0100fefe000101010001fe0100010001fffffe00000000fe
01000000010000ffff00ff010000ffffff00fe01fe000001000101fffeff00fe0001ff0101ff0100ffffff00fefefffe0100ff00000000fefe01ff010100fe00
01fe0101feff01010101000000ffff000000ff01ff0001feff01fefe00fefefe01fffefefffffe01ff00ffffff0000fe01fffe01feffffffffff0000ffffff00
fefe000100fefe00010000ff00feff00fffffe0101fe000000fe01ff0101fefefe01fffffffffffefffe010101ff0000fe01fe01fffeff00fe0101ff01fffefe
feffffffff00010000fe01fe01010000fefffe0000ff0000ffff0001010000000000ff00fe0101fffffefe0100010101fefefffe00000101fffe0101fefffe01
00000000000000000000000000000000000000000000000000000000000000000000000000000000000000000000000000000000000000000000000000000000
ff00feff01ff01010001fefefe010100fffeffff01fffffefe0101ffff01ffff0000feff01fe00fffffeff010001ff000001ff00fe000101feff01fffffefeff
ff00ffff01ff0101fe0101fefe00fe00feff0000fe010000fffefffe01010100fefffffefe00fefffffffffe0001fffe000001ffffff0000fffffefefffffe00
01fffefefefefffefffe0001fefe00fffe01fffeff01ff010101ffff010100fe00010101fefffefffffefe010101fefefffffe01ff01fefefeff0001010001fe
fe0101fffffe01ffff0001fe010001fefefffe01fe01ff00ffffffff00fefefe01fffefe0101fe0000fffffe000100000101fe00ff0001ffff00fffffffeff01
0101ff00ff01fe0100fefeff01ffffff010100ffff000001feffffff00fefeff01fffeff01ff00feff0000000101fffffffffefffe01ff00fefe0100fffffe00
fefe0001000000ff0101ffffffff010000feff00fe01ff010101ff00feffff0001fffe01fe01fe01fefe010101000000fe01fffe000001fe00fffffe01010100
01fffeff010100ff010000ff00fe010000000100fe010100feff0001ff01fffffffffeff0001fffffe010001ff000101ff010101ff01fe000101ffff01ff01ff
0000fffe000101fffeffff01010001fffe01010001fe00fe0101ffff00ff00feff01fffefeff00ff01ff01000001fe000100fefeff01ffffff01fffe0000ffff
00000000000000000000000000000000000000000000000000000000000000000000000000000000000000000000000000000000000000000000000000000000
fffe0000fefefffffe01fefe01ff01ff0100ff0001ff01fefeff01ff01ff0101ffffffff010100ff0100ff000000010100fe000100ff0100fffffefeff00fe00
ff0100fe01ff01ff01fe00ffff00fe01000101000001fe0001feff01000001ff01ff01feffff01ff01fffffe0000000101fefefffffe01feff00fefe000001fe
01fe01000101fefffe00ff01fffe0001fe0101fffe0101ff01ffff010100fefffffefffefffefffffe000101fffeff0001ffff00fefffe0101fe01000100fe00
fffeff000000fe01fe00fefe0001ff00fefeff0101fe000000ff00fffefe0000fe00fffffeffff00ff01fefeff010100feff00ff0000ff00fefe01fe0100ffff
00000001fefffefefeff0101ff01ff0101ffffffffff0101fffeff00010001ffff01ff00fe01000001fe0101000001fefe00ff00ff01000100ff000100000001
00fefffe00fffe01ff010101fe01010100fe00fefe01ff0100ff01010000fffefeff0001ff00fe0100fe00fffe010001fffefefefe0101fffffe00010001ffff
ff01fe0101fefefe000000fe0101fe00fe0001fefe01feffff0000fefffe0000ffff01ff00fe00ffff00fe010100fefefe00feff01fe01010101fefefe00ffff
fefeff010001fefe010101fffe0001fe000101fffffefeffff01fffeff00fffe01ff010001fe000001fefefeff00ff01ff0001fffe00fffefe0001fe01000001
00000000000000000000000000000000000000000000000000000000000000000000000000000000000000000000000000000000000000000000000000000000
