feffff0001fefeff0100000001fffe0101ffff00fffe000001fefefffffffe00fffe00ff00fe00fefe0101ff01fffe0101fe0001feff0000ff01010101fffeff
00feff00fe01fffe0101fffe0001fe00ffff00ff0100fe00ffffff00fe0100fefe0000ff0000fefefffe00fe0101ff01ff01fe01fefe01fffe0101fe0000ff01
ff00feff000000fefe01ff0101ff000100fe01fffeffff0000fe00feff00fffffeff000000010000fefe00fefefffffefffe00000101fe00feff00010001ff00
fefffffe00010000ffff00ffff0000fffefefe000100010001fe0100fe010100fefefeffff0001ff00fefe0100ff0001fe010100fffeff0100010001fefefffe
00fe00fe01fefefeffff0101fefffffffe0101fffeff01fffe0001fefe00fffefffe0101ff00fe0000fefeff00fe0101fffe00010101fe0000ff000000ff0001
fffe00fe000101ff00fffeff00ffffffffff0101ff0001fe00ff00fffffffeff01ffff0000fe00010000010001fefe000100010000ffff0001010100feff0100
ff01ff0100fffe0101010000feff0000ff000100ff00fefefffffefefe000000ffff0101010100fefefffe01010001fefe00fe00feff00fffeffff01feff00fe
01ff01fffefe00fffeff01fffffeffff0101fffefefe00010100fffffe00fefefffefefffefe01ff01feff0001fefe010001ff00fe00fffefe0101fe00ff0101
fe0101fefefe00ff01fffe0001ffff01feff01ff01fe0100ff0001000000010101fefe00ff0001fe01fefe00ff01ffff01fe0000ff0101fffe00fe01fefefe01
fe01ff010000feff000101fefe01ff00fefeff00ff01ff01fefeff01fe0000ffffff0000fffefeff00fffeff0101fefefffefefe010000ff01ff01fe00fe0101
fefffeff0000ff01fefe00fe00fffe01ff00feff01fffeff00fe0101fffeff00ffffff00fe00fe010100000000010001fffe0000fffffefefe0000fefefffe01
fe010100ff00fe0100ff0100fffe010100fefe0101fe01feff0001fffefe01000001ff00000001fefe0000fe00ff01fefe00ff00fefe01ff0100fe00feffff01
0001fefeff01010001ffff0101fffe00fe00feff00fffffe0100fffefefffffffe0101ffff0101feff010101fefefffffe00010100ff00fe000001010001fe00
fe0001fffe0100010001fe00fefeff0000ff00fe0101feff0000fe00fffffeff01fffe0101fffffffffe0100000100fffefffffeffff000001feff01fffeff00
01fe010101010001fe00fe01ff00010000fe0101010000000100ff01fe0001feff000000fe01ff00000001010101fe0001feffff01feff010000fffefe01fe01
ff0101fffefe01ff01000000000001fffeff010001fe0000fffefe0000feffff00fefe010100ff01010101fefe0000fe00fffffffe0100feff00fffe00fffefe
