ff01010001ff00fe01000000010101000101ffffffff0001fefefe0000fe0100fe01fffefefefffe00010001fe01fefefeff010100feff01ff0001010000fe00
0001000101ff00ff0100fe0100fe0001ff0001fe01fffeffff0100010100fe0000fe01ff0101fefffe01ff00000101ff00010100fe01fe0101fffeffff01ff01
01fffeffff0000fefe010000fe01fe01fffffe00fffeff0000000001feff01ff0101fefe00fffeffff0001fe0001ff000101ff000001fe00000000010101feff
fe01feff00010100fe0100fefe00fe01fffe00000101ff000001ffff0001ff010001ffff01000000fffffe00ffff000100ffffff0100ff0000fefefefe000101
01feff01ff00fe00ff01ff00fe000101feffff00fe01fe00ff000001feff01ffff01fffe01ff00fe01010101ffff010100fffe00fffe010100ff01ff01010000
fffefeff00ff0100ff0000fe0101ff00fefe01feffff01fe0101fffeff00fefffefeff00fe0001fe01fefefe000101000100fe0001010100fffffffe01fefefe
01fe01fffe00fffe0100ff0101feff01fe00ff0001ff0000fe01010000ff00ff00fe00fe00fe0000fffe0000ffff01fefe0100010001ff0000fffffe00000101
00010101ff010100fe01feff01fe01fffe0001fffefefeff00fefeff01fefe0001fe01feffffff00feffff01fffe00fffeff01fffefe0100fe0000fffe000100
00000000000000000000000000000000000000000000000000000000000000000000000000000000000000000000000000000000000000000000000000000000
01ffff0001fffffe00ff0001fefefe01000100fffe0001ff01ff000101fefffe0101ff0101fffffe0001fe0001ff0000000100fe00fffe01ff010000fffefe00
ff0101feff00ffff00ff0101fe00fe01ff00ff01fefe010100fe010000fe00ff01fe010100ff01ff01fefefe01feff00ff0100fffefffefffe00feff0000ffff
ff010100ff01fefe00fe01fffe01fefefffffe01ff000001fffeff01000101ff0000000100fe00feffffff0100fe00fe010100fefe00feff01fe0101fefe0000
00fefffe01fe0001ff0101ff00fefffe0001fe000101ff000100feff00fe00ff0100000101ff010000fefefe0000ff000000ff010101fefffefffefe000100fe
ff0000fe01fe010000fe00fefe010000fffefefffefefeff00fefffffe00ffff0000fefe0100000100fe000000010100fe0001010000010001fe0000fe01ff01
0001fe0000fefffe00fe01ff010001fefe00feff0001fffefe00ff00fffffe01fe01fefeffff00ff0000fefe01fffe0101010000000000fe01ff00010101ff00
fe01000001fe0101fffffe00fe01fffefefefe000001ffff0001fefffefefeff0101000101fe01000001000101fe01ffff00fefffe01fe000100fe010101ff00
00ffff01ff00ff0100ff00010001ff00ffff0100ff00fefe000000ff0101000100fffe0000fe0100fefeff01feffffff010100fe01ff010001fefefffe0000fe
00000000000000000000000000000000000000000000000000000000000000000000000000000000000000000000000000000000000000000000000000000000
00ff0101fe010100feff0100010000feff000100fffffefe000100000000ff01010000fffffefeffff00ff01fe01fe00ff010001ff0100ff0101fffe01ff01ff
fefeff00fefe00fffe000001fe00feff01ff00fe01ff00fe01010101ff00000100ff000000010001ff01feff01000101fe00fefe01ff0100fffffe000100feff
000001fefefffefe00010101fe0001010100fffe00010100ffff01feff00fffefe01ff000100feffffffff00ff00ff0000010000fe01ff000000ff01feffffff
fe0000fefefffe01ff01fffefe0101fe01ff0100fffeff0100fefe010000ff00000001fe01ff01fe01fe0000fe01ffff00ff01010100ff0000000101ff0000fe
0001fefe0000fffffffeff01fe01ffff010101fffffe01ffffff010001fe0100fefe0100ff00fe0000fe00fefe01fe0001fe00ff0100fe010001000000feff01
ff0100ff0001fefe0101fe010001feffffffff00fefffe000100fefe01fffe01fffe0100fffefe010101010101feff0100ff00feff00ffff00fffffefeff0100
0000fffe00ff01feff0001ffff01000001000101fe01000101feff00ff000001fffe01ff00fffefffefffefeff010001ffff00fefe0100ff01fe0101fe010101
feffff00feff00fffefeff00fffe01fe01fffe00fe010001ffff0001fe01ffff0000fffeff000100fe010101000001fefefefffe01ffffff00010001fe0001fe
00000000000000000000000000000000000000000000000000000000000000000000000000000000000000000000000000000000000000000000000000000000
