0101fe000101ff00fffe0000fefeff01ff00000100fffefffffeff010001fe01fefe00ffff0000fefeffff00fefe00fe01fefeff000001ffffff00fefe0000ff
0000feff01fefefefe0100000000fffe0000fffe0101ff0100feffff01ff010000fefffeff0100fefe00ffff01ff0001fefffe01fe01ff01fe00feff00fe00ff
fefefeff01fefefefefffefe010100000001000000fe00fefffffffffefe00feff010100fe00000100000001fe00fffefffefe01feff0101ff00fe010100ff00
fefeffffff01fe01fefefeff0001fe01fe010000feff000001fe01fe000001fe00fefeff01fefeff000001ff00ff01fe0001feff0001ff000000fffefefffeff
feff0001000000fe01010001000101fefffffefe01fe00fffefefffefe00ff01fefe01fefefefefe010101fffffeff01feffff00ff0000fefefe0101fe00feff
01000101fefffffffffe010001fe00010101010001fffe01feff0101fffeffffff01fe01fffffefefe00ff00fefefffefffe01fefffe0001fe01fe010100ff00
fe0101010000fe0000fffe00fe000101ff00fffe00000101ff00ff0000fefffe0001fffe000101fe00fe0000feff0100000000ff00fffffe01fffffe010101ff
ff01fe00fe00ffffff00000000fe000101fefefe01ffffff0000fe00fe0101ff010100ffff00fffffeffff01fffffeff0101fe01fefe00fe00ff01fe00fe00fe
ff0000feff01fe010000000101fffefe01feffffff00000101fe000001010100fefffefe000000fe000101fefe01000101fefe01ff01fefe0001fffefefefe01
01fffe0001000000ff00ffff01fffefefe010000fefe01fefefe0101ff01fefe0000fe0001fefe01fffe01ff01ffff010001fe00ff01ff0101000000fffe00fe
feffff0001fffe01fe00fffefe01fffffe0001fffefffe00000101fe01ff01fefffe0100010001fe00fefffefefe01ffffffff00fffefffe010101ffff01ff00
0101fefe0100fefefefefefefe0001ffff01ff01fe0000000000fffffe000000fffffe0100000101ffff0001ff0001ff01fefeffff0000ff010101fefe010100
fe0100ff00fefe01ff0100fffefefe00ff0001fe000101ffff01ff000101fefffefffeff00ffffff00010100010101feff010100000101fefeff00ff01fffefe
0000feff000001fe0101ff00fffe0001fe0001ffff00feffffffff0000ff01feff00000101ff00fefefffe00fefefefefffffe01fe0000ff000100000001ff00
0000ff00010101fefffffe010001ff0000ff0100fefefefefe00ff010101feffffffffff00fffe00ff0101fffefffefffe00fe000101fe01feff0100000100fe
01ff0001ff010100ff0100ff0001fe00fffe01fefefe00ff0100fe01fffe01ff010101ffffff00feff000100fffe00fe0001ffff00ff00fe0001fefffffefefe
01fffffffffffffe000100ff0101fe00fe01fffefe00fffe0000fefffffefeff000100ff01fffefffe00ff010101000100fe01fffe0000fffefefeff00fe0100
ff010000fefe0100ff01ff01010101fefe0101fffefe01000000feff00ff01feff00ff00ff00ff00fffefffefefffffffe01fefefe000001000100fe010100fe
fffe00ff000100fefffe010000fefe0100010001fe01fefefeffff00fefe010000fe00fefefe00ff01fe01010000fffefe0100ff00ff01fe00fe00fffe000100
0100fffe00ff01fe0101fe0001ffff01fe000000fe0100fffffe0100fefffe0000ff000101fefe01feff0001fefefefffe0100ffff0101fe00ff01fe01fe0101
fefeff00fefe01ff0000ff01fffeff010000fefffefefefeff000000fe010001fe00fe01fe01feff00fe0100feff0101fffffefffeff01fe01ff01fe010100fe
ff0100fefffefeff00000100fffefefe0000ffff010100fefe00feffff0001ff00fffffeff00feffff0000ff0000010000fffe00fffeff00fe00fe00000100fe
00010100feffffff010000000000feff000000fefefeff00fffffe00fe00ff0001fe01010001fe0000010000000101ff0100fe0100fe01ff01010101fe0101ff
01000000feffff01010100ff0100feff01ffff00fefe000101ff0101fe0100ff01ff010000fe00000101fffefe00ff00ff01ffffff0101ff000101fe01feffff
