01fe0000ffffffff00fffe010100fffeff000001ff010101fe00fffeff01000100010100fffefefefe0001ff010001ff00fefeff0000fffeff01fe0101ff00ff
0101ffff00fefe00fe00fffffe0101fefe01000101fe000000000101fe01fe000001ff00000001ffff00fefeffff01fffe00fe0001fefffffe01fefffefe00ff
000001fe00ffff00feff0001010101fe01ff01fe00ffff01010101ff0000fffefe0000fe01ff0001fefe00fffffefefffe0100ffffff01fe00fe00feff01fe01
000001ff0000fffe0101ff0100000100fffefe0101fe01010100ff01ffff01fefeffff00fe0100fe0001fffffeff010001fe00fffe00ff0000ff00fefeff0100
01ff01fffe01ff0100fffeffffff01ff01010001ffff01fe00ff01ffff0000fe000101ff00fe0100ffffff01010001fefeff0000fefffefefe010101ff0100fe
00000100ff0000000100fefeff00fefefefefffe000101fefeff0100feff0101ff0100fffefffeff010101ff00fe01fefffe0001000100fffe0000000000ff00
fe01fffe00fefffe000000ff010100fe00000100ff01feff00fefffe01fe01ffff010000ff00fefefe01fefe01fe01fefefefefffefefeff01fe00ff01fffe01
fe000001ff0101ff0100fffeffffffff0101fffefe01fffe00ff01ff000001fffeffff00fe00fe01fefefffeffff00000100000101fefe000001000100ff0000
00000000000000000000000000000000000000000000000000000000000000000000000000000000000000000000000000000000000000000000000000000000
01000100ff00ff00fe010100fe00fffe01fefe01fefeff0100fefefe00fefefefe0000fefefefefffffffeff010001ffffff01010000fffeff00010001fe00ff
010100ff000100ffff00ffff00ff0101feff00fefeff0000ff01000001fe00ff00fe0000ffff00ffffff0101ff00fe0000fffe01ff01000101fe00fefefffefe
0101ffff00feff01ff010000fffe0000010100fe0101ff01ffffffffff00ff010100fe0101ff01fefffe01fffffe01fe0100ff00010001ff0100ff0100ffffff
feff00feff0101fe01fffe0001fefffe0101ff01ff00feff00fe00fe01feff01000100feff00ffff0101fe00ff00fffefe01feffff0000ff01feff00feff0100
fe000000010101fe01fffffeffffff01fe01fefefefe01ff00fffffefeff00ff01fffefe00fe00010100fefffffe0000fe0000fefe0100fe00fffe00ff0100fe
feff00fefffffe01ffff01fffefe01000100ff01010000fffe0000fffffffe00fe0101ff00fe0101fffe000100010101fffe0100feff00fefffe00fe00000000
0000ffff0000ffff00ff01fffffffffefffefeff00fffffefefffe0100fffefffefefe010100fffefffe01feff000100ffff00fffefefeff0001ff0100ff0101
ff010000fe01010100ff010000ffff00ff01fffffe0001fefeffffff01fe00fe01fe0000fe01fe010001fe00ffff000100000101fe00ff01fefe00fefefe01fe
00000000000000000000000000000000000000000000000000000000000000000000000000000000000000000000000000000000000000000000000000000000
00000000000000000000000000000000000000000000000000000000000000000000000000000000000000000000000000000000000000000000000000000000
00000000000000000000000000000000000000000000000000000000000000000000000000000000000000000000000000000000000000000000000000000000
00000000000000000000000000000000000000000000000000000000000000000000000000000000000000000000000000000000000000000000000000000000
00000000000000000000000000000000000000000000000000000000000000000000000000000000000000000000000000000000000000000000000000000000
00000000000000000000000000000000000000000000000000000000000000000000000000000000000000000000000000000000000000000000000000000000
00000000000000000000000000000000000000000000000000000000000000000000000000000000000000000000000000000000000000000000000000000000
00000000000000000000000000000000000000000000000000000000000000000000000000000000000000000000000000000000000000000000000000000000
00000000000000000000000000000000000000000000000000000000000000000000000000000000000000000000000000000000000000000000000000000000
00000000000000000000000000000000000000000000000000000000000000000000000000000000000000000000000000000000000000000000000000000000
