fe0001fffe01feff00010101fffe00fffe0000ff00fe010000feff00000101feffff0100ff01fe00ff0100ffff0100000000fffe0101ff00ffff01ffff0101ff
01fe01fe00fefe00fe0100000001000101fe0101feff000101ffffff0001fe01ffff00fffe0001fe01ff01fffe00fefffeff00ffff01fe00ff00fefe00fefefe
00010101ff00ffffff01ff000001ff00ff00010000ffff0000fe00fe010101feffff01fe01000100fe00fefffe000000feff01fe0101fe00fffffefe010101fe
00feff00fe01fe0100fe0001ff01ff01fefffffe01000101fefefeff0100fffe00010000ffff01feffff00fefffe01ffff01ff0101fe01ff000000fe0000fe00
feff01ff0001feff00ff0100feff0100ffff01feffffff0000fe00fe00fefe0000fefe0101fffffffffffefe0000fefe01ff01fffefffffffe0101feffffff00
0100ff01fefe00fe00fffe01fefefe0001ff00feff0101fe0000feff01ffff00ff01000101ff01ff01fe0101fe0101fffeff010100ff00000101010100fe0000
ff01fffffffe000000010000fffeff000100ffff000101fefffeff0100fefefffffe01010000feff00fefeff01feff01fe00fefefe000001ff01fffeff01ff00
00010000fe000101000001fefeff00ffffff0101ffff0000fe00feffff00000001ffff00000000fe00fe01fe0000fe01010001fffefe01fffefefffefffffffe
fe00fffefe0001fffffffe01fefefeff01fe000001fffefe0000fffffe00010101fffffeffffffff01010100ff00fe0001fffe0001fe00ff000100fffefe00ff
00fe0101fe01fffefeff01000001fe0101fffe0101ffff0001ff00ff000101ff0101ffff01fefeff00fefefeff00feff00fe0001fefe00fffefefffefffe01fe
00ffff01fe00fffeff0001fe01fe01010001ff010000ff00ff0100fe00fffe00010001fffe00fe0101fffe00fe0101fe01fffffeffff0001000001fffe00ff01
00000001ff00ffff0001ff01ffff00fffe00ffff000101ff00fe01ff01fe00fe01ff000100fffe01ff01fe0100fefefeffff000000010100ffffff0100fe0101
00010000ff010100fefefffe0000fefffe0101fe01fe00fefe000000fe000000fefffe00fefe01ff00ff010100fe0001feff00010101ff010001fe0100fe00ff
fefeff0100fffffe00fffffefefe01000000fe00feff01ff00fe00fffefffefefffe0001fffffe00fe00010001fe0101fefefefe00ff01feffff0001fe0100fe
fe0100feff010101fe01000000ffff01ff0001fefffffe01fffe00fe00000101ffff010000fffefe0001ff01fefffffeff01ff010001feff00ff01ffff01fffe
0100ff00ff00fffe0101fe0001fe01ff0101fe0101fffe01fffe010000ff0001ffffff00fffffefe010101010100fffeff0000000001fffeff01ffff01fe0101
