00feffff01fefe00fe010001fe01feffff000000ff00ff01fffe0100000101fffeff01000101000100fffe00fefe0000ff01ff00ff01fe00fe0100000100fffe
000100fffe00fe010000ff00ff00fe000000ff0000fffefe0001feff0100010101ff01ff0001fffefffefeffff00fe00ff00fefefeff0000fffffe0001fefefe
0001feff00010101ffff00fefefefeff01fe01ff010000fe00fffe0001fe01fe00fefe010100ff0101feff0100fe01010001000001fe0001ff0100ff01feff00
01fe00010000fefe00fefeffff00ff01fe00fffeff00fe00ff00ffff0000ff000001fefffffe00000100fe0101fe0101ff0001ff010101fefe01000000ff0100
