ffff00fffe000001fffffffffefefe01000000ff01ff010001fe0001fffe00fffe0101fffe0001010101ffffff00010100fe0000fe0100ffff01010101ffff00
01ffff0000fe0001fefeff0001fffe010100fffffe0101fe010001010001feff00ff000000010101fefefe00fe00fefefefefe0001fefffe0101fffe01fe01fe
00ffff0101000100fe00fe00fe01000001fffeff000101ff01ff0101fe0001fefe0000fffefeff01fffe00ff00fefe01ffff0101feff00feffff010100fe00fe
01ff01fefe000001ff00000100fefe00000000ff0100fe000100fe00fe00ff01feff00feff00fe0001ff01010001fefffeff0101fffe00000101ff00feff0101
fe0001ff01ff010101fe00010000fefe00010101fe01ff01ff0100ff010000fefefffffeffff01010101fe0100fefffffefe0000fefefefffefffffe000001ff
ff0001fefefe0000fe010000fe0101fe0101ff01000001fe00fffffe01fe00fffeff0101ff0000fffefffefe00fe01fe0001fe010000fe00fffffefeff0101fe
00feff01fffffeff01ffff0100fffffeff0000ff00feffffff0001ff01fe000101fefe00ff0101fffefefefe01fe01fe00010101fe0101ff00fe01010000fefe
fe00fe00fffe000001fe000001ff010001fefefefefefffe00feff01010101ffff0000feff01feffff0000fefeff00ff000100fe01ff00fe0100ff00ff01fefe
00000000000000000000000000000000000000000000000000000000000000000000000000000000000000000000000000000000000000000000000000000000
feff0101fefeff00fefffffeff0101fefe01fe0101ffff01fe0101fe000000000000ffffff0100fefe00010000fe01fe010001fe00ffff0001fffffe01ff01ff
01fffffffe00010001fefe01feff00fffffe00fffe00ff0101fe00000000ffff010000fffe01feff00fe01fe0101fffefffe00ff01ff01ff0100fe00feffffff
fe01000001fffffffe0100010100ff01fe000001feffff00fe01fefeff01fe0000fe01ff0000fffefe00feff00fe01feff00fefe01feff00ff01feff01feffff
000101fefefe00fffe00000001fefefefe01feff01ffffff00fefe0101fefe0101fe00fffffffffe0000ff00ff01fe000000ff0101ff000000fffe0000000000
00ff01fe01feffff0001fffefffffeff0000fe00fe00feff00fefeff00feff00fe010001fe00ffff0101ff0000fefffffefe01010000ff000100fe01fefefffe
ffff000100ff01fe010000ff0001fe00feff00fffe0100feffff00fefffeffff0100fffeff01fefeff000000feff0000ff00fffffefffe0000ffff00fe0000ff
00fffefe0001fffefe0000ff01feff0100fefe01ff00ff00000001fefeffff01ff0000ffffff00ff0001fefe01ffff00feffff0100fe01fe010101fffffffe00
fe00fffefeff01fe00ff0000ff00ff00fffe00fffe00ff0001fffeff00fefffe00fffffeffff01fefffefffffeff01fe01fefe010000ff01feff010100fe00fe
00000000000000000000000000000000000000000000000000000000000000000000000000000000000000000000000000000000000000000000000000000000
00000000000000000000000000000000000000000000000000000000000000000000000000000000000000000000000000000000000000000000000000000000
00000000000000000000000000000000000000000000000000000000000000000000000000000000000000000000000000000000000000000000000000000000
00000000000000000000000000000000000000000000000000000000000000000000000000000000000000000000000000000000000000000000000000000000
00000000000000000000000000000000000000000000000000000000000000000000000000000000000000000000000000000000000000000000000000000000
00000000000000000000000000000000000000000000000000000000000000000000000000000000000000000000000000000000000000000000000000000000
00000000000000000000000000000000000000000000000000000000000000000000000000000000000000000000000000000000000000000000000000000000
00000000000000000000000000000000000000000000000000000000000000000000000000000000000000000000000000000000000000000000000000000000
00000000000000000000000000000000000000000000000000000000000000000000000000000000000000000000000000000000000000000000000000000000
00000000000000000000000000000000000000000000000000000000000000000000000000000000000000000000000000000000000000000000000000000000
