fe01fffeff00fffefefffffffefe0000fe0100fefe010001feff0001ffff00fffefefeff010101ff0101ff01ff0001fefe01fffeffff010000feffff00fe0100
fe01fefe00ff0000fefe0101fefefe010100feffff0001fffeff0000fffffe01fe010001010001fefe0001fefefe0000010100fe00fe00fffffe00ff00fefe00
0101fffffe00ff01fe00ff0100ffffff010100fefffefffe0100fffefe00ffffff010001000101fffe01ff0100ff01fefe01ff01ff010000ff01fe0100ff0100
00fffefe00000001000101ff01fefffffe00ff0001fe010001010000ff0100fefffefefffe0100ff0100010100ff01000001ff01fefe00ff0100ff010100fe01
0101fffe00fefefe01fffffe01fe01fe01ff0000ff00ff0001ff0001000000ffffff01ffff010001fefe01010100010000fefe0001ff0100fefffefe01fe01fe
ff01ff00010100010000ff01fffefe01fe01ff01fe01fe0100fefe00fefefffefe010100010100feff01fefe0001ffff0100fffe0000fefefffe000101fe01ff
0000fe000101ff00010100fe00ff00feff00fe0000ff0000000101ffff01fffe01fe000100ffffffff01fe00fe0100ff00fe0000fe01fe0100010100fe00feff
0001fe00ffff0000010100ffffff000000fe01ffff00010100fe0001ff01fffefffefffffffeffff0100fffe0100ffff01fefe00ff0001ff010100ffff0101ff
00ffff01010001fe01fffeff01fffefe0101fffffefefeff01ff01ff0100ff01010000ffff01ff000101ff0000fffffffeff00ffffff01fefeff0100010001fe
0000ffff00fefffefefffffeffffff010000fffffffe0000fe01ff01ff01fefe00ffff0001ff010101000101fe01fe01fe0001ffff0001ffff0100ff010000fe
ffff0100ff01fe0100000001010000fe00fe0001fe00fffe01ff010000010001010100000101fefeffffffff01ff00000100ff01fefe000101fe00fefe00fffe
fe00ffffffff0100ff0100ffffff0000fe0001fe000001ff0101fe00ffffff00fefefffffefffffe00feff01010100ff010000feff00fffffefefefeff000100
ffffff01ff01fffffe0101fefe01fe00feff0001fe01fffefefe000000fefffefefe0000ff01ffff00ff00fffefefefefefe00fffffffe000101fe00fe000100
fe0001ff010101fefe0001fe00ff0000fefffe000000ff010100fefffe00ff0001ffffff00fefeff00fffffe0100000100010101ff0101feff00fe010000fffe
0001ffff01ff00010101ff01fffe0100feff00010000fefeff01010101ff00ff01ff00ff0100fe000100ff00ff010001ffff0101ff01fefe01ff00fe000001fe
0000fe010101000101fefefeff00ffff010001fefe01ff000101ff00fefe01fefeffffff010001fffe010001ff01fffe000001ffff01fe00feff01fe0100ffff
00000000000000000000000000000000000000000000000000000000000000000000000000000000000000000000000000000000000000000000000000000000
00000000000000000000000000000000000000000000000000000000000000000000000000000000000000000000000000000000000000000000000000000000
00000000000000000000000000000000000000000000000000000000000000000000000000000000000000000000000000000000000000000000000000000000
00000000000000000000000000000000000000000000000000000000000000000000000000000000000000000000000000000000000000000000000000000000
00000000000000000000000000000000000000000000000000000000000000000000000000000000000000000000000000000000000000000000000000000000
00000000000000000000000000000000000000000000000000000000000000000000000000000000000000000000000000000000000000000000000000000000
00000000000000000000000000000000000000000000000000000000000000000000000000000000000000000000000000000000000000000000000000000000
00000000000000000000000000000000000000000000000000000000000000000000000000000000000000000000000000000000000000000000000000000000
