0101fffffffe010100fe0101feff010001ff000101000101000001fe0001fffe00ff00feffffffff000001fffeffff01000101ff010001fe00fe00fefe01ff01
00fe0000ffff000000010100000100fffe00fe00fe01fffe010100000000fe00feff01000101fe0000fe010100feff0000ff01fefffe0000feff0000000100fe
fefffefe01fe01fe00feff000100fe0100010001010001fffffefefe00ff00fe00fe01fe010100ff00feff00fe00feffff010100fffe01fffefeff000000fffe
010000fe01fe0001ff00fffe00feff01000101000000fe01fefe000100ff00feff01fe00fe01fefffffeff00fe00fefe00feff0101fffffefffe0000ff0100ff
