01fffe01000101fe01fffffe00fefefefe00ff0100ff010000fe0001ff00fe00fe00ff00fffffe0101000000ff00000001fe0100ff0000fe00fffe00ff01ff01
feff010100ff00fe000100fefeff01fefeff01ff00fffefe0001fefffffffefffe0100fe0100fffe01fefefefe00ff0000ff00feff0001010001fefe0000ff01
feff00fefffeff01fefe01ff0000fffefffeffff0100ff010001fffffffefffe00ff01feff00fefefefffe0000ff01ff0000fe00ff01fe01ff01fe0101ff01fe
fffefeffffff0000000100fe000100fffefffefe01feffff00000100ffff010000fe0000fefffe0001fefefffe0100ff0101feffff0000ff0100ff00000101ff
ffff010100000100fefffe0000ff01fffe000001feff00fffe0100000000fe00fefe01fe0000fe000001010101fffeffff000100ff00000001ffff01fefe01ff
01fe0001ff00ff00ff01fefffefe0101fffe01fe00fffe01fffe0100fe010000fe0100fe0000ffff0101feff01000001fe01010001fe00ff000000feff0001ff
00000000fe01fe010001fffeff010001000000fffe01ff0100feff00ff0101ff0100ff000000ff00ff010000ffffff0001010100ffff00ffffff000000fefe01
fe000000ff01ff0001fffe00fe0000fe0101fe000100fe00fffe0001fefffe01fe00010001fe0001010000fffffe00ff0100fe00fefefe0100ffff000000feff
00000000000000000000000000000000000000000000000000000000000000000000000000000000000000000000000000000000000000000000000000000000
01fe00fefeffff01fe000100fffffe0101ffff000101fffeffff01feff000001010101000001fe010000fffefefe000001fefffe01fefefe01ff0000010001ff
fe010001fffefe000000ffff01ff010100fefffffefffffefe0101000001ff00010100fe01fe00ff0000fefe010100ffff0101ff00ff00ff01fffe0100fe01fe
00fe00fe0000ff00ff000100fe01fefeff00ff01010101fffefeff0000fffe000000fe0000fefefefe0100fefefe010000fe000001feff0000fe000101fe0101
01010101fffe0101feff0000fffe00fe0100fefefefeff01fefffe01ff0101010001ff01fefe01fefe0000feff00fe010101fe0001fe00010001fe000000ff00
01ff0101fe01fe000000feff0100fe01fefefeffff01ffffff000101feffff000101fe0000fe010001fe01fe010101010001fe00ff0001fffefe01ff00000100
00fe01fffefffeff01fffefe00fefe01ffff0001ff01fe01fffefefffefe01feff01feff00fefe0100fe00fffeffff00fefffe0000fefefe00fffe000000fe01
fefe010100fe0100ff01ff00fffefffeff0100ff000000ff0101fe01fe0101fe00ff01fe00ff010000fe01ff0101ff0000ffff00fffefffffefeff0100ffff01
fffefe00010100fffeff01fe00ff00ff00feff01fefefffefefeff01fffe0100fe00feff01010101fe01ff00000001fffe0000010001ffff01fe01fe00000101
00000000000000000000000000000000000000000000000000000000000000000000000000000000000000000000000000000000000000000000000000000000
feff00fe000101fefe00fe0101feff01ff0001fffe01fe01fe0100000000fefefe01ff010101fffffefffe0100ff010001fe01fefeffff0001ff01fe0100ff01
feffff01ff000100fe00ffff0001fffe01ff01fe00010000010101feff0100fe00fefffe0001fefe00fefe0001fffe01ff0001ff01000000fffefffefffe00ff
fffffe01fefe00fe010101ffff0001000000ff000101fe01010100ff01ffff01fe01fffe010101ffff0000fe0101fefe00fefefefeff0001fe00fe0001fefefe
fe000101fefefffe00ffffff01fffffe00000001fe0100fffe01fe00fe00fefe01fffffefffe0100010001000001fe00feff010100fe00fe00ff010000fefefe
00fffe00fefeffff01fefe0100ff00fe000101000000ff0101000100000000fffffffefe0100fffeffff010100fefeffff0101fefe00feffffff01ffffff0000
fe000000fe000000fffffefffefefe000000fefefe0000fe0100fe00fe00ff000000fe00000100fe010100000100fe01fffe00fe0101fefefeffff01fefeff01
ffff00fe0101ff01000101fefe0001feffff0000fe01ff01ffff01ffff0001fffeff0000feff01fe00fe01fffefeffff0100fe010101ff000100ff01ffff00fe
010000ff01ffff00ff000001fffffffefe0101fffefe0100fe01feff01fefe0100ffff01fffeffff0000fe00fefefefffe00000001fe01ffff00fffffefefe01
00000000000000000000000000000000000000000000000000000000000000000000000000000000000000000000000000000000000000000000000000000000
