feffffff01fe00fe01fe00fe00fefe01ff01feffff0001fe000100fffe010101ffff000001fe000101010101fffefffe00010000ff00fe00fe00fefefe010001
0001fe00ff0100fffe01010101ff01fefe0000010101fe0000ffff00feffff0001fffefe00ffff01fe01fe00ff0000feff0000fffeffff0101fffe00fffffffe
00000101ff0100ff0100ff0100ff0100ff01000000fffe000000fefffe0100fffe01fffe01fe00fefe00ff01fefefe000000fe0001fe0100fe00fefe0101fe00
fffffe01fffffefffefffe00000000ff0100fe01fe000101ffffff01fe010101fffeff01feffff00ff00feffff0000ffff0101ff0101fe0101010000fefffe00
