0001ff0001feffff0001010001fefe010000fffe0101ffffffff0000000100010101fffefeff01fffe01fffe0100fe01fffe00ff0001fffefe00feff00fefe00
000101fffffefefe000101fffffe0100ff00feff000100ffffff00010101000000fe01ff0100ff00fe01fe000000fe01fffeffff01fefeff000000fffeffff01
00ffff00feff00fe0000000000010100fe000001fe00fefefe000100fefe01fe00fe0000010000fefe0100ff00ffffff01fe01fefe00fffffe0000ff01fffefe
010000feffff0100fe01fefe00fffffffeff00ff0000ffff00fe01fe0001fe01fe00000001fe00ff0000fefefe00ff0101ffff000001fe000101ff01ffff00ff
ffff00fefefe0100fe01fffffefeff010001fe0101fe01fe000000fffe010000fefeff0000010001010000ff01ffff0100fffe0000fefefe00fe00ff010101fe
fe00fefe0101010100fefefe00fe01fe0100fe0001fe01fe00fe01ffffff01fefffe00000000fe0001ff00000000ff00fe0101ff00fefefe01feff000101ff00
fe00fefffefeffff010101ff01fe01fefefeffff00fe010000feff00fffe00000001fffefe00feff01fefe0100fffe0001fffe01fe01010101fe0101000000fe
ffffff0100fe00fefefffe00fefffe01010001fffe00ff01fe01fefe00fefe00feffff01fffffe00fe01ff01ff000000ff0001fefefffe01ff00ff0001000001
00000000000000000000000000000000000000000000000000000000000000000000000000000000000000000000000000000000000000000000000000000000
fefe01ff00010001fe0001ffff00fefe01fe0101fe00000100fefffefefefefeff01feff01fefe01fefffe00feff0101fe00fefefe0101ff0100ffff00ff0001
ff0100fffe00fefe00000101fefefe0001ff00ff0000fffffffefe00ffff01010000fffffffe01ff010100fffefffefefffefffffe00fe0101ffff0101fe0000
0101fffefe00ff000001ffff01fffefeff01ff00fefffefefffffe010000fefefe0000ff0100fffeff00fefe0000fffe00fffe0001fefe0001fe01fffe000100
fefffefe0001fe000000fe01fe00fefe00ff0101fffffefe0000ff0101fe00fffefffffeffffff00000100ff00fefffffe01fffffefeff01feffff00ff01fffe
00010001ff01ff00ff0100ff0100fe000101ff0001ffff000100ff00feff0001fe01fe01ff0101fffe0001fffeffffff0000fffe00fefefe00000000feff0000
fe01ff010101ff00feff00fffe01feff00feff0001fffffeff0100fefe00fe00ffff010000fefefefe01fe01fefe0001000000fe01ff01fffe010100010100ff
fffe01ff01fffefe01fffefefeff0000fefeffff00fe000101fffe0100ff00fefffefffefefe00fffeff0100fe010000fe000000fe00fffe01fefffeff000100
feff01fefe0100fffefe010000ff01ff00feff00ff00ffff01fefffe01ffff01fffe0000fe01feff00fffffffeff01fffeff000000feff00fffffffe01000001
00000000000000000000000000000000000000000000000000000000000000000000000000000000000000000000000000000000000000000000000000000000
0000ff0001fefe00010101fffe00fe01010000ff01010101fefe01fe00fe01fefe0000fefffe000101ff00ff00fefefefffe01fefe01fffe0001fffe01ffffff
00fefffe0101fffe01feff01fe00010101ff00010001fe010101ff01010100010000ff01fe0001ff00000100ff0101ffffff010001ff000101ff00ff00ff0001
ff00ff00ff0101fe0000feff0001fefefe00feff00fe00000100fefffffefefeff00010000fe01fffe00010100ff01ff0001fefe00ff0000ff00fe01feff00fe
01fe01000100ff0100000000ff0001ffffff0001fe00fffe00ffffff00fefefe01fe000001010001fffe00ffff0000ff010001010000ff00fffeff0001010101
fe01feff010101feff00fefe00ff0101ff000100fffe00000000feffff01ff01fffe00fe01ff00fffe01fffffffeff00010101010101fe0100ff01fefe010100
fffefe00fe000001fe0101ffff0001fffffe00ffff00fe0001010000fe0001fe01fffefe010101fefefefe00000000ff00fffefe00fefe000100fe01fe00fffe
01ffffffff010000ff00ff01fffefe01feff01fefffe01ff01000000010100ff01fffffffffe0000ffffffff01fefefefffefe00ff00ff0101fe0100ff00ffff
fefe01fe0000fefffefffeff0100ff00fe00010101fefffffe0000fe00010100fffe0100000100fffffffeff000001fe0100fe01fe000101fe0100fefefe0100
00000000000000000000000000000000000000000000000000000000000000000000000000000000000000000000000000000000000000000000000000000000
