feff0100010001fffe01feff00ffff00fe01fffffeffffff01fffefeff00fffe01ff00fefefffe0001010100000000feff01fefe0000feff0001fefeff010001
00feffffff0100ff0100ffff0101fefffe0000fffe00fe0101fe01fefeff0100fe0000010000fe0101ff0001fe00ff00feff0001010100fe0000010100fffefe
00fefeff0001feff00ff01ff00fe00fffffefe00000001000100ff00ffffff00fffe00fefefffffffeff00fffffefefefe01fefefe00fffefefe00fe010100ff
00fefffefe01fefe01ff0100fffe0001fefffeff00000001fffeff010000ff01fe00fe00ffff00fefe000100ffff01feff01ff00ffff01fefe01ff01ffffffff
0000fe0100fe00000000fefffeff01fe0101fffffffffefffe000100fe0001fe0000ff0100fe01ff01ff010100fe00ff00fefe0100010000fffeff0101ffff01
fffe0101fefffe01fffffefffffffefe0000ff01fefefe00fefe0101ff0100fefefefefe000001ff00fe01ff000101ff0001000001fffefe0000000100fe0100
01fffffe01ffff0000fe00000000010100ff01000000fffefffe00fefe00fffefefffefe01ff000000fefefe00feff0001ff0000fffffefe01fffeffff010101
feff00010001ffff0001ff0001ff0000010101000100ff00ffff00feff01ff01ffff00010100fffe0000010001010000feff000000fe010101fe01ff000001fe
0000000000000101ffffff0100ff01fe00fe00000001ff0101fffe000001fffe01fffefefffefe000001ff01fffe0101fefe0000ff00fffffe0101fe00ff0000
fffffefeff0100ff01fefefefe0000ff0101fffffffe00fe00fe010101fe01ff0101fe01feff00ffff0100000000fefe01fefefe0001fefe01fe01fffeff01fe
00010001010001fefefe0100ff000001010000000101fe0101010000ff0101fffffe00ff0101fffefe00000001fefe01fefe00ff01fffe00feff0101fffffeff
01ff0100ff01fe01fefefffeff00fefe01feff010100feffffff00ff00ff00ff00010101fefeff01ff000101fffefffefefeff010101fe00ff010101feff01ff
fffe000001fefeff00feff0000fefffe01ff0001fffefe01fefeff00feff00fe0001fffe00fefeff01fe00fefffefffffe0100fe01fe01fffffffe00fe00fffe
ff0001ff01010000fffe01000000fffefefe00000101feff010000fe0000fe000000fefefffe000101fffe0000fffe00ff00ff01ff0001ff0100fe00feff00fe
fe010000fe010000fefe0000fffffffefffffefe01ffff01fe00fffe00fffefe00fe0001fe0101fefefffe00fffefefe01fffefffe0000ffff0001fefefffefe
fefefe0000fe01ff00fe00ffffff000100fffefe00fefe00fefefeff0100ff01000001010000fe0000ff01fe01fefe000001fffe01fefffe0100fe0101fffe00
