ff00ffff000100ff00ff01fe00fe01fffe01000101ffff00fe01ff00000001fe01000001ff0101fffefe01fefe0000ff0100fefeff01fefe01fffefffe00feff
0100fefffefffe01ff000100ff0100fffefe01fe0100ff00fe00fffefffe00ffff010001fe00fffffeff01ff00fffe00ff01fe01fffeff01fe0101fe0001feff
00ff0100000000ff0101fe00fe0001fefe000100ff00ff01fffefffefefefefe00fefe00000000fffffefe00fe0001fe0101ff0000ff010000fffe00ffffffff
fefefffefe01000001ff00ff01ff00fe00fefffeffff0001ff01fe0001feff010100ff01000001fffeff000100010000ff01fe01ffff00ff01feff0001010101
0100fe000100ff00feff00ff0001ff010101fe0001fefeff01fefffeff01ffffff000101fe000001ff00fe01fffe01fe00ff0100fe000001ffffff0101000000
fe00ffffff01fefeff01fffffeff0100ff010101ff00000000ff0001ff01fefefe00fe00fe000000ff0101fffefefefffffefffe01ff0100ff01ff0000fe0100
01fefe00ff0000010100fe000100fffefe01fefeff01ff01000100ff01feff01fe00000100fffffe010001000001ff00feff0100fe0001fefefffefe01fe00fe
0000ff0001fffe000100fe01fffffefe010001fffe0101000000feff00fe00fe000000fefefffeff00fffe000100fe01fe01fe01fefffe00000100fefe0001ff
00000000000000000000000000000000000000000000000000000000000000000000000000000000000000000000000000000000000000000000000000000000
feff0001ff00000100feff000100fffe010000ff01fe00ff000100ffff01fe01fefe000100fffe0100fe0000fffefe01fefefe0000fefe0000fe00ff00010100
00ff000000ff01ff0000ff01ff00ffff0000fefe01ff0000fefffe01fefefefffefeff00fe000100ffff000101fefe01fefefe01fffefe00fefeff01fffffe01
fffe01fffe0000fffefffe01fe01feff00ffffffff0000feff0001fe01fe00fffefeff0001ffff0100fffffefefe0101fffefffffeff01fffffe00fffefffeff
0000ff00fffefeff0000fe01fffefe01fefe01fefefe01fffe0100ffff01ffffff00fefefefe000101ff00fefe01fffefefffe00000100fefefeff010000ff00
fe000100fffefefe01fffe01fe00ff00ff01ff01000100fe01010100fffeff010100fffe01fefe0000fe00ff0101ff01fefe010000fe00ffff010101ff00fe01
fffe0000ff0100fffe01000101ff01ff0101fe0000ff00fefe000101fe00fefe0101ff000001010000fe0001fefe01ff0100ff01feff0101ff01000100ff01fe
01010000fe01ff00fe01fe0101fefe00fe00fe01fefefe01ff0100fffeff00fffffefe00fe0101fefffe00fffefeffff0100ff01010101fe01fe00ff01feffff
010101fe00ff010000fe01fffffeff00fefe010001ff01fefe0000ff00fffe01ff0000feff00ff01fe01010000ff01fe010001fefefe01ffff0101fffe01fe01
00000000000000000000000000000000000000000000000000000000000000000000000000000000000000000000000000000000000000000000000000000000
00000000000000000000000000000000000000000000000000000000000000000000000000000000000000000000000000000000000000000000000000000000
00000000000000000000000000000000000000000000000000000000000000000000000000000000000000000000000000000000000000000000000000000000
00000000000000000000000000000000000000000000000000000000000000000000000000000000000000000000000000000000000000000000000000000000
00000000000000000000000000000000000000000000000000000000000000000000000000000000000000000000000000000000000000000000000000000000
00000000000000000000000000000000000000000000000000000000000000000000000000000000000000000000000000000000000000000000000000000000
00000000000000000000000000000000000000000000000000000000000000000000000000000000000000000000000000000000000000000000000000000000
00000000000000000000000000000000000000000000000000000000000000000000000000000000000000000000000000000000000000000000000000000000
00000000000000000000000000000000000000000000000000000000000000000000000000000000000000000000000000000000000000000000000000000000
00000000000000000000000000000000000000000000000000000000000000000000000000000000000000000000000000000000000000000000000000000000
