ff01ffffff01fffeff01fffefe00fe010101000000ff00ff01fe01fffeff0100ff01fe01fffe0000010001fffe00fe00000100ff0000fe00fefe010000fffe00
00fffefe01ff00fefe0001010000fe0000fefefffe010100fffe00fffefffe010100000100fffe0101ffff01fe01fefeff000100fe01feff01fffffeff00ff01
fe010100fe00ff01fe0001ff0100fe000100feff00fe0000ff01ff01fefe010100fefe01fe000100000001000000fe01ffff01ff00fefeff000001ff00fefefe
00fefefefe010101ff01ffff00fe00feff01fe0000fefe01ffff00fffffffe0100fe010000ff01fe00fffffe0000fffffefe01000100ff010100fe01ff01ffff
fe01ff01fe0100fffe0000fefe01ff00ffff00ffff00ff00fffefe0101fffffefe00ff01ff00000001ffffff0100ff01fe01010000010000fe010001fffeff00
00ffffff00fe00fefffffeffff01fefffeff00fe01fefefeff00fe01fffe010100fe01000000ff010000fffe010000fefe00fefe01fe01010001fffe0100ffff
01fefeff0001ff00fe00feffff00fe0100fffe01fe00010100ffff01fe00feff00ffff00ff0101010100fefffffe00fe00010001fffe00ff01feff00ff01feff
feff010101feff01feff00fe00010100ff0100ffff00ff01fefe00ff01fe0101fe00ffff00fe01feff000000fffefe01ff0001000101010101fefefffefeff01
00000000000000000000000000000000000000000000000000000000000000000000000000000000000000000000000000000000000000000000000000000000
fe00ff00ff0100ffffffff01010001010101fe01ffff00fe01fe0101000100feffff00ff0000fffefe0100fe0001fe00ffff0001ff00ff00fffe00ff0000fe01
01fe0000feff01ffffffff010001fe01fffffe0001ff01fffe000000fe01ff010001ff0101fe00fffe00fefefefffe0001feffff000001fe01fffe0101ff01ff
000101fe0000fefeff010100fe0101ff00fffefffefeff0000ff01fffffe00010101feff01fefffefefffffe00fffe01000100fffffffe00fe0001fe0100fe00
000000ff00010100fffefefe00000001ff01ff00ff00fefe00fefefffe01ffff010001ff010101fefeffff0000feffff00fe01fe0000fefefe00fffeff01fe00
00fe01ff010001ff000101010100fefe0001fe0100fffe0000ff00ff0000fe01ffff0101fffffffe01ffffff0100ff0101ff01fe01ff000100ffffff01010000
01fffe0100000000fffefe0001ff0100fefffefe010100ff01fe01fe00ff000100fffefe000001fffe010000ff00fe01fe01fe01fffe0001fefeff0000ff00fe
fefe000100feffff00fffefffefffefe00fefefe01fe01ffff01000001feffff00fe0101fefeff00000101fe0001fe000000fffe00fe0000fe00fefe0101fe00
ff00ffff00feff01ff00fe000101feff00fefe01ff01fe0001000000fe010100ff01fe0101fe00000001fe0101fe010000fefffe01fefefffe01fffefffe0001
00000000000000000000000000000000000000000000000000000000000000000000000000000000000000000000000000000000000000000000000000000000
01fe0101fe0001fefeff00feff01fe00fe0000fe0101ffff00010100ffffff00fe0100fffeff0100fefe0000ff010100ff0000feff00fefeff01ffff01fefefe
fe01000101fefefe0000feff0101ff0000ffff00fe00fe0101ff0100fffffeff0101fe0101000101fefe00ffff01ffffff01feff00fefe01fe0001fffefe0001
fe00fe01ff00feff00ff0000fefe01ff0000fe0101000001fefe0001fffe01ff0001010001010100fefefe0001fefe00fffe0100fefe01010101ff0000fe0101
ff010101000001fe0100fefffe0101010100fefffefffe000101fe01ff0000fefefeff00000001fe01fe00fe0000fffefe01ff000100ff0001fe0001fefeff00
ff01fefe010000fffefefefe0100ff01feff0101fefe0100ff00fe01fefefffeffffff0100fffffffe00feffff00feff0000fffe01fffe00fffefe010101fe01
fe01fe01000001ff0000feff010001fffffffe01fe0000fe000001000001fefefe01fefe01ff00feff000001feff000000fffe0001fefeff00ffffffff01fe01
fefffe00ff0101ff01ff01ff01fe0000fefffeff00fefffefffffeff0001ff00ff00fefe01fe00fefffffefefeff0000fefe0101010001000101ff0000fefffe
fefefffe00ff01000101fe000100fffefffe0000fe0101fe01fe00fffe00ff0001feff00feffff0001fefefffe000101ffff0000fefe0100fffe00ff00ffffff
00000000000000000000000000000000000000000000000000000000000000000000000000000000000000000000000000000000000000000000000000000000
