ff00ff01ff00fe01010100fe01fefeff01ff0101fe010100fffffefefffffefefffe00fffffffe01ff0001fffefe010101fe01ff0101ff0000fefeff0101fffe
fe00fe010001fe0001fe01ff0100feff0100000100fefe010101000001fe00fffffe00fe010000feff0101ff0101ff00fefefffeff0001ff01fefe0001010100
fefeff00ff010001fefefefefe00000000ff01ffffff01fe01fffe00fffe01fe00000100ffffffff01feff00fefe0001fe0001ffff0101ff00fefefffefe00ff
fe00fefefffffe01fffffefefefe0100fefeff00fe01fffeffff0000ffffff0001ff01fe000100fefefefeffff0001ff000101000101ff0000feffffff00fe00
fe0001fe00fffe0001fe00ff00ff000001feff00ff000000fe010100fe01fffffefeff0000fe000000feffffff0000ff01fffe01000001fefffe01fefefffeff
00010101fe01fe00fe0001ff00fffe010100fefe01fefeff00fffffe0001ff0000ff00fe01fffe010100ff000100fffe0001feff01feffff01ffff00fe010001
000001fe01ff0000ffffffff010000feff0001ff0101fe00ff00ff01feff000000fffeff000000ffff0001fe00fffefe0001010101fffefefe01ff01feff0000
01fffe00ffffff01010000fffe01fe000101fffffe00fffe00ff01fffe01ff0100ff00000000fe00fefefefe000101010101feff01fe0101ff010101ff010000
ff01fefe00ff00fe01ff000101feff00fefffe00fefe01fefe01ff0100fe0000fefe010101ff00fffe01ffff010001fe0100ffffff0000ff0000feffff010100
01ffff00fefe0101fe0101fe010001fe01000101fe01fe01fefe0001ffffffff01ff010101ff0101fe010101ff00ffff00fffffe00feff0001feff00ff010101
01fffffeff000101fefefeffffff00fffe010000ff01fefe00fe01fefffefefe00fe0101000000fefe01fefffffe01fffffe00ffff0001010101fefefe0000ff
fffe01fe01fe0001fe010101010000ff0100ff0000000100feff010100ffffff0000ff01fefe0000ff0101fefffefefefefe0000fefffffefefe00ff010000fe
00fffe01fe01fffffefefffeff00fe01ff01fffe0101fefffeff01fe01fefe000001fefeff01ff01fe01ffffff01fffefe01fe0101010000010100fefffe01ff
010000fffe0001fe00fffefeff00000101000100fe01010000ff01fffe010001ff01ff01fe01ff0100ffff000000fffe0000fe01010000ffff0100fffe00ffff
01010101feff00fffe0001fe01fe00fe00ff00ffff00feff0000fffe0100ffff00fffffefefe01fffefe00ff0001fefe010001fffe01fe0100fefffffe01fe01
01fe0000fe01fe010000fffeffff0001ff000001ffff01fefefe010100ff01fffe0001ff01ff010101fffefeff0001ff00ff0101fffe0101ff00ff0000fefefe
fffffffefffffefefefffffe00ff01fffefe00fe00000001ff0001ff010001feffffff0001010000ff00ff000000fe00fe01010000fe00fffefefffe00ffff01
ffffffffff0101010000fe0001010001fffeff0100ffffff01fefefefe000001ff01fefe000000ff00ffff01fefe010101fefeff0001ff01ff01000001000100
fffe00ff0101fffe000000ffff01ff010000fe01ff01fe01fffe0000fe01ff00000000fe00fffeffff00fe01fefffe010100010000000001fe00fefe010101fe
ffff010001010000fe0100ff0000000000fe000001fe010001feff0101ffff00010001000100ffffffff01010101ffff0101fefe01fefeff00ff0101ff01feff
fe01fefe01fe0000fffe00feff0101fe0101fffffe000100ffff01fefeffff0001010001ffff00fe0100fffffffe00ff01010001ff01ffff0100ff0001fffeff
01ffff0100010100fe00fe00feff0000ff0001fffffffe00010100fefefeff010101ffff00ffff0000ff01feff01010101ff0000feff000101fe00ff0101fe01
0101fffe00fefe00ff01fe00ff000001010001fe0101fe01fffffffffffe00ffff0101fefe01000101fefffe0001fe00fe0001fffe00010100ff0100feffff01
feff00ff010000fefefffffeff00ff01fe0001ff000101010000000001feff01ff0101fe00ffff0101fffffefffe0100fe010001000000fefeff01fefffffffe
