fe00fefe0000fe00ff000000fffffefe01fe0100fe0001feff0000ff0001fe00ffff00fefefeff0001fffe01fe0100ffff0001ff00fefffefffffe01fe00fe01
fe0100fefefefe0001feffff01fe01010000feffff0100000100fffffe01fe0101000100fffefefefe0000010101fffefffffeff000000ffff01fffffefffeff
fffffe01fe0001fefefefffe01fe01fefefffe0101feff010001fefefe00ff010101fe0101010001010100fe0000ff0000fe00ff00fefe0100feff00ffffffff
fffffe00fffe00feffff00ff0000fe01ff00fffefefe0000fe0101feffff0101ff01fe000001ff0100fe00fefffe01fefeff0001000100ff0001fe00feff0001
00ff01ff0101fefffe0100fffe010000ff000001010100fe00ff01000100fffeff010100ff01010100feff000001ff010101fefeff00fe0101fefefffeff0100
ff00010101010101ff00fffefe0101fe00fffe00ff00010001ff00fefeff010000fffe0100fffe00fefe00fffe00feff0100fe01ff00010001fe01ffff00fefe
ff0001feff000000fe0000ffff00fe010100fefffefffffeff010001fefeff01fefe0001fe010001fefefeff010001fe01fefefe0000ff0000fefefffe00feff
0001ff0000fe000000ffff00fe0100fe01fffffffefffefeff01ff01fffe00fefe0101fe010000fefffffffe0100fefffffefffe0001feff00000001fe00fffe
feffff000001fe00ffff010000ffff01fffffffffeffffffff01fefe01fe00ffff0000fefeff000001fefe000101ffff0100fefffe000001ff00fefe010100ff
0101fe01fe0100ff01fe01000000ff0101feff00fffe00000101fffefe01ffff01fefefe000000010101ff00fe00fefe00fe01fffefe0100fefffe01feffffff
fefffefffffefefefefe00fffffe00ff01fe0101010100ff01ff00fe01fe00ff00fffe00fffffefe00ff01fefe01000001fefffe000100ff01fe0001ff01ff01
fffffffefe0001ffff010101fffefe01fefefe01ff0000fffffe00fe0001feff0000000100ffff00010000ffff00000101fefe000001fffffffe010001fefe01
fe0001fefe01fffe00ff01fefe010101fefe00fffffe010101fefe000000000001010101fffefe01000001fe01fefe00fefffffefe0100010100ffff0001fefe
fffe00fe01feff01ffffff01ffffff00ff01ff000000fe00fe0101fefefe0100010100fefffe0101feff01010000000000ff0001ff00000001fe01ffffff0000
fe00fffeffff00010100ff0000ff0001fefeff00ff00ff0000fe000001000100000100ffff010000fefe00fe01fefefe00ff0100fffeff01fffffe01000001fe
00000100fefffffefe0000fe0100fe0001010000ff01fefeff000101fefe00ff010100010001ffffff01ff0000fefffe0101fe010100ff00ff00ff00fefffeff
ff0101000100feff00fffefefffe0101ff000101fe000101ff0100fe00fefefe01ff00fffefefeff00000101ff01ffff00fe0000ff000101000000fe00ff0000
00ff010100ff00ffff00ff0100000000fefeffffff0101fefffffefffefefffffe00fe00010100fefefefe00ff000100ff00feff00fe01feff01ff00ffff01fe
fffe01fe0100fe0000ffff01ffff01ff000100ffff00fe0001000101000000fefe010101ff00ff0001000101010000ff00ff0000fe00ffff00fe00fe00000001
ff0101feff00fffe00fffeffff00010001000101ff010100feff00fe000001feff00feffff00fe01fffffefefffe0101fe00fefefffe01ffff00fffffffe0101
00fffffe0000fe000001ff00fefe0100ff0000fefe01000001fe010001fffffefe00ff01fe0100ff0000ff01ff00fe010001ffffff00fefe0100fffffffefeff
fffefe0101fe00fefefe00fffe00fe01fffffeff01fe01feffff0001ff010101fefe01fffefffffefffe00fefe0001ff01ffff01010101ff01010101fefeffff
0100fffefffffe00fffffe01ff00fffefefffffeff00fefe010000feff01ffffff0000fefffefe0101feff0100fe0001fe0000fe010100ff01ff000000fe01ff
010001ff0001feff0000fe00fffefefefffffeff01fe00fffe0001fe01ff00000001fe00ff00fefe0100fffeff01000101feffff0000fe00fe000101000100ff
