0000fe01ffff00fefe01ff00ffff010100010001fefefe0000fefefffffeffff01fe0001000001fffefefeff01fffe00fefefe0101feff00ffff0101010100ff
0101ff00fffeff0101fe0100fefefeff0000ff01fe01fffffe01fefefe00fe010000000000fefefffe00ff0000010000ff00fefe0100ff0101fe01feffffff00
01fe00feff01ffff0000ff01ff01fffffe0100000001fe010001ffffff0001fe00fefe010000000001ff010000fe0100ffffff01010101fefe01fe01feff0001
010100ff00010001ff01fffefffe01ff01000001ffff0100fefe00ffff00ffff01ff00ff00fe01feffff0000fefefffffffefffffe01feff01010000fe00feff
fffe00fffefffefffe00ff000001fe01fffe01fe01ff00fe00feff0100fefe01fe01ff01fffefe0101ff00ffffffff0000fefe0101fefe01ffff01fe01fe0001
feffff00fefe010000fe0100fefffe0101feff01fe01ff000101ff00feffff000100fe0001ff01ff0000fffefffefffe010100fe00fe0001fe0000ff01000000
01fe01ff0101010100fe01fe01ff01ffff0100ff010001ffff01ff00ff01ff0000fefe01ffff00fffe010101fe0101fe00000101feff0100fffeff01fffefffe
0101fefffe0101fe00ff01fefffefffefffffe01fffe01fefeff00fefeff01fffe0001fefefe0101fffe00fe01fffffefe00fe00fe00fe0000fefefffe0101fe
00000000000000000000000000000000000000000000000000000000000000000000000000000000000000000000000000000000000000000000000000000000
fffeff01fffffffe010000ff0100fffefefefffe01fffffefe0001fffffeffff0100ffff01fe00ff01fe00fefffefe00010001fe000100ff01010001fefeff00
fe0101feff0101000100fe000001fefe00fe0100ff0101ff01010100fffe00ff00ff00ff00010000fe00ff0100ff000000fe01fe0001ff00010001feffff0000
feff01fffe0100feffffff0101fffe0000ff01fefeff00ffffff00fe0101fefefefe01ff010000fe00fe01000101ff01fe01fefeff0100feff01fe00feff0001
fefffefefe00fe01fe00ff01fffefffe0001feff010101feffffff0000ff01000101feff01ff010101fffe01fefe01ff0001feff0000fffefe00fefe000001ff
000100fe00ffff00fe00ff00fe01fe00ff000100ff0101fffe00fffe01010001ff00fe0001fefe0001fffefe01fffefe01fe01ff010001ff0100ff010101fe01
ff00ff00010000fe00feff0100ffffffff0000000100feffff00feff0100fe0001fe010000ffffffff000000ff00fefeff0101fefefe01fe01fefe00fefeff00
01ff00ffff00000001fffefefefe01000000ff01010001feff01ff010101fefe01ffff00fffffffeffff0000ff00fe0001fffe000000010001ff0101fe0001fe
00fffe0001feffff010001000100fe00fffeff01feffff0000fe0101ffff0000ff00000001fe01fefefe010100fe01fefe00fefffe01ff0001fe000000ff00fe
00000000000000000000000000000000000000000000000000000000000000000000000000000000000000000000000000000000000000000000000000000000
feff01fe0100fefffe0101feff000001fefe01fe0101fe00fe00feff01ff010101fefffefffefffffefe00000101000000ff010100fffffe00fefefe01ff01ff
fe01ff00fefe00ff00fe00010001010100fe010100fefe0000fefe01fe01010001fefe0001fffeff01fe00feff00feff01fe0001fffffe0100ff00fffe0001fe
01fffffeffff0100ffff0101ffff01ff01fe00ff01fffefefffeff0000ff0101000100fe01fefefe0000ff00feff01feff0101010001fefeff0100ff0101feff
01feff01fffefe010001fe00010101ffffffffff01fe0000fefffefefffffe0000010100ffff00fefefe0000fe01ff010000010100fefefe01ffffff0001feff
fefefffeff010101fe01010100fefe000000fefe01fefeff010100ffff01fefffe00fefe00ff010100fe00fe01fffeffff01010001fe010000010100fffffe00
ff010000ffff01feffffff000001ff00fefe010001fe0000fe010000fe01fffefe0001fe00fffffe010101000100ff01fffefeffffff0000fe00ffff00fe00ff
00ff00fefffe00ff0101ff00fe010001fefeff00000000ff010101ffff01ff01fefffe010101feff00fefe0101fe00ffff0001fe0000010001ff00fffffeffff
00ff01fe0000fffffffffe00fffffffeff01fe010000fffffeff0000fe01ffff0001000000fffefefefffefe0101fe0100ff00000001010001fefe0101fefe00
00000000000000000000000000000000000000000000000000000000000000000000000000000000000000000000000000000000000000000000000000000000
