010101000100010001ffff0000000001fffefe0001ff01ffff00fefe00010000feff00fefe01fe0001fefffeff0000fffe0101ff00fffefffefffefe01ff0100
fe00feff01010100feff0100ffff00fe010100fe01fefe00fe010101fefffe00fefefffe01fefffefffe00010100fe01fefffefeff000000fffe00fe01fe01fe
fffffe01fffffeff01fefffe0100fffefe0100ff0001fe01feff01fe000000feffff010001ff010100fe01000101fefefffeff0101ff00fe0001ff0001fe00ff
0100000000ff0001fe0101000000ff0001ff0001fe00ffff00ffff00fefefeffff00fe0100fe01fffe00fefffefefeff0000ff00fe00fe0101fefffffefffe00
0001ff0101fefe00010001ffff00fffffffe00ff0001000001fefffefefe00feffff00fffefffefefeffffff01ff0101feff00feff0100ff01ffffff00ff0000
fe01fffe01ffff00feffff01fe0100fffe01ff0100fe00fffe01feffff0000fefefe00ff0000ff00fe01ff010001fefe000100fffe0100fffefe00fefe00fe00
ff0100fe00ff0000fe0001fe00fefefefefffe0100fe00ff0000fefefe010100ff0001010000000000fefe00000001010001010000ff01000000ff01010100fe
fe00ffff0001010000fe0100ff00fefefefffffe01fe00ffff0101ff0100ff0001fefe0101ff00ff01fe0001fffe00fe00fe00fffe01ff00010001ff000101ff
fe01fe0001ff01fe0100feff00fefe010101fe01ffff010100ffff01fe0101fe00fe01fe01ff00ff00fefefffeff00fffe00fffe01ff010101fe01fffffeff01
00fffe01fefefefe0001feff010101ff00ff00fffeff00fffeff01fe00fefe00010100fe01010101010100fefefefe00fefe00ffffff0001ff01fe01fe0000fe
ffffffff0001ffff00fffe0100fe00ff00feff0001010000fe00fe01fffffffe00ff01fefe0000ff00fefffefefe00ffff000000ff01ff000000fefeff000101
fefeff000100000101fe00fe00fffefefe0000fe00feffff01ff01fe01fe01000100fefffe00fffefe0000ff0000fe00ff00fffffffffffeff00ff0000fffffe
feffff00fefefffffefeff010101fffffe010101fffe0101feff0100feffff0101010000fe0001fffefeff01ffff01010001010000fe00fffeff01010000ff01
fe010000fffefffefffffefffe01fe0100ff00fe010101000100feff00fffefe00feff000100fe000001ff01ffff01ffff010100feffffffff010101fefeffff
fe01fe010101fe01fe00ffff01fefefe00010100fffeff0000ff0100ffff00feff0000ff00ff0000feffff0100ff000000fe01fefeff00ffff010001fe01ff01
0101000000010001ff01ff0101ff00fe000100fffe0101feff010101fefe00fefefe010001fefffe01000100fffe0101000000fe01010100fffefe01010101ff
