ff00fffeff00fefffefffe0101fe000001010100ff000100000101fefefe00fffffefefffefefffefffefffe00ff0100fffe010000feff01fe00ff010000fe01
01fe01ff00fe01000001feffff000000000000fefefeff01fe00ffff00ff00fefefefffeff00fe01ff00ff01ff0000000000fffffe0000fe0100010000ff0101
01fffffffefe01ffff0101feffff01fe00000000fffefefefefffefffefeff000000feff0000fefe010001ff0101feff000000fefffffeffff01feff00000000
fe010001010101fe0100fefe00ff0000fe0100ff01ff00ff0100fffffe01ffff010000fe000001ffff00ffff010101fffffefffe010000feff01fe0000fe00ff
010000ff000000fffe01fffeff00ff0000ffff00ff00fe01fe01fffe01000100ff010000fffe0000ff0001ff00fffe0100ff010100ff000100fe0101ff01fffe
fefe000000ff0101feff0000000001ff01010100fe000101fe01fffffe0100fe00feff01feffff000000ff010100ffff01fe01ff0000010100fefe01010000ff
fe0100fffffefeffffff000101feffff000001feff0001fffefe0101fe01fe00ff01ff00fefefffffffeff01fffefe00feff00ff01ff00fefeff00fffefe0101
fe0100ffff0100feff00ff010001fffe000001000101fe000000fefe01000100000101fffffefffefffeff00fe010001ffff0000010001000101fefe0000ffff
00000000000000000000000000000000000000000000000000000000000000000000000000000000000000000000000000000000000000000000000000000000
fefefe0100fe01ff00ff00ff0101fe00fefe01ff00feff01fffe010001ff00010100fe010001ffff01fffe00000001fe01ff0101ff01ff01fe00000100000001
00feff00fe01fe01fffefffe01ff01000100fe01fffe01ffff010000000100fffefeff01000100feff00fe00fe00000100000101feff0101fffe0000ffff00ff
fffe01fe0100fe01fe00ff000100feff00fffe00feff000000fffefe0001fffffe00fefeff0000ffff00ff0000fffffe00feffff0000fefffefe000000ffff00
01fe000000fefffe010101feff0001fefe00fe01fffefe000000000100ff010100fe010000ffffff01000101fffffffefe01fffffe01fffffe0001010101fefe
00ff01fefefe0001ff000000ffffff01ff0100fffeff0101ffff0000ffff00ffff0101ff010101fefe0100fe00fffffe00fefffefeff01ff0000ffffff000000
00fe00ff0000ff000101ffff0100ffff0000feff01feff010100fffe0001fffe000101ff00fffe00fefe01ffff00fe00feffffffffffff00ff00fefefe00fefe
010001fffffefeff0101000101000001fffe00ff0000fe00fffefe0001010000fffe000001fffffe0100fffefefefe01ffff00000100fefe0101fffe000000fe
0101fefefeff000001fe0100fffe01fe010000fe000100ff010101fe0101fe0001000001feffff00000101fe00fffe01fe010101fe0001fe01ff0100fe000000
00000000000000000000000000000000000000000000000000000000000000000000000000000000000000000000000000000000000000000000000000000000
00000000000000000000000000000000000000000000000000000000000000000000000000000000000000000000000000000000000000000000000000000000
00000000000000000000000000000000000000000000000000000000000000000000000000000000000000000000000000000000000000000000000000000000
00000000000000000000000000000000000000000000000000000000000000000000000000000000000000000000000000000000000000000000000000000000
00000000000000000000000000000000000000000000000000000000000000000000000000000000000000000000000000000000000000000000000000000000
00000000000000000000000000000000000000000000000000000000000000000000000000000000000000000000000000000000000000000000000000000000
00000000000000000000000000000000000000000000000000000000000000000000000000000000000000000000000000000000000000000000000000000000
00000000000000000000000000000000000000000000000000000000000000000000000000000000000000000000000000000000000000000000000000000000
00000000000000000000000000000000000000000000000000000000000000000000000000000000000000000000000000000000000000000000000000000000
00000000000000000000000000000000000000000000000000000000000000000000000000000000000000000000000000000000000000000000000000000000
