fefffeff00fefefefe0001fefe01ff0000feff01fe00fffeffff010101ffff01ff0000fe01ffffffffff01fe01010000fe01fefe01ff00010001ff01feff0101
feff00fe0000ffff0001feff01000000ff000000fefe00ff0001fefffefe0001fefe000001ff0001fefffe0101ff00fefefe01fffffefefe000001feff00ff00
01010001ff00010101ff00ff01feff000000fe000001fffe00000100fe00fefefe0000ff0001fffefeffff0001fe00fe00fe0101fe01ff000001ff0001fffefe
fefeff01fefefe0101fe00fe0100feff01feff01fe01fffe01fe0000ff01feffff00ff010000fe01ffff0100feff0000fe0100ff00fe0000feffff01ff010001
ff01fffe00ff010001fe01ffff01ff00ffff01fefefe0001fefeff01fefe0101fe01fffeff0000fe01fe0100fffefefefe0001fffffe00fe00ff00ff00fe00fe
01ff01fffe01fe00ff00fefeffff01000101ff010001fefe01fffe0000010100fefefffe0100010000fefffe00ffff00fe0101010001ffff01ff010001ffffff
feff00ffff010101ff0001fffffeff01fe000100ff0000ffff0000fe00ffff00fe00feffff00ff010100fe01ff0001fe0001fffeffffffff00fffffe0100fe00
ff00fefeff000001ff00fffe0101fffefefeffff01000001ffff0001fefe00fe0000fefe0101000100ff00ff01fefefffffe00fffffefe000000fe0100ffff01
fe000001fefffefe0101feff00fe00feff0100fe00010101fefe00ff01feff0100ff00ffff01fe00000101fffffe00ff00000001feff00fefe01ff00fe01ffff
ff01fefffe01fffefe0100fe01ffff00010000fefefffffffefefefffe00ff00fffefefefe0000ff0000ff010101fefe00fefe00fffeff000101ff01000101fe
01feff01feff00fe0001fffe0101fefe00fefffe0101fe01fffeff0000fe00fefe0001feff010001ff01ff00fe0000fefeff01ff00fffffe00ffff00ff0000fe
00ff01ff0000ff00ff01ff01ff0001010000ffff000000fffe01ff01ff0000ffffff00feffff00ff0000fefe0101ff00ff0101ffffff0001fffeffff00fffefe
0000fefefffe00fffffefe01fefe0001fefefeff00fe01fe00fffe0100fe01000000ff0001ff00ff01fffefefefe01fe0101000000fffefe01ff0101fefe0100
fffe0001ff00fffe0000000100fefefefefe00fe0000fffefe0101ff0000ff0000fffe0100fffefeff01feff0101fe010000ffff01ff010101fe01ff00fffefe
00fefefe010101fe01ff01fefefefffffefe01fe00ff00ff01ff0000010100ff0000fffe01ff01fffefffffe0100fe00fe0101ff0101fefefe01fffe010101fe
fe0101ff01fe01fefefffefefeff01fefffffe0001fe01feff00ff01feff00fefffefffeff00ff0001fffffe01fe0001ff0000fefe0001fe0101fffefe01fe01
