00ff000101010101fe00fefefe00feff0100fefe00ff00fe01fe0101fe00ff00fffe0001fe00fe010001fefe01000000fe010101fe000001fefe0000fe01ffff
01fe00000001fefffefefe0100fffffefffffffefe0100ff0000ff0001000000ff0100fefffe01ff0000fffefe00fefefffeff00fefffe01feff00fe00fe0100
fe01fefefe01fefffeff00fffe01fe0000ff01fefffefefefeff00fffeff0000ff00fffe01fe01fffeff00000101000001010100010001fefe0101000101fe00
ff00fe00ff0000fefefefffefefe00fe01fffe0000fe00fefe0001ff00fefe01fefe01ff0100fffffefefffffe000101ff000100fffffe00fffefffe00fffeff
