fe00ff01010000fefe0101fefe0100ffffff0000feff0100000001fe0100ff010000000101fffe0001ff00fffeff01fe0000fffe0101ff010000ff0101fefefe
000101fffffefeff0001fe0100010101fffeff0101fe00ffff010100ff0100ff010101fe00fffe01010001ff0000000101fe01feffff0000fffffeff010101ff
fffe010001000001fe01fe01fe0000ffff00ffff01fffe000000fffefe01fe01000001fefe0001feff01fe010000fefefe000101fffefffffefe00feff00fe00
ffff01fffefffe00010001fffeff00feff000001010000fffefeff0000fffeff01ff010100ffff0001ffff01fe0001ff00fefffffffefeffffff00ff010000fe
0100010000fefe00fffe01fffe0101fe01fe01ff0100fefefefe01000101fe0101fffe000101ff00fe0001ff0001010101ffff00ff0000ffffff01fe01feff01
00ff00feff0101fffefeff00ffffff01fffe00ff00ffff000001fffffefffe010001fffe01000000fe0101fe0001fffefe0101ff00fe010100fffefffeffff00
ff0101000101fe01fefefe01fe01fe01ff00fe01ff01000101fefe00010001feff0001fffffffe00ff000000ff00feff01fffefeff00010000ff00010000fe00
00fe01000001000100ff00fe00fffefffffefffe0101fe00fffffe0000fe00ff01feff00ff000101010001010101feff010101ff00fefffefefe0100fe0100ff
fefe01fefe000001ff00fffefefe010001ff01fefffeff01000001000101fefe01fe01fe00fefeff00ffff0001fffefefe01fefe00fe0101ff01fefe01fefe01
0001feff00ff00ff010101fe00fefefe01fffe00fe0001fefe01010100feff0000fefe01010100fffffffefffe010101fffe00fefe0100000001fefefefeffff
0000fe000001ff01fefe00fefe0101fefe00fe01ffffff01fefe01ff01ffff0001ffffff0100fefeff0101000001fe010000000101fffe01ffffff000001fe01
fefe0100ff00fefefefeff01ff0000ff00fffefe010100000101fe01fe01000001fefefffe01000001fefffe010001fffe00fe00fffffe0100fe01ff010001fe
000101fe01000001ff01fffefe01ff0101feff00fe0101fefffffffefe01fffe01fffefe01ff0100fefefffe000101feffff01fefe0000000100fe00000000fe
feff0100fffefe000000fffefe00010100fe01fe00fffeffffffff00fe01fefffffffeff010001fe010000fffffe0100ff0100010100feff00ff01fe000101ff
fe00ff0100ff0100ff01feff01010101fefffe00fe00fffefe01010100fffefffffffefe00ffffff00fffe01fe010101000100fefefeff00fefe00feff00ff00
ff01ff01fffefffe000100fffefe00feff01fe01ff0100fefe01ff01000001fe0000ffff0001fffefeff0001fe0101fefe01fffffffeff01ff01fefe01feffff
