fffffe00fe01ff000000ff0000fffefe0100fefefffffe0100000001fe00ff010000fe00010000fefeff00fffe00ff000001fffefeff010101ff010101fefe01
00fe00fffffefefefe01fffe00fffefe0100feff00ff00fe01ff000100fefe010100fffe00fe01ff00ff00fe01fffeff0100fefeff01fffffffefe0101fe01ff
01ff01000101fffffeff0101feff00feff00ff00ff00010001fefffeff01feff0101ff0100fe00feff00fe01feff0101feff0000fe00ffff01fe00ff000101fe
010101fe0001fe01000000fefefffe0100fffefe01fffffeff01fffe0001010001000001fe01ff00ff01010100ffff00fffe0101ffff00fffefe00000000ff00
fe00feffff010001000000fe000001fe01fefe00ff00fe01fe01fefefffffeff00ffffff00fffefe00ff0001fffffffe0000fffffe00fefffefe01fefe01fefe
01fefe010101fe0101fe0000ff01fe00fe00fefe00fe01fffefffefe01fffe010001ff010001fefeff01000000fe0100fe0000fefe01fffefe000100ff01feff
00000101000100ff0001010100ff00fefe00ffffffff00ff010000ff00ff01fe00ff0100000001ff010001fe00fefeff0001ffff00feffffff01feffff01fffe
ff010001fe0000fe01fefeff0101ff00ffff00ffffffff0000fe00feff00ffffffff00ff0101fffe01fe01fe01fe00010001fe01ff00ff01fefffffe00fefefe
ff00010000ff01ff01fe01fffefe01ff01ffff01fefe00feff0100fffe01feff01ff010001ff000001feff01ff01fe00fe00fefe01ff000101fefe0100fefefe
00fefffe000001fffe01fefffffe00fffefe01fefe0100ffff000001fffefffeff010000feffff00000100fefefe01fffffefefefe00feff00fffefe0001fe01
01fffe00ffff01fe0000000001ffff00fe01feff00ff00ff01010001000000fffe000100fefefffe01fe00ff00feff0000ff0101fe0100fe0101fe00fffffe00
000100ff01fffefe01fffefe01fe0001ff01fe0101010101fe00fffefefffefe000000fe01ffffffff010000ff00feff01ff00fefffe00010101010000fefffe
000000000001ff01fefffffeff00fffffeff0100feff01fe01ffffffff00000000fefe010101fe01010101ff00fe0100fefffe0100fffefefe0101ff0001ff01
fefe00000000fffeff01fe0001fefeff00fe01fe01ff00000100ff0100ff0000fe0100ff010000fe0101ff01fffefe000000fffefe00ff00fffefeff010000ff
00010100feff0100fe00fe01ff000101ff010000010101fe00fefffefefffeff0101fe010000fe01000100000001fe01fe00fe01fffffe00ff010001ff00ff00
00ff0001fffefe010000ffff0001fe0001ff0001fefffffeff01000000ff0101ff00fffe000100000101ff010001010001ffffff010000feff0100fe0100ff01
