01ff000100ff010001fffe0000000000ff00fefffefffefeff010101fefe00fe01fffe0001ff00feffffff000001ffff00ff0100fe00feff0001ff01fe010100
00fffffe0000ff0101fefefe00fffeffffff000000fe00fe01fefefe000100fffe00fe010001fe01feff00fe0000feffffff0101000100fefe01feffff0101ff
ff01ff01fe00fefefe00fefeff00ff00fffeffff01ff01ff000000fe01000101fefe00ffff01000100ff01fefe01feff00fffe01fefeff00fe01fe00ff0100fe
ff0101fffffffe00fefffe010101ffff000000ff01feff00fe00fe0100feff0101ff00ff0001fefe00fffefefeff01ff0001fffe0001feff010000feff00ff01
