0100fe01fefe00feffffff01fe0100fe0000ff0100fe01ffff00ff0000fffefefe00ffff00fe00fe01fefefe01ff01fefffffe0001fffe010000ffff0001fe00
000000fffffe0101000100010001ff00fefeffff00fe00000100fe01feffff01000001fffefeff0100010101fffefe01fefe01fe01feffff0101000001010100
fefffe01010001fe01fefe0100fe01000000000101010001fe01010100fe0100fe01fefefeff0100fefe0100fe00fe00ff00fe0000ffff00fe01fefe00fffe01
01fffe000001fe0101fe01ff0001fffe0101ff01fefefeff0100fe00ff0101fffe01fffffe010001fe01ffff00000001fe01fefefe000001fefefeff01fffeff
01fffe000001fefe01fefeff00fffefefeff01ffff01ff0100fe00ff010000ff0100fefe0100fefe01fefe0001ffffffffffffff01fefe00fffeffff00fffeff
010100fffffe0100ff0000ff000001fe01010000fe0001fe01feff0000fefeff01ff010000fefe010100ff01ff0001ffff0000010101000100fffefffefefe00
0000feff00fefffe00ff010001010101feff01fe01010101feff0001feff00fe010101fffffeff01fffe010001feff000100feff01fffffefffefe01ff01fe00
ff0100fffefeff00000101000001fefe00ff00000001fe01feff000101fffefefefe0100ff000000ffff01fefe0101000100fefffeff0001fe0000ff00ff00ff
00000000000000000000000000000000000000000000000000000000000000000000000000000000000000000000000000000000000000000000000000000000
fffe0001fe01000101000100feff000100ffff00fe01fefefe00fefefefe0001010100fefefe0100fe00fefffeff00feff01fefe0000fe010100fefe00ff00ff
00feff0001ff010000010100fefe00ffffff0101ff01000100fefeff000000fe00fe0100fffe00fefffffe00ff010101ff00fe000100010101ff01fe01ff0100
ff01fe00fe010100fffe00ff0000fffe01fe0100fe00ff00ff00ff01fe0100ff0101ff01ff00fffefffe0000fefffe010000fe01ff01ff0001fffe01ff010100
fe010000ff01fefefefe0000feff0001010100000100ff00fefe00fffe0000fe0100000101feff00feffff01fffe0001fefe0100010100fe00000001fffffeff
000001010101fe0101fefffffe0001fffe00ff0100fe000000feff0100fffe01fefffefefe00010001fe01fffeff0000010000fffe01fefefe00fe00fe010001
00fefffffefe01fffe01ff01fefefeffff0001ffff00feff010001fe010101fefe01fefe0001fefefefffe00fefe00fe0000fe0001fe00feff01ffff00fffffe
0000fe00fe0101fefe00fe00fffeff010101ff0001fe00010001ff00010000fffeffffff01fffe01fffefe00010001fefffeff0100fefe01ff0000fffe000100
01fffeff00ff01ff00fe01ffff01010001fffe00010101000001feff010100ffffffffffffff0101fe00ff010101fefffffffe0000010000fffefefffefe0100
00000000000000000000000000000000000000000000000000000000000000000000000000000000000000000000000000000000000000000000000000000000
fefefffefffefefeffff01fe0000fefeff01ffff010101ff01fe00fffefe0000ffff01ff00ffff01fe00010100feff01fefe0000fe00fe0001000101fe01ff01
01000001ff01ff00010001ff00000001fffefe01fefefffefe010001000001feff00fefffe01fffffe01feff01ffffffff0001000100ff00feff0000ffff00ff
01ff010101fefffe00fffffe00010101fefe00fe00fe0100fefffefffe0100fe00010001ff0000000100ff01ffff01ff01fffeff01fe00000100010100fefefe
01fffefffefffeff0100ff010101fe01fefefefe0000fefefefeff0000fefefe01010000000001ff01fefefefefffffeff010101fffe00ff00fe00ff0000fefe
00000001ff0000000000feffff010001fe00ffff00fefe00fe00ff00fffeff0100010101fe0000ff00fffefe0100fe0101010101fe0101000001ffffff0100ff
01fe0000ff01ffff0001fe01feffff00fffe01000001ff0001fffe0000fffffefffffffffe010001fe01fffefefeff00ffff01fffeff0001fefe00ff0101fe00
0001fe01fe000101ff000100ff00ff00fffe0100feff01000100fefe000100fe01feff01fffe01000000ff010100ff0101ff0100000000000100010000ffff01
01fe00000100fefefe01ffff01feffff00fefe0101ff0001fffefffe0000ff000100ff0101fefefefe01ff01ff01fe01010100fffefffe0101ffff01ffff0100
00000000000000000000000000000000000000000000000000000000000000000000000000000000000000000000000000000000000000000000000000000000
