fffffe01fefeff01feff01ff01fffe0000fffe000100fefffe01fe00feff00ff010101ff010001fffe00fefefefe000001ff00fe0100fefe0100ff00ff00fefe
010101feff0001010101fffe00ff00fe01ff000001ff01fffe01fe010100fefe01fefffefe0000ff01fe01ffff01fe00000100fefe0101ff0001fefe0001feff
fefe0101feff01000100fe00ff01ff01000100ff0101fe0000fe010000fe01fefffffe01000101fefe00ff0001fe0001fe000000fe010000fe01ffff01000100
01fe0101feff00fe00fefefefefe0001fe0100ffff00feff010101fe000001fe01fefe0100000100fffefefe0100fe010100ff000001ff0100ffff010100fefe
00fe00fe01fe00fefe01fefefe00fefeff00ffffff0101ff00ff010100fe00fefefeff00fe01ffff01ff0100ff00000101fffffe000101fffefffe0100feff00
fefe0101fffefffe01ffff00ff010100ff01ffff010001ff0101feff01fefefe00fe0001fe0000fefeffffff0000ffff0001feff000100ff010100fe0001fefe
00fffe00ff010000ff00ff01fffe010100fefe0101000001000101000001fffe010101ff000000fffefefefffe00fffeffff00ff01ffff010101ff01fefefeff
fffe0000ff0001fe01000000fe00fe00fffeff0001fe0001fffeffff0000ff01ff00fefe0000fe0101feffffff000100010101fffe00000101000101fefe0001
00feffff01ff00fefe00fefe00fe000000fffe01fe01fe00feffffff0100010001ff0001010001fffe01ff01feff0100fe00feffff00ff01fefefffe0101fffe
0001ff0001ff00fffeffff00fefeff0100000100fe01000100fffeff01fe0001feff01fefeff0000fefffe0001fefe00feff01010000010101000100ffff01fe
fefe01ff00feffff00ff01fe00ff00fffefefe010000feff00ff00fe00fe0100fefefe01fefffefffe010101ff0101ff01ff00fe01fffe01010001ff01feff00
fefe00fffefefffe01fefefe0101feffffffff00fefe0000ff0001fe00fe0001fffefffefeffff00ffff0100fe000100ffff01fe010001fffeff01fffe01fe00
01fe00010000fe00fefe01fe01ff00fe010101fefffe000000ff01fffe0001ff01fe01ff0101ff0001000001feffffff00fefefe01fe0100fe0001fefffe0000
feff0100fffefefe000101000101fefe01feff00ff01010100fffefefefeffffff0101fefe0001ff0100ff00fefeff00ffff0101fefffefffefefe00010001ff
ff000100ffff0100fffe01ff00000101feff01ff0001ff010001fe01fffefe0101010100feff0100ff0101feff00fe00fefeff00ffffff00fe00fe0000fffe00
fffffefefefefe01fe01ff0001feff01fefe0100fffe01fffefe0001fefefe01fe01fffeff01fefefe010000fe00fe0000fefefefe00ff00ff01fefeffff0000
00000000000000000000000000000000000000000000000000000000000000000000000000000000000000000000000000000000000000000000000000000000
00000000000000000000000000000000000000000000000000000000000000000000000000000000000000000000000000000000000000000000000000000000
00000000000000000000000000000000000000000000000000000000000000000000000000000000000000000000000000000000000000000000000000000000
00000000000000000000000000000000000000000000000000000000000000000000000000000000000000000000000000000000000000000000000000000000
00000000000000000000000000000000000000000000000000000000000000000000000000000000000000000000000000000000000000000000000000000000
00000000000000000000000000000000000000000000000000000000000000000000000000000000000000000000000000000000000000000000000000000000
00000000000000000000000000000000000000000000000000000000000000000000000000000000000000000000000000000000000000000000000000000000
00000000000000000000000000000000000000000000000000000000000000000000000000000000000000000000000000000000000000000000000000000000
