01fe0100ff00ff01ff01fffffffefe00fffe0100feff01010001ff000001ff0101fe010100fffe00fe01ff000000fe0101fe00ff01fe0000ffffff01fe00ff00
01fefffeff0000fefefefe000000fffffe01ff00000001fffe0000fffffe01ff01fffffe0001ff00ffffff00ff01ffff00ff000100fffffe000100fefefefe01
00feffff01010001010001fffe01010001010101fefffe0000feffff000000ffff000001ffff01000100010000010101fffe00fffe0001000000ff000100ff00
01fffeffffff01010001000101010100fefe00fffefe0100fffefe0001fe0100ff01ff010101ffffffff01ff0101fefe01feffff01ff00000100fe00fefffe00
00fefe01fe00feff0000fe0000000100ff01fe0001fe0101fefe01fffffffffeff00ff0101ff00fffefefe00ffff010100fffe01fe0000fe00ff01fefeff00ff
fe00010001fe0001ff00ff01fe010101ff01feff000101fffe01fffffe000000fe01feff0101ff0100fe00fffe00fe01fffffefefe0000fe00000001feffff00
00ffffff01ff00ff00fe000100ff0101feff00ff0100ffffff01ffff0101fe01feff0000fe01fffe00feff00ffff0100fffffe0001fffefffe000000000101fe
ff00fffeff01ff01ff0100ff00ffff0100feffffff0000fffefffffefe000101ff0001fefe00fefefffe01ff000100ff01ffffff010101ffff01ff010100ff00
feff0000fffefe010100fe010000ff010001fe00fefeff0001ff01ffff00ffff0001feff0100fffe0101ff0000010100ff01fe01fefe00fefe0100fefeff0100
fe00fe01000000ff010100000000ff0001ff0000fefffefe0101fefffefefefe00ffff0100fe00ffff000101fffe01010100ff000101fe0001010001feff01ff
fe01ffff0000ff010000ff01feff0000fffeff010001ff01fffefeff000000fffffefefe01010000ff00ff0000fffeff000101fe01ffffffff00fe01fe0001fe
fe01000100fefefefeffffffff00fefe00fefe0000fe0100ff00fefeff01fefe0100ff0101ff00fe01fffe00ff0001fffeffffff0000ffff00ff0100ffff0101
00fe01010100ff01fe0101ff010001fe000100ff01fffefffe010000fe01fefe00ffff0101ffff00ffffff0101ff01fefefefe00fffe0100000000fefe00fefe
fefffefffefeff01fffe00fffefeffff01fffe0000fe0101ff0001fffeff01fffe000100fe00fffe0001fe00fe000001ff0100000101fe0100fefe0100ff0100
0000ff01000101fe01000000fefe0001ffff000001ff01fffe0101feff00fffeff00fefe0001ff01fe01fffefeff0100010100fe000001ffffffff00ff01fe00
fe0001fefe000101fffe01ff01fe00fe000101ff0100010000ff01fe00feff010000feff0101ff00ff00010101ff0000ff010001fe010000ffff01ff010000ff
feff01fffe00fefefffe0100fe01ff0100ff010000feffff01010100fe01fe0101fefeff0101000000000101ffff00fe0100ffff01fefefe0100ff00fefe0001
010101ffff0101ff01ff00ff01fffe0001ffffff0100fefffefefffffe00ff0001ff00fffe0100fe01fe0000fefefeff010001fe0001fe010000fefefe0000fe
0000ff000101fe01feff01fefe01fefffefe0100feff0100fefeff01fefe01fffe0100ff01000101fe01fffefeff00fe01fffffeff00fe0000fe01000000feff
ffff0001ff01fefe0001ffff01ff00fe0101ff00010100ffffff00ff00fe00fefffffeff01ff0101ff010101ffffffff01fe01fe0100010100ff0000ff00fe00
00feff0100ffff00fe00ff00fffefefeff00ffffff00fffe0101fefffffefefefffe010001ff0101ff010000fe01fe01fefffefffe00000001fe00fe000100fe
01feff01fe01ff01010100fe00fefe00fefefeff01fffefefffffefefe01fffffffeff000001ffff0000fefffefe01fffffffe0101fefffe00ff00fefe01ffff
fe00feff01ff00ff00fe0001ff00fefeff01fe00feff01fefe00ffffffff00fffe0100fefe0100fe01ffffff01000101fe0001fe01000000010101fe00ff0001
00fefefffefeffff00fffe01feff0100ff0001feff01feff0000fefefffefe01fefe00feff00000100fefffeffff0101ff000100ff0000fffe00ff0000fefffe
