ff00fefeffff000101ff01fffefe0001fefffe0000fefefe01fe000101ff01ff010001fffefe01ffff01ff0100fe000101000100ffff01ff01fffffeff01ff01
fffefe0000feff010001fefe00feff0001fe00fffffffffffeff01fffffe01fe0101ff00ff00ff00ff01fe0100010000fffe01fe01ffff01000000fe00ff0101
0101ff0000fe01ff000000000100ff000100fe010000ffff00fefffeff01fe010101fffe0001ff00ff0101000001fefe01ff010100ffffff01ff0101ff000100
ff01ff0001fe0001ffff01fe0100ffffff0001feff01fffffe0100ff00ff01fffffe00ff01fe0001fe01fe01ff0101ff0100fffefeff0001feff0101fffe0000
010001fefefe01fe00fefefffe00fefffefffe01fe01fe0000fffe010001feff01fefeff010000fe01fefeff0001ff00fe00ff00fffe0000fffeffff01ff0000
fffe00fe000001000100fefffffffefe01000000000101ff01fe000001fe01ff01ff00fffffeffffffffffff00fffefefeff01fe01fffe01ff0101ff0101fe01
ff0101010000ffffffff0001feff01feff0100ff00fe00fffe000101fefffe00010101feff01fe0101fe0101ff000100010001fe010001fffffefe01ff010000
01ff01000000fe0001ff01ff0100fe0000fefefe01fffefffefe0100ff0100fe0100fe0000fe01ff00fffefe00fe00ff0100ff01feffff00fffe01ff01ffffff
00000000000000000000000000000000000000000000000000000000000000000000000000000000000000000000000000000000000000000000000000000000
01ffff0100fe00ff0100ffff01feff00ff01ff000100ff01fefffe0000ff01000101fe01fffe00fefefffffeff01000101ff0101ff01fe01fffefe0101fefeff
0100ff01ffffffff0001fe0101010000feffffff00fefefe00fffffefe0100fefe01ffffff010101000100ffff00fe00fe01ff0100ff00ff0001fffffffe0000
010101010000000001fefefffe00ff0000fe01fe0000fffffeff01fe0100fffffeff01fefe0101000000fefffefefe00fefffe0101ff01010101fefefeff00ff
00fe01feff000101fe01fffefffeff01fe00010100000001fe00fe0001ff00fefffefefffefe0000fe0101010000ff01000101ffff010101fffffeff0001fffe
0100fe01ffff01fe01ff010000ffffff01010100fffffefefefffe0000ff0001fe01fffffffefe000101000000ff01fe00ffff01ff000000fe0101fffe01fe01
0000fffffeff00fffffffefffeffff00fe01fefefefefe01feff00fe0001fe0001ffff01ffff0001fffe0001ff010000fffefeff00fe00fe0000fffffffe01fe
0001ff01ffff00000000fe0001000100010001ff01fe0100ffff0001000001fe00ff010100fe00ff000001fe01000001fe000000ff0000fefffe0100fefe0000
ff0001fffffefffefe00ff000000fffe0000feff00010000ffff01fffefe0001fffffffe000100fe0100ffff01fffe01fe000100ff0001ff00000100ffff01ff
00000000000000000000000000000000000000000000000000000000000000000000000000000000000000000000000000000000000000000000000000000000
fefefe00fefe01fffeff00ff010101ff01fe00ff010101000001fefe01ffff00feff01fffeff01000101fffffe0001feff01000001ffff01fefe00fe00fe00fe
0100ff010101ffff0000feff00fffffffefe010000fefe01fe01ff00ff00feff01ff01fefe00010001feffff01fefffe00fefefffeffffffff000101ff0101fe
00ff0100ff0001000100fe0101fffffffffefffffefefffefffefffffe0101fffe01fe00fffeff01ffff0100fe010000fffe00fefffffefefe0000feff01fe00
feff00feff00fe01fffffefe010000feff01ff01feffff000100fe0001fe01feff0101fffefe00fefeff0000ffff01fffeffff0100fe0101ff01000001010101
000100fe00fe0101ff00ff01ff00000101ff00fffffefffe0101000000ffff000101fe00ff00fffe01ffff01fe00fffe01ff00010101fefe0101ff00fe01ff00
ff000001000101ff00fefe00fe0000fefe000000ff0001000101fe01010000ff01feff01fe01ff00000001000001ffff0101fe0000fffe01fe010001feffffff
fefefefffeff0100fe01fe0000010001fefe01000000000101fe010101000000fefffefe00fefe01fe01ffff010000fffe0101ff01fefe01fe01000100010000
ff01ff00fefe01ffff01ff0101ff00fefe00fe01fffefffeff01fe0100fffe01fe01fe010000fefe010000fffefe01feff0000fefe0100fe01fe01000101ff00
00000000000000000000000000000000000000000000000000000000000000000000000000000000000000000000000000000000000000000000000000000000
