0101fe0101000001fe01ff0101fe01fefeff01ff0100fe000001000101ff0000ffffffff00ffff01fe0000000001fe0101ff01fe0000fefffefffffefe010101
ff010101fe01fefefe01fe00fe00ff00fffffe000000fefe00ff000100fe00ff0000fffefe0000ff010001ffff00fffe010001ff0000fe00fffe00ffffff0100
feffffff0100ffff00ff0101fffefe0100ff01000000ff0101010001ff01fe01fffe0001fffffe01fe00ffff010100fefefeff000001fffefffefe000101ff00
ff00fffefeff01ff01ffffffffffff01fffffe00fe00ff00fe00fefe0000fefe00ff01fffffffe01ff00feffff00fe01fe01ff01fffe00fefefeff00ff010100
00fe00ffffffff0100000100feff0101fe01feff00ff0000fe01ff0000ff01000100fe0100010001ffff0001fe01ff00ffffff01000001fffffefefffffeff01
00000100feff000100010001fefeff00ff010001feffffffff0101000100010100fe0000fe00ffff000100fefe01ff01fffe00fffe00ffff010001fffeff0000
feffffffff0101000000fffe000000ffff00ffff00fe00fe00fffefe000101fe01feff010100ff00fe01ffff01010001010100fe01fffe01ff01010101fffe01
ffff00feffffffff01ffffff01ff0100010100feff0100ffffff00fe0000fe00fefe01fe000101000100fe010100fefe0101ff0101fe0001000100fe00fffeff
ffff000101fe01fe0001ff01ff01fe0001fe01feff00fe00ffffffffff0101feff010100fe01000100fe01010001fffe00ff0000feff00ff01fffffefe01ff00
fefeff01fffe0000000001feffffffffffff01ff000101000000feff010101000000fe01feff0100000101ff01fe010001ff0001fe00ffffff00010101fefe00
0100fe00feff00ff010001ffff01fe01ff01010001fe0101fffe010100fe00fefefefefefe01fffe000101000000feff00000001000100000101feff01ff00fe
0101fefe0001fffe01000101ff010101fffeffff01000100fffefffeff01fe01ff01fefffe00ff0100000000fe01fefefe00ffff00fe00fefe0100fefeff0001
00ffff00ff000001feffff0001fffe0001fe0100ff00fe01feff0101fe000101ff01ff01ff0101fe010001ff01010100fe00ffff000100fe0101fffefefe00fe
010100feff01feffff00fefeff00fe0100ff01feff01fe01fe00fe00fefefeff0001ff0000fffeff0101fffffe000001010001ff01feffff00fefe00fe010100
0101010101ffff000000fe00ff00fffe0100fe00fefe01fefe0001fefefe0100ff0001fe000100feffff00ff0001fefffe0101fefeff00010100010001fe0000
fe0100fefffe0101fffefefffe00fffeff01ff000100ff010001fefefe010100fefe0001fe01ff0101ff0001ffff00fe00ff00000000ff01ff0101feff0100ff
