ff0101ffff01ffff00ff0101feff0000000001ffff0001ff00fe01ff0001fffffe01010000fffe000001fe00ff0000feff00feff01010100fffe01feff0100fe
fefefe00fefe00ff00fe01ffff00fffefffe00feff01ff01fe0100feff00ffff01fe0100ffffff010100fffe0101fe0101000100000001fe00fefe00fe01fe01
fe010101fefeffff00fe0101fe01fffe000000fefffe00fe00010001fe01fffffe010101fe00fe0000ffff00000100ff00ff010000ff01ffffff00ff01010100
00fe0000fe000000ff01fe0101ff01ffff01fefffe00fffffe01ffff00000100feff0001fffefefe01010001fefffffe01ff01ff0100fe0001fe01fe00fffe00
00fffffffe0101fefffffffeff01ff01fefe0000fefeffffffffff0101fefe0000fefe00fe00fe0000fffffffe01ffff0001fffe0001ff00fffe0100ff01fffe
0000fe00010101010000ff000101fffeff0101fe0101fe01ff01ff01010001ff00ffff01fffe0000fe0101fffe00ff0100fefefe01feff00fe00fefe01ff0001
00ff01fffeff01ff010000fefefe00fe01fffe01fffefe00fffe00000101fefffffefe0001fffefffe010100ffff000100fffeff000001000000feffffff01ff
fefffffffefffefeff01fefeff01000101fe0000fe01fe00fe00000000ffff01000000fffffe00fe0000ffff0101ffffff00fffefe010000010100fe00000100
ff00fefeff000100ff00fe0100feff0100fe00ff00010101fffffffffeffff01010100feffff0000fefeff010000fe01fffefefe01feffffff0100fefeff00fe
fe01fefffefffefeff00fefe0100fe00fffe00fffefefe00fffefe01ffff0101ff010100ff00ff0100ffff0101feff0101fe01000001fffefeff01fe0101fe00
01ff00feff0100000100fffffeffff01fe0101fe00feff0101fe00feff01000100feff00fe0001ff00ff000001ff01000101fe01fe0100fffeff00fe01ffff00
0101fe0001ffffff000101000000fffffefefe0001fe01ff01feff000100ff01fe00fe01ff01fe00ff010100ffff00feff00ffff01ff0100ffff00ff01000000
ff00fe0001fe010001ff01010100fffe0100fe000101ff00ff01fefe00fefffe000000fe000000fefe00fe01fe0101fefffe0000fefffefe000101ff00000100
fe0001fe0100fffffe01ff00fefefefe0101fe01000100fe00feffff0100fefffefefffeff00fe00ff01fffe00fe00000001fefefeffff00feffff0001fffefe
feff01ffff01ff00fffe010001ff01fffefffffe01ff0100fefeff000001ffff01010000fe00feff01fefffffe0100ff01ffff00000001fe010101fffe0001fe
0101fe01ffff01fffeff0100000000fffeff000101010101fefeffff00ffffff0100ff000001feff01feff0101fe0101ff01fe0100fe0101feff00ff00ff0001
