fe01ff0100010100fe0000ffff0000ff0000ff00ff00fe0101ffff01fe01fefe00fefefefe0100ff01ff000101010000fe0000fe0100ffff01ff0101ff010101
feff0101ff01ff0001fffe010001feff0101010000fe0000ff00fffeff01010001ff0001fffe01fffefe00fe0100fefefe010101fefe00ff00fefeff00fffe00
ff00feff00fffe01ff0000fffffffffeff010000fffe01fefe0000ff0001fe01fffe0001ff000100ff000100fefe0001fefefe0100ff0100fefe000000ff00fe
fe00fffefe0000fe00ff01000000fe0000fe010101000100000000ffff01fffeff01ff0100fffe0001010001ffff00ffff0100fefeff0001fffeff00fe00feff
00ff0000010000fefeff0100fefefe00fefefe000000000001ffff0100000101fefffe01fffe010101ffffff0101ff000100fffeffff00ff01feffff01ff01ff
fefefe01000101ff01000000ffff00fffffe00fffe010101feff0001fe01010000fffffe000101feff01feff0101ff00ffff01fe01ffffff01ffff00ff00fe01
ffff01000000fe000100fffe0100fffffffefffefe01fe00ff00fffeff01ff00ff00fefeff0101fefffeff0100ff00010101fe0001fe00fe00fffffeff01ffff
0101fe0101fe00fefeff00ffff01fe01ff010001fe0000fefefefe01fffe010100feff0001000000ff0101ff0001010101ff010001feff010100010100ff01fe
ffffffff0001feff00fefefffefe00fffefeff0000fe00010000fe010101000101fe00ff000100fffffffffeff0100fe0101ff0000fefefefffe0001fefe0100
01fefffffeff010000ff01feffff01fe0001ffffffffffff01fe00fe01fffffefe0000ff0100fe00fefffe00fe00000000ffff00ff0101fffffeff0100fffffe
01ff01feff0100000100feff0100fe01fffe00ff0101fe00fffffffffffe0100010001fe0101ff01010101fe0101fefffffffe0001fefffe01fefefefe01fe01
ff01ffff01ffff01fefffe01fe01ff00fefffe010101ff00ff0101feff0101fe0101fe0100000001fffe00feff01ffff00fe0101000000feff000100fefe0100
0001ff00ff01fefffe0001fffffe01feff000000fe0100ff010101ff01fefe0000fe01ffff010101010101fefe0100fe00fffeff01fffe0100ff010001fe0100
00ffff00fe0001ff01feff0101ffffff01ffff01ff01fe000101fe010001fe01fffe01fefe0100ff0000000000fefefefe010101feff01fefefefe000101feff
010001ff00ff01ff01fffffefffefefefffefefffe00fe0001feff01010101fefeff00000000ff0000fffe0101ff0101fe01010000ff01ff000000fe010101ff
00fe00fefefefefeff01fe000001010001fefefefe010001fe01ffff00fefefe01fefffe0100ff0000010000ff00ffff0100fe00fffffefefe0101ffff01ff00
00000000000000000000000000000000000000000000000000000000000000000000000000000000000000000000000000000000000000000000000000000000
00000000000000000000000000000000000000000000000000000000000000000000000000000000000000000000000000000000000000000000000000000000
00000000000000000000000000000000000000000000000000000000000000000000000000000000000000000000000000000000000000000000000000000000
00000000000000000000000000000000000000000000000000000000000000000000000000000000000000000000000000000000000000000000000000000000
00000000000000000000000000000000000000000000000000000000000000000000000000000000000000000000000000000000000000000000000000000000
00000000000000000000000000000000000000000000000000000000000000000000000000000000000000000000000000000000000000000000000000000000
00000000000000000000000000000000000000000000000000000000000000000000000000000000000000000000000000000000000000000000000000000000
00000000000000000000000000000000000000000000000000000000000000000000000000000000000000000000000000000000000000000000000000000000
