01ffffff00feff00fefefe0101fefe0100ffffffff00feff0001feffffff01fe00fe01000100fffeff0000010000fe01fefffffe00feff010001ff00fffeff01
fe0101feff00fefefeff00feff0001fe0000ff000101ff00fffe00010101ff00010100fffefe0000fe010000ff00000100feff01ff00fefe0000fefefffefffe
01ff0100fe00fe01000000fefffefe01fefefeff00ff00ff01fffefffffefe0000ffff01010101ff0001fffffe00ffff0100010100ff01fe00ff01fe00fefe01
010001ff00fe01fe01fffefe01ff01fffffffeff0000fffefeffff0001fe010100ffff0100fffefffe00010001ffffff0100ff01feff01ff0001ff01000000fe
01fffe00ff00fe000000fffe0101fe00ff00fffefe00ff00ffff00ffff00fe01fefffe00fe00fffffe00fe00fe0100ff0100fe01ff01ffffffffff00fe00fe01
fe01ff00ff01ffff0100fe0101fefe01fefefeff0101fefe01fefefffe00fefefe010001fffefe000001fefeff0001ff010101fffe01ff0001fffefeff00fe01
00000100fffffffefefeffff00000101fffe010000fe00ffff01fffe00fefeff0101feffff0001feff00feffffff01ff0101fefffe00fe0000ffff01ff00fffe
ff01fe00fe0000fe0000fe0000ff000100ff0100ffff01fefffffeffff0000ff00ff01ffff010100fffe01fffe01ff00ff0100010101ffff0000ff00ff01fe00
ff0001ff0000fe0100fe0100ff010100000101ff01ffff01fe01fe01fe00fe01ff01010100fe01fffffefeffff01ffffff00fffe00ff0001fffefffffefffefe
01fffe00ff0001feff00010000010001ff00ff010101010101fe01fffefe00000101ffff0001fefffefe00ff01feffffff000100fefffffe0001ffffff01fefe
01feff01feffffff00ff00ff00fffeff01ff00feffff00fffefefefe000100fefe01ffff0000feff00010101ff010001fe00ff0101000000fe000100fe00fe00
fffeffffff010001feff01ff0001ff00fe00fe00fefefe01ff010100fffffefeff00000000fe01fe010101feffffff01fefffffefe00fefefffe00fffffe01ff
fefe00010001ff01fe01fe01fe0101fefe01fefeff000101fe00ff000000010101fe01fefffefe00fefffe0001fe01fefe00ff00fffe0100fffefefe010000fe
fefe010001fffffffeff01fffffe01fe00fefeff00ff010100010000fe00ff0000fe010001fffeff00fe01fe01010000fffffe0000feff0000fffefefe00ffff
0101fe010101ff01ffffff000101ff00ff0001fffe00010100ff00ff00ffff0001ff01fffefefe0000fe0001ffff01feff0001ff01fe00fffefeff00fffffe01
feffffff000101fefefe00fe000000010000000001ff00fefefe01010000fffe010000fe0101ffff0100fefe0101ff00000101fe01fefefe01ff00feff01ff01
