01000001fffffe00fffefe01fe00ff00ff00fe0000010001010001ff00fe00feffff00ff00ff00fe00000100ff01feff00010001ffff01fffe01feff010101fe
00fe00fefe00fffe0101fe01fefffe01010101ff000001fffefffffe0100ff0100010000feff01fe00fefffffe01feff0100ffff01010000fefefefe01fe0000
fffeff01ff0100fe01fefe01ff00000000fe0000fe01ff000001ff0101000101fefe000100feff0000ff01fe00010100fffe01ff0001ffff0101fe0101ffff01
fefe00ff01ff0000fefffffefffe00ff0000000100fe00fe0100000001ff0001010101ff000100feffffff0101feffffffff010001fe000001ff00ff0001fe01
fe000100010001fefe0000ff00010100ffff0100ff0100ffffffffffff01ff0100fe010100fffe0001fefe0101ff0000fe00fffffe0101ff01feff01ffffffff
00fe0000ff0100ff00000101feff010101fefffffefefe01010000ffff000101feffff0100fffffefe0001feff0000fefeffff00ffff0100fefeff0101fefeff
fe01fe00ff0001ff000000fffe01fffe00010001fffe0101010001ff01010100fe01fe01fe000001fefffffffe01feff01ff010001fffe01010101ff01010101
ff01fe01ff00fe01000100fefe00fffffeffffffff0101ffff0101fe01ff01000100fe01000101fefefefe01010101fefefefe00fe0000fefe01fefefe000101
000101fe01feffffff010101fefffe010000ff000000fe0100fefe000100fe01feff00fe01ff01fe00ff000100fefefe0100ffff01fe01ffff000000feff00fe
0101ffff01ff01010001fe0001ff0000fe01fefffe01fffe00fe01ffff010000fe010100fffeff01fe0000000001ff01010101ff0101fe00fefefefefeff01ff
01ff0101fe00000000ff00ff01feff01ff0100ff0101ff0101fefe0100feff0101ff00fefffe0101feff01fe01000001fefffefe0100ff01fe01fffffffe01fe
00000101ffff01feff01ff0001fefffe00fefffffefefe00fffefefefefefefefe0100fe00fffffe00fe00fffeff00fe01fe01000101fffeff000001ff01fe01
00fffefefe01fe0000000101fefe000101fe0001ffff00fefffefffe00010100010100feff01feffff000100ffff01010000fefe01000100000101fe00feffff
00ff01ff0101ff00fe01ff00feff00fe01ff00fefe010101fe000000ff0001fefe000101fffe01ff01fffe0100000101fefffe0101fffffefffefe00000001fe
ff010000feff0001fe010000fefeff010001010101ff01010100fffefe0101fffefefeff00010100000001feffff00feff00ff00fe000100ff00feff01fefffe
fe00fffe0001ffffff00fe01fe01010001fe0000fefffe00ff00ff00fe00fefefefefffffe01ff00ff000100fefe0101fffe01feffff00fe01ff01fffe0000ff
00000000000000000000000000000000000000000000000000000000000000000000000000000000000000000000000000000000000000000000000000000000
00000000000000000000000000000000000000000000000000000000000000000000000000000000000000000000000000000000000000000000000000000000
00000000000000000000000000000000000000000000000000000000000000000000000000000000000000000000000000000000000000000000000000000000
00000000000000000000000000000000000000000000000000000000000000000000000000000000000000000000000000000000000000000000000000000000
00000000000000000000000000000000000000000000000000000000000000000000000000000000000000000000000000000000000000000000000000000000
00000000000000000000000000000000000000000000000000000000000000000000000000000000000000000000000000000000000000000000000000000000
00000000000000000000000000000000000000000000000000000000000000000000000000000000000000000000000000000000000000000000000000000000
00000000000000000000000000000000000000000000000000000000000000000000000000000000000000000000000000000000000000000000000000000000
