fe00000000ff01ffff00fe01fe0101ffffff00fffffefffffffe010001fe00010001fe00fe01fefffe0101feff01fefefe0100fe01ff00000001000100fe0001
ffff00ffff0000fffe01feff000001fffe0000feff000100fffe010000fffe01fffefe00010101fffeff0100ff00fefffe01fe01000101ff0001ffffff01fefe
fffffe00fffe01fe01feff00fefe00ff01fefffe01fe01fe01fe0001fe00ff010000fe01000000fe01ff01ff00ff00fefeff01fffefefefeff0101010101ff00
fefe0001ff0101fffefeff0000000100feffff0000feffffffff0000fe000000000000ff01fe01ff00000000010000ff01fe010000fffeff00feffff0001fffe
0001feff01ff01fefe00ffff0100fefe0001ff00ff00feffffffff00fefffe00ff00ff00fe00fe01ff01fefefe01000000fe000000ff010100ff010100fffffe
0100fffefffffefe00fefe01ff00fe010100ff00fefffefffeff00feffff01ff010001fe01ff010000fffefe00fffe00ff010001fefeff01fe01fffe0101ff00
01ff000001ffff01ff0101ff010100fe00fefffffefe0000fe00000101ff01feffff00fffffefe010001feff00ff00fffeffff000101ffff0100fefeff0101fe
fefe00fffe010001010001fffe000101fe0000fffe000000ff0101fe01010000fe01ffff0100fe0100fe00feff0001fefeffff0000ff0000feff00ffff0100fe
00000000000000000000000000000000000000000000000000000000000000000000000000000000000000000000000000000000000000000000000000000000
010001fe01feff0100fffffefe00feff0100fefe01ff00fefffe010101000000fe01ff01fefeffffff00000001fefeff0000010101fe01fefe000101feff0001
00000101fefe0000ff01fefffffefefffefefe0100ff00010100ff00fe000001fe0100ff01ff00fe01fefeff01fe00fe00fffefe0100000000fefffe00ffff00
ffff0100fe0101ffff00fe01ffffff01ffff00fffffe00fefe00fe00feff00fefefe00ff010000fe00ff010100ff010001fe0101ff0100ff00fefeffffff0000
ff000100fe01fe0001fe01feff0100fffffffe010001feffff000000fe0101ffff00ff00fe0000010100fe010000ff0000010100ff010101fefffe01010001ff
00feff00fefe01fffe0000ffffffff0000fefffe01fe01fe01fe000001fe00010001fefefe01ff00feff00fe0100fefffffefffefffe00fe010101ff01fe0101
fffffffffeff0101fefffeffff00ff0001ff0101ff0100fe00fefffeff000000ff010101fefeff01fe01fffefefffffefffe000001fffffeff00fffefe010101
fefe01fefe00ffffff00fefefeff0101ff01fe00fefe01ffff00feffff01fe0101ffff00ff0001fe0001fefefefffeffff01ff00fe0000fe01ff01010000fefe
fe01ff01ff00ff00feff01feff00fffe0100fe0000fefe00fefe01000101010101fffefe0001fefe00fffe01fe01000001000001010100fefe01010001ff01ff
00000000000000000000000000000000000000000000000000000000000000000000000000000000000000000000000000000000000000000000000000000000
00000000000000000000000000000000000000000000000000000000000000000000000000000000000000000000000000000000000000000000000000000000
00000000000000000000000000000000000000000000000000000000000000000000000000000000000000000000000000000000000000000000000000000000
00000000000000000000000000000000000000000000000000000000000000000000000000000000000000000000000000000000000000000000000000000000
00000000000000000000000000000000000000000000000000000000000000000000000000000000000000000000000000000000000000000000000000000000
00000000000000000000000000000000000000000000000000000000000000000000000000000000000000000000000000000000000000000000000000000000
00000000000000000000000000000000000000000000000000000000000000000000000000000000000000000000000000000000000000000000000000000000
00000000000000000000000000000000000000000000000000000000000000000000000000000000000000000000000000000000000000000000000000000000
00000000000000000000000000000000000000000000000000000000000000000000000000000000000000000000000000000000000000000000000000000000
00000000000000000000000000000000000000000000000000000000000000000000000000000000000000000000000000000000000000000000000000000000
