feff000101000100ff0101ff01fefe01ff01fffffe00fffe000000fe00010000fefffefefe01ff0000fefffe010001fe00fe01feff0001fffffeff00ffffff01
ff01fffffe000100fe0000fefffefeff010000ff0000feffff0101ffffff0000fe0000000101fe010000ff00fe00ff0000fefefeff01ff01feff000101ff0001
fefe00ff00fe01ff000100feff0000ffffffff01fffe01ffff0101ffff01fefeff00ff00ff0001feff01ff01000101fffffe01fe01fefefe00fffe01010100ff
fffefe0001010100ff0001fffffefffeff00ff00fffefe00fe0000ff0000fefffe0000fefffefeff0000fe01ff0101fefffe00ff00010001ff00ff00fefeff00
fffefffeff01fe00fe000100fffe0001ff00fffefe00fffe01fefe0001fffe000000fffefffe0101ff01fffffffffffe0000fe0100fefffffefffefe00fe0001
fffe01fefefeff000001ffff01feff00fe0001ffff000001010001ffff00fe01fffe010101fefefe0000fefffe01fefffffefe0000fe01fe00fe01fffeff0000
ffffff00fe000101ffffff00fffffe00fffefeffff0101feff01fefffefeff00ff010101010100ffff0000ffff01feffff00ff01fefe0001feff0101feffff00
00fefefe00fe01fffffefffefe01fe01feff0100000001ff0101ff0000010100fe0101010101fffefe0101000101fffffffffe01010001fe00feffffff01ffff
00000000000000000000000000000000000000000000000000000000000000000000000000000000000000000000000000000000000000000000000000000000
fe0001fffffe01fffe0000feff0101000000ffff01fe01fe0101fe01fefffe01fefeffff0000010000000000feffff00ff00fe0001ff00fe01000001fe0101fe
0000ff0000fefe00ff01fffefffffefeffff00ffff00feff0100fffffefffe01ff00fffe0000fe01fffefffffeff01010100fefe000101010101feffffff0100
fe01fffffffeff000000ff0000fe01fe0100fe0101feff0100fefe00ff00ffff010100feff00fe00fe00ff0100ff00fffeffff00fefe01ff01fe00ff00ff00ff
fe000100ff01fe01feffff000001ffffff00ff01fe00ff01feff01fe00fffe01feff0100feff000000ff000000fffe000000fffe00ff010100ff0000ffff00ff
01ff00fe01ff01000000fefffefe0101fefe01fe01fffe0100fe010001feff010100fe0000fe00ff00feff00fe00ffff01fefefffeff0100fffffe0100010101
fefe01ff01ffffff0100ff00fffefeff01feff0101feff00fffe01ff0101ff00ffff01fefeff00fefe000000010001ff00fffe000100ffff01fe01fffefeff01
010000fffe00fe0000fffefffe01fe0001feff0100fefffe00fefffe0101fefe00ff0101fe0000000100fefeff00feff000000fefffffeff00ff000100ffff00
fe01ff000001fefefefffefefffffe00ffff01fe00ffffff00fe010001fe010001fe01fe00ff000101000100ff01fe00ff01fffe0000ff01010000fefe00fe00
00000000000000000000000000000000000000000000000000000000000000000000000000000000000000000000000000000000000000000000000000000000
fefe010101ff01fe01fffe00fefffffefffffe01fffefffefeff0100ffff01fefffffffffefe01fffefe01010101feff0101000001fffe010101000101feffff
ff00fefeff000101ffff01010100fe01fe00ffff01fefffeffff010000ff00000001ff01ff0001fe0000ff00fe000101feff010001fffeffff01ffff000000ff
fe01ff0001fe00fffeff0101fefefefe00fffffe0001ff00fefefffe000000fefefffeff0000ff000001ff00fffffffefe00fe0001fffe01ff00fe0000fe00fe
fefeff0100fefffefffffefffe00ff00fe00fe01fefefe00fefe01fffeff00fefefe010000fffefe00fffffe01fe01ff01ffffffff0000fffe0001010100fefe
fefefffffe01fffe0101fe0100fe0001010101ffffffff010101ff01feff00fefefffe0101fe0000feff000101ff00010100ff000101000101fe0000feff00fe
00fefefefe01feff01ff00010001fe00fffeff0001feff0000ff0000fefefefeffff01fe0100fe01fefe00fefefe01fffefe01fefffffe000100fe01fe01ff01
feff010100fe010000ff00fe01fe0000fe01fefefe0001feffff01fe0100000001fefefefe00feff01fffe000101010101ffffff010101fffffe0100fffffe01
0000fe00fffe010001ffff00010101fe0100fe00fffefffefeff0000feff0000fe01010100fffe01ff00000101ff00fefffffe00ff01000001fe010101ff0000
00000000000000000000000000000000000000000000000000000000000000000000000000000000000000000000000000000000000000000000000000000000
