fe01fe000101010000000001fe010101fffefeff00fe00fffeff0000fffe00ffffff01ff0101ff00000100fefe01fe0101ff00fefe000001fffffefe0001feff
fffe00ffffff000001fe00fe0001fffe01fefe00fefe0100000001fe01fefe010101fffe00feff01010000fefeff0101ff0000fe01010001fffffefeffff00fe
00ff0000fffffe00fefefefffefffffe0000fffe01ff010100fffffefe01fe01fffffe01fffefe01010000ff01000001fffffffffe01000001ff0000fefe0000
fe01fffffffffe0001000000fe01000000fe01fefeff010001ff000000fffe0101ff01010001fe010101fe01fffffffffefffeffffff0101fefe000100ffff01
