ff00fe0100fe00000101ff00fffe00fefe0000ff000001ffff010100fefe01fefe00ff0101ff00fffefe01fe00ffffff00fe0101ff00fe0001fffffffefefe00
ff00ff010000fefe00fe00000001fe00ff000000ff01fe0001fffe00fe0100ff0101ffff010101fffe000001fe010101ffff00ffff01ff0101010000fe00fe01
fefffefefe00fefffefffe01000100fefefeff00fe01010000fefefe0101fe00fe0100ff00ff01fffeffffff010100ffff0101fe00ff00fffeffff01fffffffe
fe0001fefefffe000000fe0000ff01ff00fe0001ff01ff00fe00fe0000fe00fe01fefeff0100fffffffe0100ff0000ff01fffffeffffff0100ff000001000001
fffffe00ff0001feff00fe00feff01feff01ffff000100010001000000010101fefffffe01ff00ff00fefeff01ffff00fffefffeffff000100fe0100feff0100
fffe0000fefe01fefeffff00fe00feffff0100fefeff0100ffffff0000fe00fe01ffff0100fe00ff010100ffff010101010000fe0101ff01fe01feff0000fffe
0101ff01ffff01ffff0000feff00ff0000ff000001ff01ff01010000ff01fe0101ff000000ff01fffefe0101ff0000fffefefe0100fe00feff0000fffffe0100
0000010100fffefefffe00fe01ff0101fefe00fffe01ffff0101fe01ff0001feff0001010000010000ff0001010001fe010001000000ff0000fefe01fefe0001
00000000000000000000000000000000000000000000000000000000000000000000000000000000000000000000000000000000000000000000000000000000
00ff0000fffe01fe01fe010100ffffffff01fffe0100fffeffffff01fe010001fefffffefefefe01feff01ff0100fe01fffefefe0101ff0001fe01feff000101
0000fefe00fefe01fefffeffffff00ffff01ff0100ff00fe01fefefffe00000000fe0100fe010001fe01ffff00ff0000feff000100fe000000fe00010000fffe
0100000000fffe0000ff01feff01fe01fe01fe0101fffe01fe0100feffff00fefffe00feff010000fe0101ff010100fe00fe01ff00ffffffff01fe01fefffeff
01fffe01fe0000fefefe0101fefe000000ff01fefefffffe0000ff01ffff01feff01fffe00ff00ffff0001ffff00fffeff00ff00fffffffe00fefe00ff00fe01
feff00fefe01fe0101fefeff01fe010001fefefe01ff00fefe0101fffe00fefe01ff00fe0100fefefe01feff01fefe0001ff0000fefe01fefffe01ffffff01ff
feff000001fe010101fe01fe01fffffe0100fffefe01fffe0101ff0100fffe010001fffe01fefffefefffffeff01000000fefffe01fe00fefeff01fffe01feff
fe0000fe0001fefefe01fefefe000101010100feff00fffffe0100ff00fe0000fffe0000000101fe00000001ff0001010000fffe00fe00010101010100fffffe
010001000000fe0000fefe010101fffe00fe0101fe01ff0000000000000101fe01ff00010100fffefe01ff01fffefe0101fefffefe010001010101fe0101fe01
00000000000000000000000000000000000000000000000000000000000000000000000000000000000000000000000000000000000000000000000000000000
fffefe0101fe00fe01fffeffff0000ffff01fffe01fe00fefffe0000fe0100ff00ffff010000ff00fffe0101ffff00fe01fe00010101010001fffe010100fe01
00ff01ff00fffffe0000feff000001fffe00ff010001fffefe00fffeff0001010000fffe0100ff0101feffff01fe00ffff01fe00fe0100fe00ff00ffffff00ff
01fffeff01fffffefe01feffffff010000000001feffff00ff0101fffe00ff0100fe0101ff01fe0101fe00fffe01fe000100010001ffffffff0100ff01010001
01ff01fe01fe01ff01fffefe00ffff000100feff00feff01fe0101fefffffefe00010000fefefefeff01ff00ff01fe01000000010101000001ff00fffefffffe
00010000fe01ff00fefefe00ff00010101fefe00fffefffe01fffffe01010100feff0101ff010100ff00ff01feff0101ff010000fefefffe00fffeff010001ff
ffffff0100ff010101fe0001fefeffff0001fe00fefefefe0101010101ff010100fe00fefe01fe00fefefe01fe010001fe01ff0100ffff00ff00fffeff00fffe
00ff00fefe0000fe010101ff01fe0100ff00fefefffe0001fefe0001ffff00fffefeff000100fffefefefffffffe01fefe01fe01fe01fe00fefe00ff00ff01ff
01fe0100fffefffeffff00ff01feff01fefe010001ff01fefe00000000000100fffe01ff00000001fe0101fe0001ff01fefe01ffff0100feffff01fffffffffe
00000000000000000000000000000000000000000000000000000000000000000000000000000000000000000000000000000000000000000000000000000000
