01ff00fffe010000fffeff0001feffffff0001fefeff00fffffffefffe0000fefefe0001fffefe0101ff0000010101fffe01fe0100fe000101fffe0100fffeff
0101feff00fffffffffe0101fe01fe0000ff00fffefe00010001000100fefefe0101ff0001fe00ff00fefe0000000100fefefefeff00fffefefe00feffffff01
0000fefeff01fffe01fefefe00fe00feffffff0101ff01ff0001ffff0001fe00ff01ff00fefeff000001fefffffeff010101fe010101000001ff0100fffe0000
fe00fe00fe0100fe00ff01fe0000fe00000000fe010000fefffe0101fe00fffe000101fffe00000101fe0100ff0001fefe0101feffff01ff000000ff0001ffff
ff0001ffff01ff00ff0100ff010000000100fe01fe01fe010000ffff0100ff0001ff000001feffffff01fe01000001fffe0101fe01feffff000000fefefeff00
01ffff01ff0001fe0000fffefe010100ff01fe00fe000101ffff00ff0100000001fffefeffffff00000001fffffefeff00ff01fe0001000100fefffefffe0000
01ff00010001ff000100fefefffe0000fefe0100fefefe000100fe0001fe0001ff00fe01fe01fffffffffe01feff0101ffffff01feff01ff010100feff0100ff
fe00fefefffeff0000fe01ff01ffffff01fe010100ff0100fefe00fefffffeff00fe0001ff010100fefefefffffefe0100fefffefe000101fefffe01ff010101
00000000000000000000000000000000000000000000000000000000000000000000000000000000000000000000000000000000000000000000000000000000
fffe000000fe010001ff0101fe0101fe010100ff01fffe00fe01fefffefeff01fe01feff01000001fffeffff00fe0101010101fffeff0001fffe0101fe01fe00
01fe00fe00000001fffe00010001ff00fe01fefe0101ffff01fffffffeff01fefe01ff01fefe01fffe010100fffe00ff000001fe0001ff00fffeff0101fffe01
feff0101fffffe01ff01ff01ff00ffff01fffe01fe0100fffe0100fe0001000000000000fffeffff000000ff0000fe0000fe010001fe01ff000000fffe010100
00000001fe00fe00010100ff01ff010101fefe01010000fe00fffeffff0101fefe01fffffe01fe01fe01fe01fefe0100ff01fe01fe0101fefe0100fffe00fefe
fffeff00000100fe000100fe00fefefe00fe01fe0001ff00feff01ff00010101fe010101feff00000101fe000001fffefeffff01ff0001010100ff00000100ff
ffff00fefe0001ffff01fe01fffffe000000ff00ff01fffeff010101fffe00fe01fefffe010100010000ff00fe01fffe0100fefe0000fe0001fffe0001ff00ff
ff01fefefe010000ff0000fefffe00fefefefe01fefe0100fffe000101fffefffeffff010100000000feff0000ffffffff01feffffff000100feff0100feff00
fffefefe01fe010100fe01fe01ff01fe01010100fffe010001feffff0001fffffffe01ff000000fe010100010101feff01fe00fe0100ff01fe0100ffff0001ff
00000000000000000000000000000000000000000000000000000000000000000000000000000000000000000000000000000000000000000000000000000000
00000000000000000000000000000000000000000000000000000000000000000000000000000000000000000000000000000000000000000000000000000000
00000000000000000000000000000000000000000000000000000000000000000000000000000000000000000000000000000000000000000000000000000000
00000000000000000000000000000000000000000000000000000000000000000000000000000000000000000000000000000000000000000000000000000000
00000000000000000000000000000000000000000000000000000000000000000000000000000000000000000000000000000000000000000000000000000000
00000000000000000000000000000000000000000000000000000000000000000000000000000000000000000000000000000000000000000000000000000000
00000000000000000000000000000000000000000000000000000000000000000000000000000000000000000000000000000000000000000000000000000000
00000000000000000000000000000000000000000000000000000000000000000000000000000000000000000000000000000000000000000000000000000000
00000000000000000000000000000000000000000000000000000000000000000000000000000000000000000000000000000000000000000000000000000000
00000000000000000000000000000000000000000000000000000000000000000000000000000000000000000000000000000000000000000000000000000000
