00ff010001ff010000ff01010001ff01fffe0101fffe0101ff01000000feff00fefefe0001fffe01fe01ff01feff01ff01ff01ff010001fefffe0001fe010000
00ff00fe00fffffe01fffe0000fefeffffff0100fffefe01ffff01ff0100fe000100ff01ff0000fffefffefffe00ff0000ffff0000010101fe00fffe010101ff
00fe0100feff0000fffffffffffe0100fffe00ffff0001feff00fe0000feffff0101fefeff00fffe010000fe0100fefffe0001ff01ff01fffe0101fffefeff00
00fffefe01ff00fe0100fe0001ffff01feff00fffffe010100000001fffe010100fefefefe0100feff00ff0100fe01000000fffffe0001ff00feff01fe000000
fffffefefefe01fe01ff00fe00fffefe00fefffefe0100fefeff000101ff0100fefe01fefefefeffffff0000fe010001fefe00ff00fe010101fefefffe00ffff
00fefffefffe0001fe000000fe00fefe00fffe01fe00000001ff0001ff00fefffe01fffefffeffff01fe01ffff01ffff0001feff0000fefe00fefe01fe01ffff
01fe00010101fffefefffeff0000fefefefeffff000100000001fefffffefffe00ff01fe00fe00fe01fe0000ff0001fe00fefffe000101fffffefffefe000100
ff00ffffff0101ff00fefe01fffffefffffffe00fe0000010000000100010001fffefefe01feffff01fe01010000fffffe00ff01fffe0001ff01ffff00fffffe
ff0001fe00010100fe00000000ffff0101000101fffe0001000100fffe0000000101fe01fe010100ffff0100fe01fefffeff00fffefefeff01ffff01fffefe00
01fefeff010100010100ffffff01feffff0001ff0101000000fe00fe01feff0001ff01ff00feff01ff000000fefe0001fe00ff01000100000000fe010000feff
feffff00ff01fe0001feffffffff01ffff0000fe0000fffeff0100ff00ff01010101000001fefefefeff00feff0101fe0101ff0001feffff0000fefefffeff01
00fe00ff000100010100ff00fe00010000fe01feff00fe0000010001ff00fefffeff0001feff0000fefffffffefeff000001ff0001ffff0000ff01fffefe01ff
0100ffff0000fffffefe01fefffe0101ff01fefeff00fefefefe010101fffe01fe01010000ff0000010000000000ff01fe0100ffffff01feff00ff00fe0101ff
00ff000101010100fe01fe01feff0001ffff0100ff00fe010001fe0101fefe01ff01fe0100ffffff0000000100fefe00fffe0000ff01fe01fefefffffeff0100
fe000101fefefefeff00fe00fe00fefe0000ffff01ff01ff0001fe010100fefe01ff0001ffff010001feffff0001ff0000ff01010001ff01ff00000100ff0001
fe01ff00ff00fefefe0100ff0001fffeffff000101fefefe00ff000000fe01ff00fefe01fe01fffffffffe00ff00000101fe01fffe01fefffe01fefeffff0101
0101ff000001ff00010000ff01ffff01feff0100000100fe01010001ffff000100000001fffefe0100ff000100fe01ff00ff000100fe0000fe0001feff000001
00feff0001fe00feff01fefe0100ffff01ff0000fffffefffe00fe01ff01fefefe0100feff01fffefeff01fffefe01fefefffefe000101000001ff01fe00ff00
fefe01ffff01feff0000fe0000000100fefffffe00010100fe01ff0100fe010100000100ff01ff00010001fffefe0100fe00fffe0101ff010000010100fe0100
ff000000fffefefeff00ffffff00000000010101feff0100ff00ff0000000101fe0001feff0100fe00fefe010000fffeff0100fffe010001feff00fffeff0000
0000fe0100ffffff010101ff000001fefefefe0100fe01000101fe0100feffff01fe00fe0000feffff00fffeff01fffe00fefffefe0100010100ffffff00ff00
fe01fffe01ffffff000100fefefffeff01fefefefe0100fe010001ff0001010100fefe00fefefffe01fefffffefffefffe00fe01ff01ff0101ff00ff00ff00fe
ff01fe0100fefe0000010100ff01ff01000100000000fefe0100fefefeff01fe00000000ff0101fffe01000000ffff0100fe01fffeff00ff0001ff01ff00fefe
01fe00ff00ff00fe00fe01fffffe0101fefefe00ff01ff0000000001ff00fffeff01fefffeff0100ff0101fefffffefe000100ff01ff01ffff00ff00feffff00
