fefffffe00fe01ff01fffefe0000fefffe0000feffffff0000ff0101ffff01feff01fffefe01fefffefe01ffff0001fffefe010001fe000001fefe000000ff01
00fffeff00fe01ff00fefe000100fe00fe0001fffe010100fefeff00ff0000ff0001ffff010001fe01ffff01ff01fe0000ff00feff01ff01feffff01fe01fefe
0001010100feffff000001fefffefefeffff010000ff00fefefefe000000ff010101fffe01fe000001fefffffffeff00ff010000fe0000fffefeffff01ff0100
01ff010101fe0100fefe01000101ff00ffff0101ff000000feff0101fffefefefeffff01ffff01feff00ffff01feff010100fffefe01ffff0000010001feff00
0101fe00fe0000fefefefe01fe010001fffffffffe0100fefe00fefffeffff01fefffe01ff01fe01fe01ff01fe01fffe0001fefffffffffefe01fe00ff00fe01
0001fe0100fffe00fefffffffe01ff01ff0000fffefffeff0001fefeff0001fffe00ff00feff00010101fe00ffffff0000fffefefeff01feff00ff000000feff
ff0001fe00fe01fefffe01ff000100ff0001fefe0000fe010101fe00010100ff0100ff00fefeff000000fe00fe0101fefffefffe01fffe0100ff00fe000000fe
ff0101ffff00010001ff0001feff0101fefe01fe01fefe00010000fefe01ff000000ff0001fefefefeff000001fffffefe0100ffffffff010001fffffeff01ff
010001feffffffff00fefeffffff01ff000100000101fffe0001fe0101ffff00fe00fe00fffefe00ff00ff0100ffff01fefe01fefffe010000000001ff00fffe
fefffefe01fe0101fefe01ffff01fe0001010001000000ff000001fe0101fefeff01fe01fffe00fe01000001fe00fefe00feff010100000000fefe01010000fe
0000fffffe00fefeffff010000feff01ffff00000000ff0001ff01ffff00ff000101feff00000100feff01ffff0001fefe00fe010100ff00fefe00fffefffe01
ff01ff01feff01000001ffff00fefeffffff00ff00fe0000ffffff0100ff00fefe00fe0101000100ffff0101ff01010101fefffe00fefefffe01ff00fffffe01
000101fe0000fefffffefefffefefefffffffe01010000fefefffe01fefefefe0100fe0000fffeffff01fe01010001feffff01ff00ff0101feff01fefffefeff
ff0001fefefe01feff01ff00ff00fefe010100fe00fe010000fe010000fefe01fefffe000001fefffefefefffe01ff0000fffeff0001000100fffe01fe00ffff
01ffffffff01fefe010001ffff0100ff00010001fe0101ffffff00fe01ff00fffeff00fffffe01fe00ffff0101fefffe0001feff01fe00feff0000ffff0100ff
01ffff01feffff0101feff0101fffffeff000100ffffff0001fefefe0000ff01fe0100fffefefffeffff0000fe000001fe0000010001010100000101ff00feff
