0000ffffffff0101ff01feff00feff01fe01fffefe01000001ff00fefe01fffefe00fefefefe0100fe010000fffffe01ff0000010000fffffffeffff00000101
fefe00000000fffeff01ff01ff00ff0000feff00ff00fe0101010101ff00ff0000010101feff01feffff00ff01fffffe01fe0000ffff01ff0001fefffffe0000
00fe01fe00010100ff000101fefefe0100fefe0000fffefe00ffffff01ffffff0101ff0101fe01ff01fe00fefffeff01ff0000ffff01fefe000100ff00000100
0001010001fe000000fffeff00010001fe0001fffe01fefffe00feff0101fefefeff00ff0100ff01ff01fffefe00fe000000fe01010100ffffff01fffe01fffe
0101fe01fffe000101fffe0001fffffe0101fefefefffefe01fefefeff01fe01fe00ffff01fefefffe00fefefffffe0000ff00ff0001feff0100fe01fefe0100
00ff00ff000000ff00ff000001fefefffe01fffeff000000010100fe0000feff01ff0101feffff0000feff01ffffff0101fe00ff0000fe00ff0000fefe0000ff
010100fefffeff00ff0100fe0100fffe01ff00fe01000000ffff00ff0000ff01ffff0100ff0001fffefe01010101010100ffff0100010101fe01ff0001fefefe
fffe0001000100fe0100fe01fe010000fe00ffff0000ffff010001ff0001fefe0000ff01fefe0001fe00fefeff00ff0001fe01010101fe0000ff00ffff01fefe
00000000000000000000000000000000000000000000000000000000000000000000000000000000000000000000000000000000000000000000000000000000
000001fffffffefe0001010001fffefefe000100fefeff01000101ff00fffffeff0000fe0100ff00fe010001ffffff00fe00feff0101fffffe01000000fe01fe
01fe0101fefffeff01ffffff00ff00ff000100fe00fe000100000001ff000000fefefe00ff00000000fefe0101ff0101fe01fe01feffffffff0000fe01ffffff
fffeff010000fefffe00feffff00fefe0000ff010101fe01ffff00010000fe0000fe0101feff0100ff0001fffefe010101feffffff01ff00fffeffff00ff01fe
0101fe000001fe00fffffffeffff0100feff0100fefffefe01ff0000fe0100ff000001feff0001fe01ff00fe01ff0101ff01fe01fe00ff0101feff01fe0001fe
ff01ffff01fffe0101000101ffffffff0001ff010001ff00fefe00fefe00ff00fe00fffe0101fe01fffffffe01fefffefe0000fefe00fefeffff01010001feff
fefeff0001ff01fe0100000001fffe00fe00ff0000fffe0101fefffefefffeff00ff00ff01fe01fe01000100ff00feff0000ffffff01fefeff00ffff0101fffe
0001fefffffffffefefe01010100ffffffff0000fe0101fffefeff0100fe01fffefeff00fefe0100feff0100ff00fefffffffffffefe01ff01fe00000100fffe
00fffffeff0100fffe0001ff01ff00010101ff00fe00ff00fefe01ff01010101fffffe01ff0101fe01ffff01fffe00feff0000ff010000ffff01fffe01000101
00000000000000000000000000000000000000000000000000000000000000000000000000000000000000000000000000000000000000000000000000000000
00000000000000000000000000000000000000000000000000000000000000000000000000000000000000000000000000000000000000000000000000000000
00000000000000000000000000000000000000000000000000000000000000000000000000000000000000000000000000000000000000000000000000000000
00000000000000000000000000000000000000000000000000000000000000000000000000000000000000000000000000000000000000000000000000000000
00000000000000000000000000000000000000000000000000000000000000000000000000000000000000000000000000000000000000000000000000000000
00000000000000000000000000000000000000000000000000000000000000000000000000000000000000000000000000000000000000000000000000000000
00000000000000000000000000000000000000000000000000000000000000000000000000000000000000000000000000000000000000000000000000000000
00000000000000000000000000000000000000000000000000000000000000000000000000000000000000000000000000000000000000000000000000000000
00000000000000000000000000000000000000000000000000000000000000000000000000000000000000000000000000000000000000000000000000000000
00000000000000000000000000000000000000000000000000000000000000000000000000000000000000000000000000000000000000000000000000000000
