00feff0100ff00fe0100fe0100ff01010100ff0000fe0001000000fe00fe00000101fefe00ffffff00fe00ff0000000000fefe010101feff01fefffefffffffe
fefffefe00fffeffff00fefefefe01fefffffefe00010000fefe000000fe01fffffffe0000fffffffe00ffff01fe0100fefe00ffff0001ffff00fefefefe0000
ff00feff01fefefefe01fffffefe00010000fe01fefffe00fffffe0100feff010100ffff0000ff01fe0001ffff01ff01fffe0101feff01feffff000100ff0100
01ff0101feffffff00fffefefefffefffeff000001fe010100ff00fffe01fe01ff0101000001010100ff00fe0001fffffffeff00fefffefeff01ffff0000ffff
fffe01fe0001ff010000000000ff01ff00ff00000000fffe01fe01000000ffff01fe0000ffffffffffff00ffff00ff000001fe00ff01fe0001fe01fffffe0001
01ff01fefffe01feff00fe000000000101000101fefffe000000fe00fffefffefe00010001ff00fefffffffe00000001000100fe01feff01ff0001ff0000ff01
ff00fefefe000101ff01fefefe0101000000fe00fefefffeff000001ff0000fe01fefefefe0001fe00fe00ff000100ff010101010000fefefe01ff01fffefefe
fefefeffff01fe000000fefffeff010001feffffffff01ff01ff01fefefffffffe0001fe010000fffefe00fefefefefe01fefe0101fefeff000101fe000101ff
fe01fe0101fffffffefe00ffff0001ff00ff00fe0000ff0001fe01ff01ff01fe0000fe010000fe00ffff0000feff00010001fe00ff01ff00fe00feff010000ff
01fefe00fefeff010000fefffefe00000100ff010100ff0001ffff00ff0100fefeffff00fe01fe00fe00ff0100fe01fffffefffefe01010101fffffe01ff01ff
ff00ffff00fffefffe00feff01fffe00fe01010001fffffe00ff01fe0101fffe0100ff00ffffff00fefffefffe010001fe0101010000fefffe0000ffffff0101
00010000ff01fe0100fe0100ff0000feff000000ff01fefeff0101ffff000101fefe0101ffff0001fe00fe01fe010101fe010100ff01feff01fefefe000101fe
0101fffefefffe01fe00feff00ffff00fffffffe0000ffff01fe0001fefeff0000ff0001fffefeff00010100fffffe01010100fefe0000ff010001fe0100fffe
ffffff00ff0101ff0000ff01fe00fefffeff00fe0000feffff01fffe0100fe000101ffff0000fffeff01fe01fe01fffffffe00fffe00000100fffefefefe0100
0101feff0100ff01ff00fefefffe0001fe0101000001fe0001ff000000fffe01ff00fffe00fffeff010100ff01ff0000ff00fefe00fe0000fe00000100fe01fe
0000fffe000100feff01000100ff00feff01fefe01fefefefeff01ff00ffff01feffff00fffeffff01ff0100fe01fffeff0000ff00ff0001ffffff0000fffffe
