01fe0000fe000101fefefefefffefefe01fe00fffffefefffe01ff00fefe0100fffe00fe000100ff00fffefefefefffffeffffff01fe01ff01ffff01ffffffff
01ffffff01fffe0001ff00010001fefefefe01fe00010000fefe00fe0101fefffefffefeff0001ff0001ff0001fffffe0001ff00fe0101fefe0000fe00fe0000
fe00fffe0000fefffe0001ff0100fe000101fefffefe010000fe00fe01fefefefe01ff0001fffe01fefeff010100ffff00ffff000101fefe0101fe00fffe01ff
0001fefe0001fffeff00fffffffe0001fe00feffff00ff00fefe0001fefeff0001fefffefe01ff00ffff0001ffff00fe01ff0000ff01ff00ff00fe00ff01ffff
