00fffffe00ff00fe01fe000000ff01010101fefffe010001fe0100fe01fffefe00fe000000ff00fe000101fffe01fefefefe0001ff01fefe010001fe00feff01
fe0100feff00feff010100fffe010001fffffefffefe0101ff01fe0000ffff000100fffffe00ff00fffefe00fe00010100fffefefe0101ffffff01ff01fffe01
ff01ff010001fffffffeffffff000000fe0001ff01000001fe01fffeffff00fffe01ff01ff01ffff00ff00ff0101ffff00010001fe0001fe00fefe000100ff01
fe0101ffff00000100fffe00fffefeff0001fffe01fffe01ff0100fefffe010001fe0101fffefefffefffefefeff00ff000001fefffffffefefe01fffe0000ff
