fe01fe01fefefe01ff01fffefe0000ff0100ff00fffe01ff01ff01fe0000fffffe01fe00fe000101fefe00ff00fe0001fffffefffeff00feff01010001ff0100
00fffeff0000fefe0101feff01fefefe01fe01feff00000101fefffe010001ffff01010100feff01ff000101fffe01fefeff01010100fefffffefe01fffeff01
ff0101fefeff01000101ffff010000fefe000001fe00ffffffff00ff0100fefffffefffe01fe000100ffffff000100000000feffffff01ff0100fe00010000fe
fefffffe010001fffe01fe0001ff01fe00fffefe0001ff00ff0001ff00feff01ff01fffe0000000100ff00feff00ff00ff000001feff00ff00fefefeffff0101
