0101fffefe0101000001fe0100fe010001ffff01ff00fffffffefefefefefeffff010101fffefeffff01ff000100ff0000000100010100fefeffff0001ff0101
ff00fefe0001ff000001fffffffe00ff01fffefe0101fe01fffeff01fefe00fefefffe0100fffe000101fffe0000000101fe000001feff00feffff0001ff00fe
00fe010101ff01010101ff0001fffffeff000100ffff01010100ff01ffff00fefeff01fffe01ff01000101fffe00fe00ff0001fffffefffefefffe0100fe0000
01fffeff0100ff00fefefe0101fe0000feff00fe01feff0101ff01fefefe0000010101fe0001fefefeff000001ff00ffff00fffefffe00fe01fefffefe00fe00
feffffff0001ffff000100fe00fe00ff00fffffefffffeff01feffffff0101fe0100fe000000000001ff00fe01ff01ffff00fe00000001fe01fefffffefefe00
01ffffff00ff01000100fffffffffffe00fffe00ff01fffe00fe00fe0101ff01ff01ff0100ff00fefe01feff00fefefe0001feff0001ff01fe0001ff0101ffff
000000ff000000fefffe000100ff0100ff0001fe00ffffff01feff00ff0100feff00fe01fefe0101000101fffe00ff00fffe01ffff01fefeff01feff0101ff01
0101fefefffe0001ffffff01fffe00fffe00fefe010000ff01010001fe01fe0100ffff00010100000001ff01fe0100fe00fffefefe01fefefefffffffeff00fe
fffefe01ff01ffff000000ff00fe000101ff0101ff00010101fe00fffe0101ff01ff010100fe01ff00010101fefe0100000001fe01feff0101ffff0001010001
00ffff0001fe000000fffffe0001ffff00fefffefe01ffffff01ff00feff0101feff0100000000000000ff01fefe00ffff01fffefe00ff01ff000100fe010100
fe00000000fefeff010100fffffe01ff0000fe010100fffffffffefe0100ffff010101fffe0100fe01feff0101010101010001fe00ff01fffeff00fffeff0101
fe01ff00fefffefe0001fe000101fffe00fffe0001feff00000001ff01ff010000ff0101ff00ffff0100010101010000fffefe0100fefe01fffe01010001feff
fe01ff010001ff01feffff00ff00fe00010100fe010001feff00feff0100fffefe00fe0100fe00ff0100fefffefffefe000101fffe01ffffff0101fffefefe01
fefffe00fffe00000100fffe0101fe01fffffeff01fffffffffe00000001ff00010101000101feff010100fe0100fffe00feff00fffeff00fffeff00fffffe00
ff00feff00fefffffe0000feff00ff0001fefefffefe010000feff0000fefefe000001fe0101fe01feff010101fe00ffff00fffffffffe01fefffe0100ff01ff
01fffffefffe010101fefefe00ff01ffffff0100fefe010100fe0101fe01fffefffeff01000001fe01fffeff01fffffefeff00fefe0101fe0101fe000100fefe
0000fe010101fffffeff01fffefefffefe00fe01feff01fe01fe01010000010000000001fe0001fffffffe01010101fefefe0001fefe00fe0101fe01ffff01fe
010000ff01fefffefe00feff0001ffffff010100ff00fefffffefe01fefffeff00ffff01fe01fffefe0001fffe00ff010000fffffe00000000fefefefe01ff01
000001fe01feff01fe00010101fefefffffe01fe010100010100fefefeffff0000ff0100ff01ffff00fe0101fffefe01010000fe0101ffff01fe01ff0001fe00
0100fe00fefe00000000fefe010100fefffe00fffe010101ffff0001ffff01000000fffeff00fffefe000101fe01fe0001fe01000101fefe00fefe00fefe00fe
ff00fe01feff0100feff0000000100fffefe0100fefefefffe0000000000fffefeffff01fe0100fe00ff00feff0000feff0001fefefe00ff000101ffff00ff00
fefeff000000000000fffe0000fffffefefffefe0101ff0001ff00ffff01ff0000ffff0001fe00ff0101fffeffff0100fefefefeff010100ffff01fffefefeff
0000fefe00fffffefe0101ffff000100ff00feff00000100fefeff0001fffe00fe0101000000fffe01fe00010000ff01000000ffffff00fe0000000000feffff
0001feff00ff00000001ffffffff0000fefffeff0001ff010000fefe00010100010100fffe00ffff00fffe01fe00ff00fefefefffe0001fffefe0100fefe0000
