ff0001ff00feff000100fe00fe01ff000100feff000100fefefefefe0000fe00ffff01ff0100fffe0000fe000000fffefffe00fe01ffff0100fffefefeff01ff
fefffffeffffff01ff01000100ffff01ff01fe01fffeff0000010100fffe0001ff01ff00fefe01fe0001ffff01fffe00ffff0100fe00fefe01fe0100fefffffe
ff00fe00ff0001ff010001ff01ff010000ffffff00ff01ff0100ff0000fe00fe00feff010101fe0101ff010001ff0000ff0001fffffffe010100000001000101
ff00fe0101ffff0100fffe000101ffff010000ffff0101ff00000001fefffe00fefe000100ff0100fe01fe01ffff00ff00fffe0001fe01fe00000101ff01feff
fefe00fefffe00fffffe00fe00fefffeff0100fe010100fffe01ff000101000100fefffffffe00000000fffffffe01feff00feff01ffff0101fffe0101ff00ff
0000ff01fe00ff01fefefffffefe0001ff00fe00fe01ff010101ff01fe01000001fffe0000feff00fe0101ffff0101feff000001fe01ffff01fffe01000001fe
fefffe01feff0001feff0100fefe010001fffeff01000000000100fffeffffff000000fe01fffe0001ff01fefffefe01fffffe00fefe01feffff00000100fefe
fffefe01fefffefffe01ff00ff010100fe00ff0100ff01fefffe00fffffeffffffff00fefe00fffe01fefe010000010000ff00000001fe00fe000000fe0101fe
ff0101fefffffffffe00fefefe01ff00ffffffffff01fe00ffff01ffff000101ff01ff01fefeffff00fffffffffeff0001fe00fe0100fffe01fefeff00000101
ff00fffffffefe0000fffe0000fe01feff00010001fe00ff00fffe0001fffe01fffefe01fe00ff01fe0101feffff0100000100ff01ff01ffffff00fffe00fe00
00fe0000ff00fefefe000000fe010001fe01000001feff01fefe00fe0100ff0101fefe01fffffe010001feffffffffff0001fe01ffff0101fe01fefeff00ff01
00fffe0000fe01000001fefeff01fefefeff0001000100ff010000fffffffeff0100feff00fe00fe01ffffff0101feff01fe0100ff00ff00ff0001fefe01fe00
00fefe00ff01ffff00fefe0001feffff01ff010100ff00fffe0100fe00fefefefefe01fe01fffffefe0001feff00fffeffff01feff0101feffff01ffff0101fe
fe00fefe00000001ffff00000001fe01feff0101000001ffffff0101000101fe0001fffefffe00fefefefe0001000101fefe00feff010000fffffefefe01ffff
00fefe00fffefe01fe000000feffff0100ff00ffff01fe010100ff0101fe000100ffff01fffe00fe01ff00ff010101ff00010101fffe0001fffffe0101fe0000
fffffffefffe0101fefe010100ff0000fe01fefe01fffe0000ff0101fe01ffff00feffffff0001010101fefefefe01fffe010000fffeff00fefefffe00ff00fe
