0000ff0100fefffe01feff01fefefe01ff0001000100fefe00ff010000ffffff00fefefeff01fffe000100ff01ffff01010000010000ff01ff01fefeffff0100
fe0101fe0101000001000000feff000001ffff01ff0100fefe00ff00010001fffeff0101fe00fe00feff000101fffeff0000ffffff01fe01fffffe0100feff00
00ffffffff01fffffefefe0100000000010000ff01ffff00ffffff000001fffeff01000001ff01feff00fffe01010101ff0000000101fe000001fffffffffefe
000001fffe000000000001ffff01fefffefefe000000fefffe0100ff00fefe010100000101fffefefffefffe0001fe00ff0101feff0101fffffffe000000fefe
fffefeff01fefe0100ff01ff0100ff00fe00fefe01fffefffefefffffefefeff010101fffe0000ff00010100010101ff0001000101fe01fefffe00ff0000fe01
0001fe000000000100010100ff010001fe01ff00ffff00fe01fefffefffe010100010001feff00ff0100fe00fe00ff01fe00fe0101feffff01ffff00fe000101
00fefeffffffff00010100fe000100fe000100000001fffeff01fe0101fffe0001010100ff00feff000100fefeff01fe00ff010100fe0100fefeff01fffeff01
fffefefe0100fffffefffefe01fffefffe01ffff01ff00fe00fe00fe0101feff000100fefe01ffffff00feff0001fe00fefefefe010001fffffe00ff0001fe00
010101ff01fefefe01010100ff01fefefe0100fefefeffff0101fefffeff00fffffe0001010000fffe0000ff0000fffffefeff00fefefefeff00feffff000101
01010001ff0001fefe0100ff00fe01fffefffe0100fe01ffffff000101ffffffff0100fefffe01fffffe00fffefe00000000fffe00fffe0001fe0101fe000001
0101fefefefffe000101fe00fffffffe01fefe0100ff01fefe01fe00ffffff01fefe01ffffff010001fffe0001fefefffffe01010101fffffeff0101fe0100fe
fefe00010100fe010100fffe00fffffefeff00fe0000fe01fe0100ff0100ffff01fe0001fe0001010001000001ff00ff0000fefefefeff0101fefffe00fffffe
fe01fe00ff000001fefefffeff00fefefe00ffffff00fffeffff000101ff00ffffff00feff01000101ffff01ff0000ff000101fe01ffff010100fe00fefeff00
fe01fffe00fe01ffff00fffefefefeff01000101fefeff00fffeffff000101fffe0100fefe0000ff0101fffe00fefe0001ff01ff00ff01fffffefeff010001fe
01fe000101ffff00fffe01fe01fefffffeff0001fefe00fefe0001010101fffeff00fe0000010100fe00010001fefefefe00ffffff00000100fe0101fefe01fe
fffffefefeff010100fffe00ff000100ffff01fefffffefe0100ff00fefefe00ff01fefffe0001ff01fe00ff0100000101010101000000feffff00ff01fffeff
