0001fe00fefffffe0101fffeffff01010000feff0000fe0100fe0101fefffffefe01010000fefefe0001ff00fe00fffe00fffeff01ffff000101010000fe0100
00fe0100feff01010101fe01000001fffefefefeff01ff01000000fe00ff00fe00ffff00ff01fefe01fe010000feffff00010101fe0101000001fe0001feffff
fe01ff01fefefe00fffe00ffff00fefe0000fe00fffe0001010001fe0101fe000000ff01ffff0100fefefffe0100ff01ff01feff01fe0100000000fffefffeff
ff00feff010100ff00fefe00fffe0000ff0101010100fefe00ffff000100fe01fe01fe00fe01fffefefe00fe0101ffffff01feff00000001ff0000fe0101feff
0100fefe0101ff00fffeff0101ff00fe0101000001fe01fefefffffefeff0001fe010100fe01fe0001ff0100ff010100feff0000fffe01010000fe0101feff01
fefffefefe010101feff0101010101fe000000ff01ff00ff0100ff0001ff0101ffff01ffff0000010101fefffe0101000101feffff01fefffffefffe01ff01fe
fffeffffff0101fefe00fffffffe010000fefffe010100fefefffe01ffff00010101fefe00feffff0100fe0000fefe000000fe01000000000000fefe010000ff
00feff000001010000ffff00ff00000001ff00ff0101fe01fffffeff00ff00feff01fefe000001ffff01ff00ffff010100fffe0000ff0000000101ff0001feff
00000000000000000000000000000000000000000000000000000000000000000000000000000000000000000000000000000000000000000000000000000000
ff01fefe00fe0000ff0101fefe0100ff0001fe0101ff00010001fffefffefffffffeff010000ff01ff0100fefefe0001010000ff00ffff0100fe01fffe00ffff
0001ffff01fffe0100fefffe010100fe000100ffff00fffe00ffff01fe0100feff01fe00fefe0100ff0101feffffff01010000ff0100ff00ffff01fe01feffff
fe000101fffe000000fefefefefefeff0101010001fe01010101ff00fe0101fe000000010101ffffffff0101ff000101fffeff000000fe0101ff01fe01010101
ff01ff01010000000001000001ff010101fffefefe000001010000000100010100fe01fffeffff01fe0101fefefffe0100ff0000ff0000fefffe01fefe01fe01
fffffffffefefefffffefe01fe01ff00ff000001ff0101fefffefefe0100fe00ffff0100ff000101010000fe01fefefe01000000000001000001fefe0000feff
ff00000001ff01ffff0000fe0001feff00fffe01fffe0101ffff0001fe0101fffefeff00feff0100fffffefffe0000ff01fffeff000000ff010000fefe0000fe
000101ffffff0101fffefefefeff0101fefefe01fe000001fe01feffffff0000ff0100fffeff01ffffffff01ff0100fe010101ff01ff01fefeff01ff00000101
010001010000fefe01feffff01ff00ff000101fefe01fe000001ff000001fe0100010100010000fffffefffefeff000101fefefefe01ff01fe000001ffff0001
00000000000000000000000000000000000000000000000000000000000000000000000000000000000000000000000000000000000000000000000000000000
feff0000fefffe0101fffe00feff00fffe00ff00fe0100fe0000feff010000feff01ff0101fe0101fefeffff00fffeffffff0000000101fe0101ff00fe00fffe
ffff010001ff0000ffff0101feffff00ff0101fffe0101fe01fffefffe00fefffffe0001fffeff01fffeff010000feff010000fefffe01ff01ff010000010100
01fefe01fe00fe000001fe01feffff0100fe00fffe01ff000001010100fe01ff000000fe01ff00010100fffe0100ffff0100ff01fffefffeff000001ff01fe00
ff0001ff0000fe0100fe010000fffeff01fe01fe00ff0000ffff000100fffe01ffff00ff00ff0000ff0000ff00ff010101fe0100ff000000000000fe0000ffff
01fe01fe01000001fe01fe0100feffff01fefe000001ff01ffff01fe01fefffe01fefefe00ffffff01fefffe01fe0001ffff0101fefffefe010001fefeff01ff
fefe01fe0000fffeff00ff0000fe00fe000101fe01000101fffefe0001fffe01feff00000101fffe0101fefefefe01000000fe01000101fffe01ff0101ff0000
01ff01fe0101ff01fe0101ff00fe01fe01feff010100fe01fffffefeff00fffe01fe0101fe00fffefe01fffefefe010101ff0100000001ff0100ff0000feff01
01ff01feffff00010001ffff00ff00ff00feff00fefe0001fefffe00fffeffffff01ff000100ff01fefefffe0001fffe01000101ffff01fffe01fe00fe0101ff
00000000000000000000000000000000000000000000000000000000000000000000000000000000000000000000000000000000000000000000000000000000
