0101fe01ffff01fffe01fefefe00feff0000ffff0100feff00ff01feffff0100fffffeff01ffff0100ff010001fefe00fffe00ff01ff01ff00ff00fffefe00ff
fffefefe010000fefefffe00feff01000100ffffffffffff01ff0001fefe010101ff01fe010100000101fffffefffe01000000010000fefe0100fffe00fefefe
000101ffff00fefe00ff00fe00fffe01ff00fe01fffe0000fe00fe000001fffffe00010101feffffffff0000feff0001fe01fe00010100fe0100ffff0100ff01
00ff00ff00fefe01fe01ff0100ff0101fffe00ffff00feffff010100feff010101fe00fefe010100fe000101fffffefffeff00fefefffeff0001fefe01ff0001
01fefe00fefeff00feff0101fffffeffff010100feff000000ffff01fe0101feff00fefefe0101ff00fffefffffe0000fe010100ff0100fffffffffefffe0101
00fffefefefe00fefefe00feff00ffff00010000fe00fe01fe010001fe00ff00fffeffffff0101ff000100fffe0001ff0100fefe01fefe01fffefe00fefefe01
0001ff000000fffefffeffffff00feff00ffff010101ffff0100ffff01fe010100fffefffeff0101fffffe00010101fe00fe00fffe01fe010000ffff01fe00fe
010101feff0000fefffffffffefe01fffffffefffffe010100fefefeffff00fffffffffe0001fffefffe0000fefe00fefffefffffe000101fe01fe0101010001
01fffeff000001feffff00ffff0000ff01ff01fe000100ffffff000001fffefe01010001fefeffff0100ff00fe0001fe0101fe0000fe00fffefeff0101fffefe
ff010101ff01fefffffffe01ff01ff01fffefefe00ff00ff01fffefffe00ff0001fffefefefe00fefffeff0000fefe0000ff0001fffffeff00ffff0001fefe01
00fffefffe01fe0000fefefeffff010101fffefffe010000ff00fffffe00ff0100fffe00ff010000ff00feff01fe010001feff00ff01010100fefeff0101ff00
0000ff0000fefffe000100fefffe00fe00010101fe00ffff0001ff00010101ff00fffeff00fe0101010000ff01feff000100ff00fffffeff00000100ffff0000
0001010000fffe01000101fe010001ff00ffff01fffefefe00fefefe01ff010101fe0001010100feffff0000ff000101fe000000fe0101fffffefffeff0101ff
00fefefeff000000feffff00000000feff01fe0000ff0100fe00ffff01fe01ff01fe0000000100feffffff010101fffe00ffff0000ff00ff01fe00ffffffffff
fe00ffff000000ff000001ffff0101ff0001fefe01010100fe00fe01fe01ffffff00fffffeff0000fffeffff01fe01ff00000100fe01fe0101fefeff0001ff01
00feffff00fffe00fe010000fefeff00fefefe00feff0000ff0000ff00fffffefffe010100ff01fefefffe00fefefefe0100fe000100feff00000001fffeffff
