ff00feff000101fefe000100fefefefffffefe01000000fffe01fefffe00fefefe00fe01fefefe01fe010000fe0001ff0101ffff00fe01fe0100fefffefffefe
fe01ffff010001ff00fefe00fe00fffeffff000101fefefefe000101010001fe01fefefefe0100000000ff00ffff00fefffeff00ff01fe010100ff0000ff0101
ff010001fefefe01ff0000fffffe010000ff00fe01ff01feff0101010000ff00fe0000ff00ff00fefffeff00fefeff01fe01ffff0101fe00ffffff0000fe01ff
01fffffe0100ffff01fffefffffe0000000100feffff00ff010101fefeff01fe010000ff00010001fe00fe00fefefefe000000fe01ff0000010100fffeffffff
fe00fefefffefe0000fe0101ff00fe00ffffff01000001feff01010100fe0001010000fffffffffe00010101feff010000feffff01fe0001fe01ff0000010100
fffffefefeff00fe000001fffe0001ff01fe0101fffffefeffffff0000ff0001fefeff0001fe01fefefe0101fe0001feffffff01ff010001fffffe01fffe01ff
0000010101fefe010100ff01000101fe010001fffefffe0000fefffeff000000ff0001fefe0000fffeff00010001feff00fffe01ffff00feff00ff01ffffff01
fe010001fffeff010000ff01fe00ff01000000fffe010100fffefe0000fffeff01ff00feff0000fe0101fefeff000001ff0101fe00010100ff0001fffe00fefe
00000000000000000000000000000000000000000000000000000000000000000000000000000000000000000000000000000000000000000000000000000000
fefefe01ff0001fe000001feff01fe01fe01fe000000ff0001ff0000ff0000fffe00feffffff01ffff0100fe00feff0000fe010001fefefe0100fefefefffe00
fe00fe0000ff00fefefeff01010000feff00fffe010100000101ff00ff0100fefefffffeffff01000001fefffeffff010000fefefffefeffff00fefefe01ffff
01fe0000ff01fefe00fe0101010001fe0000ff01fe00ff00ff01fe01fefe010100fefffefeff01fffefffe01ff00ff00fe0001fe01ff01ff00fe01ffff00feff
ffff00fe000101fefffe0100fffeff00fefe01feff01ff01ff00fffffe0000fefffe010101fe0101ff01ff01ff000000fffffffe01ff000001fffe0100000000
fe01fffefefefe010000010101fe01ffff01010100ff0101fefefeff01010000fffe00ff0101010001010001ff00fefe0101010001ffffffff0100010000fe01
01000001010101fffe010001fe0000fe0000fffe00ff0100fffffe01ff000001ffff00ff0001000001fe00fefe01fefffe01ffff0100ff0100fefefefefeff00
feff01ff01fe00fffe00fefefe00000100fe0101fe0101fe00fffe01fe01ff00010001fefefefffe00feff01feff01ff010001fe0101010100feffffff0100fe
01ff00ff00fe01fefffffeff00fe01ff00fffeff00fe0101ff01ff000101feff00feff00fe01ffff01ffff0001fe0101ff00ffff0000fefffeffffffff0101fe
00000000000000000000000000000000000000000000000000000000000000000000000000000000000000000000000000000000000000000000000000000000
00000000000000000000000000000000000000000000000000000000000000000000000000000000000000000000000000000000000000000000000000000000
00000000000000000000000000000000000000000000000000000000000000000000000000000000000000000000000000000000000000000000000000000000
00000000000000000000000000000000000000000000000000000000000000000000000000000000000000000000000000000000000000000000000000000000
00000000000000000000000000000000000000000000000000000000000000000000000000000000000000000000000000000000000000000000000000000000
00000000000000000000000000000000000000000000000000000000000000000000000000000000000000000000000000000000000000000000000000000000
00000000000000000000000000000000000000000000000000000000000000000000000000000000000000000000000000000000000000000000000000000000
00000000000000000000000000000000000000000000000000000000000000000000000000000000000000000000000000000000000000000000000000000000
00000000000000000000000000000000000000000000000000000000000000000000000000000000000000000000000000000000000000000000000000000000
00000000000000000000000000000000000000000000000000000000000000000000000000000000000000000000000000000000000000000000000000000000
