0001ffff00fe01fe01010100ffffffff00fefe0100010100ffffffff0000feff01ff00fe00ff00ff00feff000000fffffefefe00fffe01ff0001ff00fe0001fe
ffff010101fe00ff00ffff01ff0100000101fefffefe0001fe000101feff0000fe00ff0000ff0100ff00ff0101000100ff01fe01fffeff01ff00ff00fe000101
00fefe0101feff01010100feff01fefe000100fefefeffff00fe01fefe010000000000ff010101fffffffe0001fe00010000fe01feff01fe010101000101fe00
ff0101fe01ff0101fe0101fe00ffff00ff010001000101fffe00fe010000fe00fefeff0100000101fe01fffefffefffffffeffffffff000001ff01fefe0000ff
