fe000001000101ff00fe010000fe01feff0001000100000001fefe01fe0100010001ffff00fefefeffff00fe00ff010100fefeffff01fefffffffffefe01fffe
01ff0100ff01fe0100010100ffff0101fffffffe0001ff000000000001fefefe01fe00fffefefeff0000000001010100ffff00000001ffff01ff01fefefeff01
000100fefe00fffefefffe01fefe01fe0101fffe00fffefefffeff0101010000ffff000000ffff0100fe000100fe01fffefe00fffefe000000ff010001fe0100
fffe01fe000000ff00fffeff01fefffe01fe01fefefefefffeffff01ff0000ffff01feff0001000001fe00fe0100ff0001010101fffefffeffff01010101ffff
