fe01fe0000010101fffe00010101000000ff00ff01010001fffefefffefe01fe0101ff00ff01ffff0101ff00ff01ff0101fe0000ff01fffe000000fffefefffe
fe00fe0101fffefffffe00ff0100ffff00010001fffe000000fefffe01fefe000100ff00ff01fe0000fefffffe00ff010100fefe0000ff01fe00fe00ff0100fe
fffefefeff010000fefe01ff00ff010101feffff0000fe010000fffe0001feffff00fffefe01010001000100000100ff01fffe010000fffffffefe01010101ff
01fe0000fe0000ffff01fffffffffeffffff00fffffe00ff01ffffff01fe01fffefeffffff01fefe00ff01fffe010100ff01000101fffe01010101fe00fefe00
ff01fe000100fffffeff01010000fe0001010001feff01fefffe00ff0001fffffefe01fefeff01fe00fe0001fefefffe0001fefe010100fe0101fffffeffff01
ff0100feff00ff000000fefe01fefefefeff000101fe0101fe00feff0100fffe01fe00ff00ffff010001ff010001fffe010101fe01010001ff01fffffefe01ff
fffeffff0000fffe0101fe00ff010101fffeff0000000000fffe01010101ffff0000fe00fe00ff00fffffffffe010001fefe01ff01ff01fffefefffffefffeff
ff010101fe00feffff0001fefefe01fe00ff01fffe0000ff01fe0000feff01fefffe00ff00010101fffefe0101ff00ff000000fffe0000fefefefe00fe01feff
01feff0001ffff01ffff0001fffffffe01fe00fe0000ff0001fe01010100ff01fe01fffe000000ff00ff00ff01fffffefffe01feff01feff000000fffffe00fe
010000fefffeff00ff00010000feff00ff01ff000101fe00feffffff00fffefeffff0100ff00010001feffff0001ff00fefe01fe010100010100fefefe00ff00
fffe01fffeff00fe0000fffe00fe0000fffffe0001010000ff00fefe0000ff010001ff01fe00feff010000000000fefffe00010101ffffff01fe00fffffefeff
fefffefefffe0101000100fe01fe00feff0001fe0100ffff00000100000100ff01fffe01ff00000100ff010101fefeff0101010100ffff00feffff01ffffff00
fffffeff01000001fefffefe000000fefefe0001fe01fffe01fe00fe00fe0001fffffeff000000ffff0000fe0000feff01ff00ffff01ffff01ff00fe01ff0101
01fefffffe000100ffff0100feff000100010101ff010001fffefe0000010101fffeff0001fefefe01010001000100ff000000010001fffe000000010001fe01
01010100000001ffff0101feffff01fe0000ff01ff01010101fffe0000fe00ff01000100000101fffffe0000fe00ff00feff01010100fefefffefeff00ff0000
feff0100ff0100ff01fefffefffffefffefefeffff00fefe01fefffefffe01ffffffff01ff01fffefe01fffe01fe01ffff00ff0101feff010101ffff01fffe00
