fffe01ff00fffffffefefefffefefe00ff01fe0100ffff0100fefe01ff01ff0000fe0001fefe00fffefffeffff01000100000101ff00fefe0000fefffe010000
01ff000101ff01feffff00feffff01ff00fe00fefe01feff00fe00fe01ff01fffe00010101fefe01fffe010100ff00ff0000ff01ff0101fe01fffefefffefefe
fe0001ff00fefe0100fefe00fe010000ff00ff00fe00010001fefefefeffff01000101fe01feffff00ff00ff01fefeffffff0001000000feff01ff01ff0001ff
00fefe0000fffe0101feff00fe00feff00ffff01fefeff01ffff0001fe00ff0001fffefefe01ff0000fe00fffefe01fffefefe01010000fefefe01010001feff
0101fe00fefffe01ff00fffefe0000000000fe01fe000000fefeff01fe010001ff000001fe010101000101fefe00fffffe00000100ff01ff01fe000100fffeff
fefefffeffff01fe00feffff000100fe000001fffe00ff0100ff01ff000101fe01ff010001010101fffe000001fe01fefe01ff0100fe000000fffe0000010000
0001fe01fffefe0100000001fe0101fefe01fefffffeff0100fe000001fe01fe00010101010001ffffffff0001ff0100fffe0100ffff00010001feff01feff01
01ff0000000100010001fefffeffff01000001fe000000010000010000fffeffffffff00ff000101fe00fefefefffefffefe01fffefffffe01feff00fe01fe01
00000000000000000000000000000000000000000000000000000000000000000000000000000000000000000000000000000000000000000000000000000000
fffe01fffffe00fe010001fefffeff010001fefffe00ff01ff0001fffe00010001010000fe00ff01ff010000fe00feff00ff00010000ff0000fefffe00fffe01
000100fe00fefeffffff000101fe00ffff00fe01ff0000ff01feff00fefffe010100000000fefffefefffffe00fefeff00fffe0001ff0101fe01fefeff010001
fefe01fe01fefefefe00fe0000fe00fffefefefefe00ff00fefffe01010101feff01fefffeff0000fe00fe0001fe0000010000fefe000101ff01ff010101fe00
010000fefe0000fffe00fffeff0101fefffefeff0101000001fffe00ff01fefe00ff0101fffefeff00fe0000ffff00ff00fffeff00feffff01feff00010101ff
000101fffefffe01ff01fffefe00fffe0001fefe0100ffff00ffff00feffffff01fffe01ff0000feff01ffffffffffff0100ff0001fffffe0101fffe00feffff
ffff01fe01ffffff00ff010101ff00ff01010100feff00fe00ffff01ff0101ff000001ffff00ff010001ff01fffe0100fffffe000101010100fefe01010101fe
000100000001fefe01ff010000fefe01ff0101ffffff01fffe0101fe01010100fe0100fefefe00ff010001fffefefefffe01010100fffe0001fffe00fefffffe
fffe00fffffefffefe00ff0000fe01fefefffefe0001000000fe01fefffeff00ff01000001000000ff0100ff0101ffff01fffe01000101fefffe01fe010001ff
00000000000000000000000000000000000000000000000000000000000000000000000000000000000000000000000000000000000000000000000000000000
01fe01fe0101feff00fefe0000ff00fefeff01fefffe0001fffeff010100ff0001fefffefe0100fe00fffefefe00fffe000100000000010101fefefe000100ff
fefe000100fefffeff0001feff00fefffefffeff010100fefffefefefe0001ffff01ff010101fefffe0101000100fffffe0100ff01ff00ff01ff000001fefeff
0101ff000001fefe000001fe01ff00ffff00fe000101ff0101fefeff00ff0100fe0001feff010001fffffe01010001ff01fffffe01fffffefe01fffe01ffff00
feff0101fffffe0101ffff0101fe0100fffeff00010001ffff00fe01ff00fefe01ff01000001000100fffe0001000000fefefffefefe00ff000000fffffffefe
000101fffffefffffe01fffe0100fe01fe00fe010000feff00fffe00000001ff0100fe010100fffe000101fffe00fe0001fefeff00ff00ff000101feff0100ff
010000000100fefe01010101fe010000feff01000100fe01ff010100ffffff000001fffe000001feff00feff00feff0100010001fefffeff00ffff0000ff0100
ff0101ff00ff01000001ff0101feff01ff01fefffe01fffeff00fefefffffeff000000fffe01fffffffeff0000000001ff01ff01fefe0101ff0100ff01ff0000
00ffff00fe0100ffffff0001010000fe01000100fe00fe00feff01fefeff00ff00fffe01ffff00fe01ffffff00ff0000ffffff0100fffefe00010101fe000000
00000000000000000000000000000000000000000000000000000000000000000000000000000000000000000000000000000000000000000000000000000000
