fefffffe01fefefefeff01ff00fefe00ffffff01fe0100fe00fffefefefe01fefffe0001fe010100000001ff000100fe0000fefefffffffe00feff01ff0100fe
fefffe0000fffeff010001fffeff00fffefe0101fe010000fefffe00fe01fefe010001ff0000fe000001feffff0100fe01feffff01fefefe01ff0000fefe0100
fe000101ff01fffe00fffe00ffff01feff0001fe0101fe01ffffff0101fefffffffeffff0000010101010000ff00ffff0001ff0100ff00ffffff00ff00fffeff
010001ff00000101fe0001feff00ff000000ff01fefe0000000101010000fefffffffe01fe00fffffffefeff0100ff00000100fe0001fffe0101ff01fefeff01
ffff00ffff01fe010000ff01ff01fe00ff01010100fffffffe01ff01fefefe0000feffff00fe01fe01fe0000feff01fefefffefffefe01ff01ff00ffff00ff00
fe01fe00ff000100fefffeff00feffffffff01fefe010001ff01ff01ff010001fe00fffffefeff01ffff00fe0101fefefeff010001feff01fe000001fffe00fe
01fefffffefefffefffefe00fefe0001fe0000fffe01ff0000fe01fffefffffefffffeffff0000ff01fefffe000000fe010001ff01feff010100fe01ff000100
0001ff00ff01ffff0001fe0001ff010001fffeff00fffffefffe000001fffe0101010001fefe00fffffefffffe0100fffeffff0101fe01010101fefe01010100
00000000000000000000000000000000000000000000000000000000000000000000000000000000000000000000000000000000000000000000000000000000
fe0100ffff00fffefe01fefefeff00fefe0000feff01ff000101fffeff01ff000101ff00010001ff01fffefffe00000000000000ff0101fffe01ff0001fe0000
0101ffff00ff0101fffe010101fffe01fefe0101feff0000fffe00ff000000fffefe0000010001ff01fffeff01ff01000101010001fffeff00feff00000001ff
ff000000ff0100ff01fe00feff010000010000fffe00ff0000fefffe01fffefe0100fe01fefffe01ffff01fffe0001fe0001ff010101fffe0101fffeff01ff00
fffe01fe01fffeff01fe000101ff01ffff0100fefe01fe0001fe0001fefffe0101fffffeff0001ff01fe0000fe0000ffff0100ffff01ff01ffffffff0001fefe
ff000000ff0100fefefffeff0100fe00feff0101ff01fffffeff0101fe01fffe00fefefefefffefe00ff0100fe00fe00ff0101ff00fffe0001ffffffff00fffe
ff0100fe00fe000001fffffe0101ff0101fe0000ff00ffff01fefefe00ffff00ff0101ff0100fe00ffffffff01fffffe00010001fe00ff00fffffe00ff000101
fe00fefefffefe00000001feff0100fffefefffffefe0101ffff00ff00fffefe01fe01fefe00010101fe0101ffff0101feffffff00ff0001010100fffffe0100
010101000001fe0000fefefefe0001fe01fefe0100fffe01ff01000001fe00feff01000100ff00ff01ff01010101fe01fffe01fefeffff00fffe00ff000100ff
00000000000000000000000000000000000000000000000000000000000000000000000000000000000000000000000000000000000000000000000000000000
00000000000000000000000000000000000000000000000000000000000000000000000000000000000000000000000000000000000000000000000000000000
00000000000000000000000000000000000000000000000000000000000000000000000000000000000000000000000000000000000000000000000000000000
00000000000000000000000000000000000000000000000000000000000000000000000000000000000000000000000000000000000000000000000000000000
00000000000000000000000000000000000000000000000000000000000000000000000000000000000000000000000000000000000000000000000000000000
00000000000000000000000000000000000000000000000000000000000000000000000000000000000000000000000000000000000000000000000000000000
00000000000000000000000000000000000000000000000000000000000000000000000000000000000000000000000000000000000000000000000000000000
00000000000000000000000000000000000000000000000000000000000000000000000000000000000000000000000000000000000000000000000000000000
00000000000000000000000000000000000000000000000000000000000000000000000000000000000000000000000000000000000000000000000000000000
00000000000000000000000000000000000000000000000000000000000000000000000000000000000000000000000000000000000000000000000000000000
