fefe01fe01010100feff01010101fe01fefefefe00010000fefefefffe01010100fe0000000100fe01fefefeff01ff00ff01fefefe01000101ffff000101ff00
ffff000000ff01feff00fefefefefe01000001010101fffffe0001fe01fe01fe0101ff0101fe00ffff0001feff00ffff0100fe01fffefffe01ff01feff010000
01ff0101ffff01fefeff01feff00ff0101ff01ff00fffe000000ff0001ff0000fe0101fefeff00fe0101feffff00000001ffff01fe00fefe0000fefe00fefffe
ff00fffe01feff00ff00feff0000ffff01fffe0101fefffeffff000001fefe000100fe0000fefe0100fefeff0100fffefe01fefe01fe0101010000feffffff01
fe0001ff01ff010001fefffe0100fe01000101fffffefe00fefffe01fe000000fe01ffff0001fe00fefffe00ffff00fe0001fe00feff01ff010101fe01ff00fe
00fe0000fefe00fe01fefe00fefffe01ff01fefffe0001ff00ffffff0000ff00fefeff000101fffe00fffefefefeff01fe01000101fe01feff01ff00fffe01fe
ff01fe0000010100ffffff00ffff0000fe01fe0001fe01ff0101ff0100fefffefffe00010000feff000001fe00feff00ff01ff0000ffff000001fffe0001fe00
00fffe01fffffffefefffeff0001fe01fffeff01fe0000fe0100fefe0100ffff000001000001ffff01ff0100ff000101fefefe0100fefe000001ffffff0001ff
00000000000000000000000000000000000000000000000000000000000000000000000000000000000000000000000000000000000000000000000000000000
fefe010100ff01010100ff00fe00fe00fe000000ff0101fe01ff0101fe0100ff01fffefe01fe000001000000fefffefffeff00ff01010100fefe00fe0100fe00
01feff000001fefe01fffe00fffffffffefe0000ffff00fefffe0101010100010000ff0001ff01fefe010001010101fefeff0001fefe01feff010100feff01ff
fe00fe000000ff01fe01fe0001fffe0001fefefe0000fefffefe01ffffffff01fefeffff00ffff0101feff01fffffe01010001ffff01fefffffe00fffefefefe
fefeff00fe01fffffefeff01fefefefefeff00fffeffff00ff000000fffffe01ffff01fffe00010100fefe00fffe0000000001fffe00ff00000100ffff01fefe
01ff010100ff0100fe000000ff00fffe00fe0100fefeffff00fe01fffe01fefe00010101fffe00fffe00fffe01fefefefefefeff00fe00fe00fe000000ff00ff
0100fefffffefeffff01fefefe0000fefffefffe01ffffffff01ffff01ffff0001ff01fffefefeff000000010001fefffffffe010001fe000001010001ff01ff
01ff000001ff00ff00ff00010000fefffeff0001fffeff01fffe01fefffe0101ff0001fe000100fefeffff010100fe00fe00fefefeff01ffff00fefe00ffff00
01ff0101fefefffe01fe010100feffff01feff0100ffff00ffff0001fffeff000000feff000000010000ff01000000ff01fe0100feff01fe010000fffe010101
00000000000000000000000000000000000000000000000000000000000000000000000000000000000000000000000000000000000000000000000000000000
fffffe0000fe01fefefffefe00fffefe00ff010101fe01feff01000101ff0001ff01ff00ff000001000100000001ff01ff0100ff00ff000101fffeff0000ff01
feff01fffe01fffe01fe0101fefeffff01ffffff00fffe01fffefefffe01fe00ffffff00ff01fffffffffffffe00000000010101fffffefffefefefe010101ff
fefefeff00ffff0000fe0000fffefffe00fe0100ff01ffff00ffff01ff0101fefefffe0101fe01fefffe0100ff00ff00ff00fe0101fffefffeff00fe0101ffff
feffff010101ffff010000ffff00ff01fefe00feffff010001fefeffffff00fefffffefeffff00fefeff01fe00fe0000ff00ffff00ffffff010101ff01fefe01
000101010100fffefffe0001ff00fffefe0001fefffefffeffff01010001fe0100fe0100fefefefe00010101ff01fffffe01ff0101ff01000001000001ffffff
fe00fe0101fe01000001fffe000100fffffefe00fefefefefefffffe00feffff00fefe01ff0000ff0000fe01ff00fefefefe00ff01fefefffeff01fe000100fe
00fefe0001fe00fe0001fffefe00fe0001ff01fe0000fe0100ff01000100ff010100ff00fffe0100ff01000000ffff0100010000fefffefefe01feff00fffeff
ff00fefffeffff00fffffe0000fffe00fefefffefe00fffefe01feff01ffff00fffe01fefe01fe01fe00010001fe00ff0100ff00fe0000fffeff0101feffffff
00000000000000000000000000000000000000000000000000000000000000000000000000000000000000000000000000000000000000000000000000000000
