ff0100ff01fffe00ff0101fefffefe0101fffffeff0000fe01ff0001fe01fffeffff00fe000100fefe01feffff0001fffeff0100fe00fefefe0000ff0000ff01
010100fffffffefffeff01fefffeffffffff01fe01fefefefffe00ff01ff01fe0000fffffe0000ffff0100ff0001fffe0001fffe0101fe01fffeff00fe0101ff
0001ffff0001fffefefffffe0001fefe010100fefffe00fffeff01fefffefefffeff0100fffefe0001fefe00fffe00fefe0101fefefefe00ff0001ff000001ff
01fe00ff00fe0001feff00fffe00ff0001fffe00fefe00ff01fffe01fefefefffeff0100fffeff01ff000000ffff00fffe00000001000100ffff0101fe0001fe
ff0000010001fefffffefffe000100fefe010101fffeff00fe00ffff00fe01fe01fffefe00010000ff01fe0101000101fe010000fefe0000fe0001fe0101ffff
00fe01fe0001fefe00fefe0100ffff00feff0001fffe01ff000101feff0101ff01fefe01ff010000fffeff00feff01fe01fe01fffefefefefeff01ff00feffff
fe01fefefefffefffffe00ff01000001fe0000fe01fefe00fe0000feffff0101fe0101feffff0000ffffff000100fffefefefefe00ff00ff0001ff0001ff0100
fe01fe0101feff0101010101010000feffff01fe00ff0100fe01000001010000000101fe01ff01ff0001feff0100fefefe0100ff0001010001ff0000ff00fefe
00000000000000000000000000000000000000000000000000000000000000000000000000000000000000000000000000000000000000000000000000000000
01fe000000ff01fefffffffefe0101fe0101fe0101fe0100fffffeff00fe01fffeff0001feffffff01ff00fe0000ff0001000001fefeff0100010101fe01fe01
0100fefffffefeff01ff00feffff0101fffffffe010001fefefffefefe0101fffe00fefe00fe0101feff01fe00fe00feff0101fffffeff010000010000fefffe
01feff01fefefffffffefe00ffffff01fe000100fe0101ff01ffff0001010100ff01ff01fefe01ff00fefffe01010001ff0101ff00ff0101feff01feff0100ff
0101feff0101ff00fffffefefe01fffffefe00fefe00000100ff0001fe0100ff01fffe00ff01ff0001ff0101010001fe0001ff01fefffe0001ffffff000100ff
fefefffffe00fe01fefffe01ff01ff0000fe0101fffe0000010000fe01fe00fe01fffe00fefffefe01000101feff00ff01ff00ff0000ff01fe0001ff01fffefe
feffff01fe00010101ffff00fffefefe00ff010001ff00fffeff0000fefffe00fffe0101ff01fe01fefeff0101fffe0100fefffefffe000000fffefffe000100
feffff01fe00feff01fe00010100fefe0100feff00ff00fffe01ffff00010001fffefefefefefffe00ff00fe01feff00ff00ff010000fffe0000ff0000fe0001
01010001feff01feff00fe00fe0100ff00fe01fffefe0001fe00fefffefe01ff0100fe00fffffe010100fe0100fffe0000ff0100ff0101ffff00fffefeff00ff
00000000000000000000000000000000000000000000000000000000000000000000000000000000000000000000000000000000000000000000000000000000
ff0101fe01ffff000101fffe0100fe00fe00fe010000ff00fe010101fefe01ffff01fe01fffffe01fffffe00ff010000fe00feffff0100ffff01fffffffefe01
ff01ff010100fe000001fe000001feff010001fe0101feffffff01fefe010101fffffe0001feff00fe00feff01ffff01ff000001000001fe00ff01ffff0101fe
01010000ff01fe0101fefe01ffff01fefe0000ff000001fefefffe0100feff000100010000fffe0101fe01fefe00fffefffeffff000101fefe01000101fffeff
ff000001fefe010000fefe0000fefffe01fefe010001ff0101ff0000feff00fffefefe0100ffff00feffff00ff01fffefeff00fe01ff0000ffff01ff01010100
01ff01fffffe0001feff01fe0001fefeff00feff01ff0000ff00ffff0001fefe00ff00ff010101fe01fe00ff0000fffefe0100010001fefe0000feff010001ff
ff0000feff01ff01ff01fffefe01fefeffff0000fefefeff01fefe00000000ff01ffff00fffefe00fe000000ff01ff0100fe00000000fefefffeff000100ff01
ff01feff01ff0100fe0000fffefe0001fe0101fffffe00fffffe00000000ff00fefefefe00ff0101fe00fefffe010000000100010100fefeff0101ffff0100ff
01ffff00fe000000fe01fefefe0100fefffefe00fe0101fefe010101fe00feff00000000fffeffff00010000fe0101fffefe01000101fefffeffffff00feff01
00000000000000000000000000000000000000000000000000000000000000000000000000000000000000000000000000000000000000000000000000000000
