fe01ff01fe000001fe010001000101fe01010101fe00fffffefe00feff0000ffff0000ff00fe0000feff00feff0000feff01fefeff010001fefefefffffe00fe
fefe0101fefefffffffefffeff01fffeff01fe01fffeff0100feff000101fe0101fefefe0000feffffff00fe00fefffeff01ff010001feff010100fffffffefe
fefefe0000fffefeff00feff01fe010101fe00fffe000000ff0000fefefeff00fe00ffffffff01fe00fffe01fe01fffe0100ff01ff00000000ff010101fe00ff
feff0001fefe00000101ff01fe01000101010100ff00fe00fe01ff010000010100fefefffffe00fefeff0000010101fffe01fe00ff00ff00010001fe0101fe00
