0101ff00fe000101ff00fefefe0001ffff00ff01ff00ff00fffffefefefe01ff01fe0100ff01ff01ff01fffe00ff0100fefefffefeff00ff00fffffefefe0000
010101fefefefeff00fefefffe00feff01fe00fefefe00fe010001fefe000101ff01ff00fefefefefe00ffff01fe00ff01fefffe0001fe000001feff00ffffff
010101ffff00fefe0000fe01fefffffe00feffff0000010101ff0001fe00000101000101fefe00ff0001fe0100fefefffefffe0100fefe000101fe0000000100
ff00feffff01fefffe00fefefe01ff0001000100fe010001ffffff0001ff00fffffefefffe000000fe01fffffe0001fe00fe00ff0001ff0000010001fe0101fe
