ff00ff010001ff00ff01fefffe01fe00ff0000fffe00ff0100fe01feff0101fe01ff00ff01ff01fe01fe000001010100fe000100000100ff00ff0100ff00fffe
ff0101fe00fffefffe01fe00fefe00fffefe0000ff01fffe00fffffe0100feff00000001fefe00feff0001fefffeffff01fe0101ff0001ff000101ffffffffff
ff0000010100fefe01fe00fe01000101fffefe01ff0101ff01010101fe00fefffffe01fe010101feffff00ff000000fe00ffffff01fefe00fffffe00010101ff
00010001ffff00000000fe0001ff01fefe01000101ff010000fe01fffeff00fffe0100fefffffe00ff00000001ff01fffffffffeffff0101fefe0100ffff01ff
fffe0100feff01fffffffefe00ff010101fe0101fffe01fe000000fffeff0101fe010100fe00ff0101fe01ff00fffffefefffefe00fffe01ff01fe00fefefeff
ff01000101fefffefffffffeffff0001fe01fefe00fe00ff0001fffffffeff01fffe00ffff0100ff00ff010101ffff0000ffff0100fe00ff01feff010000feff
fe0100ff01fe00ff0101fe00ff00010001010100fefe000000ff00fe01fffe00fefe00fefefe01fe01fffe01fffffe0101ff00fe01fefefe00ffff01ff000101
0000fe01000100feffffff000101fe0001ff00010101fe00fffe00fefefeffff0100fffefe00fe00ff00fffe00ff01fefe010000fffffe0101ff0101ff0101fe
00000000000000000000000000000000000000000000000000000000000000000000000000000000000000000000000000000000000000000000000000000000
000001fefe0000fe0001fe0000000100010000fffefefffe0001fe000001000000fe01000100ffffff00fffffeff0100fe01ff00fefffe01ffffff00feffffff
00010101fffe01fe01fe01fefe00ffff01ff00ff01feff01ffff01fefe000001fefffffe00fe010001fe01ff00fe000001ff01fe00fe0100fe00fe010000fe01
01010100ff010001ffff010100feff000001ffff00fe01000100fe01ffff01ffffff010000fe01ff00fffffe01ff0001fefffefefefe01fffeff01ffffffff00
0000010001fefefe01ffff0100fe01fefe0101ff01fefefffe01010101fe00000000fffe0101ffff01fffe0001fefefffe0100fefffffffe00feff01fffffe01
fe00ffff000101fffefe01fe01fffe00ff00010000ff01ff00feff00fefe01fefefefffe0000fffffefffe00ff00fe00ff00fe010101000000fffe01010000ff
00010101ff01fe0001fe000000fe000000000101fefe00ff000000fefe01fefe01fe0100fe00fefefeffff01feffff0000fffefeff0101ffffff01fe0100ffff
01fe01fefefe01fffffeff0101fe0101000100000001ff01ff00fefe01feffff01ffff0000010000000100000101fffffefefeff0001fe00ffff010100010101
ff01fe010101010001000000fefe00fffe010100ffffffff00fffeffff0100fefe00010001fe01fe0001010000fefffe01ff01fefefffeff00000001ff0101fe
00000000000000000000000000000000000000000000000000000000000000000000000000000000000000000000000000000000000000000000000000000000
00000000000000000000000000000000000000000000000000000000000000000000000000000000000000000000000000000000000000000000000000000000
00000000000000000000000000000000000000000000000000000000000000000000000000000000000000000000000000000000000000000000000000000000
00000000000000000000000000000000000000000000000000000000000000000000000000000000000000000000000000000000000000000000000000000000
00000000000000000000000000000000000000000000000000000000000000000000000000000000000000000000000000000000000000000000000000000000
00000000000000000000000000000000000000000000000000000000000000000000000000000000000000000000000000000000000000000000000000000000
00000000000000000000000000000000000000000000000000000000000000000000000000000000000000000000000000000000000000000000000000000000
00000000000000000000000000000000000000000000000000000000000000000000000000000000000000000000000000000000000000000000000000000000
00000000000000000000000000000000000000000000000000000000000000000000000000000000000000000000000000000000000000000000000000000000
00000000000000000000000000000000000000000000000000000000000000000000000000000000000000000000000000000000000000000000000000000000
