fefefffeff0000fffe01fe01fe0100010000fefe01ff00fefe0001ffffff01fffe00fefefefe0100fefefeff00010101fffe00fefffefffffffefe01fe00fe01
fe00ffffff0000000100fe000101fe01ff0100010101010001fe01fefe00010100fffe01fffefefe0100fefefeff01fefeff00fffe0001ff00ff0101fffefe01
01ff00ff01000001fffe000001000000fe00feff0101ff00ff01010101fe01fffeff01000000fe01fefffe01ffff0100fe01fefe00ffffff01fefeff0001feff
0101ff00fffe00fffffe01fefefe00fffefefeffffff00feff00ff01fefe010001fe00ffff01fefe01fe01fffffe010101fffeff0000fefffe01feffff00fffe
00ff000000ff000000fffefffe00feff01000100000000fefe00ff010100ffff01fefe0101fefefffffffe00fe00000000fffefe00000000fe010001010100fe
01fe0101fffe00fe01ffff00fffeff0000feff00fe0000010001fe000100fe00000000ff01feff0101ffff0000fe010101fe0001fefffffffe01000100ff0000
000101ffffff00fffe0000fefe01fe00000101ffff010001fe01fe00fefefefffe000001010000fe00fe0100feffff01010101010101fefe00fe00ffff01feff
fe000000fefffffefe0101ff0100fe00fefe0100fe00fefe0001fe0001fe000100fe0101010001000001ff01ff00ff000101fefe0101ff0001ff010100000100
00000000000000000000000000000000000000000000000000000000000000000000000000000000000000000000000000000000000000000000000000000000
01ff0100ffff01fefe00feffff010001ffff0001fe00fe010001fffffefefefeff01ff00fffefeffff01fe00fe01ff010101ff00feff00fffffefe000000fe01
01fffeff00fefffefe00fefe0101ff01fffe01fffffffefeff01fefefe0001fe0101ff00010100ff00ff00000101000001ff00fefeff01fe00feff01010101fe
0101ffff01ff000101000001fffe00fe01ffff00fefeff01010100fefefffefefe00feff00ffff00ff0001ff00fffefe0101010000ff00fefffefefe010000fe
fefe000100ff000001fefe01fe0101000000000001ffff00ffffffff0000ffff0001feffff01ff010100fffe01feff010000ff00fe0000ff000100ff000000fe
fffeff010100fefe00ff00000100fe01fefeff0101ff00fe00fefffe00fefe00fffe0101fe010000fffffffe01fefe000000fe01fffeff010100ff01ff01ff01
0001feff0101feff00fefffefffefe00ffff01fefffffe0101fe01ff0000fffeff00ffff0101ffff00fffeff00fe01fefffe00ff01ff01010100fffe00fe0101
01fffe0100010000ff00ff010101feffffff000101fe00fffffe01ffffff00fe0000010101fe010100fe00ffff00010100feff01fe01fe0000fffffefe01fe01
fefefefe00fe00fffffefeff01000100fe00fe01fefffffefffe000101ff01fefe01fe00fefffe000000ff010000ff0000fe0001fe0101fe0101ff0101fffe01
00000000000000000000000000000000000000000000000000000000000000000000000000000000000000000000000000000000000000000000000000000000
fffefe0101ff01feff01fffe01fe0001000000fe00fffefe00fefefe0101fe00fffe01fffe01ff00feff01ff0000ff01ff01010101ff00ff0100feff00fffe00
00000001fe01ffffff0101feff0001fffffe00fefefefe00fefe01fe00000101ff01ffff000000ffff01ff01fefeffff01ffffff01fffe00fefffe00fe0100fe
fffe01010101fffe00000001fffe01fe01fe00fefe01ff000100feffff00fe0000fffe0101fefe0001ff00fe0101fffe01fffffefffffe0001fefefe01fe00ff
feffff0100ff0101ffff01000101fffeff00010101000100fefeffff01fe0001fefeff0001fffefefffe00ffffff01fffefefe010101feff00fe0100ff01ff01
feff0000fefeff01ff0100ff010000fe010000ff000001ff01000101fe00ff0000ff010001ffff000100010000ff00ff01fe01fffeff01fe01fe010100000000
fe0001fffffe01ff01feff01000001fffffe01ffff0100ff00fffe000001ff0100ff010100010101fe0101fefefefefffe01feffff00fffefefe00fefe01feff
fffffe0000fe01fe00fe0000ff00ffff01fe00ff0101fefeff01ff010001fe000100000101ffffffff00fffe00ff00fefeff00ff01fffe00fe00fffe01fe0001
01fffeff00ff00fffefe01fe00fe01fe0101feff00fe00fffefffefefeff01fe00feffff00fffffffffffefffffe01fe01ff0000fefe01ffff01000000fffffe
00000000000000000000000000000000000000000000000000000000000000000000000000000000000000000000000000000000000000000000000000000000
