ff000101fe000001fe0100feffff00ff00feff00fefffefffefe010001ff01ff0000ff0001fffe00fefefffffe00fe01fffffe00feff01010101fffe00ffff00
00ff01feffff00ff01fefefffefe00ff01fe00fe00000001fefe0000fefefefffefe010000000000ffff00feff01fefe0101fe0000fe01fffe0101fe0001feff
01ffff000001fe000001fffe01feff01fffeff0001000101010100feff0101ff0000fffe00fe01fe01fefffeff0101fefe00ff0000fffffefefffeffff0100fe
fe00feffff000001ff000100ff00ffff010101feff000100fe0000fe0100fe000000fe01feff00feff00fefffe00fe000100010001ff0001fffeff01fe01feff
0100fefffffeff010100ff01fe00ffffff0101fefffe010101fffefeff01fffefffeffff010001000000fe00ffff010100fffffffeff01fefe00000000feff00
fe01010000fefffffe00fffffffefefeffffff01fe01fe0100fffeff00fefeff01fe00fffe01ffff0001fefffe01fefe01fefe00feff01fefe01feffffff0000
fffefe01fe01ffff0000fe0000ff0101fffe0100fe0000fe0000ff01ff00fffe01fe0000fefe010001fffe01fe00feff00fefeff0000fe0001ff00fe01010100
ff01ff01fe0001ff000100fe00ff0000010001fe000100ff010000ff00fefffefe000100fe0101010101fefeff00fe01feff0001000101fe01010000fe01ff00
fe00010000fe00fe000000fe00fe00feffffff0001ff0100010001ff00fffffffe0000fe0101fefeff0000fe0001fefefeffff0000fe01ffff0000ff01ff01ff
01ff00fefe01ff01ff010101fffefeffff010100fe0000ff00ff00fffffffffffeff01000001fefffffe00feff01fffffe0100fefffefefffe01fffffe0001fe
fffefeff0101ff0001fe00ff000101ff00ff00fe01ffffff01fe00fe00ffffff00ff01feff0100ff0001fe00ff00fffe01fe0100fe01ff010001000101010001
01ff00feffff01fe01fffe00fffffffe01000000ffff0100fe010001ff0101fffeffff00feff0001ffffff01feff000101ffff01ff01fefe00fefffe01fe0001
ff010000ff000000fe01ff01fffffe0100ff0101feffff000101fffe000001fefe00fefeff01feff0000ff0100fe000100fe0100000101fe01ff01ff010100fe
01fffe0001ff01fe00fffe010101ffffff01fe00fe01feffff00fffeffff0001ff01fefe00feff0000010001fe0001ff00ff01fe00010001fffe000001ffff00
01ff01ff01ffff0101fffffefefe0100ff010000000100ff000100fffffefe0101ff00fffe01fefe00fefe0000ff01fe01fffefffe0001fe01fe01fe00ff0000
0100fe00fffefefeffff0100fe0100ff01ff00fefe010101ff000100fe01fe01ff01ff0100ff00ff00ff01fe0100fffe010101fefe00ff00010100fe00fffeff
000001fffffeff01010001fffe01fffeffff00ff010001ff0001fefe00fe01fe0101fffeff01ff00000001ff0101ffff01fefffe000001fe00ff0000fffe00fe
ff01010100000000ff01fefeffff000001fefe00fffefe0000010000fe010001ffff00ff00ff0000fefeff0101feff00fe01fe00fffeff01fffeffffffff00fe
fffefe0000000001feffffff01fe00ffff0101feff010000fffefefe01fefeff000001010101000001fefeffffff01fe0001ff010100fffe0100ff01fe000100
010101fffe00fffffffefefe0000fefefffe01fffeff010101000100fffeffff00fe00feff01ff0101fefefefefffe000000fffefe0001fefffe000001ffff00
01ff01ffffff010001fffe00fffefefe01feff0100010100fe01fffefefe01fe010100ff000001feff000101fefeff000000fe0100000101fe00feff00000101
fefffe01fffe01ff010101ff00feffff01fffefe01fe00010101fffe01ffff0001ff00fefefffe01fe00fefeff00ff00feff01fe000100fe01feff00ff0101fe
000101feff01fffeffff01ff000000ff00ff00fffe000100ff010001010001fefffeff0100feff0000feff0101fffeff0001000101ff00fe0001fefffefefefe
feff0001feffff00fe00ff01010100ff0001fe00ffff0001ff0001ff00fe0100000100fffe00ff01ff000000fe00fffe01010000fffefefe01fffe0001ffffff
