0001fffffefe01ff01ff00000100000101ffff01ff000100feff01fffefefe00ffffff000001ff00fefe0001000100ff01fefefe01fffe01fefffe0001ff0000
00fffe0001feffff01fe01ffffff0000fffeff010100fffe00fe00fe0101fffeff01000100ff00fefe0001ff01ffff010000fffe0000000100000101fe0101fe
fefeffffffff010000fe0101000000ff01010101feff00fffe01ff01000001fffeff010000ffffff00ffff01ff0000010000000001fefefeffff01ffffffff00
fefe000000feffffff0101fffe0101ff00fe0100fefffefffefeff010100000101fefe00ff0001fefffe000000fefefefffe01ffff010000000000feff010000
01fe0000ff00fefffe01fe0101000100ff01010100010100ff0000feff010101fffefefefffffefefffeff01fefe00fe00ff0001ff01ff0001fefe01fffefeff
010100fe00ffff01fffffe0101fe00fe01ff00fe00fe0001ff00fffe010001000101fefffefffe01fe00ffff00ff01fe010001ff000101000100000000fe0100
01fffeff01fffefe0001fe000101ff00fe01fffefe000100fffe00ff0001010100feff0101fe01fffeff010000000100fe000100fe00010100fffffffffefe00
00fe0100ff00feffff010001fefefefe00fe0100fffe00ffffff01fefe000100fffe0101fe00fe00fe00ff01ffff01fefffeff01fefefffeffff0001fefefeff
010100fffffe00fffefefefe00fffefeffff0000ff0000feff0000010100feffff00fffefffe0101fffffefefe0001fefefe01ff00010101fefefe01ff010101
010000fe0101fe0100feff00feff00000000fefeff00feffff01fefffe0001ffffffff010100ffffff01fe0001fefffeff01fe00ff0001fefe0100ff01000101
fe0001fe0101fffeffff01010101fefffffefe0100feff010001ffffff01fefe01ffffff00fe01fefe01ff0001fefe01feffffff00fe010100fefffefefe0101
feffff00fefffe0101fffefefefe0000ff00ff0100000100010100fe0100fe01ffff0001ff0001fe01fe0000fe00fffefeffff00feff000101fe00010100fefe
00fffefe00fe000101ffff01fe010100ff0000ff01ffff01010001fffe00ffffff00ff010100fffffeff00ffffff00fefefe00fffefffefe010000ff00fe01fe
fe010001fffefeffff01ff00ff01ff0100fefe00feff0101ff0000fefe0001feff010100fffffeff00fffefe01010001fffefefefeff00ffff01fe00feff01fe
fe01fefe0101fe00010000ffffff00fefefefe01000100fe0001010000fe00fffeff0101010100fefe00fefe0100fffefffffe01fe01feff00ffff010100fe01
fffeff01ff00fffffe0000000101010101000001ff00fe01ff0100fefffe01ff00fefefe00ff0001fefefffffe01ffff000100ff00feff000101fffefefeffff
