fefffefefefefffe0000ff00ff0000ff00ff01fefeffffff01ff00fefe00010101fffe00000101ff00ff010001ff0000ff0000fffffe0101fefffefe0001ff00
fefffefefe010001ff00ff0101fefffffffffeff0100ff01ffff01fe00010000ffff00ffffffff00ff00ff000000fe01ff01000101ff0100fffefe0000ff0001
fe0100010000010000000101fffffffe010000000000fefefefefe00fe00fe00fffe000101ff00fffeff00ff0001fe0100fefffefe00fe010001fe00fffe0101
0000ff01ff01fe00fe00fefe00fefe00feff00000100fefeff0101fe01ffffff0100ff0100feff010001feff00fe0100000100fe00ff000100fe00fe01fefe01
ffffffff01ffff00010101ff00fe00fffefffeff01ffff01fe0000feff0000fefefe00fe01fe0001fffe00fe01feff000001fefeffff01fe00ffff0000ff0101
00000001fefe010101010100ff01ff0001010000000100ff00ff01fefe00000000fefeff01fffeff01010101fefffffefeff00feff01ffff000000010001fe01
00fe0000fffffeff0000ffff0000fffefffe000001ffff00000100fffffeff00ff010000fefffefe00ffff000101fffffefefe00010100feffff0100fffffe00
fe0000feffff0100010101fe010000010100fe01fe00ffff000001fffefe00ffff0100ff0101fffefe0001ff01fffeff00fffefffffe01ff0000ff0000fe00fe
0001ffff00fefefffe0101ff0100fefe01010001fe01fe01ff0000000100fefffffe0000fefffefe000101ffff00fefefeff010001fe01fffffe01fefffe0001
fefeff00ffff01fffe01fefffefe00ff01fefe00fe0000ff01000101feff00ffff00ffff01fffffeff0101fefffffe01fefeffff000100ff00fefe0000fe0100
010001ff000001fe000101000100fffefefe0101ffff01fe01fe01ff0001ff010000ff01fefe01ff00000101fffeff01feffff00ffff0100fefeffffff01fefe
ff0000fe000101fefefe0101feff00fffffe010101fefffe010000fe01ff0001fe01fffe00ff0000fe00fe01fe000000ff01fffe00000101fffe00feff0101ff
00fefe00fe000001fe00ff0001feff01ffffff00010101ff00fe000001ffff00010101000100fe00fe010000ffff0000fffefe01fe010001010101fefefeff00
ff00010001fe00fefe00fe01000000fefffffffefefe01ffff01ff0000fffeff01fe0000fe01fe0101fe0101fefffe0001ffff00fefe01ff010000000001feff
01fe00ff01feff0101fffffffeff0001010100fe0000010000fefeff0101fe00fffefe000100ff0001fefffefffe00fe00fffe0100fe010000feff00fe01ff01
ffff0101fefefffeff0100ffff00ff01fffffe01fffefe0100ff0000fe00fe0101ffff01fefeff010001fffe00fe00fefefe00ff000101ffff000101fffffffe
