0001ffff00ff01ff00ff0001fe01fffefeffff01fe00ff00fe01fefeff0001fefe000101ff00fefeff00fffeff0101ffffff0001fe000100ff00fefffe00fe00
fe01010001ff0000010100ff01000101fefffe00ff0100fffeff0101ff000001000001ffff01010100feff000001ffff0100010001ff0101ffff010101fefefe
ff01fffe00fe0001fffe01fefe00ffff0001fe01fe000101fefe01ff010001fefe00fffffefe01feff00ff00ffffff01010001fe00ffffff01ffff01fefefe01
00ffff00000001fefe000101feff01fefefe01fffefffffefe01fffffefffffe0101fffffe01fffffe0100000101ff00fffefe0100feffffff01feffff00feff
