01ff000001fffe010000fefefffe0001ff00ff01fe00ff0000010100fefffe00fefffefefe0100fe00ff0101ff00fe00fffefefefe0001feff01ff000001fe01
00fffeff00fefe00fefefffe01fffffefefe01fffe00ff000100fe0100ff00ffff00ffff01ffffff010001ff000100fefffeffff01fffe0001010100ff00fffe
ff0000fefe0001fe01fffe01fe01fffefeff00fe01000001fe00fe00ff0001fefeff01fe01fffe000000ff00ff00fefefffeffff00010101ff00ff00ff010100
fe00fe01fefe0001fefffefffefffefffe01fffefefe0101fe000000fffffeff0001ff000101fe0000010001fe0100fffe0001fe0101fe00000000ff01fefffe
fe00ff0001fe00010100fffe00fffe010001000001ff0100fe01fffffffeff0101ff0000feffff0100fe00ff00feff01fe01fe01fffe0101ff00ff0000fe0001
0000fefffe0000feff00010001ff0001fefefffffffffe0001fe01feff01fe01ff000100000000ff00fe00fefeff0101fefeff0000fefe01fe01ff0000ffff01
fe0000ff01feff0101fefefeffff00fe00000001feff010100fefefefe01fe00feff01ff01fffefe0100ffff01fefe010101ff00fffefffe00feff00ff010000
ff01000001feff0101fffefefe000100ff010001ff0000feffff0001fefe0001000001fe0100fffffe01fe01ffff01ff0001010101fe01fe000100fe00fe0001
00000000000000000000000000000000000000000000000000000000000000000000000000000000000000000000000000000000000000000000000000000000
fefe00ffffff0001fffefe0100fe00fffffeffffffffff010001fffffffe01ff0101010000000101fefe000101000100fffefeffffffff00fefe0001fe0101fe
010100fffe000100fe00ffff0000fe010100fe01010101ff00fffe00ff00fefffe010100010001ffffff00fefeff00fefefe0101ff01ff0000fe0101010001fe
fe01fffeff000101fffeff010100fefe0101fffefe0101fe00ff0001ff01fffffe0001ff010000fffeff0101fffffffe01feff00ff0001000101fffeff00ffff
fffefefffefffeff01ffff0000ff0001ff00fe000001000100ff01fefffefefeffffff0001ff0001ff01feff01010001ff01fffeffff0100fefffe010001ff01
fefffe0100010000ff0101010001fffffe0001000001ff0001fffeff0001ff00fe0101ff01ff00fffffffffffffffe00fefe01fffeff00000100fe01ffff0001
ff01fe0001fe00ffff00000100fefe01fffffffeff000001fe01ff0101ffff0001ff010101ff00fefffefefffe0101fe01fffffe00010100fffffffe01ff0000
01ffff01ff000100feffff01fe0000fefe00feff010101fefffffe01fffe0000ff01ff00fffffffffeff01fefffe00feff01fe00fefe01fe01010000fefeff00
00ff0000010101fe0001ff01fffefe000000fffe01ff00fe0101010101ff01fefffefefe000101fffffffe01ff01010001fe0101000101fffe0000ffffff00fe
00000000000000000000000000000000000000000000000000000000000000000000000000000000000000000000000000000000000000000000000000000000
00000000000000000000000000000000000000000000000000000000000000000000000000000000000000000000000000000000000000000000000000000000
00000000000000000000000000000000000000000000000000000000000000000000000000000000000000000000000000000000000000000000000000000000
00000000000000000000000000000000000000000000000000000000000000000000000000000000000000000000000000000000000000000000000000000000
00000000000000000000000000000000000000000000000000000000000000000000000000000000000000000000000000000000000000000000000000000000
00000000000000000000000000000000000000000000000000000000000000000000000000000000000000000000000000000000000000000000000000000000
00000000000000000000000000000000000000000000000000000000000000000000000000000000000000000000000000000000000000000000000000000000
00000000000000000000000000000000000000000000000000000000000000000000000000000000000000000000000000000000000000000000000000000000
00000000000000000000000000000000000000000000000000000000000000000000000000000000000000000000000000000000000000000000000000000000
00000000000000000000000000000000000000000000000000000000000000000000000000000000000000000000000000000000000000000000000000000000
