ffff0100fe01fe01ff01fe0001fefffffefffffeff00fffe00fefffe00ffff00fe01ff01000100fe01ff00000001fffe010100ff01fe010100fefffe0100ffff
01fefefffffeff0100fe00feff00fffffefefefe00010100fe0101000001fe0100feff0000fe000101ff0001000000fffe0000ff0100ff000000010100ff00fe
fe000001fffffefe0000fffe00fefffefe01fe0100fffe010100fffffffefffe01fe0000ff01fe00fffffe00fefffffe0000fe000101ff00feff000001ff01fe
000101fffefe01010100ffffff00fffe0001fefffe0100ff01fefefefe00fe00ff01fe01000100fe01ff0001fffe0100ff00ff01ffff01fe0100fe00ff000001
fffeff0100010000fe01fffe01010101ff0100ff000101ff01fe00fe01ff00fffefefe000000ff01fffffefeff000001ffff00fffe010000fe0000fffefe0001
fefe01ff00feff01fffffefeff000101feffff00fefffefe01010101fefffffe0000ff00fe0001010100fefffefe010101fefefefefe01ffff0000010100ffff
fefe0001ff01fffe0100fe01010101ff0001ffffff00ff01ffff0100ff010101fe0001fe01010100fefefffe0100fe00000001fffefefe00fe01fffe0001fe00
00fefe00fffe01ff0000ff01fffeffff0000010101ffff010000fefe0101fe010001fffeff0000000001ff0001feffff00fe0001fe00fe0000ff00000101ff01
00000000000000000000000000000000000000000000000000000000000000000000000000000000000000000000000000000000000000000000000000000000
ffff0000ff0101ffffff0001fefffe01ffffffff00fffe000100ff0101fffe00fefffefffe000101fe00fe010000ff01fffffe01fe00ffff01ff01ff0000fe00
fe01fe01fefffefffefeff0001ff00fffe00fefffefeffff010100ff00fefffe01feffff01fe01fffeffff0000fe0000fe000100000100fefefe0000fe00ff00
fe0001fe00fe00ff01ffff0001fffe0100ff0000fe0101fffefe0001ff010001fffffe0001feffffff01fffeffff010000fe000101fefefe01ff00fffeff01ff
0101fffeff00fe01fffe00000001fffefe01fefffefefe010101fffefffeff0100feff01ff0001ff00fefffe000000ff00ff00ffff00010101fefefefffffe01
01ff0001ff00fe01fefeffff01ffff01ff0001fefe00fe01fffefffffe01fe00fe01fffffefe000100fe01feff01fffe01fffefefe00fefeffff01010001feff
01ffff010101ffff000001fefe00fe010101fe00feff00010100ff000100fe010001ff00feff010000ff00fefefeffff01fe0001fe0100fe000100ffffff0001
01fffffffffeffff0101000001fefefefefffe00fe00000100fe00fffeffff01ff0000fe00ff00fffe00ff01ff01ff0000fefefffe0101fefeff01fffefffe01
000000fe01fffefe00fe01fefffe000001fffffe0101010100fefe01fefefe0000010101feff0001010000feffffff0100fefe00fe01ff01fffeff00ff00fe00
00000000000000000000000000000000000000000000000000000000000000000000000000000000000000000000000000000000000000000000000000000000
01000100010101ff01fe000001010000fe00fe0000fefe00fffe000000fefefffe00fe01fe00ff010101ff0100fefe010000ff0000ff0000010001ff0001feff
00fe0101ff0000000101ffff010000ff000001ff00fe01fe010001ff0101ff00ff010100feff0001ffffff000001ff01fe01ff010001fffe0100fe00000000fe
fffe0000ffff01000000fefe00ff0000ff01010001fefe00fefffefefeff01fe00fe000001fffffe00fe00fefffefe01fffffefefffe010101000000fe000001
01000100ff0000fefe01ffff0101fffffefefefefffeffffff01ff0000fffefefe0100fffefe000001ff00fe000000000101fefe00fefffe00ffff0101000001
fffffffe00fffefe00fefe0000fffffffeff0001ff00fe01fefefefe01ffff0100fefeff000101ff0100ffff0101fe010000fffefeff01fe01fffefefefe0000
01fefffe01ffff0001fefefffffe010000fffffefe0001ffff0100ff01fe0100fe0100ff0000ff01ff010001fe0001ff01000001ffff0001ff0001fffefffffe
fffeff0101ffff0100fefefe0101ffff01ff00ff01feff00fefffeff0001fe01fe0100010001ff01fe0000010000fe0100fefffefffeff000101feff01fffeff
fefefe01000000fe0001fefffe00fffe0100ffff01fefefe0101fffe01fe0101010000fffe00010100ff01fffffffefeff01feff010001fefefefffffe010000
00000000000000000000000000000000000000000000000000000000000000000000000000000000000000000000000000000000000000000000000000000000
