fe00fffefffe01ff0101fe00fefffe010101fe010000fffe01ff0101fe00fe010100fefefefe0000fefefffeff00feffff000001feffff00fffe0100fefefefe
fe00fe01fe010101fefeff000100fffe0101ff00000001ff01fefffe00fe01ffffff01feffff0100fefefe000000fe00010000fffffe0000fe000000ffffff00
fffefe01fefffefe0000ff00fe0101ff00fffefffefefefefffefe01000101fe0000fefffeff0101ff01feff00010001ff0000fe0101fffefffe0101fe0100fe
fefefe01ff01fe01feff0000fefffeff0001ffff0100fffe00feff0001fe01feff00feffffff00ff01ff01fefffefe0101fefe00ff01fe00feff000100ff0101
fe01ff00fe01fe00ff00fe01fffeff00010100fefffeff01fe0100000100fe0000feff01ff01ff01ff0000fe00ff00ff01fe0000010101fefefeffff00010000
00ff0000ff0100fe00fffefffefe01fe0000fe00000001fffffefe00000001feff000100ff01fe01fefffefffffffffe0101fffe00fefe00fffeff0101010001
ffff000000010100feff00ffff00fefffffe01fe01fffffe0000fefffefefefefe01fe00fe0000ff0001feff01ff01ff01feff0101fffeff00ffff0101fffffe
00feff0100fefeffffff01ff0100fefefe01fffefefffffefe00fe00fffefefffffefe00feff01fffffefefefffe0100010000ff00fefeff00fffe00ff00ff00
00000000000000000000000000000000000000000000000000000000000000000000000000000000000000000000000000000000000000000000000000000000
feff00ff010000fe01fe01ff00ff0101fefffe010001fffffe01fffe000001fe01fffeffffff010001fefffe01ff01fefefe0001ff000001fefffefefe00fe00
0100feff0100ff000001fe00fefe00fe000000ff01fefefe01ff0001ff00fffe00ffff01000000fffffffe0001fffe01fffefe01000000ffff01000001fe01ff
0001fe00ff00ff010101000001feff0100fe00fefe0100ff000000fefefffe0001fffe0101fffe00feffff01010001ff01ff00fe0001000001fefffe0000ff00
01fefffffeff01fefefffe0100fffffffffefe00fe01ff01fe01fefe01fffefe0000fefeff0001ff0001fffefe0000ff0100fefffffe01fe0100000000fffe00
fffeff01fffefeffffffff00010100000101fe00fe0000feff00ff0100ffff00fe0101ffffffff01fefeff01ff00fe0101feff0101ff00fe0100fffefffefeff
ff000100fe0100fefe01fe000001fefefefefeff0000fe01fefefffe00fffffefffefefffeffff01fe00ff00feff01fe00feff01feffff010001fefffffffeff
0100ff0100ff00fe00fe00010101ff01000001ff0000ff000100ff0001ff00fefe01fefe0101fffe01fffe010100fffefefe00fefefe000000fe010001010100
01fefefe000100fe00ffff000001fe00ffff0000ff00010000fffeff00feff0100fffefeff00fefe0001010001000001ff01fffffffe01ff0101ff00fefe00ff
00000000000000000000000000000000000000000000000000000000000000000000000000000000000000000000000000000000000000000000000000000000
ff00feff0101000001ff000000fffefe000001ff01ff000101010000ff000100fefe00000001ff0001fefefefefe01fffefefe0100ff00fefffffffe01fe0100
ff00feff000101ff00fefffe00fefffffe00feff00feff01ff00fffe01fffe00fffefe01fe0001feffff010101fefffefffffffeffff0000010001fe000001ff
00010101010000ff01fffeff00ff01fffffefe01feff01feff01ff00fffe01fefe0001ff01fefffffefefe000001fffe01fe0000fffeff0101fe01ff01fffe00
01fe0100ffff00fe0000fefe00fffeffff00ffff00fe010001010100fe000100ffff0101fffefefefe01ff00fefffefefe000100fe01fe000001ff00fffe01ff
01fffefffefe000000fffe0000feff00fefefe00feffff0100fe01fe0100010101fffe00fefe01fe01fefeffff00fefffe0101ff0000fe010101fefeff000100
fefe010001ff01fe00fe0100fefefefefe00fe010000fffeff00ff0100fffeff01ff01fe01ffffff00ff00ff010000fe0101fefe010100000100ffffffffff00
0000fffffefe01ff01fefe0000fffe01fffe01fe00fe0100feff0000ff00ff0100fffeff01fe01fffffe00fffefefe00feff00fe0000feffff010100010101ff
fe00fe01ff0100fefffefe01fffe000100fffe01fe01fe00fe00fefeff00010001fefeff0101000101ffffffffff0101010000ff0101ff01fe00fe00ff000101
00000000000000000000000000000000000000000000000000000000000000000000000000000000000000000000000000000000000000000000000000000000
