ff00ff01fefeff00ffff000000fe0000ffff0101ff0100fffefffffffffe0101fe0100010100fffeff01feff00fe0101ff0001000101000100fe01ff000100fe
01fefeff000000ff00fe010001fe01feff0100ff0101fe01fe01fe00fefe01fefffefe00ffff0100fe01fe01ff01fffeff000000fefe00fffe01ff0001ffff01
00fe00010100ff01ff01fe0101fe0100feff01010001ff01fe010000fffffefffeff0101ff00fe00ff00ff000100010101ff01fe01fe0001feff00fffe00feff
fefe00fe01ff0100fffe0000010100fe00fffe00fffe01fe01fffffffffe000001010001ff00fe0001fefe00fffe0101fefffefeff01fe0101fffefe0001fefe
00ff0001010101fe000101feff0100feff00010000ff000000000001fffefe0001ff01fe00feff00fe0000000101ff00fe00000101010000ff00fe0100000001
01ff00fefefe01ffff01fffe01fe0000fe0100fe01ffff00feff0000ff0100fefefeffffff0101ffff00feff0100ffff00fe0100fefe00fffffeff0000feff00
ff0001fefffefffffefffffefe0000010000ffff000000fffffffe00feff0101fefefe000101fe0100ff0100fe01fefffe01010100ff0001010100fe00ff00ff
01fffefffffe0001010000fe01fe0100ffff010001fe01fe000000fe00fefeff0000fffefefeff00fffffffefffe0100010001ff00fe01000000010000fe0001
0000010001fffefe0100000100fe01ffff0001fe0101ff01fe00ff00ff01fffe0000feff010100fffe01ffffffff0101fffe01feff01ff00ff00fefffe010001
fe0101ff01ff0100ff000100000101ff010000ff0101fe00fffe0101feff00fffe000000fefefffe01ff01fe00ffff01fe01feffff00ffff0101ff00fefefffe
0001000101fefefe01fe00ffff01fffeff0000fefffefe01fefeff0001010000ff00feff000000ff0101fefefeff000000010100fefe0000010001ff01fffe00
00010100fe00fe01ff0100ff01fffe0101fe0101fffeff00fefefffffe010100000100fefefefffffe0001fefefe00ff01fffe0100fe01fe00ff0101fefefefe
fefe010000fe00000100ff00fefffe0001fefffeffff01fe01ff00fefefefe00ff01fffe0100feff0101fffe0100fffeff01fe010101ffff0001010101ff01fe
00ff0000ffff00fffe01ffff00ffff010000feff01fefeff0101ffff010000fefefefe00fffffefeff0000fefe00ff0100fe0100feff0101fefffefe01fffefe
fe00000000fefe0000010001fe01ff0001fffefe000000fe0000000100ff0000fe0001ff01ff00ffff01ff01ff0001ff01fefffffe0100feff010100ff0101ff
0000feff01010001ff010101fefffefffefeff0100feff0000000000fffeff01ff0101fe01000100fe000001fffefffe01ff01feff010101fefe00fffffeff00
ffff00010000fe0101ff0001ff00ff00fe00fe0000fe010001fe0100ff01ff00fefffe010001fefffefefffffffefe0100fffffffffffffffe00ffff000001ff
fffe00fefe00000101ff0000fefffffffe00ff00ff010000fe0100fefefefe0001fefffffe0001ffff0100fefffffefefffffeff00fe00ff01ffff0101feff01
00fe0001ff0101fe0001000000ff0000fe0001010001ff00010101fffe00010100ff0001fefefffe01fe01fffe01fffe00ff0001ff0101ff0100fe00010001fe
0101ffffff0101fe01fefffe01fe00feffff000101fe01000100ff00010101fe00ff0101ffff010000fefeff01fffefe00fffeffff0100000000ffff0001ff01
01fefe00000100ff00ffffff01fe0101ff00fe00fffeff01feff0001010100000101fe01ff0000feff01ff01fffeff01fefefefe0001ff0100ff01ffff0001fe
fefe01fffffe010001fffe010100010001ffff000001fffe000101ff0101ff01fffe01ff0000fefe01fefefffe01fe01ff00ff0100ff00ff010101fffffefe01
ff0101fe00fffe01fffefe01fefe0001010101ff010000ff000101ff000000fe01ff0001010000ffff0000ff0000feffff00ff01fe010000010101ff000100ff
fe00ff010100ff01010000feff01ff010100fe0000fffe00ff0101ff010001fe0100ff000000010101000101fe0100fe010101feff0001feff00ffff0001feff
