ff0100000001feff0101fffefffffefe00fefefe0001ffffff01ff0101fefeff00ff01fefe0000fffffe01ff00fffffe010100ffff01ff0001fe00fffffeff01
feff01feff010101fe010001ffff01fffefe01ff01ff0000ff01000000feff00fefeff000001fe0000fe00ffff0000feff0000fffefefe0101fe01ff00010001
fe010101fe00feff00ff00fefefffe00fe01fe0101ffff01010000ffff0100000001fe00010000fefe0101fefe010100fe01fefffefe000001feff00fefeff00
fffefe00fe0101010000feff01fe000100fefe01ffff0001fffffe010101fe0000fefffe00ffffff000000ff00fe00fefefefe00fffffeff0000fe00fffefe01
0001010100000001fefeff000000fe00ff00ff010100fe01fe01fefffe0000fefe00000000fe00fffffe01fe01000101ffff00feff010000ff000001010001ff
0100ff00fe01010100fffe00ff00ffffffffff0101010001fe00010000010100fe01fefefffefe01fe01fe0001ffff00ffff01fffffefefefe01ff0000ff0101
ffff01000100fefefe0101feff010000fefffffe000001ff01ff0000ffff000001fffe01fffffe000101fefefe01010101ffffffff00000001ff0100fefffeff
fe0100fe01ffff0001ff01fefeff0000fe0100fe01ff000001ff000100fe01010001fefe01ff00010000fffe00fefefffefffffe00fefe010100010100fe01ff
000101ff0001fe0101fe00010001fefeff01ff0101fefe01000101ffff01fe010001ff0101fe01fffefffefffffeff000001fe01fe01ff0000000000ff010001
01fe0001feff0101fefe000000ff01000100fefefe0000fffffe0101feffff0101ffffff00010100fe00ffff00ff00010000fe01fffe00fefffefe000001fe01
00ff01fe0101ff01fe000101fefe0001ff0101fefefefffe01ff00000100fe0101fefffffefffefe01fe0100ff00fefeff000100fefefe00ffff000001fe0101
0001ffffff010001ff00fffe000000fe00000001fe00feffff00fe00ff00fe01fefe00ff00ff00000101fffefffefffeff010001fffe000100000100010100ff
0001ff0000feff00ff0000fffe000101fe01ffff0000000001ffff01fefefefeff0101fe0100000100fffffeff0100fe0100ffff0100fefffe00fe01fefefefe
ff00010000000000ff00ffff01fffe01feff00ff01fe00010100fe010000ff0000fffffe00fe0100fffefe0100fffe00fe010100ff01ffff00fe01ffffff0101
0000fffefe00fefefffe0100fefeffffff000101fffefefeff01fefffffffffe01feff0000feff00010100000101fffe01feff01fefe01ff01fe0001fefeff01
01fffffefe01fe0100fe000001fe00ff00fffffeff00fefefe0101feff0001fefefe01fffefe000001ff00feff01fffeff010100feff01fefffeff01ff0000ff
00000000000000000000000000000000000000000000000000000000000000000000000000000000000000000000000000000000000000000000000000000000
00000000000000000000000000000000000000000000000000000000000000000000000000000000000000000000000000000000000000000000000000000000
00000000000000000000000000000000000000000000000000000000000000000000000000000000000000000000000000000000000000000000000000000000
00000000000000000000000000000000000000000000000000000000000000000000000000000000000000000000000000000000000000000000000000000000
00000000000000000000000000000000000000000000000000000000000000000000000000000000000000000000000000000000000000000000000000000000
00000000000000000000000000000000000000000000000000000000000000000000000000000000000000000000000000000000000000000000000000000000
00000000000000000000000000000000000000000000000000000000000000000000000000000000000000000000000000000000000000000000000000000000
00000000000000000000000000000000000000000000000000000000000000000000000000000000000000000000000000000000000000000000000000000000
