fe00000100fffeff01fffefe0100fefefefffeff010000fe0000fe00feff0101010100fe01feff0000fefffffeff0101ff0000fffe00fe0001fefefe0101fe01
01fffe01fefe00feff000001fffeff00feff00010000010000fffeff0101fe00fe00fe000000fefefeff01fe00fffe0100fe01fe01fe00fe0000fe01fefe0001
fe010101010101feff0101fffefefeff0000ff01feffffff01fffe01ff000101fefeff0000fffefe00ff00ff0000feff0101ff01ff00ff01fefffe0001000101
fefefffefffefefeff00fffffffeff01fe0100fffe0001000001ff0101010001ff01ffff00ffffff0101fe010101010001ff010001fffeff0000fefeff00fe01
fe01fe01ffffff01ff0100ff01ff01fe0001feff000000ffffff01ffffff00ffffff00000000ff00fe00fffffffefffe01fffffffefffefe000001ffffffffff
fffe01ff010100fe00ffff0000fffeff00ffffff00fe010101ff000101fffefffefe01ff01feffff0100fffffeff00ff00000101fffefeff01fe010001ff0000
01010101ff000001fe00fefefe01feff0100010101000001fffe000001010100ff00fefeff0101feffff01fffffffffefefe01fe0000fefe01fefefe00ff01ff
fefeffffffff0101000101010100fffe0101ffffff01fffeff01fefefffffffe00fe00ff000101fffeff01ff00ffff00fefeff00fefeff00fefefeff010100fe
00000000000000000000000000000000000000000000000000000000000000000000000000000000000000000000000000000000000000000000000000000000
0000feff000000010100fe01fffffefffffe00ff0101feff0101fe0001010100ff0001fffefe00feff000001fffe00fefffffffefffe00fe01fffefffefeff01
0100010100fe0000ff00fefe0001feff00fffefe000001fe01000101ff01000000feff01ffff0101fe0000fe0000fefe01010001ff01ff00ffffff0000010101
00ff01ff00fefe0100ffff0100ffff0101ff000101fffffffffefffe0000fffe01ff00ff0101ff01ff0001ff0100fffffffe0100fe010000fffe000100fefe00
fffeff01fffe010000ffff01fe0100ff0000ff01010000ff01ff010001ff01000000010001ffff0001ff000001fffe01fffe01fffe01010000fefe01fefffefe
fe01fffffefefe0000fe00ff010001000001fe000100feffff010000fefefefeff010100fffe0000ff01fe0000000101fe01000000feff01fefefffefffe01fe
01fefffefefffffefefe00ff0100ff00fefffefffe00ff00ff00ff0100ffff000101fefe0101010001fe0100000001fffffefeff01fefffe0000ff00ff01fefe
0001feff00fefffeff0001feff000100fefefffe000001fe00ff00fe010000fe0101fffefefeff00fe01fe010101feff0001000100fe0001fefe000001ffffff
01000000fffffeffff010100000100ff0000fe0000ffff00ff01fe0101fe0000fe01ff0001feff01fe0000ff0000010001ff0101fe01000100ffff01fe0000ff
00000000000000000000000000000000000000000000000000000000000000000000000000000000000000000000000000000000000000000000000000000000
fffefe00fe0100fefffefffeffffff00feffff010000fefe01ff01fffeff01fffefe00fe01fffeff010000fe0101ffff0100010101ff010101feffffffff00ff
fe00010101ffff00fe0100ffff0101ff0001fe00000101fe0000feff01ff01fefeffffff01ff0101010100ff01fffefe01fe010000ff0101fefe0101feff01fe
0100fefe00feffffffff00fefe01fe00ff00feff01feffff0101fe0100fe01fffeffff000101fe00feffff0101fe00fe0000fe00feff00010101ff00ff0100fe
0000ff00ff00fefefe0001010001fe00fffeff00fffe00fefefefffefe000001ff01fe0001fe00feffff0101000001feff01ff01fefefefffefe00fffe000001
fe00fe0100fefe00fe010100fe00ff000001000101feff00fe0101fefffefffe0001fefe01feff01ffff00ff01fe00fe0101ffff0100ff00fefffefe01fe01ff
01010001ff0001feff00fffffe0000fffe00000101000100fe0100000101fe00fffe010100feff01010100fffe00ffff01fffffe01fefffffefeff01fe00feff
fffe00fe0100fefe01fffefffe000001ff0101fe01fe01ff000101fe000001ff0001000100fe00fffffeffff00000000fefe00fffe01fe01fe00ff0000fffe00
ffff000001010100fefefffefe01fffefefe010100fe010001ff000101ffff0000fefe00fffefffe01fefe01fffefeffff000000fe01ff0101fe01fe0101fefe
00000000000000000000000000000000000000000000000000000000000000000000000000000000000000000000000000000000000000000000000000000000
