fe00010001ff01fe00fefe0101010000010101ff01fe01fefefffe00fefe00ffffff00010101feff00fefefe01fefeffffff01fffeff000100ff00fe01000101
ffffffff0101fefefe01ff0100010000fe00fffe0000ff00ff0000fe01fefe00ff01000101ff01000000fe00ffffff010001fe00fe00fffe000100fefffe00ff
fe010000fefefe010101fffffe000100fffe01ff01fe000001fffffe01010000ff01ff01fffefefffe01ffff01ff00fe01000000fe010000feff0000000100fe
00fffe01ffffffff01fefe01fffefefeff0000fe01fe0100feff000100fe00fefe000100fe000101fefe00feff0101ff00fe01fffefe01000000fe01fe010100
01fefffeff0100ffffff01fe01fffe01fe00fffffefe0001fffffe00ffff01ff0100010000ff00fffffefe01fefe01fefe01000100fffe00fefffffffe01fefe
00ffff0000ffffffff00ff010000fefffe01000101010100fe01ff0100ffff01feffff0000fe01fffeff00000100ff01ff000100000001fffe00ff01000101fe
fe00fffffe00fe00fe0101fffeff0100fffe0001fe01fffe01fe01010101fefefe01000001ffff00fefe000000fe00010100fffeff010001fffe010100ffffff
fe0001010100ff0000ffff00ffff00ffff0101fe00ffff00010000fe00fffe01feffffff00fefeffff0100fefe0100ff00fe010000fefefe00fffefe01fffefe
01000100ffff01ff0101010100fe01fffefeffff01fe0101fe01fe010100fffe000000fffe000101fe0100fefe0001ff00ffff0100fffefe00010101fe010101
fefe0000fe01000001fe00fe01fe000101feff01feff01fe01010000ff010001010001ff0101ff0001fe0001fe0001fe0000fefeff0000fffffefefeff01fe01
fe0101ff00fffe0001fe01fffefffffeff010001fffffe00010100fffe00fefefe01ff0101010000fe010100ff010000fffe01fe01feff0100ff01ff00fffe01
010000fffffffefeff01ff00000101fffe01000101fe01fe01fe01010101fe000001fffeff01010000010000ffff01feff0001ff00feff00feffff00fefe00ff
ff00fefffe01fe00ffffffff000001ffff0001ff0100feff01ff00fefefffe0000fe01fe01fe010000ff000000fefe000001fefffe00ff000101fe01ff01fe01
0001ff01fe00fe000001fffe000101ff01ff01fe00fffeff01000001fe0001000101fffe01ff000100feff01010100fe0000feff01fe0000ffffff01000101fe
00fe00fefffefffffffefe0000fefeff0001fefffffffe00fe01feff01fefefeff00fffffffe00fe000000fe000000ff0100feff0001ff00feff01ff01fefe00
fffeff0001000000fefffffe01fffeff0101fe01fe0000fefe010000fefefefe0100ff000100fe00ff00fefffefe01ffff010000ffffff00000001fefeff01fe
fefeff01fefeff00fffe01000000ff00ff010000000000fe00ffffff00ff010100fe01feff0101feffffff000000ffff00fffffefeff00fe00fe00fffeff0001
feff01fffeff000101fffefffffffffefe0001010101ffffffff01fe000000fffffefffffefe00ff00fe0101fefe01fffe000001000001fffe01ff0101ff0101
fe01010100fefffeff00ff000000fefefefe01ff000101fffe00fe0100fe01fe000101fefeffff00000001ffff01fefe0001000100fe01fefe000001fffffe01
0101010101fffe01feff000000fefefe00ff0100fe0001fefe0101fefe0101ff0001ffff0000feffff0000ff010000fe0001ffff00fe0100ff00fe010101fe01
0000feff01000101fe01feff01fe0001fefffefe00010101010101000101ff01feffff01fefeff010001fefe00feff0000fe01feff01fe01fefffe01ff00feff
0000fe00ff00000001feff000100ffff000000fefe0101ffff01000100fe01ff01ff01fffefe00fffefe01fefeff00fffe010001ff00ff00010100fe01000100
0100fefeffff01fffffefefefefefeff0001fe00fe0001000001fffeff010101ff00ffff00ffff01000000feff0000ffffff01000001ff00ff0000fefe00fffe
ffffff01fe01010000fe00fe0000fffefe00ff0000fe01fefffe00fe000100000001ffff000001fffffffe000100ffffff0101fefe0001ffff00010000ff0100
