0100fffeff0100ff00fffe01fe01fefefe00fe00fe00010101fe0001ff000101fefefe00feff00ff01ff0000fefefeff00ff0000000101fffe0100fe00fefefe
fe00fe00fefefffe0100feffff01fe00feff0000000101010100ff0101ff00fe0000fe01fe00ffff0000fffeff01010100010000fffe000100ff000000010100
00ff00fe010001fe01feff00fefe00fefffffffefffefffffffe01ff000100feff01fefffffe0000ff0000ff00000000fffffefffffefeff00fe0001fe01fefe
010100fffeff00fe00ffff0101000101ff0001000100000101fefefefffffefe0000fefefffe0000ff0101fe01fefefe0001ff00000001ff010100fe000000ff
fe01fffefe01fefefeff0001fffeffff00fffe00ff000100feffffff0001fefefe01000101fe0101fefefefe0100fffe0101010100fe00ff0100feffff01fffe
ff00feff01fffe00000000fe01ff0000fefe000101000100fe0001fefefffe01fe0001ffff00010101fefffeff010100ff0100010001fe0001000000fffe00ff
000100fffe00fefefe010100fe0001ff00fe010100ffff0100fefefefefe0101010000fe01010100fffe01fefeff01ffffff0000ffff00fffeff00ff0001fe00
010101ff0001ffffff00010001ff0101ffffff0100fffe000000fe01ff00000101fefe01fffefe0100fffeff01ffffff0100ff00fe01fe0001fefeff00ff0001
fffffffe0001000101fe00ff01fe000101fefe0001fffffffe01ffff000000feffffff0001fffe0101fe01ffff0001ffff0101fe00fe00fefefffefe01ff0101
00010001fefe0000feffff01fe01fffefe01ff01ff0101ffff010100ff01ff01fe010001010100010001fefefffffeffff01fefefefe010000fefffffefe0000
010101fffe00ff01fe01feff0101fffe00fe0101fffe00000101ffff00fefffefffefe010000fefefffffffefffe0101010001fffefffffe010101010100fe00
fe00ff0100ff0101ff000000fffe0101ffff010001fe01ff0001fffefeffff01fe0001feff0100ff010000fe00010000ff01fe01fefefffe0101fffe0001feff
00fe00fe00fe0101fe0001fefe0101fffe00fe0000fe0101fe01010001ffff00ff0100fefffefe01fefeffff00ff000101fe00fe00ff0001ffff0100ff01ff01
0100ffffffff00000000fefe0000fe00fefe0000010000fe00fffffffe01fffffefeff010000feff00fe000000feff01fe0101ff00ff01ff0101feff00ff01fe
01fefffe010001fffeffffff00ff0000fffe00ff01fe0001010100fe000001ff0001fffffe0001010100ff0000000000ff000100ff01ff01fffe000100fe0000
fefe01feff00ff0000000101ff01fefeff0100fe01fefeff00ff0001fe01fe00fefffffffe01fefe01fe01ff01ff00ffff00fe01ffff0001010000fe00fffe00
00000000000000000000000000000000000000000000000000000000000000000000000000000000000000000000000000000000000000000000000000000000
00000000000000000000000000000000000000000000000000000000000000000000000000000000000000000000000000000000000000000000000000000000
00000000000000000000000000000000000000000000000000000000000000000000000000000000000000000000000000000000000000000000000000000000
00000000000000000000000000000000000000000000000000000000000000000000000000000000000000000000000000000000000000000000000000000000
00000000000000000000000000000000000000000000000000000000000000000000000000000000000000000000000000000000000000000000000000000000
00000000000000000000000000000000000000000000000000000000000000000000000000000000000000000000000000000000000000000000000000000000
00000000000000000000000000000000000000000000000000000000000000000000000000000000000000000000000000000000000000000000000000000000
00000000000000000000000000000000000000000000000000000000000000000000000000000000000000000000000000000000000000000000000000000000
