0101fefeff00ff01000000ff01ff00ff01010100ffffff010000fffeff00fe01ff01fefffe01ff01ff00feffff0001fe010101feffff010001ffffff01ff0101
ff000100ffff0100fe0001fe010000ff01ff0000fffe0101010001fefffe00ff0001ff00feffffff01000000fffe01fe01fefe00ff0100fefefefe0100010000
fffefe01fe00ffffff0001feff0101fe0100ff00fffe01ff01fe0000feffffff0100fefe0000010000fefefe010001fe01fffe00fe01feff01fe00ff0000fe01
fffefffe00ff0100fe01fefe01fefe01ff01feffff0001feff00fe01feff01fefe0001fefe0100fefffffffe01fffffffefeff01fffeff00ff00fe0001fefefe
00ff00fefffefefefffe00ff000100ff0000000001fe01fefe0100fe0101fffefefe010000fe01fefffffffeff00ff00ff000101ff00000100000100ff0000ff
01fffe0001fffefe0000ff01fe01010000fffe01fe00000101ff01fffffe00000001fefe01fefefefefe00feffff000101fffffe000000010000ff01fffe0101
ff01ff000001fffe00fefffe0100ffff010101fe000100ff00fe01ff000001fe0100fe00fe01ff00fe01010000fffffe00fefe010001fffe00ff01fefefefffe
010000fffffffffefefefe00000001fffffe0100ffffffffff0101010001fe00fefefefe0101ff01fe010001feff0000fe01fefe0101ff01ff00ff00ff0100fe
fe00fefefefe01fe000101fe0101ff0000fffe0101ff01ff0100fefffefeffffff00fefffe000100000001fefe0001fffffe00ff0100fffffefe00ffff01ff00
01fefeffff01fffffffefefffe01ff0101fefe000101fefe0001fffffe0001fe0101fffefefefffffffefefeff0001fefefefefffe0100fefe0100fefffeff01
01ffff01fefffffefe000101010101fe00fe00fe0001fffeff01fe01ff0001fe01010100fe01010100fe000000fffefefeff0000ff00fffffe0101ffffff00ff
0101fefffe0000fe00ffff01ffff00fefe01000100fefffefeff01010100000100ff01ff00010001fe01fe010100fe00feff00fffffeff00feff01fe00feff00
010101fffe01fefefffffffffe010101ff01ff000100ff0001000100010100fffe00000000ffff00fefe01000001fefe00fefe0001fe01ffff00ff000101fefe
fffe00ff00fe00feffff0001010101fe00ffff0101fefeff00ffffff000000ff00feff00fefffe01ff01fe0001fefefefffffe0100ff0000fffefefffefefe00
00fe000100000001ffffff0001fe01ff01ff0100fe01fefefe01fffeff0100000101ff00fe00fffefffefe010001fe01fefe010101ff01fffe01ff0001ff0100
ff01fe00fefe00010000fffe010101000000feff01fe0101000001fe0101fefeff01fe0101fe00fe0000fefe010000fe00fefffefffffefe0001ff01ff00ff01
01ffff01ff01ff0000ff00fe01010100ffff000000fe0100fe01fffefe01fffeffff0100010100feffff00ff00fffefeffff0100010101fffe01feff0101ff01
fe00fe00fe01fffe00ff01ff00ff0101feffffff01fe00ff0001fe00fe00fe00ff000101fe0100feffff0001010001fefe0100ff00fffefe0101fefefefeffff
fefe010100feff01fe0101000000ffff000101ff01ffff0100fefe01ff00010101fffe0000fe0000ffff010001fffffe00ffff0100fffefefe01ff00fe0101fe
01fe0101ff0001ff0100fffeffff00000101ff00ffff01fe00ff000001fe0000fe01fefe01ffff01000000fe0100ff01fffe00010101000101feff00fffeffff
fffefefffffe0001fe00fe01fffe0100fe0101ffff00ffff0001ffff0100fefffefefeff01fefefefffefe00ff0101fe01feff010101000101ff01ff01010000
fe00ff00fffe0101fefe0001fefe010000010101feff0100fffffe0001ff01fffffe00fe000000000000fffffe01010000fe01fe01ff01fffe01feff0000ffff
fffffe01fffefe00fefe0101fffefefe00fffeff0101010101fffefffefffeff00fffe01fefffefe01ff000001ff0100ff0000fe01fefe00fffffe00fffe01ff
fe00fffffe000101feff000000fe00fffe01010100ff000001ff01010001fffffffffffe0100fe00fe01fe0000ff00010100ffff0001feff01ff01ff0000fffe
