feff0101feff0101fefe01000101fe0100fefe00fefefe0101fefe01010001ffffff0000ffff0100fffe0100000001fe00fe01fffffe01fe00fe000101ff0001
ff00fe00fefeff0001ffff01fffe0100ff000100fe0101fe01feff0101fefe0100fe00ff00fefe0101fffffe00000100ff010000fffeff00fe0101fe00ff01fe
fefefefeffff0001ff00ff01fe01fe0100fefefffffffe01ff01fefe01fefe0100fe00ff01feff00feffff01feff000000fe01010000ff00fffefefe00ff01fe
00ffff01ffff00fffe00fe00ffff0001010100fefeffff00ff0000feff01fffe00feff0100010100ff0001010000fefe01ffff00fffe0000fffefe010100fffe
fefefe00fe0100fefeffff00ff0101fe00ff0000feffff00fefe01fe00feffffff00fe00000100fe00000001000101fe01ff0101fe00fefe0101ff01fffffe00
fefe00feff00fffe0101ffff0101000001fffe010000fefffefe0101ff00feff0000fffe00ff00000001fe0001fefeff0000ff01fffefe01fe0001ff00fefe00
00feffff0001010100fefefe01fefeff0001fe01fe00ff01fe00fe0001fffe01010101ff00fe00fffefe00ff0100fefeff01feff0000fefffe01fffe0001fffe
0000fffffffe00feff0101feff00000001fe00010101fefefefe00feff00feff0101fffe01010000fefffe00ff01fefeff01ff0100fefe00000001ff00fe00ff
00000000000000000000000000000000000000000000000000000000000000000000000000000000000000000000000000000000000000000000000000000000
01000101000101ffffffff010000ffff01fffffffffefe0101fffffefefeff0100ff01000001fe01ff00fefffefeff01ff01ff00fefe01fe00fffe00fe010001
0100ff00ffff0100ffff0000fefffe01fffffffffffefffefefe010100fe0000ff0100ffff00fffffe01ff000000fffe00fe00fffe00ff00fffffe01ff000101
0101feff01fefefffe01fe0001ffff0101010001000101ffffffff0101fffefefe00ff0100ff00fe00fefffefe0000fe01ff0100fefefffefeffffff01ffffff
0001010001fe0001ff010100fffefeff01ffff00ff000000ff01fe000100fffefffffe0100fe0000fffffffefe00ff01ff00ff00ff00fe01ffff01010100ff01
0101fe0100000001fefefffe00fffefffffe000100fffe01000000ff00ff00ff000101fefefffe0000010000ff01fe0000ff01ffff00feff01fffffffefffefe
01fffefffe0000ff0001fe01ff0100fe0100ff0000000100fe0100ff01fffefffefe0001000101010101fffffffefeffff01fffe010001fefefe0100fe01fe01
00fffffffe01010101fe01fffe0100fe00fefe00000100ffff01ffff01fe00ff00010100010001fe0001000100ff00fe010100feff00fe0100fffefefefe0101
fffefe01fffefffffeff00fe00fffffffffeff01010101fffe010101fe00fefffffefefefe0100fffefffefffffeff01fffe0001010100fefe00ff0000ff00fe
00000000000000000000000000000000000000000000000000000000000000000000000000000000000000000000000000000000000000000000000000000000
010000fefffefeffff00feff010101fffefeff00ff0100feffff0101fefe000100feffff0001fffeffff0000feffff000000010101ff01ff0001fffe010100ff
00fffe00010000fe01fffe01ff01fffffe00fffe0001ff00ff00fefe000000ff00fe00fe0001fe01fe01fe01fe0000fffefffefeff0100ffffffff00fe00ffff
01fffe010100ff0001fffefeff01ff01fe00ff00fffffffe0001ff00ff01ffff00fffeffff0001fefe01000101fe0000fe00fffe01fffffeff00fffe01fe01ff
fffe0101fe00fffeff0000fe0000ff01fe01feff01000000010001fffe0000fefe00ffff0100fe01fefffffe01fefeff01ff010000fffefffefefefe00ff0000
fefefffe0101000000fefe0100ff00fe000100010001fffe0100fffefefe0100fffe00ff0101fffe0100ff0101fefe01fefefefefe00000000fe01ff000101ff
00fe000101ffffff00fe01ffff01ff01ff01ff000001ff0001feffffffff0101feffff00000001fe0001ffffff0001fe0100ff010101fffffffffe01fffe00ff
0101ff01010000ff00ff01ff01fe0001fefefe01fe0000fe0100000100fffeff0100feffffff0001000000000000000000fe010001ffff0100fefefe01feffff
01fffffe0001ffff0001000001fefe00ff0000fffe010001ff000001fffeff0101fefe01feff00ffff00fefe010100fe0101fffffefe01fffefe01fefefefe00
00000000000000000000000000000000000000000000000000000000000000000000000000000000000000000000000000000000000000000000000000000000
