fefe01fefe010000ff00fffefe0100ff00fefeffff0000ff01ff01feff01ff000001fffe000001000001fefe01fefefffffe000000ffff01fe01fffe0001fefe
feff0001fffffefe00ff00ffff0100fefe01ff01ff00fefeffffffffffff00ff0001fe00fffe00fffffffe000000fe000000ff000000ff000101feff00ff01ff
00000000fefe010000fe01ff00fefeff00feff0100ff0100ff0100fefe0101fe000000ff01fffeff00ff00fe0101fe01010001fffe01fe01fffffe0100fe0001
feffffff01fffe01ff01000100ff00fffe00fefe00fefffe000000fe01fe010101ff0101000001ff01fefffffffe000100fe00010000ff01ffff00fefe01fe00
0000010101fefeff01fe00fffeff00000101fffefeff01ff00fffffe00fe00ff00fe0100ff00ff0100000101000100fe00ffff0100feffff0100fffefeff0001
ff00ffff00ff00fffffffffefe00ff0100000000fffe0101fffefefefe0001ff00ffff01fefffefefeff01fe000000ffffff00ff00fefffe0101fefe00fefeff
0000fe0100fe00ffff00ff00ff01fefeff01fefe00fe00ff01fefffeff0001000000ff00feffffff00fffe010101fefffefefe000100fe00fefeff010101ff01
ff0100ffff01fefe0100fffe01fe00fefefe000000ffff0001fefffffe00ff0000fe0100ff000101000000fe01fe00010000fe0101ff0101fffffefeffff0001
fe00ff010101fefefe0000fefefffeff010001fefe01fe0000ff000000ff000101fffffefffffefefe0000ff01ff0001fefe0000fe00fefefe01000000000000
0101ff00fe00fe0100fe0000fefffe000100ff01ff0001fe0001fe01fffffffefefefefefefe01ff010101fe0000ff00000100feff0001feff00010001ff00ff
01fefefe01fffefffffe0001ffff00ff0001fffefeff0001fffffffeff0100ffff0001010000000100fe00010101fefe00fefe00ff01ff01fffeff0101000101
0001010100fffefefefe00ff00010001fffe00fffffe0101fffeff01ff0101fe0000ff01fe0001fe00ff0100ffff01fe01feff000001000001ffff0100feffff
0101fe01ff0100010000ff0001fe01fffeffff01010100ff00feff00fe0100fffefeffff00010101feffff01ff01fe00fe000100fe010000fefe00010001ff01
0101010100fefe00fe0001feff000100ff00fffffeffff01ffff0000fe0001fe0101fffe00fefe000101ff01fefe0100fefe010100fe00ffff01fffe01fffffe
00fefffffffe01ff01feff00fe00010101fe010000fe00fffe00ff0100fefffeff00feff01fe00010001ffffffff0101fefffeffff01fe00fefe0001010000fe
fe01fffe0000fefefefe00fefe0000000100ff0000fffe00fe000001fffe00fefefefe00fffe01fe0100feff000100fefe0101feff0001fefe01010101000001
fefeff00fe00fefe010001010100fffe010000fffefefefeff01ff01fffe0001010000ff00feffffffff0000ffffff0100fe01010000ff000100ffff01feff00
00fefffe01010000ff000101fefe0000000100fe01fefffe00ff0001fe0000fefffffefe0000fffffe010001feff00fe0000fe01feff01010101feff0000fe00
fe0100fe00ff00010100010101ff0101ff01ff000000fe01fefeff000100fe00ff00fe0100ff00ff00fe0001fefe01000100010100ff0101ff0100ff010101ff
00010100ff0100fefefefeff01010001ff00fefefefeff0000fefefe01000101ff01fffffefefe0101ff00fe0101ff0101010101010001ff0101fe01000001fe
00ff0101fffefe0000ff00fe0100fe010101fe000000feffff000100ffffffff0101010100000100010001ff00010101fe0001fe01fe01fe00fe010101ffffff
fefefefffefffffefe000000fefefefffe00ff0100ff01ff01fe0001fe00fe000001fefefefe0101fefeff00fe00feff0001fe000001ff0000fffefffefffffe
fffe010101feff00fefefeff00fe00ffffff00fffefe0001ffff01010000fe01ffffffff00ff01010100fefefefefe00010001fe01ff0100fffe00ff0100ff00
0001ffff00ff010000fe0000010101fefffefe01fffe0001fefffffe00fefefe0000000000fffefe00ffff0100ff01feff01ff01000000010000000001fffeff
