01fe0101fe00fe0101fe01ff0100ff00fe00ff0101fefe00fe0100ffff0001fefe01010100fe010001fe01ff00ffffff01fe00fe00ffff01fe0000fefffe0000
01010100fefefeff0101ffff0101fefeff00ff01ffff01fefefe000101fefe01fe01fe01ffff00ff0100000100fffffe0101fe01fefffefefeffff0001fffefe
010000000000010101fe0000ff0000fe01feff0001fffe010101fefffefefe01feffff0100ffff000101fffe000101fefe00000001fefe010101ff00ff0001fe
fefe0001010000feff0101ff0000fefffe00fffe01ffffffff00fe0001feffff01fffe000100ffffff01fffe000101fffefefffefffffffe0101fefffefeff00
ff0100000000fe00feff01ff01feff01ff0000010100fefe01ffff00fe01feff01010100fe010101fe01fefefefe00fefe00000100fe0000feff000001fe01ff
0001fefffe00fe000101fefe000001ffff01fefffefe0101fefeffffff01fe0100ffffff00fefefffeff01000001fffe00ff01fe00000000fe01ff00fffe0100
fefefffffffffffeff0001ff01ff01010101fefefefeff01ffff01fefffffeff0001fe01ffff00fe0101fffe00fefe01000101000100fffe0100fe0001ffff00
ffff010001ff01ff010000fffe0001000001ff0000ff00fefffefffefeff010101fffefe010001fe0000fefefefe0001fe0101fe01fefeff00feff01ff01fffe
00000000000000000000000000000000000000000000000000000000000000000000000000000000000000000000000000000000000000000000000000000000
01ffff0100ff00fe01fefe0100fffefffeff01fffe01fe0100000101ffff01ffffffff00fefe0100ff01feff00ffff0100fffffffefefe00feff0000ffff01ff
fe0000fe01fe01fefefe00fefe01ff0001fefffefffeff0100fe010001000100fffe00ff00ff01feffffff0101000100ff01fe00010000010001fe0000010101
fffffefe01ff0101000101fffe0100fffefe010101ffff010001010000ffff01000101ff01010100fe0001fe000100fe00ff0100010000fffe00feff000100ff
00feff01fffe00ff00fe01fffefefe01fe00feff01fe01fe0101fe0001fffffeff0000fe00feff0000fe00010000ffff01fe0001fe01ff00fe01fe01fefffe01
00fe01fffe00fe0100fe00ffff00ff0101fffe0100ff01000101ff01010100fe00ffff00ff00fe00ff0000ff01ff0100000101ffff0100feff0000feff00feff
00fefffefe00fe00fefffe00ff01ff01fffe00ff00fefffffe01ff0101fe00fffeff00fe01ff000101fe000001ff00fefe00feff0100fe00010100ffff01fefe
0101fffffe010101fffe00feff00ffff010101fefeffff0100fffffefffffe0001fe01feff0100fffe00fefefffefefefe00fffe01fe0000ff01fffffeffff00
00fefe01fffefeff0001000000feff000001000101000100fefe00fe01feff0100ff00ff00fe01ffff0100ff01000101ff00000100fefffffeff00fe00fe00fe
00000000000000000000000000000000000000000000000000000000000000000000000000000000000000000000000000000000000000000000000000000000
01ff010100010001fefe01fffefffe0001feff00fefe0100fe010101ffffff0000ff00fefeff0101ff00fffffe01000101ff00ff00010100fefe01fffefe0101
ff01ff00010001000101fe00fe000101fe00fe01feff01ffff00ffffff0101fefe0000fe01ff00fefeff0001fefe01fffeff01fe0000ff01fe0000fffefe01fe
ff0101000001ff0000fe00fe0001ffff00ff00fefffe0101fe00fffe01fe00fe0101fe0001ff010000ff01fe01fe0001ffff00fe0100feffff01fefffefeffff
fefe01ff0001010000fe00fe01fffe010001ff00ff000000ff0000fe000100feff000100ff01000000fffefefffe00ff0000ff0100000001ff0000ff0101fefe
01000100000000000100ffff01fe01010100fe00ff0001ff00ffff00ff00feff010000fffffefffeff000101fe01ff00ffff010000feff0000fe0001fefe00fe
00010001fefe00fffffe0000010100fefffe010100fe01ff01ff00fe0001fffffe0100fe000100ff01010000fffffefefe000101fffffefffe00fefe01ff0000
ff00fefffffe01fe00fffefefe01feff00000000fffe0101fe0100fefffefe01fe01fffefe00fefe0100fffefffffffefe01fe0101fefefffefffffe0001ff01
00fe000101feff01fe0100fefffefe010000010000fffeffff01fe01feff00fefe0101ff00fe00ff010001feff00fe0100ff01fffeffff00ffff0000fffeffff
00000000000000000000000000000000000000000000000000000000000000000000000000000000000000000000000000000000000000000000000000000000
