01000000fffeffff00ff01ff000100fe00fe00fefe00ff01ffff0101fffeff00fffeff00fe0000fefefe00ff00fffe00fefefe00fe0101000001fe0101ffff00
fe010000ff0000000100fefe00fefffeff00fffefefffe00ffff01010101fe01fe00fe01000001fe000101ffff01ff0100ff00fe00fffe010101ffff00fe0101
fe000100fffffffe010101ff00fefeffff000100000101ffff0100fefeff0001fefffe0001010100feff01feff01fffefefeff01fffffefffffffffffeff01ff
010101fffefe000001ff00fefeff01ff000100fe00ff00fffe01fe0100fe01ff00ffffffff00fefefefe00fefe01fffefffffeffff0001ffff00ff00feffffff
00ffffffff00ffff0101feff000101fe00ff01fe01fffe01ff000000fe01010101ffff01fefefeffff010001010001fe0001ffff01ffffffff010100fe010100
00000100fefffe00010101fe0100ff0000fefefefefefe00ff01010000000100fe0100ffff00feff01010101fefffe00fe010000fe000100ff01fefe01ff0001
fefe010101fe01fefe0101fe0001fefe0001feffffff01fffefe00feff0100fefe00fe0001ff0000feff00000100ffffffff000100fe01ff010001000101ffff
fe00ff0001fe00ff01fefffe00000101fe00fffe01ff01010100ff0100ffff01feffff00fe01fe00fe01fefe01fefe01fefffeff00010100ff01fffeffff01fe
fffeff01fe00000100ff00000001fe0100ff01fe00fe0100fefe0101fefefe010101010001ffff00fefe0001fe00feff010000fefefe0000ff01fefe0100fffe
01fe000001fefe00fffefe010101ff000001feff01ffff0001feffff00feff01fefe01ffffff01fe01fffefefffefe000000010101010100fefe0100fffeff00
010100fe00ff000100fe0001ff00010101fffffefe000101ff01010001fefefffffe00000101fe000101feff0101ff00fefe01fe01fe0000fffeff00ff000001
fefe01fe01010101fe01ff00fefe00000100ffffffff0100fffefffffe01ffff01feff000101fe01010001fefefefefefffefe00ff01ff000100010000fffeff
ff00000100fe00feffffff0100ff00000100fffe01ffff00feff01ffffff010100fefe01ffff010001fffffffeff00010001fe0000feff01ff01ff0101fefe01
fefefefefffe00fefe0000fe0101fe0101feffff01ffff01fe0101ffff00000001fe00fffffe01ff0001feff01fffefefffffe00fe00ff01fefe0101feffffff
01fe010101000100fefe00feffff00fefefffffe00fefe01fe01fefefe00fffffeffff01010100fe01010000fe00fffeff00feff0101ff01010001fefe00fe00
0100fefe010001fefeff0100fefefe00fe010100fefe00ff0100feff0001000100ff000100ff0100fe00ff00fe010101ffff0101ff00ff00010101feff01ff00
00000000000000000000000000000000000000000000000000000000000000000000000000000000000000000000000000000000000000000000000000000000
00000000000000000000000000000000000000000000000000000000000000000000000000000000000000000000000000000000000000000000000000000000
00000000000000000000000000000000000000000000000000000000000000000000000000000000000000000000000000000000000000000000000000000000
00000000000000000000000000000000000000000000000000000000000000000000000000000000000000000000000000000000000000000000000000000000
00000000000000000000000000000000000000000000000000000000000000000000000000000000000000000000000000000000000000000000000000000000
00000000000000000000000000000000000000000000000000000000000000000000000000000000000000000000000000000000000000000000000000000000
00000000000000000000000000000000000000000000000000000000000000000000000000000000000000000000000000000000000000000000000000000000
00000000000000000000000000000000000000000000000000000000000000000000000000000000000000000000000000000000000000000000000000000000
