fefffffe000101ff01ff01fefe00fffffe00fffe01fefefeff0101ff01ff0000ff01fe01ff00fe00ff01010001ff01fe0001000100fefeff0100fffefefefeff
0100fffeff0100fe00feff000100fe010000ff00ff0101ff010101fefe01010000010101fefe00fe01fefffe01ffff000101ff01fffe00fffffe0000fefefeff
fefe010100ff0000000100ff00ff0000fffffefffeff01fe00fe01fffffe01fe00000101fe0001010101fffffefefefffe0000ff01ff00010101fe010000ff00
00ff010000ff01fe0000ffff00fefe0101010000fffffeff0101ff00fe01fefe000000fefeffffffff0100fffe00fefe00fe000000fe00fe010100fe00fffe01
0100fefeff000100fefe00fffeffff00ff01fefffe01ff0101fefeffff01feffffffff00fffe00fefefeff01ff0000010100ff01fffefffeff00010101fefefe
0000ff01010001feff01ffff010001fe0100ff00fefffe01fe0000ffff010101feff0001000001fffe000000fe01fe0101fe000100feffff01fe00ffff00ffff
feffff01feffff01ff000001ff01fefffeff01ff01000101000001ffff010000ff00fffe00fe00fffffefffffe0101fefefefffe00fffffffefe01ff0001fefe
fe0000feff01010101fffefffe000100fffefeff00fefeff00fe010000000001fefeff01ffff00ff000000fefe000000ff0000ffff01ffffffffff000000ffff
00000000000000000000000000000000000000000000000000000000000000000000000000000000000000000000000000000000000000000000000000000000
fffffe000101ff000101fe000100ff00fefe0101fefefe01fe01fefefffffffe0101ffffff01ff01feff00fffefe000100fefefefeff0001fffe0101ff00fffe
0100feff0001fffffefefffe000101fe00fe01feffff01ff00fffe0100000100fffe0001fefffefe0000feff01000001fefefe00ff00fffffefe01fefe00fe00
fefffefe01ff0101fffe01ff01010001ff0101010100fffe0101ff00fe00fffffffeffffff00fe00ffff010000fffefe0001ff0100fefeff00ff00ff0100fefe
000001ff01fe00000000ffff00ffff000100fe01ffffff0100fefefffefe01010101fffeff010100feff01ff00fffffeff0001fffe0001feff0100fe00010000
ff00fffe010000ffff000101fefe000100ff000000fffe010101fe0101fefffe0100000001fefefeff01fe0100feffff01fffefefe01fffe010000fe01fefe00
01ff00010000ffff00000101fefefe0100fe01010001fe01fe01fffeff00fe000001fe00feffff01ff00fefffe0101ff0000ffff00fffefefffeffff010101ff
00fffeff010101fe01fffefffffeff0000fe01fefe01ff01010001fefefefffefefe00fe0000ff01ffffffffff010000fe010101fefefeffff01ff00ff010000
feff01fffeff010000ff0001fe000101fffe0101000101ffff01fefffffe0001fffeffff00010101fffefe000000fefffe00fffe0101fffeff0100ffffff0001
00000000000000000000000000000000000000000000000000000000000000000000000000000000000000000000000000000000000000000000000000000000
feff0000fe010101010001ffff00ffff00ff000001fe00ffff00fe01ff01feff01fe01fe00fe00ffff01fe01fffefffe0100fe0100ffff0100feff01fe00fefe
000000ff010101fffe01fffefffe0001fe0101000100ff010000feff0101010001fffe01fffe0000fefeff01feff0100fefefefefe00fe00ff00010001fffe01
feff01ff01fe0101fefe0101ff0101fefe0001ff0000000001ff000101fe000001ff000000ff01fe010000ff01000100fffeff000100fe01000001ff01fe0101
0001fffe01ffff00fefe00ff01000100fe00fe00ff01fefffe010001000100fefe01fefe0101fefe0101fefffe00ff01feff01feff00feff0000ff00ff01ff01
0000fe0101fffe000101fe01fe01010001ffff000001fffefefe00000100fffefffe01fefefffffffffe01fe00fe000001000001ffff0001000001fe01ff01fe
fe01ffff010101fefe010101ff01fffffefefefe010000010100fffffeff01ff0000fffe000000ff01000001fe01fe01fefffe0100010101fffe01000001ff01
0001ffff000001fe00fefffe00ff00fffe01fe00ff01ff00fefe01fe00feffff01ff00fffeff000100fe00fe01fe000000fe01000101ff00feffffff000001fe
fefffe000001fffffffeff000001fe0000fe0101ff010100ffffff0000ff000001fefffefefe01fe010101fffe01010001feff00ffff01010000fefeff0100ff
00000000000000000000000000000000000000000000000000000000000000000000000000000000000000000000000000000000000000000000000000000000
