fefefeffff00fefefffe000100feff010001fffefe00fffffefefeff010100ff01fe00fe00ffff01fefffe0100ff01ff0001fffefe01feff00000000fffefffe
01ffffffff0101010101fe00010001000000fefffe010101010000feff010100ffffff01000100ff010100fe010001fe01fe0000000100ff00ffffffff00feff
fe0000fefe01fe00fffffe00feff00ff0101fe00ff0100ff010001000101fffeff00fe000101fefffe0000ffff0001fefefe0100ff000000010100ff00fefe01
01fefe0001ff01010100ff0000ffff00ff01fe01ffffff0001ff00ff0101fefefffe01ffff00feff00fefefeff00fefffe01fe010000fe01feff000000010101
01ff0101fffefe0001fe01feff00fefe010101fe01feff000101fffe00ff0100fe000101ff00fffefffefffefffe01fffe00feff0101feff00feff00ff00fe01
010001fefe0000feff0001010000fffefe010101fffffefefeff010100fffe00ff00fe01feffff010001ffffff010000fe000100ff0101fffffffffe00ff01fe
ffff00fffefe0001fefefefe010101ff010001fe0100000001000101ffffffffff0101fefe01ff01fffffeff0001fffffefe00fffefe000000fe00ff00fffffe
000101ff000000000100feff00fe010101010101ff01ffffff00feff000000ff01010100fe010100ffff0100ffff01fe0100fe000001fefe00fe00ff01ff0001
0101000001feffff00010101ff00fe0101ff0101fe0100fefe0100010000fe0101010000fe01ff00fffffefe01fffe0000fe00ff00fe0101fffeff000001ffff
010001fffe01010001fe00fefffe0000fe010001010000fefe000000fffe00ff0000ffff010001fe01fe0101fe00ff0101fe01fffe00ff01010001fe00000000
ff010001feff0001fffe01ffff0001fefeff01fffeff01fe00fefeff01000000000001ff00ffff01fffe0000feffff01fe01fefefe0001ffff01010000ff01ff
fe0001fffffffffffefe01ffff01ff01fefffffe0100fefffefe0001fe00ff01feff00fefffe01fffffe0100fe00fefefeff010000fe00fe000001fffffe0001
0100fffeffff01fefefeff0100feffff000000ffffffff0101ff00010001000000ff0000ff0100ffff01000100ff010101ff01fffe000001fefe01feff0001fe
fefffefe0000ff0000fe000101fe0101fffefeff010000feff00fe00fe00fefffe01feff00feff01fe01ff0100000001ff0000fffffefe0001fefefe00fffffe
feff01fe000000ffff01ffffffff00fffe00fefeff00fe010100fffefefefffefefe00fe01fefe00ffff00fefffffefffe01ff01fe000001fe00ff0100010100
ff00fefefefffefe0101fe00000000fe01fffefe00000101fffefe01fe00fe010101fe00ff000000ffff0001ff0001010100ff00feff0000fefe01ff0000fe00
01ff01fefffffffffefefe0101ff01fe0000ff01fe0000fffffffefffeffff0101fffefe01010100010101010001ff01fe0000fefe01fffffe010100ff00ff01
fe00fe00ff01ffff0001fffefe0100ff00feffffffff01fe00ff01010001fefe010100fefe00fe01fffeff01ffff00fefe0001fefffe000101ff01fefefeff01
0001000101010000fe0101fffefefffe0101fefe000100010000fefeff010100010001feff01fe00010100fe0000ffff000001feff01ff0100feff01000101ff
fefeffff01fe00000100fefffe01fffe0100fffeff01fe010001fe01ff00fffe01010101fffeff00ff01000001fefffeffff0001fffe00fe01fefe01fe0001ff
fe01010100010000ffff00fffefeff01010001000100fffeff0000fffffffe00fefe0000010000000101ffff000101ffff0100fefe00fffe010101ff00000100
feffff01fe01fefe01feff00ff01ff01fefefefeff0001ff0100010100fffeffff01feff01fe01000000000101010001ffffff01000001fffffe00fefe000101
00fe0100ffff00feff01ff00ff00ff00fe01ff00ffff00fe0000fe00010100fefffeff01010000ff0101ff000000fefffffffeffff00ff00ff010001fffe0100
000001feff010000ff000100000000fe00ff00fffe00fe01fe01fefeff0001fefffffe01fffefe0001000100ff00000100fe0001ff01fe0101fefe01ffff0100
