0000ff000100fefffe0001fefefe01fe01fe00ff00fefffefefeff00ff0100ff0101010100fe00fe00fe0000fe010000ff0100fefe01fffe01fe01ff0101feff
feffffff01fefeff01000100fffefeff01ff01ff01ff0000fe01fffeff00ff00fffe00000101ffff00fe010000fe010100000101fffefeff0101fffffffe01ff
fefefefe01fe01000001fffeff01fe01ff000000000000000001fefefffffe01fe0101ff000100fefefe0000ff0000fe00ff00fe0001ffff01ff0101fefeffff
0100ff01fe00fe01fe00fffffe00fefffefffe01010000fefe00ffffffff01feffff00ffffff0101fe000100ffff01fefe01ff0100010001000101ffff00ffff
000000fffe0101fefefefe00ff01010001ff0000fe01fffefefefefeff010000fe0000fffeffff00fefe0100fefffeffff010000fffe00010101fe01ff00fe01
fffe01fefefe0100feff01fe00fefeffffff010101fe00000100fffe0001fefeff0001ff00ff00fe01fe01010001fe010001000100000100fe000001fefffeff
fffefefefe00fffffe00fe00fefffe00feffff00fe0101fe00fffe00fefe010001fefe01ff0001fffe00010001fffe0001ff0000fefe00000000fe01fefe0000
00fe000001fe01fe01fffeff00fe0100ffff01ff01fe01fe000000ff00fe010001fefe01feff0000fffefeff00ff00010000feffff0001000101ff00fe010000
fffe01feffff010100fe01ff01010000fffe000000ff01000001fe00fffe0000fe0100fe01fffffe01000001010101fe00fffefefeff0000fefeff01ff0001ff
fffefe000100ff0100ff0101fffeffffff000101ffffff0101fefe0000fe000001ffff00fffefe000000fefeffff01fe010000010100feff00fefe010101feff
01fefefffffe0000feff0001fefeffffff010101fe0000fefefefe01ff0001fe010000fe00ff0001ff0100fe0000fffffffffefffefefffffe0000010100fffe
0100fffe0001ff010100ff00fffeff01fe01fffeff0001ff01fffeff01ff010100feff010100fe0000000101fffffe0001ff0100fefefe01ff01fe0100010001
fefffe01feff01fffffe010000feff01fe00fe00fffefe01fefffefe000001010101fefffeff0100ffff000101ff00fffe0000fe000000ffff0000fffe010100
0100fffffe00ff00ff0100ff01010101fffe01fefffe0100010001fffe01ff01fffeff01fefe00fefe0100fffe01ff000000ff00fefffe01010001fe00010100
fefefefffffefe01ff000101fe00fe00ffff01010100fefffe01010000ff01fefe00ff0001ff01ffff0001fe010101fffe01ffff01feffff01fefefe00000101
fe0100ffffff0100fe010101fe00ff00fffeff00000101fe0101ff01fefefe00fffeff01fefe01fffffe0000fffe01fe0001ffff01ff00ff0100ff0101fe01ff
01ff0101fefefeffff01fe00ffff01ff010001ff01010101feffff0001000101fe01fe0000fffefefefffe01fffffe01fefe000000010100fffeff01fe0100ff
010100fffe01fe00feff0000010001000100ff0000ff0100ff01feffffffff01fffe01fe00fe01fffffeff010100010101fe01fefffe0001fe000100fffffeff
00fe0001feff01000100ff01fffefe0101feff00fefe00ffff01000000feff01fe0001fefe00ff0101fffefe01fe01feff01fe0100fe0101fefeff00fffffefe
fffffffe00fe010001fefefefffefeff000001fe00fe00feff01feffff010001010101ff01fe01fe010101ff01000000ff01010100fefe0100fffefefeffffff
01000000ff00fe00fefffe0000fefe00fefe0000feff0100fe01fffffe01fefe00feff0100fe00fffe01000001ff000101fe01ffffff00fe00feff0001ff00fe
feff0000fffefeffff01fefe01fefe0000fffefeff00fffefe0000fefefeff01feff0001fe01fe000101ff01fffeff01ff01feff010100ffff0000fe00ff0101
fe00ffffff00ff0001010100fe01fffffefe01010101ff010000feff0100feff0100ffff00fefffe0001010100fefe0101fffefefe01ff01ff010001fefefefe
0100fe00ff01fefeff01010101010101fe0101fe00feffff0000fe0100feff0101010101ff0100fe01ffff00ffff0001fe00fe01000100fffffe0100ff0001fe
