010101ff0101ff01ffff0001fe0000fe000001010100ff01ff0001fefefefe00fefe01fe01ffff0101fe00ff00ff0000ff0000ffff0000fe0001010001ff01fe
00feff00fffefe00ff00fefe010101fefefe0001fe00fefeff01feff0100ff01000101fffeff00ff0000fe0000010101fffe010001feff0100ff01ff0101fffe
fe00ff000000fefe0001ff0001fefefe0100fefe000100ff000100ff0100feff01fe0100ff0000fefe01feff000001fffeffffffff0000ff01feff00fffe00ff
fffe00fe00fffeff0100fffefe0001ffff00ffff0100010100feff0001ff01fffeff01ffff000000000100010101fe0000fe00000001ff00fe0000fefeff00fe
ff01ff01fffffe01ff00fffffeff000100ff0101ffffff010101feff01fefffe0101000001ffff010000000000fefefe00fefefe0001fffefe0000010000ff00
01fe00ff00ffff01ffffff01fe01ffff00ff0101fffe01fffe010100feffff00000101fe0100fffe010101feff00feffff00ffff00000001ff01010001fefefe
ffff01fffeffff00fe00fe0100fe01010100ff0001fffefffe0101fffefe00ff00ff01fffeff00ff00fe01fefefffeffffff0001feff000100fe00000001ffff
fe01ff000101000101fffe010001ff0101010100ff0101ff0000000100fffe000101feff01fefefefe0000fe010001ff01fe01ffff00fffefe00fe0101fe0101
0001fefe0100fefffefefe0000ff0101fe0001fffeffffffff000100ff00fe010100010101fe00000100fe0000fffefeff00fefefffefe00fffe0100ffffffff
feffff0001fffeffff0101ff00ffff00000000fe00fefffe00fe0001ff0000fefeffff01fe00fe01ffffffffffff0100fe01fffffe01ff000001fffefffffe01
01fe01fefefefe01fefffe0100fefffffffe0101fe01010101ff0101fe0100010001feffffffffff00fe0101ff00feff01fe0001fffe0001000001fffe01ff01
0001fefe000100fffe0000000101fe00ffff01fffe00feff0100000001fe0101fe0101fffe0101ff00ff010101fefffe00ff01fe01fefffe01ffff01ffff01ff
0001fe010001ff0001feff01fffeff00fe0001fefe010101010101ffff01fe0000fefe01ff010101ff0001fe000000fffe01feffff0100fefffe01ff00ff0100
fffe010100fefefefe01fffe010101fefefefe0000000000ff0001fefe01feff01fe010001fe010100fe01ff01ffff01ffffff0101fffe01ff0100fe00ffff00
ff010101fe000000ff01ff00000101fe0101ff0101feff0000ff00000000fffefe01010101fffe0100fe00fefffefefffefefefffeffff01ff01ff00ff010001
00ff01ffff0101fefefeffff00fe0001ffff00ff0000010000ff0001fefffe01fefefe00ffff01fe010001fefefefe010001010000fe01fffefefefefe00fe00
00000000000000000000000000000000000000000000000000000000000000000000000000000000000000000000000000000000000000000000000000000000
00000000000000000000000000000000000000000000000000000000000000000000000000000000000000000000000000000000000000000000000000000000
00000000000000000000000000000000000000000000000000000000000000000000000000000000000000000000000000000000000000000000000000000000
00000000000000000000000000000000000000000000000000000000000000000000000000000000000000000000000000000000000000000000000000000000
00000000000000000000000000000000000000000000000000000000000000000000000000000000000000000000000000000000000000000000000000000000
00000000000000000000000000000000000000000000000000000000000000000000000000000000000000000000000000000000000000000000000000000000
00000000000000000000000000000000000000000000000000000000000000000000000000000000000000000000000000000000000000000000000000000000
00000000000000000000000000000000000000000000000000000000000000000000000000000000000000000000000000000000000000000000000000000000
