0001fefffe01fefefe01fffeffff00feff01fe00000000fffefe0001fffefeffffff01ff0001feffffff010000010001ffffff00fefe01000000fe0101fffeff
fe01ff01feff01fe01010001fe010001fffe0000fefefeff010000fffefe00fe01000101fefe01fffeff0001ff00000100fe0001feff01ff00000000000001fe
fffe0100fe0001fefffeff0001ff000000ff01fe0101ff01ff0000fefffffffffeff0001ffff0101ffff0100ff00feff01fefffefffeffffffff0100feff01fe
ff0000fffe00fe0000fffe0000ff01fe00feff00fefffffefe000001fe010001ff0001fe0101fe01fe00fe00fffffefefeff01fe0000fffffefeff01000000ff
00fefe01000001ff01fe0100fffefe01fefeff01010101fefefe00ff0101ff0001ffff0100ff0000fffeff01ff010101ff01ff0001fe00fe00fe0000ff0001fe
0101fefffe00ff000100010100feff00ff01fffe01fe0000000101ff01fe0100010100fe01feffff01fe01000000fefefe00fffffe00fffe01fe00fe01ff0001
0101feffff00fe01000001ff01fefefe010000ff0101fefeffff0101ff00feff0101ffff0000ffff00fe01fefffffeff0000ff00fe01fefefe00feff0101fe00
ff01fefffe00ffffffff010100ff0101fe00ffffff0001fe00fffefffefefffe00000001feff0001fefe00fe00fe0100010100fefeff01feff0101ff0100fe01
00000000000000000000000000000000000000000000000000000000000000000000000000000000000000000000000000000000000000000000000000000000
feffff0100ff00fefffffefffefe010000fefeffffff010100ffff01ff00fe00fe010101fe00feff01fefefffffe0000ff000101fe0101feff00ffff0101fe00
01fefffefeffff01fefe01fe00fe0000ff01fffefe01fefeff01fffffffffe01fffe0100000100fe00fe01fe01ff010101fe0001fe00ff00ff01fe000001ff00
fffffffe01fffeff00010001ff01010000ff0001fffe0000ff0001fe01010000ff0101fe0101ff00fe00fefe01ffff0100fe00000100fe01ff010001ff0101fe
ffff0100fe00ff01fefe000000fe0000ffffff00ff000101ffff01fffffffffefefeff0000fe0000ff010100fefe00fe0001fffe000001fefefffeff01fe00ff
01fefefe0100fe0001fe00fefeff0001fefffffefe00ff00ff01010001fe010100ff01ff00ff00fffefe0001ffff00fffe0000fffffeffff010101fffeff00fe
010000fffeff010101ff01fffffefeff00fe0001ff0000fe00ff01000000fefffe0100000101fe00000000fefe010001ff0101fffe000001000001fe000100fe
ffffff01fefffffe0001fefefe00fffffffefe00fffe0100fe0001ff010001ffff00fe01fffe0001fffe01ff0100fe01ff000001ffff00feff00ff01fefeff00
fefe01fe00fe000101ff01fffe00ffff01010000fefe010100fe01fefffeffff01fe00fe0000fe01fe0001fffffe0001feffff00fffe01fefffeff01ffffff00
00000000000000000000000000000000000000000000000000000000000000000000000000000000000000000000000000000000000000000000000000000000
01ffff01ff00fefe00fe0001ff00fe00ffff01ff01fe000100fefefffefefefe00fefe01ffff0000ffff00fefe0000fe0100fe01feff0000ff01fe00ff01fe01
ffff00fe0100fffe01ff0001ff0101feff01ff010000ff0001ff00ffff000000fefefe0001fe01ff0100fefefe0101010101fffeff00fffe01000100fe000101
0001ff00fffffefe00ff0001fefe0100fefe0001fe010100feffff010000feff01fe00000100feff00010100feffff000001fe0001fefe00fffe010000ff00fe
ffff01ff00fe00000100fe0101fe00ff0101ff01ff000101fefefefe0101fffffefefe000001ff01ffff00fffefefefe00fefffe00ffff010101000100fe0101
fefffefe00fffefefeffff0001fffeffffffff00000100fe00fefffffefe01ff000101ffffffff0000fffefe00010000ff00fe010101ff01ff00fe00ff010001
010000fe010000fe01000001000001fe0000fefefe010000ff0100feff00000100000100fe0101ff00fe0101feff01ffffff01fffeff0100ff00ff0000ffffff
ff0001fefe00fefefefe0001fe00ff0001fefeff01fffffeff0001ff00fe00ff0101fefe010000ffff000100ff01ffff01feff01ff0001000101ff0001fefe00
00fffefe0101fe000001ff0001fe0001fe00fffeff01ff0000ffffff0000fe01fffffefefe0101010001ffff01ff01fffefeff00fe00ff01010000fffefeff01
00000000000000000000000000000000000000000000000000000000000000000000000000000000000000000000000000000000000000000000000000000000
