ff0001fffe00fffe01ffff0000ff00ff01ff00fefffe0100fe01ff0000ff01fffe0100ffff01fe00fffeff010000fe01fe01fe00000000ff00ff0000ff00fefe
01fe01fefeff01fffefffffffe000001fe01010000fe00ff0100fe01feff00ffff00ffff00ff00fefeff010000ffff01000101fe0001feff0001ff010000ff01
ff0000ff00fe01ffffff00ffffff0001ffff01000000fe00ff00fefffefefe0100fffefe010001fefefffefefe01000101ff00fffefffe0000000001ff01fefe
fffe00fefefe010000fe01ffff0001fe0100fffffffe01010001fefeff00fe00fe000001010000fffe00fe00fefefefefefefefeff0001ffff0000010000fe00
ff00ff01ffff00fffeff00fe0101ff00fe00fe0100fe01fefffefffefffffe01fe0001fe01fffeff010000fe00ffff0100ff0001010001fe00fffe01000000ff
01fffefefe010001ff000001ff00fe0001fe00ff010101fffffffefe000101fffe01fe00000101ff0101ffff0001fe01fffe01ffff01feff0001fe0100fffe00
01000001fe01fffe01ff01fe00feffffff00fe010101ffffff00fffefe01010100fe01ff00feff010001fe01fffffefe000100ff01000000ff0001fffefeff00
000100fe0101000001fe0101fefffe0001fe0101fe0001ffffffff00fffe000001000101ff010100010000fe01fe00ff0101000001fe000001fe0001010001ff
01fe0001ff01fe000101fffe000100000000feffff0000ffffff00ffff000001000000ff0001fefe01ffff01010100ffff00fefe0101ffff00fe0100010001ff
ff010100000001010101fe01feff010101feffff01feff0100fefefffeff00fe010000000001010001000101fefeff0000fffe000100fefffeff01fe00fefe01
01fe010101fffeff0000ff01fefeffff0101000101fe00fefeffff01fe000101fefffffffe00fe000001ff0000fffefefe00fe00fe00fefefefefe01feff00ff
fffe00fefeff000001fe01fefe000000010000fefeffff01fffeff0100fe00ff0001ff00fffefffffe0000fe0000fefe01fe0101ff01ff00feff01000101ffff
01000000ff0001feff01fffffe00ff0000fe00fefe01fefefeff0001ff01fe000001fefffefe01ffff00fffffe01000001fefffffeff01fe00fffe0100010000
00feff01fe00ff010101ff010001ff00ff0101000000010001fe00fefe00fe01000101ff00ffffff00fefefefe0001fffffe0000ff0100fe00000101000100ff
00fefe0100feff01ffff01fe01fffefe000000feff0000fefefe0101ff0001000101ff010100fefefe000101ff00010100fefffffeff010101ff00fe01fe0101
01fefeff01ffff01feff0001fffe0100ff01fe01fe00ff00fffe00fefffffffffefe0000ff0101fefefe0001feff0001fefe000100010100ffff00000000ff01
fefffffe0000fefe000001fefefe01fe01ff00fefffffeff01fe01fefe0101010001ff01ff0000fffffffe00fe01fe00fe01feff00feff01ff01ff00fe0000ff
0001feff0100fffffffeffffff0101ff0000ffff00feffff01fffefeff00feff00010000fe0000010101ff01000001ff0000fe00feffff0001000100fffe01ff
ff00fffe0001ff0000fffffeff01000000fefe00010101ff00010101fefefe01fe000000ff000000ff000101ff01fffefe01010001fffefe01fe01fe01fefefe
0100ff01010101fe00fefefefefefeffff000000fffffeff01fe00ff01fe0000fe000100fe01feff01010101ff0001ff00fefe00fffe010100fefefefeff01ff
ff0101fe010101ff01fe01fffffefefe00fe00fffffe0101000000fefe0100fffffe01ffff01ff010100ff01fe00ff0101fefe0100feffffff01fe010000fefe
ff0001ffff00fefffffffffefe0101fffffefe0000fffeff00ff01000001fffe01fefffe00ff01fe01010000fe0100fe0000010000ff01ff0101fe0000000101
0000010101fe01ff0101fefffe00ff0000ff0000ff0000fffeff000001fffe0101ff00000001ff0001000101ff01fffe01feff00fefe01feff01010001000001
000101fefe0000ff0000fefeff01ff0000fe01ff010001feff000101fffe0101ff0100feffff01fefefffeffff00fefe01010100fffe0001000000fffe0101ff
