ff01fefeff00fefeff0000fefeff01ff01ff010001fe01fe0001fffeff0101fefffffe010000010000fffefe0000ff000100fefe00000000fffffe0001fffe01
010000ff01fefffffeff010001fffe00fffffffe00fe01fe01feffff00fefe0100000000fefefe000101feff0000ff01ff0100000001010101fefe01ffff00ff
fe00000100fefefffefe01fefeff01ffff0001ffff000000fefffefe01fe01ffff00ff01ff01ff000000fe01fefefe01fe00ff00fe010101fe0100fffe00ff00
fe00fefffefefe00ffff0000fe010100fe010101feff000000feff0000ff0001ff01ff0000010100000100fe000000ff0000feff0100ff0000fe01ffff0100fe
0000fe01ffffff01feffffff01fefffefefefe010101fe00ff0101fffe0001ff0101fffe000001fe010101fefefffefe000101000100fefefffeff00fe000100
ff01fffffefffe00010000fefe000000fe0100ff00ff00ff010101ff01010101fffeff0000feffff00ffff010000ffff0100fffffe0000fefffe0000fffffeff
ff00fffffeff0000fefffefeff00fe00fefffefe00ff0100fefe0100ff01ff01ffff0100feffffff0101fe000000fefffefffe01ffff00ff00fefefefffe00fe
000000fffffe00fe0000fe0100000001ff0000fe0000fe01fefeff00fe000100000100feff01000100ff00feff0100fffffefe0101ff0100fe0001ffff01fffe
fe00010001fe0000ff0001fefe000000ff01000000fe00fefefffefeff0101fe00fffe0001ffff01ffff000001fe00feff0101ff01fffffeff0101010000fe00
ff000000010001fffffeff000000fffeff00ff0001ffffff0100fffe01000101fffefffffe000001fe00fffe01000100fffe01ffff01ffffff010000fe00ffff
feff0001fe01ffff0001fe000001fefe0100fffe0100fffe01feff01fefe000000feff0001fe01ff0000010101feff0000fefefffefe00fefffe00fe01ff0000
ffffffffff010001ff010001ffff01ff00fefe00fffefe00010100fe0100fffe010001fe00ffff00ffffffff00fe00fe01feff00fefe00fe010101fe00fffefe
000000ffff0100feff0001000101ff01ff00fe00fffefffe00ff01fe000100fffefefffefffeffffff01fe0000fe00fe0001fe00000101010001fefefffefefe
01fe00feff010100ff0101ff0001fefe0100ff0001fffe00fffffe00fe01000000fefefe00feff0001fffe01000000fe01fe0101fe0001fe01ff00ff010001fe
fe01feff000100fffffffffffefffe010100ffff01000101fffefffeff01ffff00fe0000ff01ff000000fe00fefefefeffff000101ff01fffe01feff01fffefe
fffe00fefefffeff00000101fefe01fe00ff0100feff01fffefe0001fe000101fe00fefffefefeff01010100ff01ffff0101fe00ff0000ff01ffff0101000100
