000001feffff01fe00fefe000001ff0100fefffffefefffffe0100feffff0001fffe01ff0000010101fefffffe00ff00ffff010001ff000101fe0000ff0000fe
01fefeff01fefefefe010001fe01ffff00fffe01fefeff0100ff0000ff01ff01fe01ffffff01feffff0100ff01fe00fe0101fefffffffe0100ffff01fefffe01
0101ff010100000100ff0100ff000000fefffefe01fefffefe00fefefefeffff000101fe01ff010001fffe00fffe01feff00000101fefffeffff00feff0101ff
00ffff01fefffe00ffff0100fe0001feff00ff01000001000100fe0000000001ff0001fffeff0101fefe01fe0001fefe00fe0100fffeff0100ff010001fefe01
fffe00fe000100fefffe01fffefefffffe01fffefeffffffff00ffffff01ffff01ff0001000000ff01fe0100fffefefefefefefefefe00fefeff01feff0000fe
01ff01010001fffe0001fe0101ffff00fffffffe01fe01fffe01fe00fefeffffff01ffff01fefefffe00ff010101ff00ff00fe0001fefeff00ff01fefe000000
00ff01ff0101010101ffff0000ff0100000101fe00000100feff0000ff00feff00fe000000ffff010000fffffefffe010001fffeff00feff0100feff00010000
ffff0101fefffeffff00feff0001fe00ff0001fe01fe0001ff01ff0100000101fefe01fe0100fe0101fe0000010101ffffff000100ff010000ffff01fe0100fe
fe0101fe00fefe010001fefeff01ffff01fffe00ff0101ffffff0100fe00ff00fe0100fefe01ff01ffff010101010001ff01000101fffefefefe00ff000001fe
ffffff010101010001000001010100ff01ff0100fe01010001fefefffe01010101fefefffefe0101ff0100fefefffe01fefeff0101010100fe01fe00ffffff00
ffffff0101feffff000000ff0100ff00feff01ff0101010101ff0101fffe0001feffffff0100fe00fffe0101ff01ff01fefefe010101fefe01fffeff00fe01ff
01fffffe01fe00000100ff00010100ff00010100000000fffe01fffe01fefeff01fe01fefefffffe0000fefffffffefe01010100fefe0101ff00ff0001fffefe
01fefefe0001fefeff0000feff01fe0000ff0001000101ff01fe01fffe00fe00fe01000000fe01ff00fe0101fe0101fffffe00000000fffefeff000101000101
ff0000fefffeff00fefffe0101fefefffefe01fe01fe01feff01fefefffe00feff010100ff01000001fefe0100fe010100fe01010001fe01ff0100fffefefe01
01feff0001fffe01fe0001ff01000100ffff01fefffefefe00fe01fffefffeffff0101fefe0001010101feff00fefefffefe0000fefe01010000fe0101ff0100
feff01ff00fffefffefe00ff01000100fe0000ff01010101fefefe01fe0000feffff0101000000010101fefeffffff01fffe01ff01fe01ffff01fefffe01ff00
