ff00fffefefe01ff01000000ff01ff00fe000000feffff0001fffefe00fffe0101ff01fefffefe0101fe010100feffffff01fffeff00fefe00ff01ff0001fefe
ff0000fffffefe01fe000000fe01fe010000fe0001fe0100fe00ffff01fe000001ff0001fffffffffe0100fefeff00010100fefe00ff0001000101feff0000fe
00fffffe00fe01000001000101ff00fffffffe00000001000100fefe01fefefeff0000fefe01fe010001ff01ff0001fefefffefeff01fe0100ff00ffff00fe01
01fe01fffefefffffffefe010000fefeff01fefffe00010100fe00fe0001ff0001fefeff00fffe00fffe01ff01fffeff00000001fe000100fe000101fffefeff
0101ff0101ff0101fefffefffe000101fffe00fe0101feffff01fe00fefe01fefefe0000fefffefe010001fffefffeffff0000ff00fefe000001fe0100ffff01
ff01fe010000fffefffefffe0100feff0000ff00fe010101010001fe00ff0001ff01fefe01feff0100fe01000101ff01010000fefffffffffffeff01ff00ff00
0101ff00fffe00ff0101feff01fffffe01fefe00fefe00fe01ff00fe010101fefe0000fe01fefefe00fffeff00ffffffff0101010000fffefefffffefffe01ff
fffffffffffe01fefefeffff01ff00fe0101fe00feffff01fe00fe0000ff0000fe01fffffe01fffe00ff01000000fe0100fe0100ff0101fefefeff00ffff0101
fe00fefe000001ffff0100ff00fe0101ff00ffff0001010001fefe0001fffe010000fe0001fffe01fefefeffff0100ff00fefffe010000ff01ffff00ff01feff
fefefffe01fefffe01fe0001fefffe0100000101fe00fe00fe00ffff00fe0001ffff01fe0100fffffe0100fe00000101ff00fefe00fe000101ffff01010100fe
fefe00ffff00fe01ff0100ff010100ff01fffffe01fe00fefefffe01fffe00010000fe00fe00fe0001fe01fffe00fffefe01fffefffe010100fefffffeff0101
ff010001fe00ffff0100ff0000fe0000ffff0101fffefefffe0101ff00fefefe01feff01fefeff010000fe000000fefe0001ffff01ff01fe00fe000000fffe00
00fe00fffefefe000001fefeff000000fefefeff01fe00010101010100fffffe01fefefefffe0001ff01feff00fffe0001ff01ff00fefe00000001feff0001fe
01ff00feffff0101ff0101ffff0100fe00ff01ffff00fffefeffff00010101ff0101010001010001ff00ffffff0101fffe00fffeff0000ffff01fe00fe01fefe
00ffff01fe00ff00ff000100fffefffeff0001ffff00010101fefe010101feffff0101010000fffe01fe0000fefefe010101ff0100fefe00fe01ff01000000ff
0100000101000101010100fffefffe00fe0100fe01ffff010001ff00ff0101ff00000000ff0100fffe010101fffeff00fffefffffe0101fe0000ff0001fe00fe
01ff0001010101000100fffe01fffffefffffefefe00ff0100ff01fe010101ff0000fe01fe00fe010000fefe00ffff0100ff00fe01fe00fffe0100ff0000ff01
ff010101feffff00feff010000fe01fefe00fffe0000fefe0101000101ff01ff00ff01ffff00ff00ff0100fe01fe0001fe000000fffe01fe00feff00fffffefe
000100fe010101fefffeff01ff0100fffe01fefe01fefe01010100010100000101fefe00fffefffeffff01fe00ff00fefffe0000ff010001fefefe010100ff01
00feff0101fe0000ff010001fffffeff0100ff00000101fffe00010101fe00fe00ff01000000feff0100fe01ff0100fffffe000001fe0101fe0000ff0100ff01
ffff010001fe0100feff01fffffffffe00fffeffffff010101010101010101fefeff00feff01ff01010001ff010101000001feffff0100000000fffffefe01fe
0001fffffe0000ff01ff000101fefe0000fe0100000101ff01ffffffff0001ff00ff0100fefe00ff01feffff0001fefe01ff010001fefffefffe01fffefefefe
ff01feff00fffefffefffe0101fffffe010000fefefeff0100ff010001010100ffff010101ff0100ff01feffff00fefeff00ff01fe00fe00000100000000fe01
0001000100fefe01ff00ff00fefefe00fe0101feff010001fefe010101fe00ff0100fe0000ff00000100fe01fefffeff0101feff010100010100010000fffeff
