010101fe0001fffe000100000100fffefeff01000000fffe0100fefeffff0101fefe000001fefefefefffefe01ff01fffe0001fefe01feffff01ffffff01feff
00fe01000000fffe0100fffefefefe00fffefffefeff00fefefefffe00fffffe000001fe01fe010101010100ff01fefefe00ff0100010000010101feff010001
fffe010100feff01fffe000001ffff0101feff0001fffffefe00000001ff00fffefe01fefe00fefffefffefffffe00fe01010000fffeff010000010101fffeff
fe01ffff00000100ff010101ff0000ff01000001ffff00fffe0100fefefefffefffe01ff010101fe01ff00fffefe01ff00feffff00feff00ff00fefffefefe00
00fe0101fe01fe01fe0000ffffffff00ff010100ff01000000ffff01ff0101010001fffe01fe01ff00fe00fe00fe0001fffffffe01fe01feff0100fe00fffffe
00ffff010001feff00ff01fe00fe01fffefeff00010000fe0101ff00fffe00000000000000fe00feff000001fffefe0001fffe00fffe00feffff01ffffff00fe
fe01feff00ff000001fffffe01ffff00fffeffffffff00fefffefefefefffffe00fe0100ff00010101feff00fefefeffffff0100ff00fffe0001000100fefe00
fe00ff00ff01feffff01ff01ff0000fe00000000fe01fe01fffefe01ff00feff000100feff0101feff0100000101fefe00fe01fe010000ff010000ff01000101
00000000000000000000000000000000000000000000000000000000000000000000000000000000000000000000000000000000000000000000000000000000
ffff01010000ff00fe0100ff000100fefefffe0000000000fefffe000100ff00010101fe0101ff010001010001ff01ff00feff010100fffe0101fe000000fefe
0100ff00ffff00fe00fe01010101ff01fffe010101fe0101ff000001ff00000100fe01fefeffffffffffff00fffe00010000ff01fe0101010001ffffff00fffe
0000fffeffff01fe000001ff0001fe00fe010100fefffe01000100ff01ff01fe0100000101fe0100fe0000ffffff0100ff00fffe0101ff00fe01fefefefe00ff
ffff01ffff01fefefe0000000000fe00ff00fefe00fe0000ffff01ff0100fefefefe010001fefeffffffff000001fe00ff0000ff0001ff00fffffefe0001ff00
fefe01fe00fe01fe0100feff01fe01010000fe00ffff01fefffeff01fefeffff00fefefefe00feff00ffff0100ff00fffffefefefe00ffffffff0001fe0000fe
feff00fe00fffefeff01ff01fffe00ff0101010101fefffe0000fe01ff00fefeff00ff00ff0101ff0100ffff01000100fffffeffff000101010000ff01feff00
0001fffe0100fffffefe01ffff00feff00fffeff00fffefe01000000feffff0000ff01feff00000100ff01fffe00fefefe0000ffffff00ff00ff00fefffeff00
01ffffff01ffff01010000fffeff01fffe0000fefe0000fe000001ff0000010101fffefe01fe000000fe00fe01ff010000fe00fffefefefefe0000feff000000
00000000000000000000000000000000000000000000000000000000000000000000000000000000000000000000000000000000000000000000000000000000
fefeff01ff0000ffff00fe0000fe01ff0100fefefffffefeff00ff0000fffffe00fe01ffff0001010000ff00fe01fefe00ffff0101ff0101ff00fefffefe0000
fffe00fe00ff00feff010100fe0001fe01010100010101fe0000ff0001fffefeff00fe01fefe010000ffff0100fefefffefeff01fffffe01fefe01fe0100ff00
fefe00fffe000000ff000001fffe0101fefe00ffff00fefeff0000ffff0001fffffe000100fe01ff000000ffffffffff000000010000fe00010000fe00fffe01
00fffe01fe000001fe0101fffeffffffff010000fffe00000100010000fe010001feff00fe01ffffff00fe01000000fffefe010001fe01ff0001fe00ff01fffe
0100010001ff01fffefeff01ff01ff01fe01010000ffff00feff010000fffe00ffff00fffffeff0101fffeffff00ff01fe01fe01ff000101fe00ff0000ffffff
010101010101fffefe01ff00fe00fffe00fefe000001ff00fffefe01feff00ff0101feff01fe00fffeff000101feff0101ffff00fffefefe01fefffeff00fefe
000001fe01ff0100fefe00fefffefe01fefefefefeff01fe00fe01fffffe00feff0001fefe01fe01fffeff00feff0001ff01feff010100fe0101fefe01ffffff
0000ff00010101000000ffff0001ff01010100ff0000ff010100ff0001010001ff01fefe01fffeffff0001010001ff00000001feff0000ff00ffff01fefefefe
00000000000000000000000000000000000000000000000000000000000000000000000000000000000000000000000000000000000000000000000000000000
