01fe01fe00feffff00ffffffff01fffffffeff0001ff010001ff0100fefe00fffe01000001feff0101fffffe0000ff01fffe0101fffffefe0001fffefffe00fe
fefe01000001ffff00ff01fe01fffffe0000fffe0101ff00ff0101feffff0101fefeff00ff0101fffffffefefeffffff0000fe00fefe0100ff0100fe00010100
ffff0000fe0000fefeff000100fffffefefe00010100ff000001ff00ffff00ffffff01010001010001fe00fefffffe010000010100fe00fffe00fe01fffeff00
ff0101ff00fefefe01fffe0000fefe0101ffff000001fefe010001fe01ffff00fffe0000fefefe00ff01fe0001fefffffefe01fffe0000ff01ff0001fe00feff
ff00feffff0100ff01fe00ff00fefffe0101fffe00fe00ffff0101fe00fe010100fffffe01feff0001ffff000101ff01fefe0101feff00feffff01ff00fefe00
00ff01fffe01ff0000000000fe01ffff01fe01ff00fefffe01fe0000ffff01fefe01ff00fe000100fe000101fffe01fe00fefe00fe010101ff01fe0001ff01fe
01fe000100fe01010001fe010000000100fe0101ffffff00ff00fe0100fefefefe0100fefeff0101fefe00ffff01000100fe0100ff00fefe00fe00fffe0100fe
ff000000fffefefefefefffe0001fffe00feff01fe0000feff01fffefefefffeff0000fefffe01fefefe01fe0101fe0001fe01fefe0000010001fe0001fe00fe
00000000000000000000000000000000000000000000000000000000000000000000000000000000000000000000000000000000000000000000000000000000
010100ffffff01fffe01fe00fefeff01000000ff01fe01ff0101ff0101ffff01feff00fefe00feff00fffefefeff0101000101010000fefe010000fffefeff01
ff00ff0000000101fffffefe0100fe01fffefefffefe000100fefe0001ff01ffff00ff0100ff00fe01010000fe01fffefe00fffe01fefe01fffefe01010101fe
ff00ff0000fefefe0001fe00feff01010101feffff0100010100ff0101fe01ffff00ffff01ffff000100ff010000fffe0101fefefeffff00fe00ffff0000fe00
0000fe0101fefffefe01000000fffe01ffffff0100ff01ff01010101000001ff00fe01ff00fe0000fe00fe010000feffff00ffff01fefe00fffefe000100fffe
01fffffefe000100feff00fe0101fefffe00fefffffeff01ff0001ff010100feff0101ffffffff000101010000ff000001ffff00feff0001feff01fffefe0101
fffeff00ff00010000fe01ff010000ff00ff01fffe00fefe00fffefe0101ff0000ffff000100feffff000101fe01ff00fffe010001fe00ff01fffe0000ff0000
0001fffe0001fe00ff01ffff0100fe0000fe01ff00fffeffffff01fffefe00fe00feff000100ff0000fe00fefe0101fe01fffffe01feffff0100010101fefffe
01fe0101010000010001fe0100000101ff00fefefffeff01ff01feffff000101fefffeff00fefe0001fefefeffffff00fffeff00fefffefefe00fefefeffff01
00000000000000000000000000000000000000000000000000000000000000000000000000000000000000000000000000000000000000000000000000000000
01ff00feff0101fffe0100fffe00ff0001fe000101fe0100feff00010100ff00fffefeff010000010001fe010101ff0100fffffffe01fe01fffffffffe010100
00000001000101feff0001fe0001fe0000fe0000fefffe01000101fe01fe0100ffff00fefe0001feff0101feff0101ff00ff000101fe0100fffefe00fe01feff
0101fe01ff01000001000100fefe00ffffff01000001fffe01fefe00ffff00fe0100fffffefeff01ffff01ff00ff0001fe0101fe00fffe0100fe01ff0001ff01
01fe00fefffe0100010001fe01ffff01ff01fffe0100ff00feffff0000feffffff010001fe00fefe0001fffeff00fefe0101ff01ff01fffefe0101fe00ff00fe
fffe01fffe0000fe010101feff00fffe00fffe000000ff00fefefffe00010100ffff01fefe00000101010101ff0000fffefffefe00fffe00fefe00feff010101
fefffe00feffff00ff00feff00feff01feffffff0001fe01fefe00ff00010101fefefeffff01fffefefefefffe00fefefe01fefe01fe0001ffffff01fe00fe00
00fffeff0100fffffeff000100fefefffffffefe01ff010101fe0000ff010100fffe01fefefe01ff00fefefffffefffe00fffe01fffeffff01fefe0100fe01fe
0001fffe00feffff01feff0000fefefe0101fffe010001ff00ff00010101fe01fe0000ffffff010001ffff0100fffe0101fe00fffffefe00fe00feff01fe00ff
00000000000000000000000000000000000000000000000000000000000000000000000000000000000000000000000000000000000000000000000000000000
