ff0001ff01feff0001fffffe01ff010000fffe010100000000feff00ff0000fe010000000101ffffff0000fffffeffff01000100fefe000100fefffe0101ff00
0101fefe0101ff00ff00fffffe00ff000000010100fefeff01fefe0100000100fffffe0100fe01fffefefe0101fffffe01010100fefe00ff0000ff0001ffffff
fefefffe01fefefe000001fffefe0001fffeffff0001ffff0001fe010001ff0100fefefe00ff01000001ff00ff00ff010101010001ff0001ff010101ff00fe01
ffff0101010101010001fffe00fe010000ff0001fe0000fffeff00fffffefefe01fe01fe00000100fe01fffefe00ff00010100fefffefefe00fefffe00ff0001
01fffe0000010001fefe00feff00ff01ff01fe0001feff0001fe01ff00fefffefe01fefeffff01fffefe01ff01fefeffff01fffe00fe000001fe0100fffefeff
fe01ff01fffffeff01fefeffff01fefe01fe00010100ff0101000000ff01fe00ffffff00fe00fefe000001fefefe000101fefffe00fe010101ffffff01fe01fe
ff0000fefefffeff00ff00feff01010000fffe0100010001fe00ff0100feff01ff00fe0001ff0001feff0101fffeff01000001fe01fe0100fe000100fffe00ff
000001ff01ff00ff010000ff0000fe01ff0001fefe00fefe00ff01000001010001ff0001fe01fffefe01fe0000feff01fefe01fe0100fe01fe01ffff01000100
ffff0000fffffefefffe00fe00ff0000010001fe000000010001feff010000010101fffe00ff00fefe01fe00feffff010001ff01fffefefe01fe01ffffffff01
fe00fefefe01fefe0101ff0100000100000001fefefeff01fe01ffff01ffff01fe000100ff0100feff0000fffe00ff00fefe0100fe00feff0100ffffff0000ff
01fffefffffeff010100fe010100fe010101fffe00010101fffffffefffefe00fefe000000fffffe01ffffffff0100fe01000000fefe01fefe010000fe0000ff
ff01ff0001000101fffffefe01ff000000000000ffff01ff01010100fe000100ff00ff01fe0000ff0100ffff00fefe00fe0000fe0001010100fefefffefefefe
fe00fefeff00feff01ff01fe01ff01ff0000fefefe0101fffefeff00fffe000000ff0101ff0101feff010100fffe00fffefefefefffeffff01ff0100fefefeff
01fefe01fe0101fe01fe01fffffeff0001010101000100ff000000fefefffe01000000feff0100fe01feff0000000101ff010100ff0100010000010001ff0100
feff0101fefeff010101ff00010100fffefefe01fe0000fffefefffe010101fe01ff01feff00ff01fefe01fe00ff010100fe0001010101fe01fffffefffffe01
fffffeff01fefefffeffffff000000fffe00ff01fe01fefffffefffffe00ff0000fe0000fe0001000100fe01fefe000100fefe0101fffffe010101010101ffff
