fefefe0001fffffe00ff0001fffe01fe01fe0101fffe0100ffff01fefe00ffff00fefefffeff01ff01fffe00fe00fe0000ffff00feff0100ff00fefffeff00ff
ff00fefe01ff01fffffe01fffffffeff01fffefefefe0101ff00fefe000101ff0001fefefeff0101fefffeffffff01fffeff01fefeff0100010001010001feff
00ff00000101ff0001000100ff010101fe01010100fe00ffffff0001ffffff00ff0001010101010001ff00ff00fe000101ff00fe0101ff00010001fe0100ff00
fefe01fe00ff01fffe0001fffefefe00fe010101ff01ff00fefe00fefffffe00fe00ff01ff01ff00fffffeff0001ff0100feff0001000001010100fe00fffeff
ff000000ffffff00fefeff00fffe00ffff0001fefefe0001fe0101010000feff010101fefe0100000101ffff00000100fffefeff0001fefe00010100fffeff00
00fefefeffff010101fe00010101fe0001fe000000fefefeffffff00fefe0001fe010101ff010000feff000100ff0001fffeff01ff00fe01000100feff010000
0100fefe0001fefe010001000001fefefeff01fffefefefe01ff01fffe0000fffefefefe00fe00fe00010000ff01ff0000fffffe0001fffefffe0100ffff01ff
ff0101ff0000ff01fe0101010101ff01ff0001fe00fe0000ff01fffeff00ff01fe010100ff01fe0000ffff01ff0101fe0100fffeffff01000100feff0101feff
00feff010101feffffffff01fefe000000fefefffefe0001ff01feff00ff00fffffe00fe00fe0001fefefffffffffe00ff00ffff010000ff00ff01010100ff01
fefffeff01fe01fefffe0000fefefe0101fefe000100ff01ff00ff0101fe01000001feff0000fffe01fffffffeff0100fffeff0000fe0000fffe01fefe000101
fefe010100010001ffff01ffff000100010001010000ffff00fffe010001ff00fffefeff01fffffefeffff0001feffff00fefefe0100ff00fffeff0101ff0101
00fe00fefe0100ff01000100ff010100010000fefefeff00fe00feff00fe01ff00fe01ff0100fffefffffefffefffffeff01fe000100ff01fe01000101ff0001
0101fefe00fe0001fe010101ff0100fe010100ff00fe01ff0100fffefe01000001fffe01fe01fffefe010000fe00fefe0100ff01fefe01fffe010001fe01feff
00000100fe00fefe01fffe01fffe010100fe00010000ff0101fefffeff01ffff00fefe010001feffff0000feff01fefffffe00010001ff0000feffff010101fe
fefffffe0101ff000000fffefe01fe0001feffff01010101000001fffe00000100010001fffeff01ff01000000000100ff0101ff01fefe01fe00feff0100feff
fe00ffff0001fffefe00ff00000100ffff0001feff01ff00000000feff01fe0100fefffffefe0001000001fefeffffff00ff000101feff01ff00feffffff01fe
