ff0001fefefe000000fefe01fefe01ff00fefe01fefeff01fffe00ff0101fe0101fefefe00fffffefefefffe01000100fffeffff0100000001010001fefe0101
0000fefefe010000ff0001fe01000000ff0001ff010001fe0001000000fe01fe00fe01ffff00fefe00000000fe00fefe01fefe00fe01ff00fe0001fe01ff0101
01ff01fffefeff0101fffefe01ff00fe01fe00000000fffe0101fe00fefe010001fffffffefe000100fffffefffefe01fefefeff0001fe010101fe01fffefefe
01fffffefffffffeff00ff010101010000feff0100ff01fe01fefffeff01fffe0101fe00000101000100fe01feff000101fefe00000101fe000101000100ffff
ff01fe010101000101ff0101010101fe00000000fffe01fe0001fffffffe01ff01fefeffff0000010100fe0101ff01ffff010000000001feff00fffffe0000fe
01010000010000ffff00fefffefe0000fefe00fe01fe00feffff01fe00fefefe0001000100fefffffe01fefffe00fe0001fffefefe00fe010101fffffe0100fe
ff00fffffffe00feffffff00fffefe01fe01ff00ff0001fe01fefe01fefeff01fefe00fe0000fe00fffefe01ff0100fe0101fefe01fffefe01000100fefffe00
0100fefe00fe01ff00feff000101ffffff00000101ff0100ff00010001fffefffeff01fffe0000fffe01010101fe01feffff00ff00fe00fffffe000100ff0101
00000000000000000000000000000000000000000000000000000000000000000000000000000000000000000000000000000000000000000000000000000000
ff00fffe00fffe01fffefffffffefeff0001010100ff01fffffe0001ff010100fffeff00fffffeff00fffe00fe00fe0100fefe01fffe0000fefe0001fffe00ff
fe0001feff01000101fe010100fefffefefe01fefffefffffeffff0000feff01fe0101fefffefffe010101fe01fffe0000fefe00010100ff01fe00ff00fe01ff
fe0100fe01ffff0000fefe00fe0001ff00ff000001fffefe0001fffffe00ffffff00ff0101ffff01ff01ff010000fefe00fefe01000101fefffefe0001000100
01ffff01ffff01ff00fe01feff01fe00ff0000feffffff01fe01fe0001ff00fefe0101fefefe00fe010100feffff0001feff0001ff01fefefffeff00fefe00ff
010101fffffffefefe01fe00000101000000fefefefe00fefefffe01feff01ff01fe0000ffffff01010000fefffe000100000101ffff00fe010100ff0101ff00
00ff01fffe00ffffffff0001feff00fe0100ff0001ff00fefe000000000001ff000001feffff00fffefffe00fe01ffff00fe0001fefe01ff0101ff0100fefffe
0100ff000100fe01fe0101ff0101ffff01feff00ff01fe0001fe00fe0001fffffeffffff0101fe0001fe0000fefffe00ff0101feffff0100feff0000feff01fe
01fefffe01fffffe00fffe01feff01ff01fefffe01ffff01fffeffff010001ffff01ff00fffeff00ff01ff0001ffff0100000101ff0101fefefe01fffe01ff01
00000000000000000000000000000000000000000000000000000000000000000000000000000000000000000000000000000000000000000000000000000000
fe010001fffefffefefe0100fe01fefffffeff0000fe0100010000ff0101ffffff010001fffe01fe01fe010000010101fe010100feff00fe01fe01ff01fefffe
00fefe000100ff01010101ff0100ffff0101ff010001fe01ff01ffff0001fe0000feffff01fe01ff01fffefe00fe010101fffe000000fefe00fe00fffffe0101
0100ffff0101fefefe00ffff00ffff01feff000101fe010001fefe0101fe0001fefffe00ff00ff000000fe0001ffff00ff000000fefffffefe00ffffff010100
ff01fffe01ffff00feff0001ffffff00fefffffe00fefe00ff01fefffe010100ff0101fffffefe0100fe00fefeff00010101fffe0100fe01feffff0101010100
0001fe00fe00fffe0101010000feffff00feff01fffe0101feff000000ff0100010100ff0100fefffffefefeff00fe00fe00fe0100fffffe010101000101ff01
00ff01fe010000feff0000feff01fe00fe0001fe010101fffe01fe0000fffffeffff00fffeffff010100fefe0000fffefffe00fe0001fffffeff01fffffefe01
fefe000001fefeff00fefffffffefe0101feff01fefefefffefeff00ffff01fffefffefefeff01fe00ff0100fe0101fffefe0100fefefefe00ff010100010100
fe0100fe00ff01fe00fe000001fffefffeff00feff01fe00fe00ffff0101feff000101fe01feff000100ffff0101fefe0001000001fe0000ff01ff0000ff0001
00000000000000000000000000000000000000000000000000000000000000000000000000000000000000000000000000000000000000000000000000000000
