fffe01000000fe01fe00ffffff01fe01ff0001fffe010100fe01000100fefefe01010000fefe00feff01fffffe00fefefffe0101feff01010100fe0000ff00ff
00fe00fe0001ff01ff00fffffefe01fe010001ff00fefeff000101fe0101fffe00feff0101fefffefefffffe01010000ff0001feffff00ff01fe00fffffffe00
010101ff010101fefefe0101fe0100fe01feff00fffe000100fe00fe0001fffffe010100ffff00fe0101fefe00ff00fe010000ff01feff01fefeffff00000100
010001010001fffffeffffff0100fffe00fefefffefe0100ff00fffffefefeff0100ff000000fefeffffffff00fffefffefefe00010100feffffff0001fe0001
fe000001ffff00010001fe0100fffefefe01010000ff0000fffffffe010001fe00000101ff000001ffffff000100ffff010100fefffefefefefefefffffffe01
ff01fe0000ff01ffff0100ff010000fe01fffe00ff00feffff0100ffffff00ff00ff00fffeff01fffe0101ff0000fefffffe0100fffe000001feff00000001fe
000101fefeff010100feff000000ff0000fffffe00000101fe01fe00fe00fe01fe00fe01ff0000ffff0000fefe010001ff0001fe0000ff0001fefffefffefe01
0000ff0001000001fe01fe0100fe00ff00ff00fe0001ff0100010000fffe0000fffefffeff00fefffefe00fe00ff01ffff01fffefffeff01ff01ff0101ff0001
00000000000000000000000000000000000000000000000000000000000000000000000000000000000000000000000000000000000000000000000000000000
fffe01fefffe0100fffefffe0000fffffefefffeff000001ff000000fffe01ffff0100fe01010000ff0000fe00fefeff0100fefefe010000fffffe0000fefe01
01fffffe01ff01fe00feff01ff01010101fefefeff00ff000101feff01fefefefeff01fffeffffffff01feff00fe00ffffff010001fe0100010100feff01ff01
ff00feff00000101feff0001fffe01ff00fefe000100fffffefe01fefe010001fe01feff01fe00ffffff010100ff0000fefe00ff00fefe000101fe01ff00fffe
fffffefefeff01fe0100ff00fe00fe01000000feff0101fefefffe01ff01fe01010000fffefe0000fefffffeff01fffffefefefe0101fe01010000ff0100fffe
fe0100fe0001fe0000ff01ff0100fefe01fe010001feffff00fefffeff0001000001fe01fffe0100fe00ff01fefefe00fe0000ff00010101fe010000fe00fe01
01fffe00fe0000fe00fefe01fffe0100010100000001fe0100ffffff0001ff00fe0101ff01000001fefffe010001fe000100ff01fefffe010100010001fe00ff
fefe01fffffe01000100fffe00fefe01fffe00ffff0101fe00fffe0101fe01010001fffffefffffe0101ff01010101fefefe00ff0001ff000000fefe010101fe
01fffffe00fefffe0100fe0000010001ffffff01fe010101ff0000ff01feff00feff01ff01fffeff0001fefffe00fffefefe0000fefe01ff010000ff00fffffe
00000000000000000000000000000000000000000000000000000000000000000000000000000000000000000000000000000000000000000000000000000000
01fe01010100fe01fefe000000ffff01fffe01000100ff01ff010001fffffefe01ff01000001ffff01ff00feff01ff0000010001fffffe01fffefeff0001fe01
010101fffffffefffffeff00fffffeff01000101fe010101ff01fefffe01fefefffe01fefe0100ff01000101ff01000001fe01ff01000100fffefe0001ffffff
fffefffe000001fefffefffeff00fe0100000000feff0000010101ff000000feffff00ff01fffe00fe00ff00010100feff0000ffffff0101fefefffeff00feff
01ffff01ffff01010101010100fe00ff01ff0000fe0000ff01ff000000fe00ff0000ff000001feff00fefeffffff000100fffeffff00ff010001010100ffff00
00ff00fefefe01ff01ffff000000fefefefefe01fe00fefefe010001fe0100010100fe00fe0101fe0101ff00fefffe0100000100000100ff00fefe0000fe0100
fe01ff00ff000001ffff000001fefe000101ff01fffffe0101fffe0001000001fefffefe00fefe00fe0100ff0100ff01feff00fffe00010101ff01feffff0001
01ff0100000000ffff010100ff01fefeff00000000ff00ff00fefefe01fefeff00fefefe00ff00010101feff0100feffff010000ff010000ff00fe0101010100
010100fefefefffefeff01feff000001000000010000fefeff01ffff01fe0101ff01fefffe00010001fffefffefffeff00fefefefe01ff0001010100ff00fe00
00000000000000000000000000000000000000000000000000000000000000000000000000000000000000000000000000000000000000000000000000000000
