00feff000101fe0100fffffffefffeff01fe01ffff01ff01ffff00ffff010001fefefefffe01fefe01fe0100fffefeff00fffefe01000000fe00fe0001ffffff
fffeff00fe01fe01fe0000fffffffefefe00ff000000ff00ff0001fefe00fefefe010001fffe0001ff01ff0001ff00fffefffefe0101ff000001fefefeff01ff
0000ffff01010100fefe0100feff01fe00ff01fefefeffff01fffeff00000001fffefefeff0100ffffffff01fe0100fefe0001010101fefe01fe00fefe00ff01
00ff0101fefe01fefefeff000100fefe0101fefe0001000101fe0000fe01fffeff0100feffff00fe01fefeff0100ff0001fe0100ff01ff000001fe01fe00ff00
0001ff00ff0101fe0001fefffefe0001ffffff00fe01fffe01ff010101ff00fe0001fe01fefefefeffffffff00010001000100ff0001fffeff00ffff010001fe
0000fefe01fe0101fefeff0001fefe0000fefffeffffff0100feff00fffe01fe01ff0000fefe000000fe0001000001fe0100ffff0000fffefe0100fe0100fefe
fefffeff0101ffff0001ff00fffffe0100ff000001ff00ff000100ff00ff00fefe00ff000001fffeffff01feffffffff010001fffefeffff0000fe0000feff00
00fe01ff01ffff01010101fe00fe01feff0100fe01fefe0100feff0001ffff010001ff0100fffefffffffefefffffe01fffffeff0101fe000101ff01ffff00ff
fefffe00fe00ffff0000ff01feff01fe0000010100ffff0100fefffeffff01feff01ff00fefefefe00000100fffeff0100ff01010001ffff00010101fffe01ff
ff0001fefeffff01ffffff010100feff0100fe01fffffffffffe0001fe0100fefffffefe0101feff01ff0001fffffe00000100ff01fffffefefe0001ff0101fe
fffeff0001fffe01ff01000101fe00fffeff01feff0000ff01010101feff0000fe01ff01fffe010101000100fefe0000ff01ff01ff00fe0001010101fefe01fe
0100fe0000ff00010100ffff0001ff0101fffefe01feff00fefffefe000101fe01ffff01feffff00ff0001fefefefefe00fe00fe0100fefefefffeff00fe0100
fe010001ffff01feffff01fffe0000ff01fefe00ff00fffefe00fffeff0000ff01feff01fffffe010100000101fe00ff010000ff00fffefffefffefffe00fe01
ff01ff00fffe01fe01fe01ff01ff000100ff0100fe01ff01ffffff00ff00ff0101fe0001fe010001ff010000feff00fefeff00fefffffffffe01ffff01000100
feff01000000fe0101fffefe00ff01fe00ff00feff01fefefefe01ffff01fffe010000010101ff0100ffff01fe00ff00ff0101fffe0101010100fe00fe000000
000001fe01feff00fefe01ffff0100fffe00fefe01fefe010000fe0100fefe00fe0100fe000101feff01fffe0101fe01ffff01fefeff010001fe01fe010001fe
0101fe01ffff000000ffff01fe0100feffffffff00feff01ff0001000101feffff010100ff00000100fe00feff00fffefefefeff0001000001fffe01fefefffe
fefeff0000fe01ff010101fe010001feffff0001ff00fe0100ff01feff01fe000101ffff0000fe01ffff00fe00fe010101fefe00fffe0000fe010001ff01fffe
01fffffefefefffe00010100ff01fe0000fffffffeffff01fffe01feffffff0101fefefffe000000fe000000ff0001ff0000fffeff01fffe00ff0001fe0001ff
01fe01fefe0100fffffefe000001ff00fe00fffefe00fefffe0100fefefe00fefeffffff01000100fe000000010001fe0000000101fe0001fefefeffff0001fe
fefefeff0100fffe0101feff0000000000ff010101ff00feffffff0100fe00fffeff000001fefe00010100fefe0001feff01ff000100fefe01fffe00ff0001ff
000000fe0100fe010001fe00fe01fefffe01fffe0100000101ffff00fffe0101ffff00feff0100fefffffffffefefefefe0101ffff00ff01ff01fffefefefeff
fffe010001fe0000fffffe010000fe0000ffffff0100fefeff010000ff00feff00ff0000ff01fefe01fefefeff0100ff0000fe01000101fe01fe00fe01000000
00fefe000101ff0101fffefffe0101000100ffff0101fefffeff01fefe00010001fefe0101fffffe0101010101ffff00000100feff01fefffeff01fefe0001ff
