01fffffe010101fffffffffffffffe000101000000ffff00fe00fe0100fe00fe00ff00fefefe0000ffff01ff01ff01fe01010101fe00fffeff01fe01ffff0100
0001ffff00000100fefe00010000fe00ff01ff0000fffe00ffff01fffeff010101fe01fe0000fffefefefe00010001feff01ff01fefefe01ff01fefffefe00ff
ffff01fe0000fefffefffffffeff0000fffe01ffff010001ff01000001fe000101000000ff00ff00fe00000000fffe000100fefe00fffefefffffeff00fefffe
fefe01ff00fe0100feff01fe010001ff01ff0101010001ffff000101fffe01ff01ff0001fe01fe01fefefe0001000101000100fffe00ffff0100ffff01fefe01
0101000000ff010100ff000101fffe0001ffff01ff0000feff00fe00fe0100fffe0100fe0101010101fe0100000001fe000001ff00fefeff00fe00fe00fe0001
fffffefeffffff00fffe0001ff00fefefe0001fefe01ffff00fefefeff00fffe010000ffff01fefe0001000101ff00ff0000feff01fffe01feff01fefffe0100
00ffff0000feff010101fe000001fefe000000ff0000ff0000fefffeffff010100010101fefe01fefffe00ff00fe0100ff010000fe00fefe0100fe000101ff01
00fffe000100fefefefffe010000ff01ff00fe01ffff00fe00fe000101fefe0101000101000101ffffffffff0000fe0101fffffe000000fe00ff01fe000000ff
ff01000000ffff00fe00fe00fe010100fefeff00ffffff01fe01ff0000010100fe00ff00fefefeffffff01010000ff00fffefffe0001fefe0100fe01fffe0100
00000100010100ff0001feff01ff0101ff00feffff0001fefe01ff01fefffe01ffff0000ff00000000fefefffeffffff01fffe010101fefffefffe01fe01fe01
00fe01ff010100010100fffe01feff00000000ff00fe0000fe010001000101fffefeff01000101fffe0001ff000100fefffe0000fffe00fffffffffeffff01ff
fe0100000100fffeff01fe0000010100ff0101fffffefffffe00fe00000000ffffffff01ffff00fe010101fe00fffffeffff00fffe0101ffff01fffe000101fe
fefe010101fe01ff0100010101ff01fefe00000100fefeffff0001fefe0001fffffe01fffe00fffe0100ffff000001fffe00fe0100feffff01fe000100fe01ff
01fe0101ff01fe0100ffff010101fe00fefe010100fefffffefe01fffefe00fefe00fe010000fe0000ff01fe01ff00fe00fefffe01ff00ff00fffefefe0101ff
ff00fe01feff0001fefffe0000fffe00fe0001fefe01fefefe01fffefefffe0001000101ff01000100fefe01fffe0001ff0000fe01fefefffe0001fffffffefe
ff00000100fffe01fffe0101010000ffffff00ff01fe0100fffefffeff00000101ff00ff00010101ff000100ff010001fe01fefe01010100ff0101fe01010101
