fffe01fe010100fe0000ff010101ff01fffefe00ffff0100fffe0100fefe0000fefe010100fffefffeffff00fe0001ff00010100ff00ff010000feffff01fe00
fefffffefefffefe00fffefe0001fefe00fffffe0100fe00fefffe00fe0000fe00000001fefe010101010000000101fe0100000101ffff010101fe0101ff01ff
ff000100fffeffff00fffe01ff000100000100ff01000101ff00fffefefffeff00ff01fe0000fffefffffe00feff00ffff0101feff00fffe0000fe00fefe01fe
01ff010100000000fefefe01ff0100feff000001fe0100feff00feffff01fe010100ff0000feff000101ff00ffff01fefffe00fffefe00feff00ff010100fffe
ff01feff00fffffe01fe01000100000000fefffffeffff00fffefffefe0100ff0001fffe00010001fe00ff01000001010001ff0101fffefffeff0101ffffff01
fe000101fe010100fefe010001fffe00fefe01000001000001fffeffff00fe01ff000101fe00ff01fe0101fe01fffffffe0001fffe00010000fefeff01ff0000
0101fefeff010100fe0000feff0000ff0101fe00ff00fffefeff00fe000100ff00fffe0100ff01000100fe01fe01ff00ff01ff00ff01fe0101ff00fe000101ff
00ff0101feffffff01fffe0101000000010101ff01ff0101fe01fffe00ff01fffefeff000001fefffffffefffe0100ff01ff000100010001fefeffff0000ffff
00000000000000000000000000000000000000000000000000000000000000000000000000000000000000000000000000000000000000000000000000000000
fefe010101fefefffe0100feff01000000feffff00ff00fefffe01000001fe0000feff01feff00ff00feffff010000010101fffe01feffffff0101ff0000ffff
fefffe00feff0000fe0101000101fffefeff010100fe0101fffffe00feffff0001feff0000fffefe0101ffff000001000101ff0101fffffefefffefe00010001
fffe01ff010001feff0001fe01ff00feffffff01fffe01ff00feff00fffffe01fffffe00fe00ffffff0000ff01ffffff0100000000fefe0100ff0001feff0101
01fe0000ff01fefefefefffe00ff0101010100ff00ff01ffffff0000010000fffffffffe0101fefe000001fe01ff00ff000100fe0000fefefffffe0000fffe00
01fffeff00fe00fefe00010101fefeffff0000fe00ffff0101ff000001ff010101ff0000ffff01fffefe00000001fffffffffffe00fffefefefefeff0101ffff
ff01000001ffff000100fefe00ff01fffeff00ff00ff01ff01010000feff00feffff00fffffffe00ff00fefe01ff00ff01ffff00fe00fffefe0000ff01feff01
fefe01000100fffe01feff00010100feff00fe010101fffe000101fe0101ff01feff01ff0001fe01fefe0000ff01010100fefefefe01fe01fe0101010000fefe
00fefefffeff0001fe00ff01000100010100fe00000000ff0101ff00fefe0100fffefefeffff01ff01fe0100fefe00fffe00ff01ff01fe00fefffefefffe0000
00000000000000000000000000000000000000000000000000000000000000000000000000000000000000000000000000000000000000000000000000000000
00000000000000000000000000000000000000000000000000000000000000000000000000000000000000000000000000000000000000000000000000000000
00000000000000000000000000000000000000000000000000000000000000000000000000000000000000000000000000000000000000000000000000000000
00000000000000000000000000000000000000000000000000000000000000000000000000000000000000000000000000000000000000000000000000000000
00000000000000000000000000000000000000000000000000000000000000000000000000000000000000000000000000000000000000000000000000000000
00000000000000000000000000000000000000000000000000000000000000000000000000000000000000000000000000000000000000000000000000000000
00000000000000000000000000000000000000000000000000000000000000000000000000000000000000000000000000000000000000000000000000000000
00000000000000000000000000000000000000000000000000000000000000000000000000000000000000000000000000000000000000000000000000000000
00000000000000000000000000000000000000000000000000000000000000000000000000000000000000000000000000000000000000000000000000000000
00000000000000000000000000000000000000000000000000000000000000000000000000000000000000000000000000000000000000000000000000000000
