000101fe00fe01fefefe010000fefffffefe00010101fffefe00010100000101ff00fffe000101ffffff0101fe01fffe00fe00feff00fe00fffffefffe000100
00feff00010101fe0100ff00fefefe000100fffe01feffffff0001ff00fe01ffffff01ffff01fe01ff0101fe00ff00fe00010100feff000000feff01fffe00fe
fe0100010101fe0101fffefffe01fffe01fffefeffffff010100ff01fffe00fefffe00fffffffffefffefefe01ffff0001000000feff00fffefe010100000001
fffffffe010101ff0001fe0101010100fe01fe00fefefffe00ff00ff0001fe00000100fefe01000001fe01fefefe0001ff0100fefffeff01fe01010001fefefe
0000ffff0001ff0000fe01ff01feff00ffffff000100010000fe000001ff00fe0001fe010001000000fffffe00ff0100fefeff00ff01feffffff0101000001ff
fe000100fefe0001fe01fefe00fffefe000100ff0000000101ff000000fffe010001000001feff0101fe01fe01000101fefffefeff0101ff0001fe0101feff00
fefe00ff0001fe0001feff0000fe00ffff0100fefe0001fe01fe00ff01fe0000fe01fe0100fe00ff0101010001feff0101ff010001fe01fefffe0001ff0101ff
000000fefe01fffefffefe00ff000100feffff00fffefefefefe0101ff010000fffe010000fe000000ff01fffe000001fefe0001000000fffeffff00fe0100fe
fefffe00fe0101000100000101feffff00fefe0001fffffe01feff0100feffff0001ff0000ffffffff01ff0100feffff00fffeff0100ffff0100ff010100fe00
fefe010100fefeff00fe01010101fffffe01fefffffe000001fffffefefefffffeffff00000000fffeff00fffe01ff00fffffefe01fefeff00ff01fe00010101
fefefefffe00ff00fe0101fe00ff01ff0100fe0101fe01fffffeff0101fefefeff00ff01fffefe01fe01feff010100000100fe01010000000100fffefe0100ff
00ff0100ff0101fe010000ff00fefffe0100feff0000000001000001ff00ff01fefe0001feff00fffeffff0001fefe01ff01ff0001fe0101ffff000101fefe01
01fe0000010100fe01fe01fefefeffff01010101fefffe00ff01feff01fffffefefe01feff000000ff0101fefefefeffffff01fe000001fefe01fffe00fe0001
fefe00ff000100fe01ff01fefffeffffffff00fefe0001fefe01ff0101feffffffff0101fe01ffff01fefffe010001fefe01fe0101fe01fe0101fe00ffff00fe
000100feff0100fe00fe01fe00feff01000000feff0100feff00feff0101000001000000ff0000fefefefefe01ff010001fefffe010001000001ff00fe010100
fefe010101ff0001000101fe00000101ff00fe01ff010101ffffff01ff0100fe010100fefe0001ff0100010000fffefe00010000fe00fefe00fefe01ff000100
