fe0000ff010000000100fe00ff00ff01fe010000fffe01ffff000101fe01feff010101fefefe000101fe0000ff01fefe00fffffe0100010001feff0101010001
00ff0001ff01feff00fe00ffff01000001ff010101fefffe01fe0001fe0101fe01fffe000000ff01fe0100fffeff00ff01fe00ff00ff0001fe01fe00000000ff
010000fe0001ff01010100fffefe00ff01fefffffe0100feff0001fffefeff00010100fefffe0100fe01fe000000fe00ff000101fffefefffe01fe0101000100
000100010100fe01fe01fffe01feff000100fefeffffff00fe01feffff01ff01fefefe0001ff0100fffffefefefeff01ffff000001fffeff00ffffff010001fe
010000fe01fe01000000ff00ffffff0000fe010101fefefefffffeffff01fefe01fe0000ff00feff00ff010001fffffffe01ff01fefefe01feff01ff00000000
fe0100ff00fefefefeff0001ff000100ff00010101fefe010100fe0000fe00010101ffff00ff00fefe01feffffff00010100fe010001fefeffff01fffefe0000
00fffefe0100fffeff0000fffffefe00fffeff00fefefefe010100ff010000000001fefe00ff0001feff0000fe0001ff00fe0001fffeff0000000100feff00fe
0001fe0001ff0001fffefefe01010000ffff0100fe01ff00010000010000feff0000ff010001ffffff0100fefefe01ff00010001ff00ff01fffe00fffe00ff00
ff000000feff01ff0001fffe01ff00ff00fe01feff01010000000001ffff010000fe01fefefe0000fefe0101010000fefffe01feffff0001ff0001fe01ffffff
fffffeffffff01ff00ff0100fe00fffffe00fe0100fe0101ff0001ff00ff00fe00feffffff010100fe00fe01ff010000ff01ff01feff01ff0001ff00fefe0100
feff00fefefe0100fefefffe0001000001feffff0100fffefe000000ff00fffe01010100ffff01ffffff00fe0001fe01ff01fefefe0000fefffefffe0101fefe
fe01fffffffffe00ffff00fe000100ffffffff01ff01ffff00010001ff0001fefefeff00000101fefeffff00fffe0001fefffe01ff000001fe00fe000101fe01
fffe01fffffefffefe01feff01fffe00ffffff000100fefffe00ff01fffe0001fe01ff01fe0000fe01010001fe01fffe00000000ff0001ff000101fffeff0100
ff010100fefefefffe010100ff000001fffe0001fe01fe00ff000001fe000101fffe0100010000fefefefeff01fe00ff010100fe00fe010100ff00000100fefe
0101fefeffff00fffeff0101ff01ff0000ff0100feff01fe0100fffeffffffffff00ff01fe000100ffff00fefffe00010101fe01fffffefe00ff0101fe01ff01
00ff0101fe00fffe0100010100fffefe000000ff00ffff01ffff00ffff00feff00fffe00fe01ff010001010000000001010100ff00fe01fefffeff00fefe00fe
0100fefe010000ffff010100fe01ff0000ff010100fe0001fffe00fe0001fffe0000fefefe01ffff0001feff00000001feff01000001000101fffefefe00feff
000000fe0001010001fe01fefefe010001000001ff0000ff00010101fe01fe00ff0001fffeff01000101fffefffe01ff01fffe0000fe010100feffffff00ff00
0001fe00fefefe01fe01feff0101fe00fefe010101fe010000fffe00ff010100fefe0100010101fffeff00fffefe00ff01000101fffffffe000100fefefffe01
feff01fffefe01ff00010000fe00fefe00ff00feff01feff00ff00fe0000000000fefe01000101fffe010100fffeff01010001ff01fffffffeff00fe000101ff
fefe00fefefe0101fe010001010000000101fe01fffe0000fefffffefe00ffff0100fefefeffff0101fe00000101feff0001ffff000100fe00fefe00fefe01ff
fffefe01000100fffeffffffffff000101fffe0100fefe0001feff00010100fffffe010000ffff0001ff01ff01ff01ff00010101feff00feffff010100000001
0001ff0100fe0101ffff010000fefeff0000ff00ffff00ff0001ff0000010000ff000000fe00fe00fe01feff0101feff000000fffefe0000fefeffffff010101
010000ff01feff00fe0000fefffefefe00fe00fefefffe00fffffffeff0001fe000001feff01ff00fe0001fffe00fffffe00010000fefeff01000001ffffff00
