0001ff01fe01fffe01fefffefe0100ff0101ffffffff00fefefeffff00010100fefe0000fe0001fe0100fe00fefe01fffffefefe0000ffffffff0100ffff00fe
00fefe00000001fffe00fe0000ff00ff0100010001ff01000101fefe01fefe0101fe0101fefe00010100feffffff00fefefefffe01fefe0000fe01fffeff00fe
00fffefeff00000100ff00fefffe00ff010100ff0101ffff01fe0100010100fefe00fffe00fe01fe010100ff01fe000000fffe00010101fe01fffefefefefe00
0100fe0100fefe010101010101fe0001fefefefefefe0000ff000001010101fffefe00ff0000fefeff01fefefe01ff0100ff0001000000ff00fefefffe01fe01
0001fffefffeff01fffffe010001feff00feff010100010101fefe01ff0100ffffff000000000000feff0100ffffff00000001ff00feff01fefeff01ff01fffe
01fe01ffffffff01fffe01ffff010001fe0001000001fefefffffe0000fffe01feffff01000001feff00fe00ff01fefefe0100fffffefefe0100ffff01feffff
000000ff0101fe01ff00fffffe0001fffe01fffe01ff0001feff01ff0100ff0100010101fffe00000101fe01fe01fe00fe000101fe00feff010100000100ff00
fe0100fffeff00fe0101ff01ffffff00fe00fefe010001feff01ff00ff00ffffffff010000fe0101000101feff00ff00fe0101fffefefffeff0101feff00fe01
0001fe00000100fe0100fe010000fe010001feff000101ff01fe00000100feffff00fefe00fe000001fefe01feff01fffe0001fe0101fefffe01fe00fe0100fe
ffff0100ff01fffeffffff00fe00fe0000010000fe01ff00fe00fffffe010001010101000100ff01010001feffff00ffffff0100fe00fefefffe0101fffffefe
ff00000100fffeff01010001ff01fefe00010001fe01fffe0000fe00ff01fe01010101fefefefe0000fe01fe01000001fe0101fefe01000100ff01fe00010000
0101fe01fe01fe01ff01fefe0101000000ff000001fefeffff01000001fefe0100feff01010000fe010001ff01fefe00ff01fefffffeffff01ff0001fffffe00
feff00ff01fe00ff00fe00fffffe00ff0101fffefffe01fffe01feff00ff0000ff01ff0101feff01ff00ff00fefffeff010100ffffffff0101fe01fefefffefe
00feff00fe000101ffff01ff010001ff01fefefe0100010101fffe00ff00fffffefe00ff01ff00fe0100ff01ff00fefe00fffe00feff00fffefefefe010001ff
fffe01fefffffe01ff00010001010000fffefe00fe010000000101000100feffff000100fffffffefe0001ff00fe010000ff0100ffffffff00ff00010100fe00
fe00ff00010001fe000101ffff01010101ff01010000ff0101fe00ff00ff0001ff000101ffff00ff01fffffeff0101ff01ffff000100fffeff00000000fe0101
fefe01fffe000101010100fffe00fefefffeff0000010101ff00fffe0100ff01ffff00ff01fe000000ff00ff01ff00ff01fefefe01fffe0000000100fffeff01
000001fe00010001ff00fe0000fefe00fe01ffff0000fe01fefeff01fffefe01fe01fffefffe01fefffefeff0001000001fefe01ff0001fffe0001fe010000fe
00ff00ffff00feff000100fefe00ff010001fe010100feff0101fe0001fefe010101fefefe00feffff000000fe010101fefffe00fffe00fffefeff00fe00ffff
fe000000fe010100fe000100fefefeff000101ff01fe00010100010101feff0101fe00ff01fefe00fe01ff0100fffffefe0101fe00fffffefefe01ff010001fe
fe00ff0001ffff01fffe01fffe0001fefe010100ff0000fe01ff00fffefe0100fffeffff00ffff000101ff010001fe01feff0100ffffff000000fefefe01fe00
00feff000100ff01fefeffff0001fe00fffe01fffe0001fe0101fffffffe000101fffffe0100fffe00ff01fe00fffffeffffff00fe0001fefffe000001fffffe
0100ff01fe00fe00fffe0000000000fffefffe0100fefe0000fefe010001fefe010000fffe0101fefeffff00feffffff010001ff010101fe0001fe0100000000
fffe0000fefffe00feff00ff00ff0001ff0001ff01ffff0000ffffffff0000fefe0000fe00ff0101fffe0101feff00ff01ff000000fefffffeff00ff00010100
