0101fe00000001fe01fe01fffffe00000100fefffeff010100ffff01fefffeff00feff000001fe00ff0100ffff00010100ff01fefffefe0001000100ffff0100
0101fefefeff01feff0001feffff01fe01fe01fffffe00fffefffefeff00ff0101fffe0100ff01fefffe0101ff00fffe00fe0100fefffe01ff00000000fe0101
01010100010001ff01ff01ff01ffffff0001fffe00fe00fefeff01000001fe0101ff01fefe00fe01fffe000000010001010001ffff01ff01ff0001ff00fe0001
0000010001010101fe0100fe0100ffff01fefefefffefe01fefe00000101fe00fe00ff01fe00fe00fe01fe0100fe0101000001feff0000000000fffeff00fefe
ff0001fe000101feffff01ff00010101fffefffe010100fe0001fffffffffeff01ff0101ff01fe00fe01feff0100ff00ffff0000fefe01fffffffefffeff01ff
010000ff01fffe0000fefffe01fffefe010000ffff0000000000fffefefefe0101ff0000ff0000ffff00fefe0000ff01fe0001010100010001ff0100ffffff01
00ff000001fe000000000100fefefe00fe010101010001010001010001ffffffff0101fffe00010000feff010101fffe01fffefe00fffffe010101ffffff00fe
01fefffefe00ffffff0000ff0001000000fffefe0001fffe0101fe01fffe0100ff00fe0101fffe00000000fe01ff01fffeff01000000ff01fffe01fefefffeff
fe010000feff00fefe0101ff01fefffffffffefe01fffffeff01fffffefe01fe00ff0101ff01010101fffffefe01ffff00ff0101ff01ffff0100000001fffefe
fffefffeffffff010001fe00fffe00fe0101fefeff0001fefe00fffffefffe000000fe00000101ffff01fe0101ff0101fefffe00fefe010001ff01010001ff01
00feff01ff0101ff010001000001010101ff010000ff00feff000000ffff0001ff00fefffefffe0001feffff0000fffefeff0100ff000000fefe0101fe01ff01
0100fefefffefefefe01fffe00fefe000101010101fefffe0000ffff0000fefefe01fe0100ff0001fe01ff00fe0101000000ff00fffe01ffff0000000101fefe
01fffeff0000feff01feffff0000000100fe01fe01fefe0001fffffefeff010000fffffe01ff0001fffefe00fe010101fe01fffe01000101fffeff01ff00fe01
fefe0100fe010100000000fefffffe00ff000000010000010100ff0001fe01fffe01fefffefffffefe01ff00ff000001fffeff0100ff01ff00ff000100fefeff
fefefffe00ff0000ff00fffffe00ff00fefe000100ff0000fffe01fffeff0000000100fffffffffe000100ffff010001ff00fffe0000feffffffff00ff000001
fe000100ff0000fefe01010000000101fe0101ff0000feff01feff00ff0000fe010000ff00fe00ff00ff0000010000fffeff0000000100fffffe0001000101fe
00000000000000000000000000000000000000000000000000000000000000000000000000000000000000000000000000000000000000000000000000000000
00000000000000000000000000000000000000000000000000000000000000000000000000000000000000000000000000000000000000000000000000000000
00000000000000000000000000000000000000000000000000000000000000000000000000000000000000000000000000000000000000000000000000000000
00000000000000000000000000000000000000000000000000000000000000000000000000000000000000000000000000000000000000000000000000000000
00000000000000000000000000000000000000000000000000000000000000000000000000000000000000000000000000000000000000000000000000000000
00000000000000000000000000000000000000000000000000000000000000000000000000000000000000000000000000000000000000000000000000000000
00000000000000000000000000000000000000000000000000000000000000000000000000000000000000000000000000000000000000000000000000000000
00000000000000000000000000000000000000000000000000000000000000000000000000000000000000000000000000000000000000000000000000000000
