000100fffeff01fefe01ff01ffff0000fe00feff00fefe01000000fe0101010101fffefffeffff0101fffe00fffffefffe0001010100fe00fffe01fffe00ff01
feff00ff0001010101fe00fe010001feffff01fffefe01fffffeff01fffffffefffffe010101ff00fe0100ff0100ff01fefeff0001ff01fe00000100fffe0101
0000ff010100feff00ff00ffffff0000fe0101010101fefffefe01fffffe0101fffefefffefefefffe01fefe0001ffffff0100ff01fffffefffe0100ff01ffff
01fe00fffe000100fffffe00fffffe01fffefefeff01fefe00ff00ff010000fe01010000feffff00fe000100ffff0000ff01ff010100fefefe00ff010100ff01
