00fefe0100fffffefe01fefffffffe00ffff00ff00fe00fffefefffe0101000000010100ffffff01000001fefe010000fe000101ff0001feff00fe0100ffffff
010000fe00feff01ff01feff0000000100ff00fffe00fffe00000100ff01ff010101ffff00000100ff00000101feff0100fe01ff00fe010101fffefeff00fefe
ff01ffff0100fefe00fe0101ff0100fffe010000ff01ffffff01ff01ff01fefe00fe01feff01010001fe0000fefe0000ff00fefefffe0001fffefe0101fefefe
0000fefffe01fe010000fe00010100feffffff0100fffffffeff00ff00fe01fe01000101ff00ff00ffffff0100ff00fe01ffff00ff01fe000101fefe01fe0101
