0000000101ff0000ff01ff00fe0000feff01000100ffff0100fefeff01fffe01010001feff01fefe0100ff00fefe01010101ff01fefeff00feffff010001ffff
fe00fffffefe0001fffe000101fe0100ff0100fe01fefeff00fffffefefe01fefe0100fefeff010101ff00fffe01000001fe0001ff0000fefe000100fffe0001
feffff00fefefffefe0001000001ff00fefe0001fe000101fe0000fe0100ffffff01ff01fffefeff00fe0100fe0101ff0101fe01000101ff01ff0100010000ff
00fe00fe01fefffeffff01fefefefffefe01fe00fe0100000101ffffff01fffffefeff00010101feff00fe0100000100010001ff0100fe000000fe010001ffff
00feff00fe00ffff01fefefffffe000101ff0101fe0100fe00fe01fe010101fffffe00010100fe00010000ffff01feff01fe00fffe00ff010100fe000000fefe
fffeff01fe0001fe0000fffefe00ff00fffefefffeffff01fe000101fefefffe00fefe01ff0101fffefe0100fffefe01ff00fffefffffffe00fe01feffff0000
fffffe0001fffefe00fe01ffff00feffff00000000ffff00ffff0000fe000001ff01fefefe00feff000100fffe00fe01fefe0101fffe0000ff0101ffff0100fe
fffefefefefeffffff00ffff01fefe0100ff010100fefe01fe00fe000001000100fe010001ffff01fefe010100ff010001ff01000100fffe010101fe00ff0100
00000000000000000000000000000000000000000000000000000000000000000000000000000000000000000000000000000000000000000000000000000000
ff000000fe00fe01ffffff01fffe00fefe0101ff01fffe01010000ff00ff01fefffe00fefe00000101fffe00fffefe01fefe00010000010101ffff01fefffeff
fe01fffffeffff0000feff00ffff000000fe0100fffffe00fefffefe00ffff01fefffffeff0000fe00fffefefeffffff01010100fe01000101ff01fe01fe0100
fefeffff00ff01fefefffefeffffff0101fffefe00feffff00fe00fe0101fe0000ff000100fe00ff0100ffff0001fefe0001fffe01fefe00feffff0001fffefe
feff01fefefe01fffefeff0100fe010001ff01ff0100010101010001000101ffffff0100010000feff01fe000001000100ff0000ffff0001fe00ff00ff00feff
0101ff01ff00ffffff00ff0101fefe0000ff01fefe00000000000101fffe01fe01ff01ffff01ffffff00fefffffefe000101fefffe0100fefeff0100fe000001
fefe01fe0101fffffefe0101fefe00fe01fe01fe0101fefffefffffe000000feffff01fe00feffff01fe00ff00010100ffffff000101fffffe00ff0000fe0001
00fe0100ffff01ff0000fffefe01feff00ffff01fffe01ff00ff000001010000ff00ff00fefe01010100fe00fe0000ff00fe00fe01fefe01ff01fe01fe010101
01fefffe00fefffefe01fefe0101ff00fffefefe01fefe010101000101fefe000000ff010001ff01ff01fefe01fefe000101fe00000100000100ff01fefefffe
00000000000000000000000000000000000000000000000000000000000000000000000000000000000000000000000000000000000000000000000000000000
fffefefe0000fffe0001fffeff01fefefffffffe00feffffffff0100fefffe00ff01010100fe01fe00fffffe010101ff00ff01fffffe0000fffefeffff0101ff
000101fffefe000001fe0101ff0100010101000000fffefe00ff000100fffffe01fffe00010101ff00fefe00ff0100ffff010000fe01ff010000fffeffffff01
010001ff0100ffff01fefffffffe0001fe00fe01ff00fffe000100fe00000000fffffefe01fe0100010001ff00000001fffeff0001fe00fe0001fe0100000101
0000ff01fffffffefffefefe0000fffeff00fffeff00feff01ff0100feffff01fefe00fffe01fefe00000000ff0001ffffff01000000fefe00000100fe01fefe
000100feff01fefe00010001fe01fefffefeff010100fe00fffe01fffe01feff00feff01010001fe01ff0001fe01fffffffffe010001fefe01ff00fe00000001
00000000ff000101feffffffff00feff01fefffeffffff00ff01fffffe000101fffe0100fefe01fffffefffeff00010000fe0000010101fefe000001fe01feff
00fe01fe01fe0100ffff00ff01000000fe01000000fefe0100fefeff0101ffff0100fffe00fefe010000fe00fefeff00ffff00fe010100fe01ff00fefe010100
ff01fe01fffefe01fefffffe00fe00fe00010001fe0101000001fe01ff00fffffe01000000fefeffffff00ff0101fefefefe01fefe010001ff0100fe0001fefe
00000000000000000000000000000000000000000000000000000000000000000000000000000000000000000000000000000000000000000000000000000000
