00fe00fefffe00ff000100fe0100ffffff0101fffeff00fffefe00ff010100fefe0100fffefe01fe00ff00fe01fffffefeff01fe0100ff00ff01ff00ffff0100
fefefe010101ffff0101ff0100010001ffff010000fffe00010101ffff010000010000ff0101fffeff0001ff00fefffe01010001ff0001010000ff01000101fe
01fefefe01ffff01ffffff00fe01000101ffffff00ff00fffe01fefeffff00fefe010001ff01fefe010100fe01fe0100ffff00fefe01feff0100fe00feff01ff
fffe00fffffe01fffffffe0001fefeff00ff0101000001feffff01feffff0101fefffffeffff01fefefffffeff01fefefe01fffe010100fefe01000000ffff00
