000101fe000001fe01000001000101fe01ff000001ff010101fefefeff0101fefe00ffffff00fffffeff01000101ff0000fe0000fffefeffff01fffefeff01fe
fe01ff01fe01000001fe000001feffffff000000ff00fe0000fe01fffe01fefe010100ff01fffe01ff0100fefeff0101feff00ff0101fe0100fffefffefe0100
00fffe00fe01fefffeff01fefffefefe00ff01ff00ff00fe00fefffffeffff01fe000100ff010000fefe000100ff0000fffe00ff00feff00fffe00fffefeff01
01ff00ff000101ff01fffe00fffefe0101fefffefffeff01fe0100ff0100fe01fffefefefe01010001fffefeffff0001ff0000fe0000fffeff0001ff01000001
ff0100010000fe000100ffffff00feffff00fe01fefffe00fefeff01ff000000010001fe00000100feff00fefefffffe01ff01fffffeffffff0100fffefeff00
fe0000ff0000fe00fe01010001fffeff0100010000fe00fefeffff00fe01fffefffefffe00ff0100fe00ff00ffff01fefefe010101fe01fefe00000001ffffff
00fffefefe0000feffff01fffefe01fe01ff01ff00ff0001fe01ff01010101ff0001ff00fe0100ffff0100ff00fffe010100fefeff0100fffe01fffeff000000
fe01fe01fe0100fe010000fe0001fe010100ff01ff0000fefe0001fefefefefefe00fefffe010001000001ff00ff0101fe00fefefe01ff000100ffff00ff00fe
00000000000000000000000000000000000000000000000000000000000000000000000000000000000000000000000000000000000000000000000000000000
feff0001feff01ff0000feffff01ff0001fefefefe00fe00fe000101ff01010100feffff0000fe00ff01fffe01ff0001fefeff01fffefefe01fe00feffff0001
0001fe01010001fffe00fe01ff0101ffff00fffe0000fe010000fefefffeff0001ff0100fffefeffff010101000100010001fefe01ff01ff0000fe0001ff01fe
010100ffff00fffffefefffefffefffe000001fe0000fe0001010001ffffffffff00fefe000000fffeffff0001feff01fe00feffff01ffff00fe01fefffffe01
ffff00fffeff01fefe01ff01000001ff010101fe00fefe00ffff0101ff0001ffff0101feff010001feffffff01ff0001fffeff00ff00010000feff00ff00fe00
ff0101feff01ff01ff000000010001ff0101fefe010100ff00fe01fefffefffeff010100fe0001fefefe01fefefeff0000ff01ff0001fe01fefe01fefe000001
fffefe010001fefffefe00ffff00ff01feff000001ff0100fffe00fefffefffffe0101feff0000fffffe00fffefeffff01ff01000101fffffffffefffe0101fe
ff00fe00010101ffffff00fe0001fffe01ff000101ff00fe0000000101fe00fe01fffefffe010101fe00010001ff01fe00ff01fffe00fe0000ffff0101fefe00
feff010101fffe00fffe010000ff01fe00fe00010001ff0000000101fffe0000fefe0101fffeffff00fffe00fffffefefeff00fe00fefe01ff0001ffffff00fe
00000000000000000000000000000000000000000000000000000000000000000000000000000000000000000000000000000000000000000000000000000000
00000000000000000000000000000000000000000000000000000000000000000000000000000000000000000000000000000000000000000000000000000000
00000000000000000000000000000000000000000000000000000000000000000000000000000000000000000000000000000000000000000000000000000000
00000000000000000000000000000000000000000000000000000000000000000000000000000000000000000000000000000000000000000000000000000000
00000000000000000000000000000000000000000000000000000000000000000000000000000000000000000000000000000000000000000000000000000000
00000000000000000000000000000000000000000000000000000000000000000000000000000000000000000000000000000000000000000000000000000000
00000000000000000000000000000000000000000000000000000000000000000000000000000000000000000000000000000000000000000000000000000000
00000000000000000000000000000000000000000000000000000000000000000000000000000000000000000000000000000000000000000000000000000000
00000000000000000000000000000000000000000000000000000000000000000000000000000000000000000000000000000000000000000000000000000000
00000000000000000000000000000000000000000000000000000000000000000000000000000000000000000000000000000000000000000000000000000000
