01ff0001ff0101fffe010101ff010001fe010101fefffeff000101fffe0101fefe0001fffefffe01ff00feff0001fefe00feffff0000fffeffff010100fffe01
01ff01fe01fefefefefe010101010100fe000000fefe0100fffe00ff0001fffefe0100ff00fffe010101ff01000100feff0001fefe010000fffeff01000101fe
ff00fe000100ff00010000fffefffe00000000fffe01ff0101ff00fe00feff000100feff0100fe010100fefefefffe000001ff00000101ff0001fffe00ffff01
fe00ffff0000010101fe01000000fffe00feff00fefefeffff00ff000100fe00fefeff000000fffffefefe0100fefe00fefe010000ff01fe00fefeffff00fe01
00ff01fefffffefefe00feffff00fe01fe01ff01ff01ff0001fefefefefffffe00fefe0100fefefefeffffff010100fe00fefffffefe00fe0100000000fe01fe
000001feff00010100fe0101ffff01fefe01fe00fe01ff0100000100ff00fffeffff01010001fe000101fffe0101ff0001ff010001fe00fe00fe0100fffe01fe
ff010100fffe00feff00ff00ff0100ffff000001000101fffffeff01ff00feff00fefefefe01ff00fffffefefffefeff00fe01ff01fefe00fffffefe010100ff
ffff01fffe0001fefffe0000fefe00fffeff00fefe0000ffffff01feff010101ff000001fefffeffff0100ff01000100feffffffff0001000100fe01ff01ff01
00000000000000000000000000000000000000000000000000000000000000000000000000000000000000000000000000000000000000000000000000000000
01fffefe00fffe0101000000ff01ffffff00000100fefeff00fe01fefffefffe0000ff0101fffffe01ff00fefe0100fefefefe0100ffff010100ffff0100fefe
000001fffffe0001000101ff00fe0100fe00fe01ffff00ffff010001ff01010101fffffe01fe0101010100fefefe01010000fffffeff0101fe0101fe0001ff00
0101ffff010100fe0001fffe00fefe0100fefffe01010001000001fe000101ff0101fffefe0001ff00000000ff01fe01fffe0000ff01ffffff01010101fefffe
fffefefe0000fefe0100010000fefffeff01ff0001ffff00ff00fe00fe00ff00ff01fe00ff00ff0100fffe0000fffe010000feff00fe00ffff0101ffff01fe00
01fefefefefffffe01fefefffefefefe00ffffff0000fefefe0000ff0001ff01fefeff010100fe01feff01ffffff01fefeffff01fefefe01fefffffefefefffe
00ff010101fe0001ff01fe01fe0000ff0101fefefe0000010100fe00000000ff010101fffffefeff000000fefe01fffefeffff01fe00ff0000ff000001fe0000
01ff0001fefe01ff01fe010000fefe00fffe0100000100fe00010001feff0000fe01ff0001ffff00ff0101ff01fffefefe0001ffffff000100ff0101ff00fe00
010000feff0100fefffffe00feff01000000ff01ffff01fe01feffff000001fefefe01fe00fe0100fefffffefe01fe00ff01fffe01ff01fffeffff01fefefe01
00000000000000000000000000000000000000000000000000000000000000000000000000000000000000000000000000000000000000000000000000000000
fe01feffffff00fe00000001000101fffffe0000fefe00fe00ffffff01fe00fe0100fe0101ff00000001fefffe000100fe00fefe01fffe00fe010000fefeff01
fffeffff00feff00fe00feff01fe0001feff00fefefffffe01fe01fefe00fffefe0000fefeff01ff01fffffefe01fe01ff01010000fefe0001fe00fe01fefe00
fefefeff00ff000100ffff00fe01ff0000fefe00fefe0101fefefeff0000ff0000feff000101fefefe00ff01ff0001ff0001fefeffff0101ff01ff010000fefe
00ff00fefefefeffff00ff00fefe00fffe01010001feff00000000fffe0100fffffffe01fe01fe0100fffefefffffe01fffeff010001ffff00feffff01fefe01
01fefeff00fe000001ffff01fe00ff01ff0101fefefffe000100ffff010101fffefe0001ff0000ff010101fefe00fe01ff00ff0001fe01ffff01ff0000ff00ff
fffeffff00fe010000fffe00ff00ffff00010101fffefefffffefefffe01ff000100010001fe00ff01fe01ffff01fe01ff01fefe00fefefe01fefefefefefe00
fe0001ff00010000fe00fffffffffeff00fe00fe00feff0001ff000100feff0000fe00feff00fefefeff000100fefe01fe00fefe0100ff0101fe00fe010000fe
00fe000001ff0000fffe00fe0100ff00fe00000000fefe010101fffe01fffefe0100ffff00fefe01000101fe00ff01feff00fe01feff01ff0101ffff00010000
00000000000000000000000000000000000000000000000000000000000000000000000000000000000000000000000000000000000000000000000000000000
