fefefe0101ff000001ff0101feff0000fe01fffeff00ff0100feff010100000001ff0001fe0100000001fffe0000ffffff0001fefe0101fefe00000101ff00fe
ff010101fffeffff0000fffffe01fe0101000000ff01000101feff00fe010101ff0001ff000101ffff00fe0101fffeff0101010001fe0100fffefeffff010100
00fe00fffe00fefefffffeff010100fefefe000001fe01fffe0100fefe01000001fe01fefeff000000feff01ffff00ffff0000fe01fe01fe010000010001feff
fe000001ff00fffffffefefffffffe00ff0100fe01ffff0100ffff000101ff01fffeff0000fffefeff000001010000fffe00fffeff01000100fefffeff01ffff
01fffe01fe01ffffff0000ff00ffff0101010100ff0100fe00ff010100feff0101fe01010001fefefefe0001ff01fe01fe0101feff01feff00fefe0000010001
00fffffefffeff000101fe00ff0101fefeff0100fe0101fe00000001feff010001fefffeffff010000ffff00ff00feff01ffffff00fffefeff0101fffe00ff00
00fe00000100ff00000100fffefeff01fffe00ff000000ff00feffffff0100fffe01000100fefe01010001ff01fe00ff01fe01fe01fefefe01fe0101000101ff
ff0001fe0001fefefefffe00ff010101fffe010101010001010100ff00fffe01ff00fe0000feffff00fe0101fefffefffffeff00fe00ff00010001000001fe00
01fefe01fefe01ff0101fe00fefe01fefefeff0100ffff00fffefe00fe01fe01fefe01010001000001fffefffe01ff010001fefefeff00ff010000fefe01fefe
fffffefefefe0100000001fefe00feff010101fefffeffffff00010101fefe0000fffe00010101fefe0100fe00feff01fefefe00fe010101ff00ff00fffe0100
01fe010000ffffff01feff010100000001fe0100000101fffefe0001ffffff0100ffff01ff01fefe01ffffff01fe00fefe0101fefe00fefe01ff010000fe0000
fe010001ff01fe0001feffff00fe00feff010001fefffe01000001fefffefe01000001fe01fe010100000101fefeff00ff0000ff01fffefefefe00ff0001fefe
fe00000000fe0001000000fefe01fffffe010100fefffefe0001ff01fefeff01feff01fefefffffffe0101fe00fffe0101ff01fefeff01ff01000001fe010100
ff010100fe01ff00fffe0001010001ff0001feffff000001fe010001fffefffffffe01fe00fffffffffeff00fe01fe00010100fefeff000000fefeff0001fffe
00ff00fffe00fefe00fffefefe000100010101fe01feff00ffffff00fefefffffffeff00010101fefeff00fe00fefffe01010101fffe01ff0001ff0001ff00fe
fffffe01fefe01ff01fffeffffff01fefe0101fe0100fffefeff0100ffff0000fe01000001ff01fefe0001ff01fe01fffe00fefeff000100fefffeff01ff01ff
