fefe0101fe010000ffff0000000101fefeff0000ff01fffeff01ffff01fe0000fe000101fffe01fe01fffffffefefffe00fffeffffff01ff01ffff010100feff
fffefe00fffe0000ff00fffefefe00ff00000000010101000001fffefe0001fefffe00feffff01fe00fffe0000feff00ffffff000001fe0100ff00000001fe01
fe0000ff00ff010100fefe0000feff00000000fffefe01fffe0101fe0101010100fefe00feff000001ff0001feff01fe000100fefe01fffe00fefe0100fe0100
0000fe00feff01ffffff00feffffffff000001010001fefefeffffff0101fefe00fefefeff00fffffefe00fe0001ff01fefffefe00fe0101feff00fe01ffff01
00010100ffffff0100fe0100ff01fefe00ff00ff0100fefffe0100fefe01fefffffefe00fefe00ff01fe01feff000001fefeffffff01fe0000fe000100ff00ff
01fefffffffeff0000ff01fe0100ff01fefe00fe0100fefefe00ff00ff0001ff01fe01000001000001fffffefffefeff0001fffefeff0100ff00fe01000001ff
fffffe01ff0100010000fffe00010000000101fefe000100ffffff0000fffefffeffff00fefefeffff0001ff010000ff01ffff0000fefe010101feff0101ffff
fefffe00fe01fe00ff0001ff00010001fffefe0101fffe00feffff01ff00feff010100ff01feff00ffffff010100ffff00fffeff000101000000fe0101ff01ff
00000000000000000000000000000000000000000000000000000000000000000000000000000000000000000000000000000000000000000000000000000000
0001ffff000100ffff00ff0101fefefffffefeff0101ff01ff0101fffeff000101ff0000fffe0001fefe000100ff00fffffe00ff01fffffefffe00ff01010101
fffe0100ffff01ff01fefffeffffffff01ffff01ffff01fe01ff01ff01ffff0100fe00fe0100ff01ff0100fe000000ff0000fffe00000000fefffeff0001ff01
00fffe01fffe01ff010100fefefefe0100feffff0100000001000001010101feff0101fefe01fe0100fe00fe01fffefe0100fe000101ff00ff010100ff01ffff
00fffe00fe010000fe01feff01fffefeff0100feff01ffffff0101ff010001fffeff0100fe000001ff010100ff00ff00fe0000ff00ff000001ff0101ff01fefe
010001ffff000001fe01ff0001fefffffe00fe0100fe01fe00fe00ff00fefefffe0100feff000101000101fffefe0101fe01fffeff01fefeff01fffefefefe00
fffffefe00feffff000101fefefffe0001ff0000fefefffffefeff000100feff01feffff0100fffe00fe000101ff00ff01fffe00feff0101fefefe01fe000101
fe0101fe01ff0101fffffefe01ff0001ff0100ff01fefffffe01ff01ffff0000fe00feff01fffffefffe01fe01ff000001fe01ff0101fffe000001ff01000000
ffffff000001fffeffff00ff0101fefefffffffefffe00feff01fe01fffefffe00000101fe00ff01000001fffeff00ff00ffffff00ff0000fefefefffefeff00
00000000000000000000000000000000000000000000000000000000000000000000000000000000000000000000000000000000000000000000000000000000
fe01000000fefefffefeff00feff000000000000feffff01ffff00ff00fffefffefffeff00ff0100ff00ffffff0100010001ff0101ff000000fefe0100fe01fe
fe0100feff00000001fe0101000001ff0001feff00ff000101fefefe000100fefefe010001fefffefffe00fffe0000000000fefffe0100fffefffe01fefefefe
010100fffffefe0101feff00fe00fe00fefe0001ff01fffe00fefffe000101fe01fffe0100ff0000fffefe00fe0100fe0101ff010001fefefe0001fe01010000
feff000001fe01fe01fffeff0101fffefe00fe0001fffffefefffeff0100fefffffe00fefe0000ff00ff000100ff00fe01ff0101ff00fffffffe00fefefefeff
0101feff0000ff0101feff00fe01ff01feff01fe00fefeff0001fefefe01fffe01000100fe010000000101010000fffe0001feff0101fefffefeff01010101ff
fe00fefefffe01ffff00fe0101fffeffff01fffe01feffff0101fe000100fefe00ff01fefe0000fffefeff00fe00fffffe01fefefe00000000000001fe01fe01
ffffff0100fe0000ff00ff01fefe00ff0000ff000001fffe010100ff0101ff010101ff010000fe00fffefefefeff00fefeff00fefefeff0000fe0101fe0101fe
ff0100000100fefe000000000100ff01fefeff00ff000100feff00ffffffff0001fffe000000ff0101fe01010001ff0100fffe01010001fe01ff00fffffefe00
00000000000000000000000000000000000000000000000000000000000000000000000000000000000000000000000000000000000000000000000000000000
