000001fefffe0000fefe00ff01010000010001fffffefffeff00fefe0100fe0000ff01ff01fefe0001ffff0001fe01ff00fefefefffefefeffffff00ff01feff
fefefefffefeff01fe0101ff01ff0000ff00ff000101feff01fefe01010100feff01ff01fe00fe00fffe01fefe00fe00ff01fffffe00fffffe01ff010100ff01
ff0100ff01ff01fffe0000000100fffffffefe01ff00ff00fffffe01fe01010001fffffefefefe01000100fe00ff00ff000001fe00fefe0001fefe00ff0100fe
fffe01000101fefefe00000101fefefeff01fefeff00fe0000ff01fefefeff0100ff00fe0100ffff01fffefe01ffff00fffe00fe00fffe0101feff0000fefe00
fffeff000100fe01ff01ff00010000feffff00fefe010100010101fe010000ff010001fe01fffefe000000fe01fe0000000000fefeff00ff01fefffe00fe0101
0000010000feff000000fe0001ff01fefe01fe010000feff010101010001ff01fe010100ff01ff0001ff00feff010000fe000100fffffe00fe01fffffefffefe
01fffe01fffe01000100ffff0001feff0001ff0100ffffffff01000101010100fe01fe010000fe0001fffefffffe01fefe0101fe0100000001fefeff01fe0100
01fe01fe00fffe01fefffffeff01fefefffefffefefe00fe010100ff00fffffffffeff000001000001000000fe01000001fffffefffe0100010001000000ff01
00000000000000000000000000000000000000000000000000000000000000000000000000000000000000000000000000000000000000000000000000000000
01feff00fefffe0000ff00000100ff00fffe00fe000001ff01ff00fe00000101000100feff0100ff01ff00fefffe010001fffefffe010001fe00feffff01feff
010001fffefe01fe0101ff0100feff00fffefe00fefffffefefffe000000000101fefffe00fffe01ff0000ff01fe00ffff00fe010100fffffffefe00fe000100
00fe010101ff01ff010100fefe0000010000fe0100fe00fe0000fffefffe01fffe01010101fefffe00ff00fefefefefeff00fe0000fe00fefefefe01fe01fefe
ff01010100fffe01fffffe00fffeff00ff00ffff0000fe00fffefeff0101ff00fefe01ff00feff0100000101fffefefffe0101fffeff00feff0000fefe000001
fffffe00feff0101feffff0100ff0001ffffffffffff01fffe0000ff01feff01fffffffe00ffff00ffff0001fefe0100feff00fefeff01ff01fefffeff010100
fe01010101fefe000101010100feffff0001feff01ff010001ff00ffff010000ff0101ff01ffff00fe00fffe00010101ff00ff010101ff00ffffff01fe01ffff
fefffffe00feff0100feff00010101fefffefefeff010001ff00fefefe0001fe00010101fe0101feff01ffffff0101ff01fefe000001ff01fefe010000000100
ff010001fe01fefffe01010001feff01ffff0101ff0001ff00000001000001ff00fffefffe01fe0000000100fefefffefe01fe0000ff00fefefffeffff00feff
00000000000000000000000000000000000000000000000000000000000000000000000000000000000000000000000000000000000000000000000000000000
ff000100fefefe010101000000000100feff00fefefeff00fe0001fefefffe0100ff000101fffeff0100fefffe01fffefe00ff0000fefe00fffe0101fe01fe01
fffefe010000ff01ff00ff01ff0001feffff0001000101fefffe010101ff01ffff0100fefefefefffe000101fffefffefffe00fffe0100fffefffe000100fefe
00ffff01feff01fefeffff01feffff01ff01000101feffff010001fffe0100fe0001ff00fffefe0101ff010100fe00ffff00ff01fe010000fefe010000ff0101
fefeffffff000000ff00fefefefffefe0000000100feff00010001000001ff01fefe00ff01fe00ffff01000100fffeff0001fe0101ffff0101feffff0101fffe
ff0001fffe010100ff00ff00fffefe0100fe00feff010100feff000101fe0001ff01000000feff00fffe000001fe00fe01fe0001feff01fefffffeffff010100
0001ff0000ffff00fffefffe0100010001fffe00fffe00fffe010000feff010000ffffff000101ff01fe00010001fffe000001fe01010101fefe000100000001
0000ff01ff0001ff0101fefe01ff01ff0100000000fffeffffff01feff000000fffefffffefe00fffeff01fefffe01ff01fffe0101ff01000001ff00ff0101ff
000000fe01010100fefeff0001ffffff0000ff00ffffff01fe00ffff01feff00ff00fffefe01fffe00fe00fe00010001fe0000010100ffffff0001fe00ffff00
00000000000000000000000000000000000000000000000000000000000000000000000000000000000000000000000000000000000000000000000000000000
