0101ff01fe00fe01ff0000fffe0101fefffeff010000fefe0100ff00fe01ff01fffe0000fe01fefefffeff0000ffff0100fffffeff010101fffefe00fe0101ff
ff000101fe01fe0101fffefefefe010001ff0100ffff010001fe01ff0000000100fe01ffff010000fffeff0001fe01feff00fefe000001ff010000ff0100ff00
01fffe010000000100fefefffefe0001fe010001fe01000001fe000101fe00ff01ff01ff01fffefe01000001fffffe00fffeffff0001ff01fefe01ff00fefe00
fefeff0100ffff01ffff0000ff00fefe00ff01feff01ff00ff0100fffffe0101fefe000101feffff0101ff00fe010101feff01fe0100fefeffffff00000001fe
fe00000101feffff0100ff0100fe0000fffefe0000ff0001fe00fffe0000fe01feffff010001fffefefe00fe0001fffe0101fffffefeff0101ff01feff0001fe
ff0100fe0000ffff00fe01fe010100fe01fe0001000100feff0100fffe0000feffff00000001fffe0001fe00ffff0001fe01fefffefe0101ff0101feff000101
00010000000001ff0100fe01ff00fe01fffffffffffffefe00fefe01ff00fe00fe01ff01ff0100fffe00fefe0000ffffff0101feffff000100fefe010100fe01
fefefe00fe010101fffeffffffff00ff00010100fe0001fffe01fe00fe01000101fe01fefe00fffe00fffefeff010001ffff00fefe0001fe000001fe010101ff
ffff0000feff0001ff01fe0100fefffffe01ff0000ffffffff0101ffff0000000001ff0101fffe00fe00fffefefffefefffe010001000100fe0001ff00feff01
0001fffefffeff0101ff00fffe010000ff01010001010001ff01feff00ffffffffff01010001ff00fe000101feffffff0100fefeffff0000010001fe01000000
00fe01ff01ff00ffff0000010100ff01000101ff000001010100fe010101000100ffff00fffefe00fefe01fe01fefefefefeff0100feff00fe000101000100ff
0001ff0101fe00fffefe00ff000100ffff0101010101fffefe010000fffeffff01ff00fefefe000000ff000001fe01ffff00fefefffe01010000010100ff01ff
feff00fe01000101fefffeff000100fffe00000000fe01fefffeffff010001fe00feff0100feff01fffefffffefefefffefffefe00fefe01ff00ff010100fffe
00000100010000fffefefffefffe01fefefefeffff0100feff0100fe00ffff00fefffffffe00fefe00010000ff01feff00fefe01fefffe01010000fe0101feff
000100feff00ff0001fe00ff000100fffffffe00fe0001fffeffff01ff0101fffe0000000101010101fffffffe0101000000feff0100ff00010101fefe01ffff
0100fefe01000000ffffff0101ff00ff01010000fefe0000ff010100000100fe01fffe00ff010001feff010000ff0001feff0001ff0001010001fffe01fe00ff
