fe0001ff000001fe010001010101ff0001ff0000ff0101ff0101fe01fefe01ff0001feff00ff00fe000101fe01fffffe01fefefefffefefefe01feff0101fe00
00fffeff01000000000100feffffff00feff0101010001fefeff00fefeff000100000001ff01fe00fffefeff00fe00fffeff0000ff01ff01fefeffff01fffe01
0100ff0001fefe01feff00fefe0101fefeffff01fe00fe01010101feffffff00fefefffefeffff00010001feffff01010000ff01ff01feffff00ff01000100fe
ff01ffffff00fe0000fffe000000fffe01fefefe01ff0101fffffefffe01fe010001feff01fffffffe01ff00ff01fefffffffffffeff00fefe00ff0101fe0000
01ff01fefffefe01fffffefe010000fe00fefefefffffefefe0001feff00fefe01fefeff0101ff00fefeff000101010100ffff01010000fefefefffe00fe01fe
ff00fe01ff000101feff00ff00ff0000fe010100ffff00fffefefe0100fe01fe01fffefe00fffe000100feff01fefeffff01fe000000fffffffe00feff000001
fffefffefe0100ff0100fffefffe00ff00ffffff00010101feff00ffffffffff0001fffe00fe00ff0000fe0000fe000100ff0100fe00fefffefe0101ff01ff01
ff0101ff0000feff01ff0101fe01feff00fefe01000100fefe0101ff0100fffe0001fffe0101fefeff00feff01010000ff0001010100ff000001feff01ff01ff
01fffffe00fefefffefefe0000fe0101fffefffeff0000ff0001ffffff01fffe010101ff01fe0101fefe00fe01ff01fefefefeff01fefffefffffefffeff0101
01ffff010001fffe01fe0001000101fe01fe00fefffe00ff00fefefefffeffff01010001010001fe01fffe010000feff0101fefeffffffff01ffff0101ff01ff
fe00feff00010000ffff010101fe0101fe01fe0101ff010001fe0100fffeff0000ff00010101feffffffff01000001fe0101fffe00fe0100000100fefeffffff
01ff0100fe01fe00fefefeff0100000000fffe0001fefe000101fe00ffff0000fefe0000ff01ffffffff010001feff0101010000fefeff00fe01000000000100
0001fefeff000001ffffffff01010001fe01fe01fe0000ff0000fefe01fe0100fe01feffffff000001fffffeff010100ff0001fe01000001ffff01feff000101
ff01fffe0000ff01ffff01000101fffe0000fffe01ffff01feff01ff00fffe01ff000001ff0101fefefe0000fffefe0000fe01fe0001fefe0000010000fe00ff
00feff0101fffeff0100ff0100feff0101000101feff00fe01fffe00ff01fe0000fe00000001fefffeff00000101fe0101ff0100ff0000fe0001ff010101fe00
01fffffeff010000fffffefefeff00fe00feff0101feff00fffefefffe01fe01ffff00fefe0000ff00010101fefefe00ff0001fffffe0000fffffffefefe01ff
00000000000000000000000000000000000000000000000000000000000000000000000000000000000000000000000000000000000000000000000000000000
00000000000000000000000000000000000000000000000000000000000000000000000000000000000000000000000000000000000000000000000000000000
00000000000000000000000000000000000000000000000000000000000000000000000000000000000000000000000000000000000000000000000000000000
00000000000000000000000000000000000000000000000000000000000000000000000000000000000000000000000000000000000000000000000000000000
00000000000000000000000000000000000000000000000000000000000000000000000000000000000000000000000000000000000000000000000000000000
00000000000000000000000000000000000000000000000000000000000000000000000000000000000000000000000000000000000000000000000000000000
00000000000000000000000000000000000000000000000000000000000000000000000000000000000000000000000000000000000000000000000000000000
00000000000000000000000000000000000000000000000000000000000000000000000000000000000000000000000000000000000000000000000000000000
