fe01fe00ff010001fefefffeffff0000fe00ff00000101ff00fefffefffefe000100ff00fffeff00fffe00fefe01fefe00fefefefefe0100feff000001fffe01
ff00fe0000feffff0101fefefe00fffeff00ff010100fe000101fe0000feff01feffff000101000001ff000101fe000000ff00ff01ff01feff00ff0100fe0100
01fffe0000fefeffffff00fe00fefffefffefffeff01010000ff000100fe0101fffffe01fefe000101fe01ff0000ffff00fefefeff010101010000010000fefe
fefefefe010001ff000001feff01ffff0101fefe0000feffff00fefffe01fefeff0001fe0100ff01ff00fe01fffffe00fe010001000101fffefffffeff000100
fe01ffff01fffeff0000fe01fe0101fffeff01010000ffff0001000000fffe01fe01ffffffff01ff000100ff01ff00ffff00010100feff000100010101000100
00fe00fe0101fe01fe000101ff01010000fffffffffffe0101000100ff01fe010101fffffffefefeffffff01fefe01fefffe000000fe0101010101010001ffff
00010100ffff01ffffff00fffeff01fe01fe01fefeff00fefe0100ff01000100ffff01010100fe0101fe00fffffffe0000fefeff00fefffffefefe01fe01fe00
01fffffffefefe01010001fffe01ff01fefe00fe01000101fe01000101feffff01fefe00fe0001fe01ff00ff01fffffffe00ff000001fe000100ff00ff01feff
00000000000000000000000000000000000000000000000000000000000000000000000000000000000000000000000000000000000000000000000000000000
fefeff0101ffff000000fe01fffefffe0000feffff0001fffefe00000100ff0101ff00fffefffffe00fffe000000000001fefffffe010000fefe0000fefefffe
0000fffffefefe00fefe01fe00fefefefefefe0100fe01fefefe0001ffff010000fefffefe010000fffefefe0101fefe0000ff00ff0000ff01ff01fe01ff0100
01ff0000000000ff01ff01fe0100ff010101fe0100fffefe01fffe00fe01ff01feff00fefffefeff00ff0100fffeff0001fefefeff00ff0100ff010000fefe00
01ff01ff0101fe0101ff0000010000fefe000101fe00fe0101fe00fe0000000100fffe01ff0001feffff0101ff000000fffefffefffffefe010101feff01ff00
01fe0000fefe00fefe00fe010001fe01fe010000feff010100000101010100fefeff01fe00fffefffefe00ff010001ff01ffff00feff0000fefe010100fefe00
00010001ff00ff00000101fefe0001fe01ff00ffff01fe00ff0000fe0101fe01feff00feff00ff01fffe010001fe00fefefeffff00fefefe00000001ff00ff01
fe01ff000100fe00feff01ff0101000000ffffffff01fefefffffe00fe01010000ffffffff00fe01feff0000fefe000100010000fe00fe00fe01ff00ff01ff00
fefefffe00ff0100ff00ffff00fefffe01ff01ffff010000fefe00fe00feffff01fe0001fffefefefffe00000001ff000001fefefe0001ff010101fefefffffe
00000000000000000000000000000000000000000000000000000000000000000000000000000000000000000000000000000000000000000000000000000000
010000feff010000fffefe01010000ff00000100ffff00010100ff01fffefffe0000fefe00fe01ff00fe0001ff000101fffffffe01fffeff0100fffffe0001ff
ffff0001fffefffefe01fefffe00ff00ff00ff01fffffefe0100ff01fe01ff00fefeffffff01fe0100fe000000fefefffffffffe01ff01fe0000ff0101fe0100
00ff0100ff01feff00ffffff01000100010100fffe00fe000000fe000001fe010101ff0000fffe0001ffffff01fe00feff00fe01000100010001fe0100ffff01
010100ff0100fffffffe00fe010101ff00feff00ff00fefe000001fe00010101fffe0001feffff0101ff00fffe01feff000100fffe01fe01ffff0100ffffff01
feff01ff01ff01feff0000fe01fe00ffff00fefeff010101fe01ff0101fefffe00ffff00fffffefe01ff01000100fe0100000101010000fffefffe00feff0101
01fffefe010101fe0001000000fffffffefeff00010000fffefe0100fe01fefe00fe0101fe01000101feff0100fe0101feff010000ff01fe0001fe00fffe0100
00fefeff01fefe00fe000101010000feff0101ff01ff00fefeff010100fe0001fffffffe01ff01010001fe0001fffffe00fefeffffff01feff01ffffffff01ff
fe00fe0001fefe0101fe0101fefeff00feff00ff0100fffefe00fffeffffff0100ff0100fe01fefe01fe00fefffffffefeff010000ff0001fe0100fe0001fe01
00000000000000000000000000000000000000000000000000000000000000000000000000000000000000000000000000000000000000000000000000000000
