fe00ffff00ff01ff0001fe0000fffe0100feffff01fe00ff01fefefe01010101ffff0101ff0100ff01ff010101000100ff00ffff00ff0000ff0101ff01000101
01ff0100fe01fe0100ff00fefefefefe0001fffe000001fe01fefefffefeff01ff01fe01fe01fe0001fffe0101fffefeff0101ff0100fffeffff00fe0101fefe
01ff000100fffe00010101fffefe01fefe00ffff00fffefefefefe01fffe01010100feffff000001ff0101fe01feff00ff00fffffe000001ff01fe00fe01ffff
fe01ff00ffff0101feff00fefe010100ff01fffe00fe01fffe00ff01fe00ff0000fffe010101010001fefefeff01ffff0000ff00feffffffff0101fefefffe00
00ff00fefffeff0001fefefefe00ff010101000101fe01010101fefe01000001fefffffffe0001000000ff010100fe01fe0000ff00fe010101fffffffefefeff
01fffefffefffffefffffe000000fe00000001ff01fe0100000101fffeff00fefe010101ff0001fffffffeff01010101010001fe0000fefe00fefffe00ff00ff
fe0100fe00000001ff0100ff0101fe0101ff0001fe010100fefefe0100ff00fefefffefffeff0000ffff00ff00fefe01ff000000fe01fefefffefe01fe0100ff
fe0000feff0000ff00fe01fefe00fe01ff000100fe0101fe00fe01ff0001fffffffeff00fefefefeff0001ff01fefffffffe0001fe01ff00feff0000ff0001fe
00000000000000000000000000000000000000000000000000000000000000000000000000000000000000000000000000000000000000000000000000000000
ff00fefefffffe0001000001ffffff01ff01fefefffefefeff0101fe0000fefeff0101fe0000ff01010100010000feff00fe010001000101fefefe01ff01feff
01fefefe01ff0100feff00000001fe01ff0101ff010101fe01ff01fefffffe000000fe01fffffe0101fefffffefefe01feffff00000100ff0001feff010101fe
fe0100fe01ff0100fe01fe01ff01010100000000fe0000fe00ff0001ff01fe01010001010000000000ffff00010000fefefeffff01000101ff01010000000000
01fe0000fefefffffe0001fe010101fe0100000001010101fefe01fe01ff00feffff000101fe0000ff01ff01000101ff01fffffe0100fe010001fe01ffff0100
01fefefe010000000101ff0101fe00fffe0001fffeff01fe01ff01010000fefe00fe00fffe00ff01fe01fe01fefeff000100ffff01fefefe01fefe01fefe00fe
000101ff00ff01fe00000100fffffefefeffff01feff0001fefefffeff000001fefefe0101feff01fffffefffe0100fefe0000ffff0000fffe01fffefeff01fe
fe00010100fefe00fefe01010000fffefe01ff0101fe01fefe0001fefffffeff0001ff010000ff0100ff00fffefffe01fefe010101feff00fffffefe01fefefe
0000fefeff010101fefffe01ff01fe01010001fe000100fffe000000ff00fffe01fffe000000fe01fffeffff0100010101feffff01fe0001fe00ffff000100ff
00000000000000000000000000000000000000000000000000000000000000000000000000000000000000000000000000000000000000000000000000000000
00000000000000000000000000000000000000000000000000000000000000000000000000000000000000000000000000000000000000000000000000000000
00000000000000000000000000000000000000000000000000000000000000000000000000000000000000000000000000000000000000000000000000000000
00000000000000000000000000000000000000000000000000000000000000000000000000000000000000000000000000000000000000000000000000000000
00000000000000000000000000000000000000000000000000000000000000000000000000000000000000000000000000000000000000000000000000000000
00000000000000000000000000000000000000000000000000000000000000000000000000000000000000000000000000000000000000000000000000000000
00000000000000000000000000000000000000000000000000000000000000000000000000000000000000000000000000000000000000000000000000000000
00000000000000000000000000000000000000000000000000000000000000000000000000000000000000000000000000000000000000000000000000000000
00000000000000000000000000000000000000000000000000000000000000000000000000000000000000000000000000000000000000000000000000000000
00000000000000000000000000000000000000000000000000000000000000000000000000000000000000000000000000000000000000000000000000000000
