01ffff01fe00ff01fffe010000ff00010101000101feff0101000001000101fe01fffe01fe010001fefe0100fe000001fefefe01fffe01ff00ff01000000ffff
ff0001fefe01fe00fffe00ff0100fffffe00fefe0101010101fffe00fe0100fffeff01ffff01ff01fffe000101ffff0001ff01fffefe000100fe0000fefe01fe
010101ffffff0001fe01ff00feff01ff01ff00ff000001fefe01feff00ff01fefefe00fffe01ff01fffefefefefefe01ff010101fe0001ff0101fffffe01feff
01fe01feff00fe0101ff00fe0100ff0100fe01fefeff00fe01fe01ff01feffff0101000000fffe0101ff00ffffff000101fefffefe0101ffffff01fffe000100
