fefffefffe0001fffe000101fefe01ff01fe000100ffff0001fefe00ff01010100fe0100fffffffe00feff00fffeffffffff0101ff00010000fe00fe01000001
ffffff01fe0100ff01fe000101ff010101fe00fe0100010000000001fe0101fe000101010000ffff01fffefe00fe0000fefffe010101ff010000fffe010100fe
fefffe010001ff0001010100ff01fffe0000fefe000000fe00fffefffe01fefffffe0101000101ff01fefffeff01fefffffffe00fefffeff01fffefefffe0001
00010101feff01fffefeff01ff00ffff01feff01ff0100feff01ff000100ff0101ff00000000fe000100fffefefefe0001fe0000fe01ff00010100ff000001fe
000101ff0101010101ff0101fffefffe00fefe0000ff0000fe01fefe0000fe010001ff01fefefeffff01ffff01fe000100ff01fe00fefefefe00fe000100fffe
fe000101000100feff00fe01fffefe01ff0101fe00fe0000feff010001ffffff0100fffffffffefe01fffefffffe01fffe00ff0001fe0100feff0101ff0000fe
ff01fe0100000100ff010000fe00fe00ff000001000000fffefeffff01ff01fffe01ffff00fe00ff01ff0100fffffeff0000000001fe0101ff01feffff01fe01
fe0100fefffffefffe0101fe01fffefe01fe00fefefe01000101ff01ff01ffff01ffffff0000000001fe01fe01ffff01ff0000fefefe0101010001fffe010001
fe000001000000000001fe010101fefe00ff01ffff01fefe000000fe000100fffffeff00ff00ff000001fefe0100000100ffff01feff0101fffffe0101010000
ff00ff0001ff01fe0101ff00fffeff00ff0101feff0100ff00fe010100fffffefe0100010100ff0101fefefe01fe0100000100fffefe00ff0000010001ff0000
0001fffe01fefefffe0101fe000100fefefeffff01feffff0001fe01fe01ff010100ff000101fefe010100000101ff00010001000000ff01fefeff01fe0101fe
ff0101000001fffe010100fffe0000ff00fe01fe00ff0001fefefffffeff01000000ff00fefeff0100feffff01ff0101fe0101feff00fffefffefeffff010100
ff00fe00010101feffff01fe00fe0000feff01ff00ff01ff00ff000100ff01fe0100010000ff0001fe00feff00fe00fefffffeff00fffefe0001000101feff01
ff01ff0001fe01fffefe01010100fe00ff01fffeffff0000fefe000000fe00fefe00fefefffffefefe0101ff01feff01010000feff000000fffefe0000ff00ff
fe01fffffffefe01fefe00fefe01fe01feff00fefefe00fefffefe01ff00fe00ff00fe0000ff01fefe0101fe000001ffffff0101fe00fe01ff01ff00ff0100fe
fe000000fefeff0000feff00fefefe00fe01000000feff000000fefffeff0101fefe01fffe00fe010001fffffffffffefe00000101feffff00ffff0100010000
01000100ff0000fe00ff000100fffffffffe000000ffff00feff0101feff00fe0101000001fe01fe01ff01fefffefeff00fe00feff0101fe000100fe0000fefe
01fe00fffe01ff01ffffffff01fe0100fe0100ff00fffe000101010101ff0001ffff01ffff000000ff00ff000101ff000101fefffe00010101fe00ffff00ff00
fefe000001ff01ffff00fefe01ff01000100fe00fefefe0000fefefefefe0101fffe000101ff0001fe010100010000ffffffff01ffff01fffefefeff00000101
fe01fe0100ff0101fe0000fe01ffff0000ff010000fffe00fefefffe0001010000ff000001ff00fefe01fffe00fe0100000101feff00fe0000fe010001feff01
ff0100fffffffe0001fffefeffff0001ff00feff01010000fe01000100fefffe000100000101ff00ffff00010101010100feff01fe00fffefffeff01fe000101
0100fe0000010001fffffeff01feff01fffffe00fffefefffffefefffefffefefefffeff00fefffe00fe00fe000001ff01ffff0101000001fefeff0101fffe01
feff0001fffefe01fefffe01fffe01feff000100ff000100fffffeff010000fe00feff0000010100ff0100ff0101ff00010101ffff00fffffffffeff01010100
fefe01fffe01fe01fffeff00fe01ffffff0000fe0101ff00fefeff00000000fe00ffff01fefe01fffe0101010101ff01fefefffe00010100ff00fe01fffffefe
