ff00000000fe01ff01ff0000fe00fe00fe0001fefe00fffeff01fffe0101fe00feff00fe00010000ff00fffe01fe00ff0000fe01fffe0101ff00fe0001fffffe
ff01ffff010101000101fefefe010101fffffefe01fefe00010100010001fe00ff0100fefffefe0101ff0001fe01fefe0001fffffe00fe01feff010101000100
ffffff0100fffefffeff01fe01ffff00fefe00fe01fffeff00ff00fefffffeffff01ffffff010000fe000000ff01fefefe01fe0000fe00000000fffffe00fefe
0000feff00fffffffffffe0000fe00ffff01000001ff0000ff01fe00fe0000fe01ff010001fefe01fefefefe010101fffeff01feff01feff0101fe0001fefe00
