0101fe01feff00ff01ff000100fefefeff0100fffffeffffffff00fffffe00fe01fe0101fe01000001fe0000fefffeff01ff00ffff00fffeff00ffff01ff0000
fefefefe0101ff01fe00000101fffefe000000fefffffe00ff01feff00fefe0100ff01fefeff000000ff0001ff0000fffffefe00fe00fefefffefeff010000ff
feff0100ff00fe010101010000fffe010101feff01fe00fffffffe01fe0100ff00fefefffe00ffff0001fffffe0001ff01ffff01feffff010101fefeff01fefe
fefeffff000000000101fe01ff000101fffefffffffeff00fffeff010000fe00fe01fefffffefefffefe00ff00000001fe0001ff0101000000fefefefffffe00
fe00ff00fefffefeff0100fefffe0100ff00ffff0001fe0100fe010000010101ff01fefffefe0100fffffe0000feff0101ffffffff00ff000001fe00feffff01
01000001fe0001ffff01ff000000000001ff00fe01000101fffeff01fffe0000ff0000ffff0100000000ff01010001fe0100fefe000001feff01fe00000101ff
ff01fffffefeff00fe00feff0100ff0000000000fe01fffe01fefeff01fe00fe0101fe000000feff01000000000000fefe0000fe00fefffe0101fefe01ff0000
ffff0000fe000000ff0001fefffe00feff01fe000101ff01fe01fe00ff01fe0100fe000100fffe01000000ff0001000000fe01fffe00fe00fe00ff01000100ff
ffff01010000fe01ff00ffff01ffff01fe00ff010000fffe00ffff01fefeff01fefffeff00010000ffff01ff00fe01feff01ff00feff0001fffe00ffff00ff01
fefe01fe0001fe00fe000100fffffe0100000100ff0100ff00fe0001fefffefefffe010001fefefe00fe00000101fe00ff01ffffff01010000fe00ff0000fffe
ff01fffffffeff01fffe000101ff01000000fffeff000000feff00fffffffffe01feff0000ff00fffe0001ffff00ff00fe00000100010001feff0101ffff0100
01fe00fefe01fffffe0101ff000100fe000100ff01ff0100000100ff010101000000fffefe000100fefffffeff00ff00ff00feff00fefffffe00fefeffffff01
0000fe010001fefe01fffeff00ff00fe00000100fefe01ff0000fffe00000001fe01010101ff00ff01010001fefefe0001ff0000ff0001fffe0000fefeff0000
fefffeff000001ff0101ff00ffffffffff01fefffefffeffff00ff01000101fefeffffff0101fe01fe01fffffefeff000101fefffefeff0001ff00ffff01ff00
00ffff00ff01ff01fe00fe0100ff01ffff01ff000001fffe0101fffefeff00ff0101010100fffefefefe00010100fffe00fe010001ff00000100fffffffefefe
0100fe01feff0101fe01010001000000fe0101fefe00ff01fe01fffefefeffff0000fefeffff0000fe01ffff00fe00ff01fefffe010101ff00fffe0001fefe00
