00fe00ff01feff010101fe00fe0100ff01ff01010100ffffff01ff00ff01fe01ff01fffefffe0100fe01fe010001000001fe0000ffffffff0101000001000000
0001fffffeffff010101fe00fe010100fe0101ffff010101fe000100ffffffff0000000000ff010001ff000100fffefe00ff01ff010001fe00ffffffff0001fe
fe0100ff0101fefefe0000fe0000fe00feff000101fffe00fe0000000001ff0101ff0000fe0101fefffefe0101000001feffff0000010100fe00ff0101000001
ffffffff0100ff0101ff000100fefefefffeff01fe01fefe0001ff01fefe00ff0001fefffffefeff0100ffff0001ffff00feff00feffff0001fefffefefffefe
