ff00fffffffefefffffefeff01fffeffffffff010101ff01fffe010001ff00fefefe01fefefffeff000100fe0101fe010100fe0001ffffffff01fefefffe01fe
01ffff00feffff00ff0100fffeff0101ff00ffff01fffffe01ff01ffffff0101ffff0001fefeffff00fefe00fe0001ff0001fe0100ffff0100fefe00fffffe01
000001fefefe00010001feff0001fe0101000101fe00fe0100fffffe000101fe0100fffffe000000ff01fe01010100ff0100fe0100000101ffff00fe00ff0001
00ff01ffff00ff0001fe000000010101ff00fffeffffff010101feffff01feffff01fffffeff00feff01fe0100fffefffefe000101fe00ff00fefefe01fefeff
00fe01fe01ffffff0100fefffe0101010001ff0001000100fe0100ff0100fefe01ff01000000fffefffefefefe00ff00fefffeff00fffeff00ff00ffff010100
feffffff01000101feffff000000fffeff010100fffffffe000101fffeff00fe0000fe0000ffff00fffe0101fefe010001fffefe0101ff000001feff0001ff00
01fffffeff01ffffffff0000fffffefe01ffff0000fe0000feff00000100fe00fe00fefe01ffff00fe01fefeff0001000101feff0100000101ff01ff01ff01ff
fe00ff0101fe0101ff01fe0000ff01ffff01fffefffe01ff00fefefe0100000100000100fe0100ff00fffe0101fffe01fe0000fffffefffeff00fefefe010001
000101fe01fffe0101fffffe00fffffefeff00fe00ff01fffefefeff01010000feffffff0001fe01fe00ff01ff01fefffe010000ff00fffe000100feff00feff
fefefefefffffefe00ff0100fffe01fffffffe01fe0100000001010100fffffe000001fffefe0101fefefeff00fe01fefffefffe01fe01fefe01feffff010000
01ff0100ff0101feff01fe00fe00fffefe01ff01feff00ff0000000101fffffe010100fefe01000001ffff0101010100fe00fffffe0101010001fffeffff01ff
01fefe0000010000ff00fffefe0001fe0000fefffffefe010100fffefffefefefefe01ff0100feff0000fe01010000fe0000fefffefe010000fefe00feff0101
00fefefe010000fefefe0000fefffffe0100ff01ff010101fefefe000001fefe0000fefe00fe01fffe01ff000100feff0101fe010001ff00ff000101ffff01ff
fefe0100fe01fe00000100010001fe00fffefeff01fffffe01ff0001fe00ff01feffff01fffefffefeff01fe01fe00fffe0000fe01ff01000000ffff0000fe00
fe00fe01ffffff010001fe010100fe000100fe00000000fefffe010101fe00000100000000fffefefefffffe010101fe00fe0101feff00fffe01fffffffe0001
000100fefffefefe0101fe00fefefeff0101fe000001fffffefe0101ff0101fe01fffffffffe00fefefe00fffffefefffffe0100ff00fe01fe000100fffe01fe
