01fe01fe01000101000000ff000001fe00ff0100000001ff000101fffefe0101fe00ff00010101ff00fe01fe01fefefe00ff0000010001fe00ff0001fe0100fe
01fffefe01ff0001feff00000100feff0001ff0001fffefe010100ff01fe0101fffefe00ff01010100fe01fe00000101ff01000100ff00010101010101010100
fe0101fe0000feffff00fffe01fffe0100ff00fefffe00fe000001fe000101fe0100fe00feff0000fefe010100ff00010000fffe0100ff00fefe01ff01ff00fe
fffefe000100ff01000001ff01fefffe01fffe00fefe01fffe0101ff010100ffff00fefffefffe0101ff00fffffe0000000001ff010101fffe00fffe0001feff
fffeff0100fefefffffffefe0100fe0100ffff00fffffe01ff00fffefefe01fefefffffe0000ffff01fffefefefffffefffe00fefefefefffe010100ff0100ff
01fe010101fe01fe01ffffffffff0000fe00fe0001fefefeffff01fe01ff0101ffffff0101fe0101fefe000100feffff0101fefffe01ffffff0001ff01fefeff
feff00ffff000100ff0100fefe0101fe00ffff0101000100fffe0101fe00fefe01feff01ffff0100fefffefe000100ff0001fffe0101ff000000ff0001000000
fe00fe0000feff0001fe01fffffe01ff01fffffefffffffffefefefffffe01fffe0100ff0000ffff0000fe000100fefe01fffefe00000101feff01fefffffffe
ff0101fefefe00fffe00000001ff0101fe00fe00ff00fffe0001fe01fffefeff01ff01ff00ff01fe01ff0101ff01fefefe0001ff00feff01ff000100000000ff
010100ffff0001fffeff01fffe01ffff01fe01010000ff00010000000101ff0101ff00000001fe01fe010101fe01fe000000fffffffe010000ff00ff01ff01ff
010001fefefe00ffffffff000100000101fefefefe00fefe01fe00000101ff0100fffe00fefffefefefe01ff01000001ff0001fefe00feff01fe00000001fefe
0100000000ffffffff0000ff0100000001fefe00010001fffe01fe01feff01fffe0001fefffefffefffe01fffefefffefeff0000ff0001fe000001feff01ff00
0001fffe01ff00ff00fe010100feff01ffff010000ff0101ffff01feff0101fefffe01ff0000ffff00fffe00fffe01feff01fe0101fe00fe000100fe00000101
fefeff00fefefe0001fffffe00fefe010101fe0000fe01ff0101ff000001fe010000ff01fefe00feff01feff00fe01fe00ff0101fefe0100010100feff0000ff
ffffff0101ff0001010001ffff01ffff00fefefe000100fe0101fe0001fefffffffeff01fe01ff00010101fe0000fefffe00fe0001fe00fefe01fe01fefffefe
fe0101ff00ffff00ffff01ffff000000fe00fe01fe00010000010000fefefeff01ffff00fffffefe0000fefeff01000000fefffefffefefe00feff01fffeffff
