ff0101fe010100ff0100010101fffe01ff00ff00fe0101ff01fe010101fe00ff01ff010101fefe01ff0001fffffefe01fe0000fe00ffff0101feff01ff000000
ff00feff00fe000000ff00fffefe0101fe0001fe010000ffff00ff00ff0000010100fffeff01fffffe0001feff00ff01fe000000fefe00fe0001fe0000fe0101
01ffff0100fefe0000feff0000fffe0101fe00ff000000ff000100fe00fefefffefe0100fefe00fe00fe0100feffffff01ff01fefe01feff01feff0000000000
01fefffefe0101fe00fffe010001fe00fe0001ff01ff01fe0100fefffefffe0101fe01fe000000fe0000ffff0100feffff0000fffefe0000ff000001010001fe
