01fe010000ff00010100fe00ff0101fffeff00fffffe00fe0100ff01010000ff0100fffffefe0101fefeffff01fefffeff01ff0000fefefefe000100fffeffff
010000feff0001ff00000101fffeff00ff010000feff000101fffeffffff00fefffffffefffeff01feff01fe010100fe01fffe0101fefefefefeff00fe01fefe
00ff010001feff00fffffeff0000ff0001fefefeffff00ff00fe010000fe01fe0000ff010100feff00ff0000010000fffe0101ff01fffffffeff01ff0000fefe
fefe000100ffff0000fffe00fe00ffffff00010001000100fffe00fffeff000000fe00fffeff000000fffefe00fe010100ff01ff010100feff01ffff01ff00fe
000000fe00feff010100fffffefeff01feffffffffff01000001fffe000100fe00ff010101ff00ff01ffff00ff01fffffefffefefe00ffff00fefeff01fefeff
00fefe01fffeff01ffff00ff01ff00fffffefffefefefe010000fffeff0100fffffffffefefffffe00ff00fe00feff0100ff01ff01fe000100fefe010101ff00
01fefefeff0001010001fffe00fefe000100fefffe00fe00ff00fe000101fe000100ff01fe01feffff00fefffefe00010100fefefefe00fefefeff0001fe00fe
feff01feff00ff0001fe0001fefe01ff0101ffff0000ff00000000feff0001fe00fffefe00fe01ffffff010000feffff01ff0000fe00fe0000fffe00fefeffff
00000000000000000000000000000000000000000000000000000000000000000000000000000000000000000000000000000000000000000000000000000000
ffffff000101ffff00ffff00fe00fffe0000ffff0100feff010000feffff01fffe0001fe00010101fefffffffefefffefffffefe00feff01fe01fe00fe01feff
fe01fffffe01ffff00fffffeff010000ff01fe0101000001010000ff01fefeff000100010100fefffffe00fffeff0001fefefe00fe00ffffff010101feff0000
fffe0101fefefefeff00fe0001ffffff00ff00fffffe00fefffefe00ff01000100fffffe00fffe01ffff0101fe0000fffe01ff0001ff010000fefffffeff00ff
fefe000001fe01000101fefe01feffff0100ff00fffe0000fefefeff00fefefffe01fe00010001fefefefffffffffefe01ff00fefefefe01fe00ff01fe0000fe
fe0101feffff01fefe0000ff0000fffefffffefefe0001fe00000001fefe0000fe010101ff01fffe00ff00fffffe00000100feff0100fffe000001fefefeff00
fefefffe0001ff01ff00feff00fe0000ff00000001ff000000ff010100fffe0001ff01ff0101000000ff00fefeff01feff01fe01fe0000fe0101fffffffe00ff
01ffff0000ff01000000010101fffeff00ff00ff00fefe00010100ff0101fefe01fffeff00ff010001fefffefefefeffff01ff00fefffefefe00fefe0100fffe
fe010001fefe00fefeff0000000100ff0101fe00fffefe0000010001fefe00fffffeff00fe00000000feff010101ff0100feff0000ffff01ff01fefefe0000fe
00000000000000000000000000000000000000000000000000000000000000000000000000000000000000000000000000000000000000000000000000000000
feffff01fe000101fefefffefffefe00fffefeffff000000ff00fefeff01fe01ffffff00fe00feff01fe01ffff01fe01fe01fefefefe01feffff00ffff01fe00
fe0000fefe00fe0001000101fe00000101fefefe00feff0001fe00010100ffffffff0001fffefefe01ff01fffe0001feff010101ff000100ff00ffff01fffe00
01ff01ff01feff00fe00fe00fe0100fe01ff010000ff0101ffff00fefffffe0001ff0001ff0100ffff00ff01fe0001fe01ff0101fefe0000fe00fe01ff00ff00
0001ff010101ffff01fffefffffefefe01fe00ffff0100fe0101fe0101ff0100ff000100ff010000010000fffefeff00fefefeff01ff00ff00ff00fffefffe01
00ff0001feff00fefffe0001feffff01ff01ff000101fe01ff0001fefffe00fffefe0000fffe0000ff00ff0000010001ff0001ffffff01fe0101fffe0101fe01
fe01ff0001000000010101fffe000100ff00fffefefeff0100000000ff010100fffffefefe00ff01fffeff0001fe000101fefe01ff01ff00fe0101ff01fefffe
fefe01ff0000fefffefe0000ff00fffffe01000001fe00fe010101fffffeffff01fe0001fe010001fe010101ffff000100fe0100ff00fe010001ff01feffff01
fefe0101fffe01ffff01fe0101ff01fe00fefffefffe00fffefe010100fffe0101ffff010100000001ff000101010000fefefe0001fffeff0101fefffe01ff00
00000000000000000000000000000000000000000000000000000000000000000000000000000000000000000000000000000000000000000000000000000000
