ff01fefe010101ff0101feff01ffffffff00fffefe00fe01ff01fe00fffffe00ff00ffff00fefe01fe00ffff010001ffff0100fefeff01ffffff00ff01fe00fe
fffffeffffff010100ff01ff01fffe01ffff010000ff01feff0101fefffefffefffe01fefe010001fffefe01000100ff00ff00feff00000001000000ff01ff00
ff01010100fefefe000101ff01fffe01ffff01feff0101fe01fe00ffff0000fe0101ffff00fe00010100010101ff0101fe01ffff01fe00fffe0000ff0000ffff
fe00fffffefefffe00fffe01fefffe0101feffff01010100ffff01fe010100010001000000fffefe01fffefffefeffff01010101fffefe01ff00010100feff00
