01feffff0000ff01fefffffefefe0101ffff00ff00ffffff00ff00fefe0101fffe0000fe01010000fffffefe00010100fffffe01fe01fefe01fffffe00fe00fe
ffffffff00fe01feff00fefefefe00fe000001fefe0000000100ff00fffe01fffefefefefeff00fefeffff0100fe0000010100010101fe010100ffffff010101
0101ff0001ff00ff0000ffff01fffefefeff010000010000fe00fffffe00fffe0101fefe01feff01fefe00ff00feff00ffff00fe010000feff00fe00ff00fe00
000101fe0101fffe01010001feff00010101fefe00ff00010001fe0001fe01fffe00ffff01fe01fe00fefefffe00ff00fe01fffe000001fffefefe01fefeff01
01feffff0001fe00fefe0001fe010100ff01feff01fffeff000000fffefe0101fffffe00000001ff000101fffffefeff01fefffefe00ff010001ffffff010101
fefefe01000001fefe00000101ff000001ff00fefe01ff01ff01feffff00feff0100ffff0000fe0000fe00fefe01ff01010000000100fffe0100ff00fe010000
ff01fffffefefffefe00fe01fffe00fe01feffff01ff00fe0100000000ff0101fefefefe00fffeff0100fffefffe00fefe000100fefefefe0100fe000001fefe
000000fefffefffe01ff00ffff00fe01000101fe010100fe0001fe000000fe00fefe00ff00fffeff0001fffe01fe0000ff00fffefefefffefffeff00ffff0100
ffff00fefffe00fe0100fffe0100010100fffffffefefffeff010001fefefffefe0000fefffe010100fefefeff01fffeffff010101fefeffff01fffefe01fe01
01000001feffffffff01fe0100fefe000100ff00ff00ff01fe0101fffe00ffff00000100ff00fffe00fe010101000101fffe01fefe01fe01fffffe00000101fe
00ff00ff01fffefffffeffff01ff01fe0001ff00fefe00ff01feffff00000100ffff01fe0001fefe0000fe01fe01ff01fe01fe00ff0000fe0100ffff00ffff00
01fe01fe00fefffffefe0000fe010100fefffffe01ffff01ffff00010000ff01fefe0100fefefeffffff0100ff00fe00ff00fefefffefffe01ff00ff01fe00ff
fefeff01ff0000fffe010100ff00fe00fe010101fe01ff0100ffff00fefe01fe00feff01fe01ff000100fefe0000fffe0101fefffe0000fffe00fefe0001fe01
00000001ff010001fffeffff01fe00ff01feffff010101fefeff00fe00fe010000fe00ff01fe0000fffe00ff00ffff01010100fefffffe01fffefffe01fffffe
00ff01fefe00ff00000001feff000100010000ff00ffffff00ff00fe01fe000001ff0100fefffefffe0101ff0000fffeff00ff01000000fe01fefefe010101ff
01ff01ffff0101fffffeff01ff01ffffff0000000001fffe000101fffffffffe0100fe00fefefe0100000001010001fe0000ff01fefeff00fe01000101fefffe
00000000000000000000000000000000000000000000000000000000000000000000000000000000000000000000000000000000000000000000000000000000
00000000000000000000000000000000000000000000000000000000000000000000000000000000000000000000000000000000000000000000000000000000
00000000000000000000000000000000000000000000000000000000000000000000000000000000000000000000000000000000000000000000000000000000
00000000000000000000000000000000000000000000000000000000000000000000000000000000000000000000000000000000000000000000000000000000
00000000000000000000000000000000000000000000000000000000000000000000000000000000000000000000000000000000000000000000000000000000
00000000000000000000000000000000000000000000000000000000000000000000000000000000000000000000000000000000000000000000000000000000
00000000000000000000000000000000000000000000000000000000000000000000000000000000000000000000000000000000000000000000000000000000
00000000000000000000000000000000000000000000000000000000000000000000000000000000000000000000000000000000000000000000000000000000
