00fefe0100000100fe01ff000000ff000001fe01ff01000101ff01fefe0100fe01fffffffe000100ff0001fffe01ff00feff01010101fffefe010101fefffe01
01fe01ff01fe01fe0100010101ff00fe01ffffffff01fe01010001fffffe00ff00feff00000001fefe01fffe010001000100ff00ffff01fefeff01fffefeff00
010101fe01ff00fe01000000fe0100fefefffe01fefffe000001ffff01fffefefffffe01fefe01fefeff00ff0100fefffe01ff000101ff00fffe01ff00fefffe
0001fffefe00fffefefefefeffffff0000fffe0100fe01ff0000fe01fefe01fe0000fefe00ff0000fefffffe00fe010000fe01fefffffeff01fffe000100ffff
fe0100feff01ffff01fffffffffefe0000fe00010100000001fefe00feff01ff0001fe00fffe01fe0100fe01fe01fe01feffffff0000ff0001ffffff00fe0101
ffffff00fe01ff0000fe00ffff00ff00000101000001fffeff00feffff01ff00feff00feff01fffe00fffefefe01fefe00fe01fffeffff0101ff01fe0100ff00
ff01fffe00fffefe010100ff01010000fefeff0100fe0101fffefe010000010100ffff00fffefe00010100fe01000001010001fefe01fffffefeff010001fe01
fe0101fffe01feffff010000ffff00010001fefffffffffffffe00ff01fefeffffff01ffff0100000001ff0100ff0100000001feffff0100fe01fe010101feff
ff0000ff01ffff010001fe0101ff01feff00fffe01fe01fe0001010000000101fefe01fefefe0101fe00010000fffe0100fffe01fefffe010100ff01fe0001ff
01ff0100fffefefeff0000010101fffffffffefe01ffff000001fefe01fe01ff00fefe00ff01fffeffff01ff0100ff01ffffffff01fefeff0000ff0000ff00fe
fefe000100fffe00fefeffff0100feff00fefeff00fffffeff01fefeff01ff00fe01ff01ffff0101feff0101fe00ff00fefeffff01fe01ff0001ffff01010101
fe01ffff01fefefe0100ffff010100feff010000ff01feffff000001fffffefffeff01fffffefefe00fefefffefefffefe01ff01ff0000ff00ff01000100fe01
feff00fffe000100fefeff01ff0000fe0000ff01fefe0001fffffeff0101fe00fe00ff0001000000fffe01fefffe01000001ff0000fe00fe00fe01feff00fffe
ff0000fefffefffeff0001010001ff0001fe01fe000100feff0000feff000001ffff00ff00fe01fe000000ff01010000fe00ff000001fffefe01ff01fe01ff01
fefefefefffe0100000100fefffeff0001fefe000100ff00fe0100fffffeffff00fe0101fffefe0001010000fffe00fffffe01fe010001fefe00fefe01ffff01
0100ff0101010001fe0101fffefe010001fefe01fe00fefeffff01ffff00ff010001fffefe0100ff01010100fffe0001ff00feffff000101000000fefe0000fe
0101ff000001fefefe01ff00ff00ffffff0001000101000100fffffffefeff00fffefffe000101ff01fefe00fefe01ff01fe00fe00000100ff00ff00fefe0100
feff01feffff00ff0001fefe010001fefefe01ff00fefe01fe00fffe00fffffeff0001ff00ffffff00ff0001ff0100fffefe0101fe010001fffe00fefefeffff
fe0001000001ff01fe0000fffe00fffefe00fffffffe00ff00fffefffefefe0001ff01feff0101fe0001010000fe00fffe0100fe000001fe0101000101ff0101
fefefefe01fe01010001fe01fffe00fe000001ffff00ff010000010100ff01feffff01ff010000fffefefefefffeff01000001000101fe01ff01fffeff0100fe
feff00fefeffff010001ff00fe00fe00fe000100fe010100fe01fe0100fefe00fefe00ff00fefffffeffffffff00fe01fe00fffefe00fffe01ff01fe00ff01fe
01fe01ff00fe01ff000001ff0100feff00fefffefeff01fe00fffefe01fe00fe010001ff01fffeffff01fe00ff01000000ffff00ff0101fe01fefeff0101fe00
fe00ff01fe0101fffe01feff00fe01ff01feff00ff00ff000101ffff0000fffe0100ff00fffefffffefe00ffff00ff0000fffffe00ff01010100010001fffe00
00ff01fffe00fffeffffff0101000001fefe010001fffefe010000feff010000fe01feff0100fe0001fe00000100fffffe0001fefefe010000ff010101fffe01
