0100fe00010001000000ff01fe0001fefefe01fffe0101fefffe01fe00fe01000100fe010001fefffffffeffff00ffffff0101fe01fe00ffff01ff00000000fe
fefe01ffffff0100ff01010001fe01fefffe00ff0001fffeff01010100fefeff01feff000001feff000100fffe0000feff010000fffe01feff0000ffff00ffff
00ff0101010101fffefefefeff01fffefe00ff00ff01ff01fe00000001fe000001ff00fe0100fe01fe01fe01fefffe01ff00fefe00fffe01fe01feff00feffff
feff0100fffffe00fffeff000001fe01ff00000100000000ff01fe01ff000000000000fe0000fffffffffe0000fffffe0001000000fffefeff0101ff0100fefe
feffff000101ff000101ff000000fe00000001fefefe01ff01fe00fe00ff00ff00fefffe00fffffffffe00ff00ff0100fefe0001ffff00fefe01ff01fffe0100
00ff0101feff01fe01fffefe010001ff00feff00fefeff000001ff01fe010001ff01fffffe00fffefffefffe00ff000101fe00ff01fefe00fefefffffeff0001
fe0101fffefe0001ffff010100fffffeff00ff00fffe010001fefeffff00fffffe01ff01010000fe0000fefefffffe00fe000101ff0101ff01ffff010000ff01
fe0001ffff00fffe0000ff0000fffffefe0100fffe00fe0001fe0001ffff01fe00000101fe0101ff000000feff0000fe010100feff010001010001feff00fefe
00000000000000000000000000000000000000000000000000000000000000000000000000000000000000000000000000000000000000000000000000000000
0100fffe010100fefe01fe0101010000fffefe01000000fffffffefe01ff01fe000000010101fefffe00ff01fefe0001fffe00fefeffff0001fffe01fe010001
00ffff00fefffe0000000001fefeff00fe00fe01fffefe01fe00ff01ff0001fe010000fe00ff00010100ff0001fefefefffefefffffe01ff0000fefe01010000
0000fffffffefe00ff0001ff0101fe010001ff000101ff00fe000001ff00fefefe00fffe00fe00fefe00feffff00ffff01ffffff01fe00ffff0101fe0001ffff
ff01000101fefffe010101ff0001010000ff000001fe0001010000fe00ff00ffff0101fe000000fffffe010001feffffff0001fffe01fe0100fe01fe000100ff
0101fe01ff010101fe00fefffefffefffffe0001fe00fffe00ff01fefefe01000100fe010000fe01fe01fe01fefffe0000ffffffff0000feff01fefe00fffe00
010101fefeff00fffeffff010000fefffefffffefeff01fe01fffefe010101ff000000fffefffe00fe0001ff0101ff0100ff00fffffefffe0101fffeffffffff
fefe00000101ff01fe0000fe00ff01fffffefffefefe0100fe0100ff00ffff0101fe01fffffe00ffff01fefe00fe01ff0101fffefefe00ffffff00fefe01fefe
ff01ff01000101fefe00010101000001000001fe01feff00fefe0100fefeff01010101010001fefe00fefe0000fe0001feff00fffe01fffe00ff00ff01ff01fe
00000000000000000000000000000000000000000000000000000000000000000000000000000000000000000000000000000000000000000000000000000000
00000000000000000000000000000000000000000000000000000000000000000000000000000000000000000000000000000000000000000000000000000000
00000000000000000000000000000000000000000000000000000000000000000000000000000000000000000000000000000000000000000000000000000000
00000000000000000000000000000000000000000000000000000000000000000000000000000000000000000000000000000000000000000000000000000000
00000000000000000000000000000000000000000000000000000000000000000000000000000000000000000000000000000000000000000000000000000000
00000000000000000000000000000000000000000000000000000000000000000000000000000000000000000000000000000000000000000000000000000000
00000000000000000000000000000000000000000000000000000000000000000000000000000000000000000000000000000000000000000000000000000000
00000000000000000000000000000000000000000000000000000000000000000000000000000000000000000000000000000000000000000000000000000000
00000000000000000000000000000000000000000000000000000000000000000000000000000000000000000000000000000000000000000000000000000000
00000000000000000000000000000000000000000000000000000000000000000000000000000000000000000000000000000000000000000000000000000000
