01fefe010101ff010101fffefeff010000ff00feff00fffefe00000100fe000001ff00fe0100000001fefffffefe0001fefeff0000ff000000ff01fe00feffff
ff01fe0101fefeffffff01fffefe0001fffeff01fe00ff00ff01fe00feff000101fefe000100ff01fe00ff00fffe0001fefeff00feff01fefefefeffff00fe00
fe010100ff00fe01ffff00fe0000fffe0101fffe01fe00fffe00fe0001ff0101fffe01fffefffe01000100ff00ff00fffe00fffe0101fffeffff01010001ff01
00ff00000000fefeff00ffff0101feff00ffff00010101ff00ff01fe0100000100010100feff01fffeffff01fefeff0001fefffefe00000001fe0100fe010101
fefe01fefe01fefefffe00feffff0000feffffff0100ff00fefeff00ffffff00fffefffffefe01fe01fe00ff00fefe01fe010000fe000000010001fffffe00fe
fffe01ff000100fefeff01fefe0000fe0001fe00000001fffefe010001ff010001feff01fefefffeff01fe00fefe00fe00fe01ff0000fe0101fe010101fefe01
feff01fffffe01fffffffe00ffff0100fffefe00fe010001ff0100000001ff00fe01ff00ff000001ff00ffffffff00fefe00ff0001010100ff00010001010000
fefefe00fefffffe01ff00ff01fe01000100fe01fe01fe01feff0101ff00ffffffff00fffe00fe0000ffffffff00ffff00ff0101fffefe01fe0000fe010001ff
fefefe0001fefe010100ff01fefe00fe00fe01ff01fffe010000ff010001ff01fffe01feff0001fffe00fefe01ffff01ff01fefeff01fe01ff01ff00000100ff
01fe0100fefeff00fffe00fefefefeffff01fefefe00010000fffffe000001fffefffeff010000ffff0001fefe01fefeff00fefffffe01feff010000fefffe00
00feffff00fe0101fe0001fe0101ff0000fffe00ff00fe01fefffefe000100feff00000001000101ff00ff00fffe01fe00ffff0100000000fe01ffff00feff01
fefffe00000101010100fefffe00ff01fffe00ff000001ffffffff01fe000000fefefffefeff00fe0101010101fe01ff0100fe01fefeff01fefeff01ff000100
01ff0100ff0101fefefeff0001fefffe0001fe00ff01010101fe010101fefe00000000ffffffff01fe01fffe0001fffeffff00fffefffffe01ff010000000000
ff000001fffefeff00ff00fefeff000000fefeff01ff0101fe000001ff0001fe0000ff0001ff00010000ff01fe01fe00fffefe0100fe01fffeff00000000fefe
00ff00ff010001ff00feffff01fe00fe01fe01000000010001fe000001fe0101fffefffefefffe00fe010101000001ff010100ff01fe00fe0001fffe00010100
01ff0001fe0001fffe000001ffffff010001010001ff010100000100feff00ff0101ff00000001fffefffffe0100ff0100fe0100ffff000001fefeff0100ff00
