0101fffe01ff01000100ff01fefe01fe00000101fe01ffffffffff01fe0000ff01ffff010101fffffeff00fe01fffe0000ff01fefe0100fefefefe00fffefffe
00ff00fffe010000fefefeffff01fefefe00ff0101fefffe0100ff010000fefe0100fefefffe0100ff00fefe000000ff00000001fffe0100ffff0000fe00fffe
fefeff0100ff010000ff01fe0101fe00fe00fe0100fffffefeff0100ff0000fefefe00fe00010000feff010000fe000000fffe01ff00ff01010100ff01000101
010001ff01fffffe0000fe00ff0001fe0000fffe0001ffff01fe000001ff00fffffe01ff0000fe01feff01fe01fffe01fffe0001fe00fe0101fefefe01fffefe
fe00fe00ff00ff00fe00feffff0100fefefefeff0001fe01fe0000fffeff01fe0101fefe01fffefe0100fefefe01ffff00ff01ffff01fe010001ff00feff01ff
ffffff010001ff01ffff0100010101fe00ffff00fefffe0000010001fefffefe0001010000feff01fefe010001ff01010001fffffefe00ff00fe01feff01ff01
00fe0001feffff00fffffffffeff0100fe0100ff01fe000101ff00fffffe00fe00ffff00fe0000ffff0000ff000100fe01fffeffff0100ff010101ffff00fffe
01ffff0001fe000000fefeffff00fefffffefe01ff00ff0001000101fefe0000fe00fefe0100ffff01000001fffffefefeff0101feff00ff010000fffefe00ff
ffff01fe00ff01fefe00fffe01000000ff00feffff01010000fe01ffff00ff0001fffe01ff00fefe01010100fe0001fffe00fe00fffe0101fefefffe010000fe
fe01010001ff010100fffeff00fefe00fefe010101ff0000ff0000fefefefeff00ff00fefffefefefffffffefe00000100ffff01fe0001fefeff01fefffe01ff
fe0000ff00ffff00feffff00ff01fffefe0000fe00ff01ff010001fffe0100fefe00fe0000fffeff01fe0101fefffe00fefe0101feff0100fe00fffe01fffe01
fefeff00fffffeff0100ffffff0101ff00ff0101fefe0000ff00fffffe00ffffff0000ff01ff01feff000000ffff0000010100ff01ff01ff00ff0000ff01ff00
0001fefe0101ff01fefeff0000000101fe01fefefefeff01ff00ff0100ff00000001fe0001feff00fe01fe00fffefefe0100fefe01fefeffff00fefffefe0000
fefeff00ff01fe010101ff01ffff000001fe0101fffe01fffefeff0001feff0000ff0000ff0101fefeff0000fe00fefefefefe0001000000feff00ff0100feff
fe010101feff01fefefe0101ff0101fe00fe0001fefffffeff01ff01feff0000ff0001010000ff01ff00ff00fe01fefefffffefefe01ff01fe010101fefefe00
01fe01fefeff0101fe0100fefe0000ff0100fe01feffff0100ff00fffefffefffe00fffe01ff00fffe01fe0100fefffffe01fffefefefffefe01fe01ff0101fe
