fe00fefefe0000ffffffff00fefefeff0100fefffefffe01feff0001feff01000100fe010000feff01fe000101fffe00000100ff01000101ffffff01ff00fe00
ff010101fefe0001ff01ff0101ff01ff00fefeff0000ff000000fe00fefffefffeff0000010000ffff01fefffffeff00fe01ff010000fe010000fe00fe00feff
fffe0100ffff01fffe010001ff0101ffff010001010100fe010001fe00ff00fffe0101fe00fe000000ff0000ff01ff010000fefefffe000000ff01ffff0100ff
fe01ffffffff00ff00fefffefffe00fe000001fe010000ff00ff01000000fe00ff01fe00000101ff00fffe01fefefe010101ff00fefe00fffe0101ff01ff00fe
ff0100fefe0101fe00feff00ff01fe0000ff0000feff0001000000fefe000100ffff01fffefefe010101fe0000ff01ff01ffff000101fe000000ff01ff010000
fe0000fe00fe00feffffff0100fe00feff00fffeff010001fffe000100ff00010100ff0101fe0100fffffeff0100ffff00fe01ff01010101ff010100feffff01
fefefe01fefffeff0000fe00010100fefe0100fefffeff01fefefffe00010001fefe000001feffff00fe01010101fe00fefffe01fffefffefefe0100ffffff00
0100ff00fefeff010001feff000100ff01ff000101fefeffff01fffffeff00fefffe0101ffff0101000101ff000001fe01000000ff0101ffff0000fe01ffff00
01ff00fefefe00ffff010001fefe000101fe000000fe0101fffefe01fffe00ff00fe00fe00010000ff0001fffffe00000101fefefeff01ff01ff01fffefe0101
0000ff010001010001000000ff01ff000000ff0101feff00ffff01ff0001010100ffff00fe01ff00fffe0000ff010000fe01ff01fffefe0001fe00010000ff00
01000000fefe00feff0101feff000100fffefefe0100fe01fefeff010101ff01fffe0001fffefe010000fffe0100fefe0100fefffffe01ffffff0001ffffff00
01ff01fefefe00fe0101010000ffff00ffffff01feff010000ffff010001000101ff00fffe01fefffefefffe01feff00ff010000fffefefffeffff00ff0001fe
01fffeffffff00ff00ff01fe00fffefefffefffe0101fe01feff0000fe00fe00010100ffff00fe0000fe01ff00ff0100ff0101fe01010101010000fffeff00ff
fefe0101fe00fffffffefffe0000ffffff010000fffe000101fe00fe00fefe000101ff01010000ff0001fffe00ffff0101ff0100fe01fffefe01fe00feff01ff
000001010000fe0000feffff010101ff000101fe000000ff00fffeffffffff00ffffffff01ff01fefefe01fe0101ff01feff00fffffffe00fefe00ffff000100
000100010001ff01fe01ff01fe000001ffff00fe01feffffff01fffe01feff00ffff000001ff0100010101ff0001fe01ff0101000101010101ff00fffefeffff
