fe01feff01fe00ff010101ff000101fffe0001fffe00000001fe0100010001fe000001fe0100fe0100fffffe0101ff0001fffffffefe00000100feffff01fe01
fefffefefefe00fefffffffe0001fffefefeff00fe01010101ff0100fe01fefe00fffe00ffff00000100fffefefefeffff00ffffff0001fe01fe0000fe01fefe
fffe0001fefe01fe0101fe010000fffeff00ff000100000101feff00ff000000fffefe0001feff01ff01ff0001fffefefefe000000ffff00ff01fe0001fe0100
010100fe000000fefe000101ff0001fe0001ffff01000101fe01ff010100000100feff00ff00fffefe01feff01ffff00010101fe01fe01fffe000101010000fe
010001fefe000001fe000101fffffffe01ffff0100010000feff00fefefffefffe00ff0100fefefe0100fffe01ffffffffff010100000101fffe01000100ffff
01fe01010000fe0000fe00ff0101ff0101fe000001fe00fffeff00fefeffff000000ff01ffff01fe0100fefe0100fffe01ff01ff00fefffefffeff0001010001
0100fe01fffffe01ff0101ff010000fefe00feff0001000000fe0100000001feff00fe01ff01ff0000fe0001fffe00fefe000101fffefefefffe0000feffffff
0001fe0000fe0001fefe00fe0101ff000101fffeffff0000fefffeff0000fe0101feff01ff00ff000001fefe01ffffffff000000fefffe01ffffffff010000fe
010001ffff01000000ff01010001fe0101ff0100fe00fe0000fefeff0000fffeffffff0101ff000000fffffffe0100fe01fefe00feff01fffe01ff00fe000101
0001fefe01fffffeff00fefe0001ff01ff0001ff01fffefe000000fffefffffe010100feff01ff0001fefefe01000100fefffeff000000010101fe000100fffe
01ff00ff0001ff010101fefefe01fefefe0001fefffefe0000fefefe000000feff01feffff00010001fefffeffff01fffe00fffe000101fe000000000001feff
fe0000fffefe01ff01ff01ff000101fefeffff00ff010100ff00ffffffff0001fffe00fefffe00fffefefe01ffff01ff00fffffefefe01010101ff00feffff01
ff01fe0100fe0001ff0101fefeff0101fffeff01fffeff01feffff00fffefefe00010001fe00fffe0101ffff00fe0101fffe00fffeffff01fe0100ff01000101
fe00010101fe01ff00ff00fefffffe01ffff010000ff0000ff000100ff0101fe01fefe01fefffeff00fe00ff01fefefefefefefffe00ff00fffe00010000fffe
0000fe00fe01ff010000feff00ff0001fe01ff010100ff0000feffff01fffefefefefe01fffe01ff00fffffeff01ff00ff01fefefefefffefefe0001fffffffe
fefefe01fefffefffe00ff0000fe010001feff01fe0001ff01fffefffe00fe01ff00fe010100fefe0100fffeff00fffefefe00fe00fefefefe00fefffefffe01
