00ff0101fffe01fefe0100fe00ff01ffff0000fe00ffffff00ff01000000feff00000001fe00ff000001fefffffeff00fefefffefefefefe000100010000ff00
ff00000101fe0001010000fe01fe00ff000000010001000100fffe01fe01ff010101fffe01010000010000ff00ff00feffff00ff0001fe01010000ff0001ff00
fe01ff01feff01000001fefefe0001010000fe0101000101fefffffeff01ff00ff010001fefefeff01fe0001ff00fe01ffff010100ff0100fffffffefe00fe01
ffff01ff0001010101000001fefeff010000ffff0101feffff00feff0101feff00fe00fe00ff0000010000fe0100feffffffffff0101fe0100fffffe01ff0001
00ff0100ff010001feff01fffffe0100fffefe0100000001fefffefeff00ffff000001ff0100fefe0101fffe00feff01ff01ff00000100feff0001fffefefe01
fe00fe01fefe0100ff00fe00ff000101000100fffffefeff00fe00fe01010001fefefe01000001ff0100ff0000fefe000101fe00ff00ff00fefefefe00ff0100
fefe000001fefffefe01ff000100ffff00ff0000ff0000feff01feffff0001ff00ffffff00fffefffffefe01fe0001ff01ff01fe0001ff010101fefe010101fe
ffff0001ff01fffe01fffeff0100fe01feff0001fffffe00fffe00ff01fe01fefe00ffff0000fe0100ffff0000fffefefffffefefefe00fffe00fefe010101fe
00000000000000000000000000000000000000000000000000000000000000000000000000000000000000000000000000000000000000000000000000000000
01fffefffefeff0101ffff01ff00ffffff01ff00fefefffeff000101fe000101ff0001fe00fe0101000100ff00fe0001fefefefe0101fe0001feff00fefe0101
00fe01fe000101fefe01fffe0001ff0101fe01fffefe0101fe00ff000001fffffffe00fffffe01ff0100fffffe01000101010100fe0100fe000101fefefefffe
fefe010100010101010001ffff01ff00fe0000fe00000101fe010101fe00fffe01fe01ff01fefefe000000fe01feff01ff00ff0000ff01010101ff0100ffffff
000001ffff00fe01fffeffff000000feff0100ff0001fe01fe00feff01000100feffff0000fefeff010101ff0100fffe01010000fffe01ffff01ff000101fffe
fefefefefe0000fe01fe0101fffefefffffe0001fe01000100feff00ffff00ff0001fe00fefe0000feff01fffe01fffefffe01ff000101ff010000010001ff01
010100feff0001ff00fe01fe00fe00ffff00000000ff01feff0101fe0001010100ff00fe0101010001feff00ffff01010100fe0101fe0001fe0000ffffffffff
ff000001fefffffeff0001ff00ff00fefffffffe01010000ff010100010101fffe00ff00fefe0000fffeff01fefe00fffe010001010101010001fefe00010000
ff00fe0000ffff000001ffffff0001fe0000ff0101fe0000010101fefefefeff000000fe00fefeff01ff010001fe000100ff00fe010000010101000000ff01fe
00000000000000000000000000000000000000000000000000000000000000000000000000000000000000000000000000000000000000000000000000000000
fffe00fefffeffff0101ff00fefe01fe010100010001ff01010100ff01ff010000fffefffefe0100feff00fe010101000100fe01fefe00fffeffff01000100fe
ff000001ffff010000fe01fffe0101fe0000fefffffe01fffe01ff01feffffff0001ff00fefffe00fe00fefe00fe00feffffffff00ff010001ff01fe00fe01ff
01ff00ffffff0000fffe0101fefe00fe01fefffefefe010100feff0101fe00fe00fefefe01fefeff01fe01ff00fe0101ffffff01ffff010101fe0101fe01ff00
00fffffefe00ff01fe00fe00fe0100ff000001ff01fffe00fffe010100ff00fe01fffe0100fe000001ffff010101fffe01fefffe0100fe01fe01fe01010101ff
00feff000100fffe010100fefe0101fefe00feffff00fe01ff01ffffff0101fffe01ffffff00ff0101ff0001fefeffff00ff00fffe01000100fefefefffffefe
fffffffeff0100ff010101fffe01fefe0001fe01ff00fffe0000fefe01fe0101ff00ff0001ff0101fe000100fe00fe01ff0000000101000100fefe0101ff0001
01000000fe00fe0100fffefffe01010101ff00fe00fe00ff01fe01ffff0100fffffe01fe01ff0100feff0101fefe0001fefe0100ff01fe0000ffff000101fffe
ff00ff0001fe0101fefefefe00ff00ff01010101ff01fe00000001ff00ff00feff00fe0100ff01fffeff01ff01fffeff00fe010001010000ff00ff01ff01ff00
00000000000000000000000000000000000000000000000000000000000000000000000000000000000000000000000000000000000000000000000000000000
