00ff00ff00fefe0101fe0101ff00fe000000000101010001ff0100fe00feff00ff0100ff01ffff00ff00ff01fe010000ff00ffff010000fe01fe0101010001ff
fefe010000fe01fe01fffeff00feffff0101fffefffffffefeff00fefe01feff00fffffffe0101fe01feffff01ff0001fefefffefffeff01feff00ffff0100ff
01fe0100010101fffffffefffe01ff01fe010101fe010001fefeff000100fffffe00ff0101ff0001fefeffff01ff00000101fe00ff000101ff01ffff00ff00fe
ff0100ff0000ff01fefefe01fe010100ff0100ff01ffffffff0101ffffff00fefffefffe0000010001000101feff00010101fe00fe01010000fffeff01fefe01
fffffefe000101feffff00ff00fffe01fefeff01000101ff0100010100fefeff0100ffff00fe000101fffe01ff000000010001fe01000100ffff000001fefe00
0101000001ffff0100fe01fefe0100ffff0000fe00fefefeff010001010101fe0100ff00fefffefeff01ff01ff0100fe0001ff01000101fefe0001fefe00ffff
00ff0100ffff00ff01fefe0100fffeffff0001fe0100ff0001000000ff01ffff00000101feff00ffff0001ff00ff01fffefeff0100000100fefffffeff01fe01
fefffffeffff01ff0101ff01feff0100fefe01ff01ff00ff01fe01fe0100010100fefe000000fefe00fffeffff000101ffff0000fefe00010100feff00fe0001
00000000000000000000000000000000000000000000000000000000000000000000000000000000000000000000000000000000000000000000000000000000
010100fffeff000001010000000100fe0001fefeff01010001000100ff0001fe0100000100fffeff00ff01fe01fe00010101fe0000fefeff000001ff000000ff
0100fefffeff00fefe010101ff0000fffeff00feff00fe0000fe01000100ffff000101000100ff00fefe00fefefffffefeff010100fe01ff01feff010001feff
fe00fffe0100fffefe00fffffefefeff01ff01fe0000fffffefffefefefe0101fe00ffff00ff00ff0000fffeffff0000ff0001fffe0101fefefffe01010101ff
fffe0000fe01fffffefffffffffefffe0100ffff00010000fe000000ff0000fefffefffeffff01fefefe010100fe0101ff00fefffffefffefe010100fffe0100
0100ff010000fffffeff01fe000101fefffffefffe0100fefffe01fefeff01fefe00fefeffff010001010000ff00ff0000000100ff00fe0100feff01fe01ff01
fffefe000101fe0000ff0001fffe010000fefe0101ffffffffff00fefefffe00feffff0101010101fffefffefffe0000fe000001ff0100ff00ff00fe00ffffff
fe0001fe0001ff010001fefe0100fe0101ff01ff01feff00fefefeff0101010101fffffe010100fffefe00feff0101ff01ffff01000001fffefe01fffe01fffe
fefefefeff00fefe0100fe01fffffe0101ff0100fefeff00ff0100ff00fe0000ff01ff010101fefe0100fffffffffeff00ffff0100010100000000fefe00ffff
00000000000000000000000000000000000000000000000000000000000000000000000000000000000000000000000000000000000000000000000000000000
fe00ff00fefe0000ffff000001fffefffeffff00fefefe00fefe01000101fe00fffefe01fe00010001feff01ff0101ffff00fefefe0001fe00fefe0100fefeff
ff0000fffe0100fe010001ff01ff00feff0001fefefeff010101010001ff0000fffe010000ff00fe00000000ff0000fe01fefe00fe0100fefe01000000000100
00fefe01fe01ff0100fffe0100ff01feffff0100ff0100fefe0100fefefeff0101010100feffffff00000101fefe00ff000000000101fe010100fefe01ff01fe
fe0101ffff010100fe00ff00feff00ff000001fffeff0001fe01fe0101fe01fffffffe00feff0000feffff01fffffefeff00fefe0101feff000100010101ff01
ff000001fefefe01fffe00fe0100fe000101fffefefffefe0101fefe01fffeffff0000fe01fffeff01fe010100ff01ff01010101fffe01fe00ffff0000fffe01
fffefffe0001fefffffefefffefefffe0100feff01fffe00ff01fe0001ff0101feff01ff01fefe000001fffe01fe00feffff01fe01fffefffe010000ff000000
fefefefffffefefefe000101fffefefe0100fffffffffe0000fefffefefefffeff01fefe0000fe01feffffff01ff01fe0101fe010000ff010101fffe0001fefe
00010001fe000101000100fefe00fefe00ffffff00fffefeff00ff010100ff0001fffeff01fffffffeff01000101feffff0101fefefefefefffe01ff01feff01
00000000000000000000000000000000000000000000000000000000000000000000000000000000000000000000000000000000000000000000000000000000
