01000001fe00fe00000100ff0101fffffffffeff00fffe00feffffff0001fe00010101ff00fefe0100ffff000100fe01ff01fefe010100feff0100fefffefffe
fe000101feff000001ff010101fefffe0000fe00fefeff01ffff000001010100fe0101fe0100000000010001fe00fe010101ff010100fe01ff0001fe01ffffff
0100fefffefeff01fffefffe00fefffffffe01fffefffe01ff0101000101fefffffe01fefffeff00fe000000fefe0000feff01ff0001010100ff010001fefffe
fe010000ff00010100ff01fe0000fe0100fefefefeff000100fe00000000ff0101ff000100ff01fffe0001ff01fffe01ffff00ff01fffefeff01fffe01010100
feff000100fe00fefefefe00fe01ff000100fe01ffff01fffffefefe01ff010001fe0000fefe01fe0000ff0000fefe00fefffeff0101ff0101010101ff010100
fe0000ff0101fffe0001fe0100ff00feff01fefffffeff01fefeffffffff0001ffffff010001fffe0000fe00fe0101ff01fefeff01fe00fffe000100010100fe
01fe01fffffe01ff0101fe0100000000fffeffff0001ff01ff00fe00ffff01feff01ff01fffffefeff000000010000ff00fe00fe000001ff0001000001fe01ff
010001feff0100010101fefefe0000ff01ffff01fe01fe0100000000ffffff01ffff01ff01ff01010001fefefe00fe01fefeff01fe0101fefffefffffe0001fe
0000010101feffff0101fffe01ffff0001000001fefe010000ff00ff00fffeffff000100fe000000fefe01ffff01ff00fefe010101fe010000000000010000fe
0000ff0100010000ff00fefeff0001000001fe01fefefe0101ff0001010001fefeffff000101fe00ff0001fffe0101ff00fffeff00ff0101fe01ff0100ff00ff
fe0101fe01fffefe01ff00000001000100ff010100000101fefe010100ff000101ff01fe01fe0100fffffe01fffffefefe000100fe0101fefffefe01feff0100
000101fffffefefffeff00fffe0101fe0101ff01fffffe0001fffefe00ff00000001fffefffffefe0100ff00fe01fe00ff0000feff000101feff0100000101ff
01fffe0101000100fefeff00fffefffffe00fe00fffe00fe0100ff0000010001fe01ff000100ff00ff01ff00ff01fffe0000fe00fe01fffffe01010100fe00ff
ff00ff0000fefeff000000fffe00000101fffe01ff0101fefefefffffefe00fefe00fe000000fefe0000fffffeff01ff00fe00010101fefeff01fe0100ff01ff
fe0001ff00ff01ff01fe00fe0101ffffff010000fe0101fefe01ff0000fe00ff00fe00ff01fefefffe00fefefe00fffe01fe01fefe00fefe01fefeffffff01fe
0000010001ffff00fffffe01010000fefeffffffffff010001fe00feff01fefe0101fffefffe000000fffe00000001fe00fefefe00fffe0000fffefe000000fe
fefe0000fe000100fe0101fffe00fe00fffefefffe01ff01fe01fe0100000101fe00fffe0101fffe00ffff000000feffffffff000100ff00fe0000ff00010001
00ff00ffff00fe01010100fefffe010100ff010100ff00ff000000ffff01ffff0100ff010101010100feff00ff0001fe0001fe01ffffffff01ff01feff00fe01
01010000fffefefeff01ffff01ffffffff000001000101fe0100ff010100feff0101fefefefefe0000fefefe00fe00010001ff01fefe00ffff01ff010000fefe
01fffe010001fe0000fe00fffe0101000001fe00feff01fefe00ff010000ff0000010100fefffefe00feff000001ff0000ffff01fe0000fe0101ff0001fe01fe
010100fe01fffefffeff00fe01fffe00010101010100ffff00ff010100000100fefffe00010001fe00000101fffe00ff0100fffffefeff0100feffffff0001ff
01feff0101fffefe0100000101ffff01ff010000fe00fe00fefffe00fffefffefefefffefffefefffffefeff00feffff01fffe01fffeffff0100010000fe0001
00010101fffeffffffff00ffff01010100ff0101ff0001ff0001010000fffe00fe000001fffeffff000100ff000100fffe01feff01fefffe01fefeff0100fffe
fefeffff01fe00ff00010100fefffefe01ff0101010101feff01fefe01ffff00fe00000000fffefe00ff0101fe0000ffffff01fe00fffeff01fe01feff01fefe
