00fffe0100010001fe000101fe000000fe00fffe00fefe0000fe0101fffe000000000001feff0100ff01fefe01fefefefeff01000000ff010101fe0000ffffff
00ff000101fe01fefefe00fe01fffefefefffffefe00feff01ff010100ff01ff0001fffe0001fffffe000000fefefefffefffefffefffffe01fe01fe00fe00ff
01ffff01fffffeffff00ffff01ffff00fffefffe00fffe0100ff0000feffffff01fe01fe00000101010001fffffffffeff0000fffe01fefefe00ff01000001ff
feff01ff00fe0000fe01fefefe000100fe01fffefeff0000fe01ff0001fefefefe010000fefe0101fefefffe0100fffefffefe01010101fefe0100ff01fe0100
feffff00fe00fefefffffe01ff01fffe00feff00fffe01ffff00000101ff010001ffff00ffffff01010001ffff00fffefefefffffeff010100fefffe01ffff00
01fe00fe00fefffffffffefffefffe00ffff01010100fe00ffff01fe01ff00fefe00fe01fe0101fefefefeff00ff01fffe0001000101ff00fefffefefffefe01
00fefe0100000001fffefe00fefffe000100ffff010001fefe00010000000000ff01ff0000fe00fffe01fffeff010101feff01feffffffff00ff00fe000101fe
fefe0101fffe00fefe0101fefffffffe0001feff01ff0001fe00fefe01fefffefffe00fefeff01ff00fffffe01ff00ff0101fffffefffe00000100ffff0100ff
ff00010101fefefefefe00000100fffe0101ffff01ff01feff01fe000101000000ffff01ff0101000100fe01feff00ffff00fe00000101ff01fffffe00fe00ff
ff00fe0000ff00feffff00fe0000ff00010000ffff0001fefe010001fefffefe0000fe000000010101fe0100fffe00fefe0100ff00fe00fefe000001fe01ff00
fefffe00fefe000001ff0001fe010001fffffffefe0000ff00ff00fffeff01fe01ff0100ff00fefffe00ff01fe0101fe0101fe00feff00fffffffe01ff01fefe
fffe0100ff01fefeff01fe01fffefe00ff01ffff0100fe00000100fefe0000fefe010001feff000101ff0001fffefeff01feff00fffe01feff00feff01000001
01ff00010100fefe01ff000100ff00feff0101ff000101fefe00fefeff00fefefeff00000000fefffe01fe01fffefe00feff0100ff01fefffffe01fffefffe01
fefffe0100ff00ff00fffffe01ff000101feff00ff00fefefffefe000000feff0100000000ffffffff0101ff00000101fffffe01fffeffff00fffe010000ffff
01fffe00010101fe01feff01ff01fefefe0000ff00ff000000ff01ff01ff01fffe01fffeff01fe010101ff0100ff01000001010000010000ff0101fe0000fefe
fe0101010101feffffff00000000fe0001fefefffe0101ff0000fefffffe00fffe01000100ff0100ff01ffffff01feff01fffe000000fe00000000ff01fffe00
