00fe000101fffe00fffefe01fefeff0000fffffe01000101fe00ff01000100ffff0100fefffefe0001fe000100fffffe01ff010000000100010101feff0100fe
fe000001ffff00ff00fe000000fe00ff00000100fe000001ff0101ff0101010100010000010001fe01fe0000fffe00ff00fe0001ff0001fe00fffffe01000101
01fefffefe010001fe00feff010000fe0101fefffe00fe00ffffff0000fe00ff0000ff01ff010101ffff0000fefffefeff01ff0101fe00fffeff0000ff01feff
0100ff00ff01000001ff0100fe01ff00000100ff000001ff0001fffe010100fefe01fe0100fffeffff00fefe0001ffffff01ff000001fe00ffffff010100fe00
01feff0000010101ffffff010100ffffff0001ff01ff0100fefe01feff0101fffe00ffff0000fe0100fffefeff00ff00fe00fffefe0101fe00ff00feff0101fe
0001ff010001fe01ff0000fffe0101fe00ffff0001010001fefefefe01fffffeffffff00ff01fffeff010001000101ff010101ff01fefefefeff01fefe010001
0000ff000101ff01fffeff0101fffefffeff01010000fe010001fefe01fe0101010001ff01ffff00fe00fe01feffff0100fe0001fffe0100fe000101fe010001
fffffefe0001fefffeff00ff00010100fefe0100feff00fe0001ff00010100ff00ff00fefe01010100feff00ff01feff00fffffffffffffefffefefffefffe01
fefe01ffff01ff01fffefe01ff0100ff00feff010100feff01ff0001000001fffefefeffffff01ff00010100fe00fe0001fe00fffeff01fe0100ff0001feff00
fefffeffff0000000001ff0001ff0000ffff0000fffefffffffe00feff0000fffefe01feff01feff01010000ff00000000feff00010100010001fefe01ff01ff
ff01fffefe01fffe00ff01ff010100000100010000fe0101ff01000001fe000100ffff010100000101fe0001ff00fe01000101fefefefe000100ff01fefeff00
010101000001ff0100fe01feffff00000100fe0101fefefefefeff01fefe010000fe01ff01feff01ff00fe01fe01fefeff0101ff0101fffefffe00fe01fe0100
01ff01fe000100010001ff000001ff00000100010000fefe00ffff0100feff000000fe01feff00fe0001ff01ff00fefeff0101fffefe0000ff01ffff01ff01fe
00ff00000001feff00000100fe0101ffff01000100fe01ff0101fffefe0001ff0001010000fefffefe0001ff010100feff000100ff0000fe0100fe00ff00fe01
01ffffff0100feffff0100fffe0101fe00fe01010000ff00ff0100fefe01ff00ff00fe010000feff010100ff000001fe00fefffefeffffffff00ffff01010101
fe0001fe00fefefffeffff0100ff010100ff00fffffeff00feff000000fefefffefe0001fefefefe01ff010101000000ff000101fefe00feff01000101fe01fe
