0001ff01ff01ff0001ffff01fe00fffe01ff01ffffffff01fffffefeff01feff0000ff00ffffffff000001010001feff00000100ffff01010101ff01fffe0101
0100fffeffffffff0101feff0100fefefeff01fe01fe0101fe00ff01fe00fefefe00fefefe000001fefffe010000000000fffffeff010101ff01ffff01fe0101
ff01fffeff00ff00fe00010001fffe00010100ff000001010100fefffefffffefe00fe00ffff01fe000100fefefffeff00fefffeff0000fffefe0000ff01ff01
00ff0100fe000101010000000100fefe0100fefefeffffff000001fefe000100fe00fffffffffefe01fffefe0100fe00ff00ff01fe01fe00fffe0101fefe01ff
fe0000ffff00feff0000ff00ff0001fe00ff00010101ff00fffefe010000fe0101fffe01fffffffeff0101ff00ff01feff0100fffffffffe000100fefffe0001
000001fffeff00ff00fefffeff01ff01fffffefffe01fffe00fe00fefefe0100fefefe0101ff010101010001fffffeff01010001010101fefe0100010000ff01
feffff00feffff00feff01000100fe01fefffffffe000100fffe0101feff010000ff01fe01ffff0001fefe010100fffffffe00ff0100ff00fe00fe00fffffffe
fefffeffff00fffefe0100fe0000ffffff00fe00fe00fe010001000000fefffefffefefeff0101ffff0101010000ffff00010100feffff0000fefefe01fffefe
ffffff010000010001fe0001ff01fe0000ff01010000fe01feffff01feff0001fefeff01ffffff00fe00fe01ffff0101fe01fffefe01fe00fffe00fefeff0000
ff01fffeff01fe01fe010000fe01ff0100fffffeff01fefffffefe00fffe0001ff01ffff01fe00010000010001fffffefeff01ff010100ff01fffffeff01ff00
000101ff010101fe00feff00fffe01feff01000001fefe0101fefffe0100fefe0000fe0001fffefffe01feff00feff000000ff00fffefe01ff010101fefffeff
fefe00010001fffffe01fe01fe000101ff0100010001fffeff010000fefe00fefefffe0101010100ff000100000100ffffff00ffff00ffff010000fefe0101ff
feff01fe0100fffe0101010001fefefe01fe010000fe0101000001fe00fffefefe00ff00ff01fe0101fe00fe0000ffff01fffeff010000ffff00fefefefe01fe
fefefffefefffe01fffefe00fefe010101feffff00fefe01feff000100ffff00010001fefefe0101fe00010001000001fe00fefefefe010001fefffe01ff00ff
000001fe00ff0000000000fefffe0001fffefefe00ff00fe0100fefe000000000001fefffe010001fe00fefffe00fe00ffffff01feffff00fe0100fffefefeff
00fefe0000fffe00feff0101fffffefffefe00ff0001000000fffffffe0100ff01010101fffe01fefe0100ff0000ffff000100fffeff01feff0100fefefe0100
00000000000000000000000000000000000000000000000000000000000000000000000000000000000000000000000000000000000000000000000000000000
00000000000000000000000000000000000000000000000000000000000000000000000000000000000000000000000000000000000000000000000000000000
00000000000000000000000000000000000000000000000000000000000000000000000000000000000000000000000000000000000000000000000000000000
00000000000000000000000000000000000000000000000000000000000000000000000000000000000000000000000000000000000000000000000000000000
00000000000000000000000000000000000000000000000000000000000000000000000000000000000000000000000000000000000000000000000000000000
00000000000000000000000000000000000000000000000000000000000000000000000000000000000000000000000000000000000000000000000000000000
00000000000000000000000000000000000000000000000000000000000000000000000000000000000000000000000000000000000000000000000000000000
00000000000000000000000000000000000000000000000000000000000000000000000000000000000000000000000000000000000000000000000000000000
