fe00fe000000feff01fe0100010000ff000100fe010000fefe010100ff00fe01fe0000fe00feff010101fffeff01fe01fefffe0001fffffffe0100fe01ff0000
fefeff010100ffff01fe00fffe01ff00fffefe0001fefe01ffff00000101fe000000fefe01ff00fe00fefeff01fffe0101fffefefeffff00010000fefe01fe01
0100ff0000fe01fffefeff01fffffe00fe01fffe00000101fefeff01ff010000000100fefefefe000001ff0000fefe0101fffefe01fefefe0101fe0000ff0100
000000fffefefffffe00ff01fefffe01ff0100fefffe01fe0001010000010000010001feff0001fffe01ff00fe01ff00fe01010001ff0101fe01ff01fe00fefe
010001fffffe00fffefffe01fe0001ffffff01010101000000fffffe00000001fe0000ff01ff01fe0100fffe01fe0000fe01010000ff01fe01feff0001fe0001
0001fe01010101fe00fefe01fffffe010001fe01fe0001ff00fffffffe01fe0001ff010001fefffe01ffffffffff0001ffff0000fefefefefffe000100ffffff
fffe00ff00feff00fe0000ff0000feffff0101fffefe0000fe00fefefefeff00000001000101000000fe01fe01fe0000fefffefe00fe000001ff01ff010100fe
0000fffe0000fffefffffefefefffe00fefe00ff010101fe01fe01ff010001feff00000101fe0100fefe00ffff01fe000100fe000100fefe000000fffe00ff01
00000000000000000000000000000000000000000000000000000000000000000000000000000000000000000000000000000000000000000000000000000000
ff01ffff01000001fffe00fe000101fffe01ff01ff0101ffff01fe0001fe0101ff000101feff01fffefefeff01fe0000ff000001fe00ff0000fefe00fe0001ff
01000101feffff00feff0001fefe01000101fefefefffe01fefffe0000feff00ff01fefeff00ffff010100fffffffeff01ffffff0001ff010000fffe01fffe00
fe01fefe00feff0001ff01ff000101010001ff01ff00fefffe00fefffe0001feffffff0100fe01fefe00ff0101fefe0100ff000000fefe01fefefffeff01ff00
0100fe00feff01ff00ff00fe010001010100fffe01fe0100fffffeff00fffefe0101010001ff0100ffff00ff0001ffff01fefefefefefe0101feff00fffeffff
0100ff01fffffefe0101fefe0100feff00ff01000101ff00010100ff01ffffff01fffe00fffefefe010100ffff010100000001ff01feffff01fe01fe0100fe00
010001ff0001fffefefe01fe010001fe000100ffff0100fe010001fffefe010000fefefefefe01fefffefe01fe00feff01fffe010000fefefefe0101fefe0101
fffefeff01fefeff01fffefe01fe0101ffff0100fe00ff00fe01ff00fffe000101fe0000ff0001feffff01fffefffffefe00fe00010001ffff01fe0101fffffe
01fe0001fffffe0100ffff01ff01ffff010101fe00fffefffeff00000001fefe000001ff00feffff01ff01fffe0001fefe01ff0001ffff0000ff00ff00fe0001
00000000000000000000000000000000000000000000000000000000000000000000000000000000000000000000000000000000000000000000000000000000
fe0100fe00ff0100ff000001000100ff0101fe00000101fffefeff00fe01fefeff00ff01ff00fe01ffff0101feff010101010101000100fe01fefefefeff00ff
ffffffff01fefe00fffefe01ff0101000000fffffefffffeff00fe00feff01fffefefefffffefefffe010001ff01ff00feff00fe000101000001fffffe01fffe
0000fffe0001000001feff00fffe010000fefefe010101ff0000010001feff00ff00fffefe00000000fffefe0001ff000000feff0100fefefffe00ffff000000
0101fe0000fe00fffffefffffeff000000fefffe01fefffe0101ffff000100fe0101fefe010000ff01fffffefe000000fefeff010101fe01fffeffffffff0001
00ff0001ff0101fe00feff0101fffefeff0001ffff01000100fefefe010001010000fefefe01fffefe01ffff00fffffffeff00fe00ffff010100fefeffffff00
01000100ff010101feff00fe00fe000101010101ff000101ff0001fffe0000ff010101fefefefe010001feffffffffff000101ffff00ff00fffffefffe01fffe
fffffe00ff0100000001fe000101ff0000feffff01ff0000fe01010101fefe00ff0101000100ff0100fffffffe00ffff0101fffe000001ff00feff0001000000
fe0000000100010101fffefffe010100fefeff00fefe01fefe01fe00fefffeff0000fffe000000fe00fefe000101feff0001ff00feffff01feff00fefe0100fe
00000000000000000000000000000000000000000000000000000000000000000000000000000000000000000000000000000000000000000000000000000000
