fe00fe00ff00fe00ffffffff0001fffefffe01ffffffff01fe00fefeff0101010101ff0100fffffffe0100ff0101feff01feffff00fefffe0101ff0000feffff
0001fe0101feff00000000fe0001ff00000001000000fe00fe00ff01fffffe0101ff00ff01fe01ff0100fffefefe01fffefffffe00fe00ff00ff00fffe01feff
01fe000000fefe0001fffe00fe0100ff01fefefefefe01ffff0001ffff01010100ff0000000000010100fffffe0001ff01fe010001feffffff00ffff01fe0101
fefe0100ffffff0101fefefffeff00ff00fffe010100000000ffff01ff0100fe0000fefefefefe00fe0000ffff00ff010101fe00fefefe01feff00fe0000feff
fe0000fffffeff0100fefffeffffff0100fffffffe0000ff01feff010001fe01fe01ff01fe01fffe0001fffefefffffffe000101fefe00010101ffff0100fe01
fefffe01ff00010000fefefe01010001ffff00000001fe010001ff0100ffff01fe0101feff000100fefffe00fefffeff00ff0001ff00fefffe0100fe01010001
ff01feff00000001fe01ffff0100ffff0100feff000001fffffefefe0100ff0001ff0100fffffefefe0001000000fffeff0001ff00fefefe010000ff00000000
fefe010000fffefeff010100000001fffe0001fffe010101feff00ff00ffff0001fffefeffff00fe01feff00fffefe00ff0100fefe00fe0001fe0100ff00fefe
fe000100fefe0000010000fffffe01ffff0000fffeff0000fe00fffeffffff01fefe00fe01ff00fe00ff01fffe00ff0000fe010001fffefffe00feff000001ff
ff0001fe0000010001ff00fefe01fffefffeff01fe01ff00ff01ff00fe01fefe00ffff000000fe0001fefe0100ff000100fffe01fe0001010101ffff01ff0000
01fffeff0001000100fffe0101fffe00ff0101fffeffff00fe0000fe01fffeff000000ff00ff0001ffff00000001ff01fffffefffe0100feff000001000000fe
feff01fe0001fefe0000fe0000ff01fffffefeffff00fe0001ff01fe00ff01fefe01fe0000ff010100ffff01010001fffe01fe01fe0001fefe00fe00feff0000
ff01fe01fe01fe00fe01fffe0001010100010000fefefefe00fe0101ffff0000fe00fffe00ff010001ff01fe0101fefeff0100fe000101fe0001fefe0001fffe
010101fefffeff00fe01fe0100fffeff00feff00ff000001010101ff00fe01ff0000fe00ff0100fffefe0101ff01fe0001ffff01000001fefeffff0001010101
feff0000ff00ff00fffefefffe01fefefe000100fefefe0001000001fffefe000001fe00fe0000fe01000000fefeff01fefeff01fe0101fe010101ffff010101
0101feffff01fefe0001fffe00fe00fefe00fffefefe01fe01fffe00fffe000000fefe00ff01ff01000101010001fe00feff01feffff0001010001fe00ff0101
fefffe0000ff0000ffff01ff00fe000000ff000101fffe00fffe0001feff010100ffffffff0001000100ffff00fefffefffeffff0100ffff00ff00feff00ff01
feff01ff0101fe01fe01fefe00fffefe00fffe01fe00fefeffff0000fe00feff00fe00fefefe00000000fffffffffffefefe01fe000101ffff00010000000100
fe00000000010101010001feff0000fe01fffefe0100000000000101feff01ffff01fe00000000feff00fefe01fffeff01fefe00fefe00ff010101fffffffe01
0100ff0000000101feff010101fffffefe00fffe01fe01fe00fe01000101ff01fffe00ffff0001feff010001000001ff01fe000101fe00010001ff01fffe0101
ff00fe010101000101fffefe01fefffefefe0101fe01fe00ffff01ff01fe0101fe0101ff01010000fffffffefefe0001ff00fefffe010001000001fe0000ff00
01ff00000001ffffff00000101fefeff010000ff0001fffffffe01ff00000101fe000000ff0001fffefe00fe01fefefefefe0100fe01ff0100fefefefffefe00
0100feff00fe00ff00ff00ff0100fffefffffefe01fffeffff00fffe00ffffffff0101ff0001fefffffffffffe01ff01ffff01ff000100fffffefe01ffff0000
01ff0101ff00ff00feff01000000fefeff010101ff00fe0001feff0001ff0001fe0101fe00feff010001fe010000feff0001fefffeffffffffff01fe0100ff00
