01fe01fe00fe00fffe00feff01fe000000010101ffff00ffff0100ff0001ff01ff01ff00fefeff0100ff0000feff0000fffe010000fe01fefe010001010101fe
0100fefffe01ff00fffeff0100fffe01fefefffffffe01feff00fe0101fe01fffeff00010100000101ffff0101ffff01fe00fe00fe01000001ff01fefefe0100
01fffefeff010101ff01fffefffffeffff0000fe01ff01ffff00ff01000101fefffeff0000fffefe010101fe0001fefe01fe0101feff00feff01fefe0001fffe
fe00010101ff01fe0101fe0001fe0001010100fe010000000101ff0101feffff0100fffe0000000101fe0001ffff0100fe01ff0100ff00fe01fefefeff01feff
01fefefe01ff01fffe0101ff01feff01fe0101fefffffeffff00fffeff0101ff0001ff010100fefefefe00feff010100ff00fe010101ff0000fefefefe00ff00
fffefffe00fffefe0101fefffe0101ff0101fffe0001fffe00fe0001000001fefe000101fe01fefeff00fe01feffff000000fffffe0100fe01ff0000fefe0001
feff01fffefeffff0101fe010000fffeff00ffff0000ffffffff01feff01fefefffeff010101fefffe00fffffefe000101feff00ff00fefffe01fe0001feff00
fe0000fe00ff0001fe010001feff00ff00fe00fe00fefe00fffe0100fe00fffe010101000100ffffff00ff010100ffff01010000ff0001feff00feff00010001
0100fe01ff000001fe00feff00ffff01fe00fe0101fe000101fffe0000fefefe0101fffe0001fe00fefe01fefeffffffffff00ff0101000101ffff010000ff00
fe00fe0000fe01ff01fe01ff01ffff00fffefe00ff010100fe0101feff01fefffe000001fffeff01fe00fefefe01010001fe000000fe01ffff010101fefffffe
00fffefe0101fe01fe01ff01ff01fffefefefefefefefefe00fefffe01ff000101ffff0000fe00ff01ff00010001fe0000ff0100ff01fe01000000fe01010101
010101fefffefe0000feffff010100000100fffefffe01010000ff00000101fffe00fefe01fe00ff01ff00fe00feff00fffefffffe01fffeff01fe01fffeffff
0101ff000100fffffffffefe01fffeff00fe00ff00010101fffe0101ffff0100010001fffe00fe01fefe0100fffffe01fefefefeff00fefe0000ff00ff000001
fe01ff0000fffefffe010000fefe000101fe00fe000100ffffffff010000fefefefffe01ff0100feff01fffffe000000ffffff000101fe00fe01ff00fffefe01
00fe01fe00fe00ffffff0000ff01fe0101fefffffffe00fefeffffff00010000ffff0101ffff000001fefeff00010001ff0100fffefe00fe0101fffffefe00fe
0101ff000100010001fe01000100fe0100fffefe01ff0001fffefe00fe0001ff0000fe01fe00feff01feff010101fe01fe00fefffe0100fefe01fe01fe000001
00000000000000000000000000000000000000000000000000000000000000000000000000000000000000000000000000000000000000000000000000000000
00000000000000000000000000000000000000000000000000000000000000000000000000000000000000000000000000000000000000000000000000000000
00000000000000000000000000000000000000000000000000000000000000000000000000000000000000000000000000000000000000000000000000000000
00000000000000000000000000000000000000000000000000000000000000000000000000000000000000000000000000000000000000000000000000000000
00000000000000000000000000000000000000000000000000000000000000000000000000000000000000000000000000000000000000000000000000000000
00000000000000000000000000000000000000000000000000000000000000000000000000000000000000000000000000000000000000000000000000000000
00000000000000000000000000000000000000000000000000000000000000000000000000000000000000000000000000000000000000000000000000000000
00000000000000000000000000000000000000000000000000000000000000000000000000000000000000000000000000000000000000000000000000000000
