0101fe0001fffe01ff01fe0001000100fe00010101feff00ff0001feff0000ff00ff000100fe00ffff00ff00fefefefe0001fefefffefefffffffffe00000100
00fffefeffff000000fffefefe01010000000001fffffffffefe01feff01ff010100ff01010100feff01ff00010101fe0101feffff0100feff010000000100ff
00fefe01fe01ff0001010100000101ff00010100000100fefe0101ff0101ff00010000fefffffffe01fffffe010001010000ffff00feff0101fe0001fefefe01
0001feffff00fefe01ff01ffffffff01ff0101000101fe000000fe01fffe00fffefe0101ffff00ff000101fe01fffe00fe0000fffe01feffff00fe00ffff00ff
ffff0001fe00fe01fffe0100ffff000000feff0000ffff010001fefefe01fffffe01fffeff01fffeffff00fe01ff0100ffff0001fe000000ff00feffff00fffe
fefefffe01fe0101fffefefe00fe01ffff01fe01000100ffff01fffffffefffffe01010001ffff01fe01ff01fe000001000100fffeff01fe0100ff010100fefe
0001ff0100fe01fefe01ff0100fe0100010001fffffffe0100fe00fe00fffe01fe0000fe0100fe00ffffff00ff00fffefe0001fefefe00feff00ff01ff01ff01
fe0000feff0100ff0001fe00fffefe00fffe01ff01ff0000fe01fe0100feff01feffff00fe00ff010101fffefe0101feff00fe010001fe0001ff010101fffffe
0100ff0000ff0001ffffff01fe0101000000fe0100fefefe01feff01fe01fe0000fffe00fe01ffff01feff00fefe0001ffff01000001010100fefe000100ffff
fe010001fefeff0100fffffffe01000100ff01010001ff0001fffefefefffefe010000fefefefefe0001fefffffffeff000000fe01fe00fe01ff01fffefefeff
0101fe000101fe00fe00fefffffe0001fefffe01ff0000ff0001fefe00fe010101fe01feff01fe00fefffefffffe00ffffff00fffe00fe00010000010001fe00
01010000fe010100ffff000000fe000100fe010000ffff0100fe000001fefeff01fefefffefffefefefffeff0001fffefeff00fefffffe00ff000101fefffeff
fffefffefe0100fe01fefeff01fefffe01ff01fffe00ff00fefeff0000fe00fffefeff0000010101fe0100fffeffff01fe010100fffffe00010100fe00ffff01
01010000feff00ff000101fffeff0001fefe000101feff0001fffe010001000001fe0100fe01fefffefffe01feff0000ff0100ff00fffefe0001fe0100fffe01
0100fffe00ff01fefffefefe01ff01fe01fffefe000100ff0100ffff0100ff00ffff0100fe010001fffefe00feff01fffe00ff00fe01fefeff01fefe01fefe00
01010100fefffffe00000001fefe010101fefffe01fffe0000010001fe01fefe0101ffff00feffffff00fe000101ff01fe01000001fefe0100fefffe010101ff
