01ff0000fefe0000fe0101ff01fefe010101fffe00fe0100fefe00fe01ff0101ff01fffffefffefe000101fffe01ff000001fefffeff0000fe0000010100ffff
fffe01feff01010000ff000001ff01fe000101fe0001010000fe0101fefefe010000fffe0001ff0100fe0001fefe00fe010000fe0000fefefe01fefe0000fe01
fefefe010001fe00fe00010000fffe010000fe00ff0100fefe01fe01fffe00fe01fffefeff0101ff01fefefeff0000fffffffefefe00ff00ff00fffefffffeff
0001ff01ff0101ff00fe0001feff01fe01010100fefffe000000feff01ff0000ff0100feff00fffe00fe00fe00000000fefefffe00ff01fe01ff0001ff000001
