00fffffffefeffff00fe01ff01fefeffffffffff01fffefeff01fffefefeffff00fe01ff00ff010101ff01ff01fefe000101fe00fe00ff0000010101ffff0101
0001000001ff000001feff0001feff00fe01ff000000000000ffffff00fe01fefe0100ff0101fe01fefffe01fefefefffe00000000000101fe01fe00ffffff00
00010100fffe0000fefe000100ff00fffefefffefefefe010000000001000001fe010000010101fefe00000101ff010100010000fefeff01fffe00fe00fffe00
0100fefffe00feff000001ffff01feff00fffe0101fe0101ff0101fffffefffefe0001000001010101fe01fefefffffffe010001fffe01fffffffe00feff01ff
0001fe0100010100fefeffff01ff0001ff0000fffefffe00fefeff0001ff01fe0001fefeff00fe000000ff010101fe01fe00ff00fefe01fe01000001fe010100
fe00fffefe01fe0000fe0100fefe0101010001000001ff00fffefffefeff01fe00000100fffe00feff0000ff00ffffff0101ff01ffff01ffff0000fefe0001ff
010000ff0101fefeff0000fefe00ff01fe00fefe01ffffff000100000101ff00fe0001ff01fe01fffe0100ff00fe0100ff00ff010000fffffe0000fe010001fe
fe01feff010001fffefefefefe01fffe00fefffffefffe00fefe01ff0001010000ff01feff0100ff00fffefe00ff0001ffff0001000001fffe01fe0100000101
ff0001fe00feff000101fefe0100fe00fe0000fffe00feff0000fefe00fefeffff0100ff0001fe01feff01fffffeff000000fe0000fffeff0001010000feffff
fffeff00fe01feff0000fe01ff0100010100fefffeff01fffffefffffe01ff000100fe000000fffefffe0000ff00fe0000ff00ffff00ffff00fefe000001fffe
0000ff00000100ff00fe0000fe0101fe01fffefeffff00fe00fe0000ff01fe000001ff0000ffff01010101000000010101ff00000101000100feff00fe0000fe
fffe0100ff00feff010000fefefefefe0000010001010001fe01ffffff01ff00fe0100ff01ff01ffff01feff01fe010000fe010000ff0101fffe000000feffff
01000001ff01fe00feff010100fe01feffffff00fffe01fefe00ff010000fefe0001fffefe0000ff00fffffefeff010101fffe01fe01fffffeff0100ff00feff
01fffffefe01fe0100ff0101fefffefffe00fffefe000000fffe01fe000001fffffe01fe01ffff00fe01fefe01000101000000ff000100ff01fe00ff00fefffe
00ff01010100fefefefeff00ff000000ff0001000000fefeff01fffffefe0000fffe0000fe0100feff0101fffe0100fe01ff0001000001ff0001fffefe00ff00
0000fffffefe00010000010100fffeff00010001010000010001ff01ff01fffe01fe010000fffffe01ff00ff00ff0100fe00ff01fffe01feffff00fe00fe0101
