01fe01feff00ffff01fefefffe00000101fe01fffe000000ff010000fe000001fe01ff00ff0001fffffffefe0100ff0001feff01fe01fe0101fefeff0100ff00
fe01ff01fe000000010101fe01fefffe000000fe01ff0101fe00ff01ff00fefe00feff00feffff010001fe000001fefffffefe00000000feff0001fe010001fe
fffffefe00ffff01fe0001010101fefefefe0101fffe000101000100fe00fe0100fe00ff01fffefe01fefe000100ff00010000fefffffeff00ffff01fffffffe
ff01ffff000100fffe0100fefefe01fffffeff0100fffffe0001000101000101fefeff01000101fefefffeff010001fe00000101feff01fe0000fffeff0000ff
fe000100feff01ff0101fffe01000100feff0101fe0101000101ff01feff000101fe0100feff0100010001ff01ffff00fffffefe01ffff000001ff01fffffffe
ff00fefefeff0100feffffff010000fffefffefefffefe0001ff0100ff00fffe01ff01fffffefe01fffe000000ffffff01fffeff01ff00ff01fe01010001fefe
fefe0000fffe01fe00ff00010100000000fe01ff01ff0000ff01ff0000fe01ff01000101fe01010101fe0001010101000000ff0100fe01fe00ff0001fefe00ff
fe010001feff00000001fffefffefeffff0100ffff000001fe0100fe010000fefffe01ff01fe00fe01010100fe01010100ff00fefefefefe00fe010001010000
00000000000000000000000000000000000000000000000000000000000000000000000000000000000000000000000000000000000000000000000000000000
00010101fefefe010001ff00fe00ff0001ff0101fefefe00ff01fefffefffe000101feff00fefffe000000fe010000fffe0001fffefffefefefffefffe000000
0100010100feffff01fffffeff0000feffff01fe01fe01010001010000000001fe01fe01fffeff0101feffff01fe01fe01ff01feff00000100ff0100ff0000fe
01fe01010100fe0100fe00ffff000101ff01fefeff00fffefe01feff01fefefefe01fe00ff01010100ff0101fefffe000000fe01fefeff01010001fe01fefeff
fe010001fe0000fe000001fffefeff01ff0101fffe01fffefefe0001ff0001fffe0101fefe0001fe01fefefffffe01010100fffffeff01fe0101ff0101ffff01
0000ffff0100fffe0000ffffff0101fffffefffffffe01010001ff00000101feff01ff01feff00ff0101ffff000100fffe010000ff0101ff0001ff00feff01ff
fe00ff00fe0100000001fe0100feffffffff010001ff00fe010100fefefffe010001ff0001fffefeff0101010101ff0100fe01fe01ff01fefefeffffffff0101
0100ff00ff010000ffffff010100ffff0101010101fe01010001010101ff0101000101fefe000101ff01fe01fefffe01000001ff0100fffefeff0001fe01ff01
000101ff0101fefe01feffff0100fffeff00000001fffefffffe00feff01000000000101fe0101feffff0001ff00feff000101000001fe00fe00fffffeff0001
00000000000000000000000000000000000000000000000000000000000000000000000000000000000000000000000000000000000000000000000000000000
0101fefffeffff01000000ff000100ffff0100ff0100ff00010101fe01010000fe010001fe00feff00fefefeff00000101ffffff0100ffff01000101ff0001ff
fffefe01fffe0000fe00fe0101fe0100fe00fe01fe01fe01000001ff01fffefe0000ff0001feff00fe0001ff01fefeff0100000101fefe00fffeff00ff01fefe
01fffefefe0101010001fe0100000100feff010000feff000000ff00fffeff010000ff00fffffefeff00fffefeff0101fefffefffe0001fefe01fffefefe01ff
0100fe00fffefe00fffefffffffefefe00fe00fffefffffefefe0100000000feff01fefe01ff00fffeffff01fffe000001ffff0001fefe01fefffefffe00feff
fefe0001ff00fffefefffe010101ff0101fe01feff0101ff0100ffff01feff00ff00fe00feff00ff01ff01fffffffefefeff0000ff00ff0100fe01fffe0101fe
feff0000fffeff00ff0000fe00ff0000ff0101000001fffeff0101fe01ff01fe0101ff00000001ff01ffff0001010101fe0100fe0001fffefefe00fefe0101fe
fe000100fffe00ffff01fffffe00ff0001feff00010100fffffe01fefe00feff01fe01feff00fe00ff0100ff0001ff010001ff00fe0100fffefefe010001fe01
ffffff010001fffe0101ff010001ffff0000fffeff0100fe00fe0001ff01fffe01ff00fe0000fe0001feff00fffe0001000001fe01ff00fefe010101ff0101ff
00000000000000000000000000000000000000000000000000000000000000000000000000000000000000000000000000000000000000000000000000000000
