0100fffe000101fffefeffff000100fffffefffffeffff00fe000000010101000101feff00fe010100fffefefe00fe010101ffffff00fe0000feff0101ff0101
0101fffefe01000101ffff00fefefffffffe00feff00ffff00fefeffff0000ff010000fe010000feff010001010000ff00ffff0001feff01feff000000fe0000
ff00ff00fe010000ff00fe0100fe0001fefeff01fffffe0101ff0001fe01feff01ff00ff00fe01feff00fefffefeff01feff01010100fe010001fe000001fe01
00ff00fe0100ffff00ff00fefffefffffefefeff010000fffeff0101fefe0101fe01fe01feff0101fe01fe01010100ff00fe01ff000000fefefe010100feff00
fffefe01ff0001ff000000fffffffe01fefefffefefe00fe00000001ffff00ff01ff00fefefeff01fe01ffffff0101ff00ff0100fe01fe00fefefefeff0101fe
0100ff00ff01000100feffff0001fffe00ff00fe0100000100010100fefe01fefe00ff0000fe01feff0000010101fefe00fefffefe01fffe00fefffe00fe00ff
0100ff01fe00fefeff00fffe000101feff01ff01ff00fe00ff00fe0100fffe0100fffe00fe01ff00feff00ff01ff0001fffeff0100fe00010100ff00ff00feff
ff01ff01ff01010100fe00010000fffe00fefe010001000100ff00fe00fffffe00fe0100000101fe0000feff0101fffffffeff01fe01fe000100ff000101ff00
00000000000000000000000000000000000000000000000000000000000000000000000000000000000000000000000000000000000000000000000000000000
ff0001fe01000101fffffffefe0100ff01ff01feff01ff0100fefe00fe01fffe01fffe01fffefefe01ff0100fefffe00fffe01010000ffff0001fffeffff01fe
0101fefefe01fe0000fefe0000fffffefe01fe01fe0101ff0101fe010001fefefefffeff00feff01fe01fefe000101feff01fe00feffffffff01fe000101ff00
0000fe0101ffff00010000000101fe00feff00010100fefefe00fefe01010001fe0100ff00fe000101ff0101fefffffe0101fffefe0001010101fffffffefe00
fe01fefe0101fe00ff0100fffe01ff0101fefe010001feff0100fe00fffefefe01010000fefffffe00fe00fe00feffffffffff00010100feff01fffffe01fe01
fe00000101fefefe01fe00fe01ff01fffffe01ff01ff010000ff0101feffff010101fefefffe00fe00fe0100fffefe010001ff000000fffefe01fe0101ff0101
00ff000100feff01fefffffe0000ff0100ffff01fefefeffffff00feff0101feff01ff01fe01ff01010000fffffefe01fe0101ff0101000001ffff01ffff00ff
00ffff0100fefefeff00fe00fe00fe01fe01fefe000001fe0100fe01ff00fffefe00fe0000fefffe01feff0001ff01ff00fe0100fffeff00000001feff0001ff
fefffeffff000101ffff00fe0000fffefffe0000fefeff00ff00fffe00feff00000100ff01fefefefffefe00fefefeff00000001fffffe01fffeff0100fe0101
00000000000000000000000000000000000000000000000000000000000000000000000000000000000000000000000000000000000000000000000000000000
ff00fe01010000ffff0001fe0000ff00ff00ff010000010001fffffe0001fffefeff010000fe00ff0000feff01000000fe000000fe01ffff00fe01ffff000000
01fe01fe00ff000101feff00feffff0001ff010101fefe00fffefeff01000001000100fffe00000000fe00fe00fe01fffefefe01fe010101ff00fefeff000101
000001ff0001feff00000001010100fe0000ff00fefeffff0100010101fe0000010000ff0101fffffe0001fefe00fe01fe0001ff01fe0001ffff00fffefe0100
010100fffffffe0101ffff00fe00fe000001fe000100feff0101fffffefe0000ff00feffff0000fefeff01fe01ff01fffe01fe0001ffffff0001ff0001ff0000
01010001fe0101ff01fffefefefeffff00010000fe0000fefefe0100ffffffff0101fe0001ff01fffe01fefe01ff01fefefffefe01010100fffffffffffe01ff
01010101fe01fefffe00fefe01fffffefe01fefeff0000fffe01ffff00fe0000ff0100ff0101ffff01fe0101ff010101fffefefefeff000001fefe0101000101
0000feff000101010001ff00fefefffffefffeffff00ff0001fffe0101ff000001ff0000ff0101fefe01fe0000fffe0100ffffff0100fe010000fe010100ff01
ffffff01fffffffe00fefefffe00fffeff01fe000000000001ff00fe0000fe00ff00ff000101000101ff00fffffeff00fefefe000001fefefefeff000000ff00
00000000000000000000000000000000000000000000000000000000000000000000000000000000000000000000000000000000000000000000000000000000
