fe0000ff0000fefe01fe00fe00fe00fefffe01fefefe010100000001fffffefefeff0001ff010001fffe0001ff00ff00fe01feff00fefeffff01fe01fefe00ff
ffff01ff0100fefe01feffff0001fe01ff0000fe01fffefefffe01010101010001ff0100fe00fefe010100fe00010101ff01ffffff0101fe01ff01ff0000fefe
000100ffffff0100fe01ff010100fe01fffffefeff01ff00fefefeffffff00fe01fe0000fe00feff00ffff0100ff01000000ff000000fe0101fefffefe00feff
ff01ffff00ffffff00fe01ff000000010000fe0100fefe01ff0000010100000101feff0000ffffff01fe000101ff0000fe0000ffffff00ffff01fe00fffefffe
