00fe01ff01ff0000010100ffff00feffff0001fffe01fe01ff00010101fefefeff0001fe000001fffffffffeffff01fe010100ff0001fe000100ffffffff01ff
00fefe01010001ff00fffe00fffefe01fffefe010101ff00ff00000101ff010000ffff01fe0001ff0001fffefe01fefffffefe00ff00fe0001fe01fefefeff00
0100fe00ff000101fe0001fe0101ff0000fefefe010000fefe01fefffffe0000fffffefefffffffe010101fe00feff01feff00fffeff01feff01fe000101ffff
fefefe0101ff010101000000fe01fffefeff00ff000100fefeff00fffe01ffff01ffff0100fe01fe01fe01010001010100fe0000ff01ff000101000101ff0100
fe0001fe0101ff00ffff0100fe01ffff01fefe00ff01ff000000fffefe00fefe01feff01fe0101fe00fffefe0000ff010101feffff01ff00fefefefe01feffff
ff0100fe0001000000000001ff010000ff00fffeff00fe01feffff0001ff0001feff0001fe00ff00feff00fefefeffff01fe0000ff00ffff0000ff00fffffeff
fefe00fe01fffffe00fe01feffff0001feff0000ff00fe01ffffff0000ff0001fe01ffffffff01ff010101ff00fe0100feff0101fefefe0000010000fffffe00
00fe00ff00000101ff000101fefffefe0100fe01ff01ffff01fe0100ff010100010000ff01010100feff010100ff01ffff01feff0001feff0100fe00fefeff00
01fefe000000ffffff00fe01000000fffe00fffe000001fe010000feff00010101000001000100fffefeffffffffff01fe00ff00fe010000fe0001fffe00ff01
000100000000ff01fe000001ff00000101010100000101ff00fefeff01000100fefeffff0100feff0100fefe0001feff01ff01fffefe0101ff0000ff00010000
ffff00fffeff0100010000fefe010001010001fffffffffeff0101feff00fe00fe010001ff00000100fe00fffeff00fe01fffefffe00000100fe0101fffe01ff
00ff00000100fe00ff01fffffe01ff00feffff0000ffff0000feffff01fe00feffff00fffe0001fffeff000001ff01fefefffe01010001fefffe000001ff01ff
0000fffe00feff01fffefefffe010001fefffe00fe00fe01fefe01fffe00fffefe00fffefe0001fefffffeff01fffeff010000fefe01ff01ffff0100fe01fe00
fe00fefefffffe00ff01ff000100fefefe0101fe01fffffeffff0101ffff00fe0100ff0000ff01feff00010101fe0001ff01010000ffff01ffffffff010100fe
fefffffe0000000101ff000000010000fffffe0000fe0000ff01000101fe000000fe000000fffe000000ff01ffff000100fe0001fefffefeff00fe00ff0101fe
01fefffe0101fe0100fefffffeff00fefffefe0101fefeff000000010101fefe00fe01000000ffff00fffffe0001fefffffe01fe01fefffffffe0100ff01ff00
01fefeff010101ff00fe00010001fe01feff0001fffffe01ff000101fe0000fefffe01fe000000fffffe01000001fefe0100fe00fffefe01ff01fe01feffff00
ffff01ff00fefffffefefefe0000ff0000fefffeff0101fe0001010100000101fe01ff01010000feff01fe010001fffeff01ff00fe00ffff0001ff01fefe00ff
fefe00feff00feff01feffff01fffefe01ff0101ff00ff000100fefe0000ffffff00fefe000101fefe0001ff01feffff00ffff0100fe0001010101fffe0000ff
ff000000ff01fefefe01fe01ff00fe00fffe0101fe01fe01fefe00ff0100010100ffff0100fffe000000ff0000fe00ff0101fefffefefffe0001ff01ff0100fe
fe00ff01ff00fffe0100ff010000fefffefe00000100fe0001ffff0101fefe00ff01fefe000100feff01fe01fe0101fe000100fffe00feff010001fe01fe0101
00010001fefe0000000000fe010000fefffefe0101fefe01fe00ffff0100feff0100fefe0101fefffefffffe0100fe0001ff00fe00feff010100fefffe0101ff
fffe00fe00ff01ff00ff00ff0101fe00ff00ff00fffe00000100fefe00ff00010001fe0100ff0101fffefefefe01fffe01fefe0001000100fffffefffffefefe
000100fefe0101ffffffff0001feffff01010001fe01fe0000010000fe01ff00fe01000001ff00000001ffff0000fffe010001fefffefffefefe01ffff010001
