fefffefffefe010101ff01ffffff0000fffeff010100fefeffffff00fefe0100ffff01fefffe00ff01000000fe01fefffe0001ffff00ff00ff00fffffeff00ff
ff00fefefe01feff01feff00010001ff0001fffefe00fffffe000101fe01fffefffeff01000001010101fe01010100fefffeffff00ffff01010001ff0000ffff
fe00fefe01fffffffe01feff00fffffe0000fefefeff00000000fefffeffffff00ff00ff00ffff000001fffe0000fffe01ffff00fefeff01ff01fffeff010000
ff0100feff010001fefffe01fe0100fffffe00ff01ff0000ff00ff00fefffe01000000ffff010000fe00ffff010001fffffe0001fefe000001ff0000fefeff01
ffff01fe00010001fe00fefe0101ff0100ffff000101fffffeffff01010101feff01010000ff00ff00fe00fe00ff01fffe00010001ff0001fefe0100ff010000
fffeff0101ff00fffeff01feff01000000010000ff0000fe0001fe00feff00000100ffff00fe00ffff01fe01fffe01feff00fe000101fefe01ff0000000100fe
fe000101ff0100fe01fffe00fefeffff01fe01fe0000010100fe00ffffff01fefeff01fffefffffe00fe01ff0100fffffe0001ff01ff01fe01ff0101fefeff01
00ff01fe01ff000000fffefffffefe01000100000101fffefffffe00fffe01ff0001ffff00fefeffffff00feff00ff01fefe00000101ff01fe000000fffffefe
00000000000000000000000000000000000000000000000000000000000000000000000000000000000000000000000000000000000000000000000000000000
0001feff0000fffffefe01fefefefefffefe01fe01010001fe0001feff00fefffefe000000fffefeff0100fe00ff00fe00fe0000feff000100fe00010001ff01
fe000001ffffff01fefe00ffff0001ff01ff00ff01feff0001fe00000001ff000000fefefffe010000fefffeffffff01ff0001fefe0001ff0100fefefefeff00
0000fe0000fe00ff0100ffff000000fe01fe010001fe01fe0100fffe010000fffefe010001ffff010001fe01fefffffefffffffefffe010000ff00fe00fe01ff
00ff0001fefefffe00fefeffff00000101feff00fe010000fe00fe0100fe01ff00000101ffff0000fffefefffefe0001fe0100ff01ff01ffff0100010001ff01
ff0000010001fe0100010100fffe00fffe01fffffefe01fefe01feffff00fffe0000000100ff000001ff01fefe01ff010000fe01fffeff010000fe01ffffffff
0100fe01ff0100fffe00fefefe00fe0101ff00fe00fe0100000001feffff00fe010000010101fe01ff00fefefffffffe00feff0000ff01fe0001fe010100ff01
0001fe00ff010001000000fe0001fffe0101fffe01fffffefefe00fe00fefffe00010101ff00010001010000fffe01ffff01ff01fe0000fe0100010001fefeff
00fffffe01fe010000fe00010000ff01ff00fefeff0100fefffffe01fefefe01fefe00feff01fefe0101fe0000fffefeff0000ff01ff01ff00010000ff00fe00
00000000000000000000000000000000000000000000000000000000000000000000000000000000000000000000000000000000000000000000000000000000
00fefffffe00fffeff00ff00010100fefeff0000fffe00fefffffefffe010100fffe01fffeff00fe0001000100ffffffff00ff000101fffe0000fffffffeffff
fe01feff0100fefeffffff01fefe01ff010100fe01ffff01fffe010001fe000000feff01fffe010100000001fffefffefe01000101010101fe00010001feff01
0100fefe01fefefe00ff0001ff01fffefffe000100ff0101fefefe000001fffe01ff00fefefe01ff00fe0001000100fffe01fffeffff00fe01ff00fefefefe01
ffffffff00fefeffff0000fffeffff0001000000fffe01fe01fe00ff0000ffff01ff0001fefffffefe0100ffff00fe0101ff01fe01ff000101ff01ffff0000fe
feff01ffffffff00ff0101ffff0101000101fefe00fe000100ff000100ff00fe00fe0101fffe00fffefe0101fffeff0000fe00fefe00fe01fe0100ff01fffffe
00ff000101ffff01fffffeff0000fefe01ff0100010100fffeff010001fe010100fffe000001feff01fefefefffefeff00ff0100fffffe00000100fe010000fe
ff0101fefffefe01fefe00fe00fefffffefefe0001fe01fe01fe000000ff00ff01feff010100fffe000001feffffff01fe0101ff000001fefffe01feffff01fe
00fffe00ff00feffff0000000000fefffe01fe01ffff0101ff01ff01fffefe0101feff00ffffff010100feff00fefefeff0101fe0000ffff0101010001ff0001
00000000000000000000000000000000000000000000000000000000000000000000000000000000000000000000000000000000000000000000000000000000
