010001ffffff00000001fffefe000001fe01ff00fffe01fe01fefe01000100fefefe01fefffe00fefeff01fefe00fefe0100ff01fefe00ff00ffff0100fefe00
0101ffffff0101fffefffe01fefffe00010001fe0100fffeff01feff01fe00fe00feff00ff01010001ffffffffff01000101fe00ff00ffff0101ff010101ff01
feff01ff0100feffff0000fefeff0101000000fffe00ffff0000fffefe000000010000fefffffefe01fe01010100fe0001feff0100fe0001fffe0000fe00fffe
01feff0000ff0000ff0101ff00000100010101fefffe000101fefe0100ff00fe010100ffff010000ffff01ff0001fefffefefffe0101010100010101fe01fefe
fe0101fefefe01ff00feff00fffffe00ff01fe0101010100ffff000101fffefffefffe00ff000100fefe01ff0100fe01feff00fefefffe01ff00ffff00fffe00
00ff01fe0001fffffe01fffefefe0000fefe0101fe01fe0001feff00feff0001fe01feff000001ff00ff01ff010001ffffff00fe00fefe01fe01fffffe01ff01
ff0101feffff000101fffeffff0101fe0000000001010101010100ffffff0000fe0001ff01fe0100010101feff00fefe0001fe00fffe0101feff010001ff0100
01fe01fe01ffff0101feff00fe010000ff0101fe00ff010000ff00fe01ffffff01fefeff01fefffe010101010100ff0001fe00000001fffefe01fffeffffff00
01fe0001fefe00000100fefefffefe0100ffff0100fffe01feff0000ff01fe0000fe00fefefe01010001fffffefffe01ff000100fe000001ff000100ffffff01
ff00fefefeff01fe00feff0101fefffffeff00000001fe01fe0101feff01fffffe0100010100ff00ff01fe0100ff00000101fffefffffe0001ffffff00fffffe
000101ff01010001fe00fe00ff000000fffefffeff0101fefe0001ff01fffe01fe00fffe00ff000100fefe01010001ffffff0101fe00fe0000fe00000100fe00
fefeffff00fefe00ff00ff0100fffefe00feffff01fffe00ff010000fffeff000001fffefe01fffefeff00000001feff01ffff00fffffefefe01ff010001fffe
fe01fefffe00ff00fffffeff01fe01fefefe00ff01fefefefe00fefeffff0000ff00010101fffffe00000100fefefeff01fe0100000101fe00fffefffffefe00
0101fffe01fffefefffffeff0101000000fe01000100ffff0100fffefefefefe010101ffffffff000001fe01fe0001feff00fe01fefefefefe0001feff010101
010101000101010100000000fffe0000ff00fe00fe000100ff0100fefe01fefe0100fe01fe01fffe01000100fe00ffff01fefe00010000fefefefefefefeff01
fefe0100fffe000100fe01fe010100feff00ffff000100ff01fffffffe0000fe010100ff00ff01ff010100ff0000fffe00fe01fffefe00ff00fe00ff01fffefe
010101000100fefe00010000010100000000fefffefeff01000000feff01010000fefffffeff01ff01fefe01fe01ffff01ff01fe0001ffffff01fe0101010000
00ff00fffe010001010101feff01fe0100fe01010001fefefe0100fe0100ff00ff01fffefe000100ff01fffffefe00ff01fefeff01fe0001ff0001fefe0000ff
ff00ff0000fe00ff00fffffefe00feff000101fe00ff0101ffff00fffeff000001010100fefe0001fe0101fe0101fffe01ff00fe0000fe0100fe00ff010000fe
0001fe0101fffefe010000ff00fffefeff00ffffff00fe00ff0100fefffeff0100ff01fffe0100ff000000fe00fffefefe010000fffe00fe0100fffefffefe01
00ff00fe01ffff0101fffffffeffff00fffffe0001ff01fe00ff00ff0100ff0101fffefeff01ff01ffffff0001fffefffefe00feffff0000fefffefeff0001ff
fffe01fffefe0100fffe010000ffffff00feff0100fffffe010000010101fffefefffe01ff000101fe01fffffe00ff00ffff00fefeff0000feff00ff00fffffe
010100fe000100fe010001ff010000ff01ff00fefeff0001feff0000000001ff0100010100fe00ffff00ff00fe01fe0100fefe00fffefeff0101feff010001ff
01fe01fe0000ff0001feffff01feff00feff01fefe0000ff0000fe010001ff010101fffe0100ff00fffe01feff00fe01fffeff00ffff00000001ffff01fffe01
