fffefefe00feff01fe00fe01010001ffff01ff01ff00ffffff01fefefffeff000001ff00ff0000000101ff010100ff0100010100000100000000000100fe0101
fefefe00fefffe00ffff01ff00fefffefffefffefffffefffe0101010100ff010001feff00fefe0001ff01000001feff01ff000000ff00feff0000feff00ffff
fe0101feff00fe00fffeff0001fe00ff0000ff00fefffffefe00fefffffe01ff000100fffefefe00fe01ffff01fe00fefe01000100ff00fefffffefe00ffff00
0101ff00000001fffe0000fffffefe00fffefe0001fffefffefe0100fefffeffff0000fe00fffefffefefe0001fe0101feff01fe01ffffff0000fffefe0001fe
000101feffff00ff0100feff010001ff000000000100fe00010000fe0100fe01fe00fe0100fe01fffe000101fffffefefffeff01fe00fe00fffffe000101ffff
fe000001ff0001ff0101ff00010100fffe01ffff01000001fe01fefe0100fffefefe01010000fe01fefffe01fffeffff0001fefefefe0100010001ffff0100fe
0000feffff00fe0001fe010000fe01feffffff01fe0000fe00ff00ff00ff01fe0001fe0101010100010101ffff00fefeff00ff0000fefe0101fe00ff01ff01ff
000001fefeff0100ff0101010000fffe0100fe01fffeffff01fffefeff0000fe0101010100ffff01ff0101ff00ff0100fe0100fefeff01000100fe01010100ff
fe01fffefffeff0100fe00fffefffffe01fefeff00fffffefe0101fe0100fe01ff01010100fefeffff00feff00fffe00ff01fe0000ff0000feff00feffff0101
0001000101fefeff00fefe0100000100fe00fffe01ff0100ff00ff0100fe010000feff00feff00fffe01fe00fffefffffefe00fefe0101ff01ff000101010000
01fefffe01ff00fefefe00fe0101fe01fffe0001000101feff01ffff01ff010001ff01010100fefefefffeff000000ffff000101ff00ffff00feff01fffeff01
0101ffff01feff01ff0100fe00ff0101feff00ff0001fefeff00ffff01ffff0100fffffe00fe0101010100fe01fffe01feffffff010001ff0101ff00fefeff01
ff000100fffffeffff01ff01ff01fe01ff00fe01fe00ff00fe000101fe0001feff01fffe00fe00fe01ff00fe0101fffe0000000000fefe00010101feffff00ff
feff01000001fe00fffffffffefefffffe000100ff01fe01ff010000fffefe0000fefe00fffe01000001000101000100fe01000100fe0000ff01ffff00fe0001
fe010101fefefefeff00000000ff00fe01fe01feff0001fefefefe01feff01fffe00fefe00fe000100ff0001fe00fefffeff0001fe00fe01ff0100ffff0101fe
01fefeffff01ffff00ffffff01010100ffff0101fffe0001000101ff0100feff01ff01fefe010101010100fffefe00010101010101ffff01fffefe01ff01fffe
