fffe010100feff010100ff00ff01ff01ff01ff000101ff00ff01fffe00fe00feff00fefefe01ff01feff01ff0101fefeff010001ff0001ff0000fe0000fffe01
00ff00ff0000ffff01000100000101ffff00ff01ff00fe00fe00fefffe010101fe0101fefefeff01fe0001fe00feff0101fe01ffffff0100010101fffffefefe
0100fefefe0101ff01ffff01fffffffeff01000001ff000000feff01fe00fe01fffe01ff01ff01ff0101fe01fefefe00fffffffe01fefefe0100fe00fefefe00
0000fefe0100fefe00feff0100fe0001fe01fe00fffe01fe00feff00fffe010000fe0001fffefe01fefeff01fffefffefe010000fefffffe000000fffeffff01
ffffff00fe00fefe0001fffffe00fffe010100fe01feff00fefefe00fe00ffffffff00feff01fe0100fe0100fe01fffefefefffffffffe01ff01000001fffeff
010101fffffffffe00010001fefefefe01fe01fe0100ffff010100ff010000fefe0001feff01fffefefe00fe00fe00ff01fefffefe0001fe00fffe0000ffffff
01feff000001ff0101fe01fe01fe0101ffff00ff00ff01ff00feff01fefe00fefffffffe0101fe00fffe000000fefe00ffff01010001fefe0001ff00ff00feff
0000fe0101fffffefe01ffff010000fffffeff0001fffffe010000fffe0101fe00010000fe0101fefffffe0000ff01fe0000fe0101ff00fe0101ff01ffff0001
00000000000000000000000000000000000000000000000000000000000000000000000000000000000000000000000000000000000000000000000000000000
01feff0100ff01fefffe010100fe000000fffffe01fefefe01fefffe00feff01ff00fe01000000fefffffe01fe0001feffffffff01fefefefffffe00ff01feff
000000fefffffefeff000000fe0100ff00feff00fffeff0101ffffff010001feff01ffff01fe00fefe00000000fe010100feff0101fe00fe0001feff010101fe
0101fe00ff01fefffe0001fffefe01ffffff0100feff00010101fe010000fffe0101fe00fefe0100010100fe00ff0101000100fe00ff0000fffe00fffe00ffff
fe0001010101fe0001010001feff000101feffff00feff00fe00fe01ff0100fe00ff010001ff0101ffffff01fffefffffeff000001fefeff01ff00ffff01fe01
feffff0000fffefeff010001000001fffffffffe0001fe01fffe01ffff01010101fe010101fe0100ff0101ff01ff0000fe00fefe0101fffe00010001feffffff
01fefe0101feff010100ffff00fefeff01fe01fefe000101ffff0101ff01fe00feff0100ff00fe01010000feff0101ff01feff0101feff0101ff000100ffffff
0000ff0000000000000001fffeff00fe010001feffff01ff01fffffe0101fefefffe01fe010101fe01fffe0101ffff00ff00ff00fe00010101fffefeff010001
fe00000001fe00ff000001fffffffefffffffffefe00010100fffffefe010001ff0100fe01ff00fe0001ffffff0100fe0000ff01feff01fefefefe00fffe0000
00000000000000000000000000000000000000000000000000000000000000000000000000000000000000000000000000000000000000000000000000000000
fe01feff0101fffefefeffff00fe00fffe00fffe00fefe0100ff00000100fffefe00fe0101fefffe01fffe010100010000fefe000001010000feff0000010101
fe01000100feff01feffff0100fefeff0100fe0000fe0000ffff000101fe00fe01ffff0100ff0100fffe01ff000001fe00fefefe01fe0000fefefeff00ffffff
ffffff0100fe01feffff010001fe000100fe010100ff0000fe0000000000fe00ff00fe01ffff00fe00fe0000fe00fefefefefe0001fefe01fe000101fefffe00
fefe0000fe0000feff00fe0101fefefeffff01fe00fffe01000000fe01feff00ffffff0101fe01fefeff00ff01fffffe0101ff0101feff0100fe01feff000100
00fffefefffe00fefffefffefe01fe00fffeff00fffe00feff01fefffe01ff01000000000100000101000101ff010001fefe0101ff00ff0101fe00fffe000001
fe010101fe01fe0000fffefeff00fffe010100feff01fe00ffffff0000ffffff00fe01fe00fffeffffff01feff0001fe00ffff00fffe000001fefefeff01fe01
ff00fe00fe0000ffff0001feff00fe01fe0001010101fefeffff0100ff0100fe0000ff0101ff010000fe000001fe00ff0000fffffffe00ff00feff0001ffff01
ff0100fe01fe0001fe00ff0101fe01fe0001010000fe0101ffff0001fefe01ff00000001fffefe01000001ffff01000100000100fe000101ffff010000010000
00000000000000000000000000000000000000000000000000000000000000000000000000000000000000000000000000000000000000000000000000000000
