000101fe0100fefefefe010100fe01feffff010000fffffffeff00fffe01fffffeffffff0001ff01fefe01fe01fffeff0100fffe00ff01ff00010100fe01feff
01fffe00fe010100fe010000ffff0000ffff0000ff0100fffe00fe0000fefeff0001fffefffffffffe000101fffefffffefe00fffefffffffeff000000fefe01
ffffff01fefe01ff00ff010101fe00fe01ff01ffffff0100fe0100000000feff01fefffefe01ffff00feff0101ff0101000100ff0000fffeff0101ff00feffff
fffe01fefefefeff01fefe0001fefffeff00fffeff0000010001fe00010100ff010100ff01ffff00ff0100fffefffe00fefe010100fffefeff01fefe0000fefe
ffff01ff0100fefe00fefefefefffe01fefe0101fe0001fffe00fe01feffffff00fe00fefe01010001000101ffff0101fffefefffe00fe00010100fefe000000
ff000000ffff00feff01ff00fe0101ffff00fe0100fe010001fe01fefe00fe000101000101000001010100ff00fe00ff0001000001fefe01fe010001010100fe
01fe0101feffff000001010100feffff0100fefe0001fefffefffe0101fefe01fefe01ff01000001fe01ffff00fe00fefeff00fe01fefefffe010000feffffff
fefe00010100000000fe00ff010101fe00fe01fe0001000000fffe0101feff01fffe01feffff00010100feff0001fffffefe01fffe00fe01fe0000fffe0100ff
fe01010000fffefffeffff01feff010100ff0101fe000100fe00ff0000fffefe0101fe01fffefffefffefe00fefffe01ffff0001fefe0100fffefefffffefe00
0000ff01fefe0000fffffe01fffefe01ff0001fefe0000000000ff00ff00fe0000fefe0101fe000000fe0101fffeff00feff00feff000100ff010001fffffeff
010100ffff0000fefeffff01ffff00fe01fe000000fffefe00ff0001fffe00fefe010001fe0001fe000001fe000100fe00fffe01ffff00000001fe010000fe01
fefeff00fe00000001fffe0100feff00fefeffff00000000fffffffffe01fe010000fe01fefeffff00fe0001fefe00ff0101fe00fefefffe000101fe000100ff
ffffff00fefe00fe00fe01fefe00fffefffffffeff010101010000fe00ffff0101000101fe0101fffe00feffff01fefffe00fe0001ff01ff010001fe00fefefe
01fefefeff0000fffe01010100fefefefe00fffefeffff01ff0100ff00ff00fefe01ff0001fffefffeffff010001ff00ff01ff010100fe0000fefe01feff00ff
01fffe010100fe01ff01fffffffe0101fefe00fefeffff0100feffff00ff000101feff0000fffe00feff0101fefffeff010001fffffe01ff01000001fe0100ff
fe0000ff0001fffffffe00fe00fe01fefffe0000ff01fe0001fefefeffffff0101fffffe010101fe01000101000101fefefffefeff00fe0001fefffefefe0000
