00fffeff01ff010101fefffffefe010101ff00feff01ff00fe0000fe00fffefefffe00ff01fe00ff01fe01ff00010101fefffffffefe01fffefffe0100ffff00
01fffe00ffffff01feffff00ff0000fefffffefe00ff0001fefe0001ff00ff0001fe010001010101fefefeff01feff0001fffe01fe0101010100010000fe0100
ff01ffff01ff01ff000100fffefeff000101ff0101fe00fefe0000010100fefefeffff01feffffff01fe01000001ff0001fffffe01fffffe0001fe00ff0101ff
01fefffefe00feff00ff01fe01fe0001ff000101ff01ff0100fe01fe010000fffffe000001ff0000fffe01010101000001fe01fe01ffff000101ffff0000feff
fffeff0000ff0000000100fe01fefefe000001ff01ff01ff000101010100fffefe01ff0000fe00ff00ffffff0000fefffe000001fe00000000fefe01ff0100ff
0100fe0101fe0001fefefe0101fefffe0100000101010001fe01fffeffff01fe01fe00fe0101feff01fe00fefe01ffffff00ff010100ff00010100fefe01fe00
01ff000001fe00fefffffffeff00fefe00ff00ffff0001fefffeff01ff0101ff01ff010001ff0100fefefeff0001fe0100feff00fefe01010101000001fefe01
fe0000ffff01fffffefffffffffffe01fe0100fe00ffff00ffff00ffff00fffe00fe00fe0100ff01ffff0000fffe0001feff01ffff0101fe000101ff0100fe01
01fe0100feff0100fe0000fefffefeff0000010100fefeff01ffffff01ffffff0001ffff0100000101fffe00feff00fffeff0000fefeff01fe010100010001fe
01fffffe01ff01ffffff00ffff00fefeff01feff00ff00feffffff00fefe0001fefffefeff01fe0001fffe01fffefe0100fffefeff0000fe00ffff01ff000000
fe01fefe0100feff01feff01ff01fe00fffffffeff0000fe0100fefe00ff00ff0100ffff01ff0101ff0101fefefe01ff0100ff0101000101ffff0000feffff01
fe00fffefefe00fe000100fe010001fefffe0101fefe0001fe01fffefffe0100000101fefffeff010101feff01fefefefffffffeff0000fffeffffff01fe00ff
00fe01fefffffefe01fefffffe0101ff0100010100fefffe00fe000100010000ffff000000fe010101fffefefe01ffff010001fe01ff000001fefffeff01ff00
00fe010000ff00ff01fffffe00fffe0100feffff00feff0100fefefe0101fffffe01ff010001fefe0000ffff01010000fe0001fefffffe0000fe01ff010000fe
0101fe00000000fe01fe0000fe00ff000001ff00ff00feffff0001ff01ff00ffff01000001fefe01fffffffefffe000000fe00feff00fefffffefefe01ff0101
ff01fefe01fe00ffff0001ff0000fe01ffff01fe010000fe01000001fe010100fe0100010000fe0100000101fffefe0101fefffe010001fefeffff000000fefe
