000001fe00fffefffefeff00fe00000000fffffe00fefe01fefffffe0100010001fffefe0001ff01ff0001ff01000000fe01000001feff0101ff0001ff010100
00feffff00010101010000feff00ff01fffefeff010101fefe00fefeff0001ff000101fefefe01fe00fe0100000100fffe0100ff01ffff01ffff000001000000
0001fe01feff01fe01fe0000fe010001ffff00fefffefefeff00ff0000ff0001ffffff01fffefeff00fffefefe00ff01fe0000fe01fffefffeff01fefe00ff01
00feff010001ff00feff00feff0101ff01ff00ffff00fe01fffeffff00010000fe00fe00ff010001ff0000fefffeffffff00fe01010100fefffe00ffff01fffe
feff01fffe00ffffff01000000feff00000001fe00ffffff01ffff00ffff0101ff00fffffffefe0100fefefffe0100ffff01fe01ff0100fe010001fffe000101
01fe00fe01fefffe01ff000101ff01ff00fffffefffe0100ff000101fffffe00fffffeffff01fe010101fffe0100fefe01ff0101010000ffff01fffe0101ff01
fefffefefffffffe000000feff0001fffe010101ff010001fe00ff00fe01010101feff000100fefffefe00000100fefe01ff0000fe0000fefe0100ff00ff0000
ffff0101fefffeffff00ff00fe0001fffeff0100fffefefefe01fffffffe00fffefefffffefffe00fffe0001ff0101fe010001010001ffff00ff01010000ffff
00000000000000000000000000000000000000000000000000000000000000000000000000000000000000000000000000000000000000000000000000000000
fffffefe00fefe0000ff00ffff0101feff000100fe01ff00ff00fffffe010000ff00ff00fffffe00ff01fe0001fffefffe00fe00fe00feffff0000fe00fefe00
fe0000010101fffffffefeff01fffe0001fefeffff000101000100fffe0101ff0100fefffe00ff01ff000101fe000001fe01ffffffff00ffff01000100010000
ffff01fffefe00fe0001ff01fffe00fffffffefefe00fffefeff000100fefffe01fffefefffe0101ff000000ffffff00fe00ff0100ff00ff00fefffffefefe01
fffeff00ff01fefe000101fffffefefe00ff00fe00fffe00000000ff0000fe00ff01fefffe0000fe01fffeff0100ffffff00000100010001ff00fe00010001ff
feffff01000100feff01ff01fefe0100fffffeff00ff00ff01fe00fffe01feffff01fffffefefefefe0001feff01ff01fefefe00ffffffffff000001fe01fe00
fefe01feffffff00fefffefeff0001ff0101ff01fe0001ff00fefffe00fefeff01fffeff01010101fe00fefefe00fffffffe00feffffff00fe01ff00fe00ff00
fe010001fefefefefefefffe01ff01010101feff010100ff0101010101fefe0000feff0100feffff0000ffff010000ff010100fe0101010101ff01fffe00ff01
ffff0001fefefefefe01ff00ffffffffff00ff0100fffeff00ffffff00fe00fefefeffff0001fe0000000001ff00fe00ff00ff01fe01fe01fe01ff0001fe0101
00000000000000000000000000000000000000000000000000000000000000000000000000000000000000000000000000000000000000000000000000000000
00000000000000000000000000000000000000000000000000000000000000000000000000000000000000000000000000000000000000000000000000000000
00000000000000000000000000000000000000000000000000000000000000000000000000000000000000000000000000000000000000000000000000000000
00000000000000000000000000000000000000000000000000000000000000000000000000000000000000000000000000000000000000000000000000000000
00000000000000000000000000000000000000000000000000000000000000000000000000000000000000000000000000000000000000000000000000000000
00000000000000000000000000000000000000000000000000000000000000000000000000000000000000000000000000000000000000000000000000000000
00000000000000000000000000000000000000000000000000000000000000000000000000000000000000000000000000000000000000000000000000000000
00000000000000000000000000000000000000000000000000000000000000000000000000000000000000000000000000000000000000000000000000000000
00000000000000000000000000000000000000000000000000000000000000000000000000000000000000000000000000000000000000000000000000000000
00000000000000000000000000000000000000000000000000000000000000000000000000000000000000000000000000000000000000000000000000000000
