00fe0100ff0101fffffffffe010101010101fefeff00ff01ff00ff0001fe00fe00fefe0101fffffefefe00feff01fefe000001fefe0101fefe01ffffffffff00
00fefe00fffeffff00fe00000001fffefe00ff0100feffff0001ff010101ff01ff0101ff00fe000001fe01010100ffffff00feffff0001000000ff0000fe01ff
00ff0000ff00fffefeff0101fefe000000000001fe01000001ffff00ff01ff00000001ff01ff0100feff0000fe01ff00010100fe01ff00fffeffff00ff0101fe
fefe0000feff01fffe0000fefffeffff010000fe00fe0001010101fffe0101fffe010000ff00fefe00ff0000ff0101010100ff0000fe000101fe01fe0001ff00
