00ffff00ff0001fefeff00fffffe01fe01fefefeff01ff0001fefe0001000101fe0100fe00fffffeff01fe00010100fefefe01fefffe0101fe00ff000101fe00
00feffff0001ff0001ff0001ff0000fe00ff00fffe00fffffefffefffe00fe00fe00fefffefe00ff01fe01fe0101ff000001fe00fffefe01010001fe01ff00fe
ffffff0101ff0001fefefe00010100fffefefefffefe000100000101ff0001fe0001fffeff01ffff0101fe0101fefeff01fe0001ff0000fe01000100fefe00ff
fefffe01ff0101ffff00fffe00fffefe00ffff00fefffeffff01ff0000fe00010001010101fe00ffff0000fffe0000fffefffe00fe010000fe01000000fe00fe
ff01ffff010101ffff01fe0101fefefeff0101ff0101ff0001ff01ff01fffe0101fefefe01feff01ff01ff00ffff010001fe00fffe01fefefffe00ff01ff0000
ff01fefe0100fe00000000fe000101ff0001fffe0101fe0100ff000000fe01fe01fffe00feff0100ffff00fffffe010001fffeffff00fffe0000fefe00fe0100
fffffe00fffe01fffe00ff00feff00fefffefe00ff01ff0101ffffffff01ffff01ff000000fe0000fffffeff00fefe0000fffffe00ff0000fe000101fffffffe
01fffe00fffe0001000001fe01fffffefffefeff0000ffff010001fe00fe01fe00fe00fffe01fe01ff01ff0100feffffff0000fe00010001fefffe0000ffff00
00000000000000000000000000000000000000000000000000000000000000000000000000000000000000000000000000000000000000000000000000000000
0000fffe0100fe0101010101fe010100fffe0101fffeff00010000010001ff00fefffeffffffffff00ff0001fefe0001ff000101fe0100ff01fefeff0000fe00
010001fe010100ff01fefefe01ffff01000100ff01fe00ffff00010100fefe01010101fe00ff00ff00ff01ff0100fefffffe010000000101fefeff0001feffff
fffeff0000010000fe00fe01000001fffe0000fefeff01ffff000001010101fe00ff0100ff01ff000101fffe00ff01ff00ff01010100ff01fefe00ff00fffe00
ffff0101ff0000feff000101fe00fefffe01ff00feff01fffefefffe0100000001fffffe0100ff01fffe00feff00fffffefe01fefe01feff00fe01000001feff
01fefe01fffefeffff01000101ff0100ff01fefefe0100ffff00fefe01fe01fffe0000ff00fefe00ff00fefe0101ff0001ff00fffeff0000fffe01ff01ffff00
fffe00ff0100fe00ff00fffefefe01ffffffff00000001ff0100ff0101ff0100feff0101fffe01ff00ff00fe000000fffffe0101ff01ff00000101fefefe01fe
00fe010001fffffffe00fe00ffff0100feff01fefefe010100000001010100ff00fe00fffe01fe01010001fe0001fefe0000ff00feff0101fe00ff0000ffffff
fefefe0001ffff00fefe01fffffe01ff01ffff00fe000000feff01fe00fe0000ff0000ff00ff01fffefffffe01fffefeff00010001fefe01ff00010100fe0001
00000000000000000000000000000000000000000000000000000000000000000000000000000000000000000000000000000000000000000000000000000000
00000000000000000000000000000000000000000000000000000000000000000000000000000000000000000000000000000000000000000000000000000000
00000000000000000000000000000000000000000000000000000000000000000000000000000000000000000000000000000000000000000000000000000000
00000000000000000000000000000000000000000000000000000000000000000000000000000000000000000000000000000000000000000000000000000000
00000000000000000000000000000000000000000000000000000000000000000000000000000000000000000000000000000000000000000000000000000000
00000000000000000000000000000000000000000000000000000000000000000000000000000000000000000000000000000000000000000000000000000000
00000000000000000000000000000000000000000000000000000000000000000000000000000000000000000000000000000000000000000000000000000000
00000000000000000000000000000000000000000000000000000000000000000000000000000000000000000000000000000000000000000000000000000000
00000000000000000000000000000000000000000000000000000000000000000000000000000000000000000000000000000000000000000000000000000000
00000000000000000000000000000000000000000000000000000000000000000000000000000000000000000000000000000000000000000000000000000000
