00fefe0001ffff00ff00fefe01ff0001fefe00fefe01fffefe00fefffe01fefefe00010001fefe01fe01feff00ff01fe010000fefeff01000000ffffff010001
01ff010101ff0101ffff00ff00fe01010001ffffffffff01000101ff00fffe00fe00fe01fffe01fffeff0001fe01000100fefffe01fefffeff0101ffffff0101
feff00fe0000feff0100fe0001fffe0100fe00010101fe01fefefffffe000001000000fefeff0000ffff00feff0000000101fffefe0000fffffe0001ff01fffe
fefe01fe0101010001010101fefffefefffe0100ff01ffff000001ffff000101fe00ff0001fefe010100fefffe01010100010000ff0101ff0000ff0000fffe01
00feff00ffff00ff01fefffefe00fffe01fe0001ff01fefe000100ff00fefffefffeff010100ffff0001010101fe01ff00feffff00fffe00ff01fefefe0101fe
01ff01feffff01fe01fefe00fe00ffffff010001ff01ff00ff010000fffe01fe0100fffe00fffe0100fe01fe0101fefe0000fefefeff01feffff0100fe01ff00
0001ff010001fffe0101feff00fe0100fefe00fffe0101010001fe01ff0100fe0000ffffff0001010101010100000000fe0101fffffeff010100fffffe0101ff
00fffffffeff01fefeff01000000fe0100ff000101010101fefffe01fffefe01ffffff01fe00ff000001ff00fe0101ff000001fe00fffe0101ffff01fe01fe01
01ffffff000100ff010000fe000100ff01fefffeffff01000101fefefe00fe0000fe01ff0000fffe01feff0001ffff0001fefefffefe00010000fefe0100fe01
feffff00ffffff0100fefffffeff01010000ff0001fe01ff00ff0001010001feffff01fffe0101fe01fe01000000fffefffffe0101fffe00fe01fffefefe00ff
00fe00010000fe0000fe00fe0101ffffff01000101fefe000100ff00feff00fe01feff01ff0100fefe0101fffefffeff000000ff00fe00fe01000101ff010100
feff010001ff01fefefeffff00ffff01fffe01000000fffefeff01fefeff010000fffeff000001ff00feff01fffffe00fefeff0001ff00ff00fefe00fffffefe
00fefefffffeff00fe0101000001fe01fffefefe00010000feffff01010100ff0000fffffefe00fefefefe01ff00fefefe01fe01fffeffff00ff00fefffe01fe
010101fffe0100fefefefefe01fe00fffe0100fe01fe010000ffffffff010101fefefefefeff0001ffff00010001fe0000000101fffefffffefeff01feff0101
01fffefefefefefefe00000100fefe01ffff00fe00010001feff01fe01fe0001fefe01fefe0001ff000100fe00fe00ff0000feff000000000101010100010101
fefeff01ff00fe00ff00fefeff01fe00feff0000ff000101ff01ff00ff000101fe0000feffffff01ff000100ffff00fffe000101fe01fe000100feff0001fefe
0000010101fe01ffffff0100fe01ff01ffff01fe01fefe01ff01fffefffffe00000101fffe00000001fffefefffe00000000010100000100fefe000100010101
ff0000fefe0100ff0100fe01fffefe01ff00fefeffff01ff000100fefeff01ff00ff0001fe0001fefefe01000101fe0001fe01fffe010101010001feff00ff00
fe000001ff00fe0001fe0000fe00ff01feff0101fe0101fe0100fefe000101010000fffeff00ffff0101ff00fe010100fffe00fefeffff00ff00fe0000ff00ff
01fefefffeff0001fe00feff000001fefefeff00fe000000ff0001feff01ff0001fffefffe0001ff00fe00ffffff00fffefeff00ff000001fefeff0101fe0100
ff0100fffefefffe0000fffffe00fefefffeff0100ffffff01ff01fffefeff0101ff0001ff00ff00fe01ff0100feffff00fffffeffffff0101ffff01fe00ff00
feffff00ff00fffe0000fffefe00ffff00ff00feffff01fe010100ff01fefffefeff010101000001feffff0001fffe00ffffff000001feff0001fefeff01feff
ff010001fffe0101fffefeff00fefe0001fe01fe00ff00ffff00fe0001010001ff0100000000fffe0100fffefe00ff01ff000001ff010001fe000100fe000101
01feff01ffff01000000ffff00fffeff01fe00fffe01feff00ff0001feff010101ff010001fe0000ff0000fefe01fffe00fffe01fffffe0100ff0000fe01fe01
