01000001fefefefe000101ff0101fffe01fe01fe01feffff00fefe010001fffffefefe01ff0101ff00ffff00fffeffff0100feffff00ffff0101fe01ff010001
010100000000fefe00ff000101010100fefe0001fe00000001fe0000fe0001fffefe00feff00fffffefe01fffe0101ff00ff01fe00010001ff00ff0101010000
fffffefe0000feff010100fe01ffff01fffe00fffefe0101ff01fffeff0101fe0000fffe01fefeffffff01fefe01ff00feff000100ff01ffff0101000100fffe
feff00fe01fe01fffe00fe01fe00010000000100fe01ff00fe00fe01010001fffefe00fe000100fffefffeffff010000fffefe00feff01010000ff0101fffeff
00010001010000ff010101010100ff01ff01fe00ff01fefffe00fffefffe01010101fe01fe00fffe00fefefe0101feff010000010101fefffefefffe01ff01ff
00fefefffe00feff0000ffff00fe01ff01fefefe0000ff00000101010100fefefffe00fe000100ff01ff0101010001fe00fffffffe00ffff01fefffeff0101fe
fe01fefe00fe0001ffff0000fffe00ff01fffe01010000fe00ff000000ffff000000feff00ffffffffff01feff00010000ffffff01fffe000000ffff00010001
01ff0001fe00010000ff0101feff01ff000100fe0000fffe0100ff01000100fe01fffeffff01ff0000fe0000000000000000feff01ff01ff0100feff00fe00ff
00000000000000000000000000000000000000000000000000000000000000000000000000000000000000000000000000000000000000000000000000000000
fffffffe000101fe00fe0001000000ff01ff0000ffffff0100ffff00ff01fefe00fe010100ff000001fe01fffe010100010101fe00fefe0001000101010001fe
01fefe00fe000100010100ff01fe00010101000100ff00000101fffe01fe000000ff00ff01010101ff00ff00010100fefffefe01ffff0001fffeff00fffeffff
00fe010100fe01fefe00fefefe0100fffe000101ffff0001fe00010001ff01feff01fe01fffffffe0001ff00ff010001ff000101fe0100feffff0101ff010000
00fe01010001fe0101010000fe0101fffeffff000101feff000101010101010101010101010100ff0000000001fefe00010001fefe01fe00feff0100ff0001ff
01ffff0001000101fffffe0100000101fe010101fffeff0101fffefe0100000001ff010101ff01ff0000010000ff0101fefeff010101ff010001ff01fffe00ff
fefe01fefeff0000ff010100fefe0000fe00ffff01ff01fe010001010001ff01ff01fe01fe00fe00ff00fe01fe0101ff00ff000001fffe000000010001fefeff
fe01fe0000ff000000fefe00ff00000001000100000100fe0101ff000000fffe010001fe000101010000ff0100fe0000ff0000fe00fe01000001010001fffefe
0101ff01fffe01fe01ff0001feff01fe01010001fe01000000feff01fe01ffff01ff01fefe0101fe010101000101feff01fefefe010001ff0001ff01fefe0000
00000000000000000000000000000000000000000000000000000000000000000000000000000000000000000000000000000000000000000000000000000000
0101ff000001fffeff00fe01ff00ff0101ff01fefffeff00ffffff01feffff01ff010101ffff00000100ff010000ff0000fe00fffe01ff00ff00ff01fe01feff
fffeff010101ff01feff00ffff00ff00fefefe00ffff010000fe0000fefe01ffff0000ff010000ff0001fffefe0001fefefeff0100010001fe00fe0100feffff
fefe00fefe01ff0100ffff0000fefe00000000fffefe00ff01ffff0001010101fffefffefefe000000ffff00feff000000fe01010100010000ff00ffff00feff
00fffeff0001000000010100ff00ff0001fffffefeffffff000001ff00010000fe00fffeff0101fffe0100fe0001ff0000fefefffffffffe0101fffefe00fe00
fe0001fe01fefefffe0101fffe0001fe00ffff01fe01fefefe010100ffff01fe00ff00ff000000fefe0001fe0100ffffff00fefe0101fe01ff00fefffffefe01
0101000001ff01010101fe01fe00fefffeff0100ff00feffff0100010101000000010001ff0101fefeff010001fefe0000fffe01feff00fe000000ff00ffffff
00feffff01fffffffe0100ff01010000010100fe01fefefe00010100fe01fffefe01ffff010101ff0001fefefe0000fefeff010101ffff01fe00fe010000fe00
fffefeff0100fe000101fe0100fe01fffe01ffff0101ff0101000000010001fe010000ffff01fe01ff0101ff01000101ff01fe01fe01ffff01ff010000fffeff
00000000000000000000000000000000000000000000000000000000000000000000000000000000000000000000000000000000000000000000000000000000
