feff00ff00fe01fefeff00fe000101feff01ff01fefeff0001010001fe00fffefefffe01ffff0101fffe00fefe00000100fffefe00fe01fefffe000001fffe00
01010001ff01fefefefe010001ff0000ff0001fe00fffefefffeff01fffe00fe01ff00000100fffefffefffeff00ff000000000000000101fefffeff01fe0100
01feff0001fe000001ffff0001fe010101ff010001fefe00fe01fffefffffefffe01ffffff0101fefe01fefefe01fe0100ff000000010101fe00fffffeff0101
010101fffffe01010000fe01ff01fffe00feff0101fefe01fefe0101feff01fefefffefefe000001ff00ff0000fefffffefffffffefefffefefe00000000fe00
fffe010000fefeffffffffffff01ffff0100fffe01ff00000101fffe00fffefeff0001fefefffeff010101ff00ff0100ff0100010001fe0000fffe0101fffefe
fffe000001ff0000ff0001fffffe00feffffff0001fe010101ffffff00fffffe01fe01fefe00ff01ffff00fe00ff00feff00fe0000ffff0100fefffefefe00ff
010001fefefffeffffff0001fe000101fefe000100fe01000001feff0100000101ff000101ff0001fefffffffe010100000000fffeff00fefefeff01feff01ff
fffe000100000001fe01fefefffefe01fe0100fffffffffe0001fefffeff0100feff0001fefefffffefffe01ff00fffe0001ff00010101feff0101ff01000001
010001fe00fe0100ff00ff0001feff01fe010101ffff01fe01fefefeff0101010101fefffeff0101000100ff01fffe0101ff01feff01fffeffff000000feff00
ffffff01fe0101ff00fe000000ffff0100ffff0001ff01ff0100fefffffe00fe00fe01ff00ff01fefe00fefe00010100000001ff00feff00fe0000fe0001ff01
00fe01fe00ff01fe000100fffe01ffff010000ff010100fe00ff00ff00fefeff0101ff0100feff0101fefe01ff01ff00ff00fe010000fe0001fe00fefeffff01
fefe01fe01ff01feff0100fefffe01fffefefe0001fefffe01010100ff010101fefffffe00feff0001010000ff010000000101fffffe01000100ff000001fefe
000000000001000100ff00ffff00ff00000001fefefeff01ff00010001ff0001fefe01fe0100010001ff01000101fefeff00ff0101010101fefefefe0101ff00
00fffffffe0001ff010101ff01ff000001000000fe01fefffe00fe01ff0000fefe0000ff01fefefefe0001fefffe01feffff0000ffff00ff00fefe0100fe0001
fe01fe000101fffe01fffffeff0101fe0100fefefefeff010001ffff0000fe0001fe00010001ff00fe01ff01fffffe00fefefefefe0000ffff01fefefffe0001
ff01fe0101fefffffffe01fefffffffe0100fffefffe010000fe010100fe01010001fe00fffffefffefe00feff01ff00fffe0000fefe0000ff0000fefe000101
00000000000000000000000000000000000000000000000000000000000000000000000000000000000000000000000000000000000000000000000000000000
00000000000000000000000000000000000000000000000000000000000000000000000000000000000000000000000000000000000000000000000000000000
00000000000000000000000000000000000000000000000000000000000000000000000000000000000000000000000000000000000000000000000000000000
00000000000000000000000000000000000000000000000000000000000000000000000000000000000000000000000000000000000000000000000000000000
00000000000000000000000000000000000000000000000000000000000000000000000000000000000000000000000000000000000000000000000000000000
00000000000000000000000000000000000000000000000000000000000000000000000000000000000000000000000000000000000000000000000000000000
00000000000000000000000000000000000000000000000000000000000000000000000000000000000000000000000000000000000000000000000000000000
00000000000000000000000000000000000000000000000000000000000000000000000000000000000000000000000000000000000000000000000000000000
