01fe010001ffff00fe0100fffe01feff000001fefefeff01fffefefeff01fefefeffffffff00fe01fefeff01ffff01fe01fefeff000000ff0101010100ff0001
fffe00ff01fffe00ffff01000101ff0100ff01fffe00fffffffffefefeff010001fe0100fe01ffff00feff0101ff00fefefffffefffffe01ff01fe00feffff00
fefffe01ff00ffffff00ffff01ff00fe0000ffffff000100feff00fe0001fe00fffffefefffefeffff00ff000101fe01ff0101ffff00010000fe0100ffff01fe
00fefefe01fffe00ff00fe00fe00fffefefeff0100ff0001ff0100fefe01ff00ff0001ff01ff01010100ff0001ff000100000100010101fffffffe0001010000
