01ff01ff01ff0001ff0101010000ff00fffe000001fefe01ffff00fffe0101fefefeffffff0000fffe00fffe01fe01fffffeff01fe010000fefffeff0101fe00
fefefffefeff01feff010100fe00fefffffffefefefefefe000001ff01feff000001ffff00ff0000fe01fffffefffffeff01fffefe0101fe01feff01ff0000ff
fffefffefe01ffffff0001010101feff010100fffffe00fefefffe000100fefe0001010000ffff00fe00ff01fefeffffff00fffefeffff00010100fe0100ffff
ff0101feff010000000001fffeff01fefeffff00fe010001ffff0100ff0100ff01fefffe00fe00fe01fffefeff00ff010100fe00ffff00fe00ff0001000101ff
fefefe0001ffff0000fefeffff0100fe000101ff000000ffff01feff00000100ffff00feff01fefffefe0001ff00ffff01fefe0001ffffffff0101ff00fffefe
fe01fe0000ff00fffeff01ff010100fe0001fe0100ffff00fe00ff010000fe01fe0001fefffffe010000fe01010100fe01ff00ffffffff01fffffeffff01fefe
00ff0101fffe0100fffefffffe0001fe00fefe00ff0101fe01ff01000001fefe01000100ff01ff00fe000101fe0101000000fffeffff010000fe00fefe00fe00
ffff00ffff0100fe00fffefefeff0001fe01fffefe01ff0100010101fffeff00fe00fe01fffefffffe01feff01ff01fefffeff01fffe00fffe00010100ffffff
00000000000000000000000000000000000000000000000000000000000000000000000000000000000000000000000000000000000000000000000000000000
0100010000ff01fe010001ff01fe00ff01fe0100fffeff00feff01000000ffff01fffe0000fffe000101fe01fffffeffffff00fe00000101010100ff010001ff
fefefffe0100fffe00fefe00ffff0001ff0000ff00fe000100fe010101ff0001fffffefe000100ffff01fe01fefffeff000000ff0101ff00ff01ff00ff0100fe
fffeff010000fefeff0001fefffe00fffe0000fefe0000010100fefffe000001fffefffe00fe0001ff00fe01fe0001ff01fe0001feff01fe01010000ff0101fe
fffe01fefe0000ff00fffefffeff01fe000101fe01fffe000000ff01fe00feff0000fe01fe0101fffe00010101ff01fe01ff00fe0101feff0001fffe01000101
ff01fffeff0101fe000100fe010000fffe010100fefe0100010001fefefe01ff0100ff00ff010100ff0101ffff0101fefe00000100ff01fe01feff00fffffffe
fe0001fe0100fefffefeff00ff00ff00ff0101fffe00fffefe010100ffffffff01ff00fefefefe000001010100fefefe01ff0101fefe0100fefefe0100ffff01
feff00fffe0101010100fe0100fefeff00fe0001010101010100fefefefefffe0101000101ff01000000fefffe01fe00010000fe0001fe0000fefe0000010100
fffe000100000001fe01ffff01ff0101fe00000001ff00feff0100ff00fefefeffff01fe010101010100fefefefefffe0001feffff000001fe00fe0100ffff01
00000000000000000000000000000000000000000000000000000000000000000000000000000000000000000000000000000000000000000000000000000000
00000000000000000000000000000000000000000000000000000000000000000000000000000000000000000000000000000000000000000000000000000000
00000000000000000000000000000000000000000000000000000000000000000000000000000000000000000000000000000000000000000000000000000000
00000000000000000000000000000000000000000000000000000000000000000000000000000000000000000000000000000000000000000000000000000000
00000000000000000000000000000000000000000000000000000000000000000000000000000000000000000000000000000000000000000000000000000000
00000000000000000000000000000000000000000000000000000000000000000000000000000000000000000000000000000000000000000000000000000000
00000000000000000000000000000000000000000000000000000000000000000000000000000000000000000000000000000000000000000000000000000000
00000000000000000000000000000000000000000000000000000000000000000000000000000000000000000000000000000000000000000000000000000000
00000000000000000000000000000000000000000000000000000000000000000000000000000000000000000000000000000000000000000000000000000000
00000000000000000000000000000000000000000000000000000000000000000000000000000000000000000000000000000000000000000000000000000000
