fe0100fe00ff0100ff01feff00fefefeffff000000fffe00ff00ff00fe00ff01fffe0000ffffffff0001010001fefe00ffffffff00010101fe01fe00ffff0100
010100fe00ff00ff01fffeff01fe01ff0001000101ff00ff0001ff0000ff00fe0000fffe010100fe0100fefefffe0101000001ff01ffff00ff00fe010101ffff
00fe010100010101fe01fffe01fe00000100fe0100feffffff010101ff000000000001fefe01fe00fffffefefe000100fefe01fffe00010101fffe0101fefe00
ff0000fefe01ff010000fffffffffefffffffefffeff01fe0101000001fffefe00fe000001fe00feff010100010001ff00ffff00fe0101fe0101ff01fe0101ff
