01feffff0000feffff00010000fffe01fefe0101010100ffffffffff01010000fffe01fefeff01fefefe01fffefe01ffff01fe000101feff00feffffff01fe01
fffe01ff010100feff0001feff01fffefefe0101fefffefe000001ff0000ff0000000100ff0000ff00000101ff01ff00fe00fe000101010100000100fe0101ff
000101000001fefe0001fefffffefe01fffe01010100fe010001fefe01fffefe0100fefffe00fe00fffe00fffe00fefefe01ff0100fffffffe0101fffe0001ff
00fefffe0001fffefffe00000101ff01ff0001ffffff000101010001feff01fefffffffe0100fefe00fe010001fffefefe0001ff0100fefe01fe010000fe00fe
00000000fe01ff01fefefffeff000001fffe00fe00ff00ff01000001fe00fe000101fffffeff00fffffffe01fffeff00ff00ff01ff01fffffeff0100ff000101
fe0101ffff0001ff00ff0101feff0101fefe00feffffff00010100fe01fefffefefeff0101fffeff01010000fe0001fffefefefeff01ff0001feff00fffffeff
fffe0100ff00fefe01fe00ff01fefefe0000feff00feff0101fe0101fe00fefefffe000001ffff000101fffe0001ffffff00feff000000fe01000001fe000101
01000101fffefefe00ffff01fefefefefe01fe000100fe0000fefe0000fffffe00feff01000100fe00fe00fffe0101fefefe00ff00ff00fffffefe00000001ff
0101fffefffffe01000001fffffe01ffff00fefefe00fe01ff00ffff00fffe00ff00ffff000100ffff0100ff0100fffe0000ffffff01fefeffffffff00ff0101
fffffe01ff01fffe00000001ff0100000001ff00feff01ff010000fe00fefe000001000000ffff000100ff01010100fe0100ff0001fefefefe00fffe01fe0001
fefefeff00fe00ff00fefefe00ff00fe00ff00ff010001feff01fefeff0000feff010001010000fffffffeff0001feff00fe0000ff00fffffefeff00fffe0101
fefffffffe0101fe01ff00fffeff000001fefffffe00fe0101fe01fe0101ff0100fffe000000fefffe0001fe00fefefe01feff0001fffe00fffe0000fefffe01
01ff0000ff0100fefe01ff010001ff00fe01fe01fe01fe00fffe00fffe0101fefe00fefffefeff00000001ff00ff0000ff01ff0001000100fe00fefe01fefefe
01ff00fe00fefffffe010101fffffefefe010000ff000000fe0100fe00ff00ff01ff00fefeff01fe00fe00ff00ff00fefefe0000fe01fffefe01010000fe00ff
ff01feff0100ff01feffff01fefefffeff00ff0101fffeff01ffff0000ff00fefefeff0101feff01fefe00ff01fffeff0101fe01000000fe0000fffffefffeff
feff0100fefeff0001fffffffefffe01ffff0000fffe0001fffffffe01ffff00ff0100fffefffffffefe0001fffeff00fffffe0100010001ff00ff01fe010001
01ff01ffff00fe00fffe00feff00ff0101000001ff01ff00ff01010101fffeff01fe01fe01fefe0001000101000101ff0000fe0100ff010000010000fefffeff
01ff01fe000101ffffff00fe01fefeff01fffefeff0001fefeffffff01ffff00fefffffeffff01fffe0001ff00fffe0101fe01fe01fe01ff0101fe00fefefffe
fefeff01ffff01ffff000000ff0101fefefffe01fe010101fefeff0101fffefefe0000fe010100fefffe01fffffffe000001fffefe0100ffffff01fffefffe01
fffe00feff01fe01feff01ff00ff0100fe01fefe01ff01ffff01fe00fffefeff00ffffffffff0000fe01fe00000101fefe01000101feff00fffe00ff00feff00
ffffff01fe0101fefe0101ffffffffffff01fe01ff0100ff0101fffe01ff00fefffefffe00ff01000100ffff0000ff0000fe000000000100ff0000010101ff00
fffe0001ff0100ff00fe00fffeff01fe00fe01010100ff0000010101ffff0001fe01fe0100fe00fe0000fefe01ff0001010101ffff01feff01ff000100feff00
0001fffe01fefe00ffff000001ffff0101fe000000fefefefefe0001fffffffe0001ffff01fefefeff010001ff010101010100ff00ff0101fefffeffff00fe00
000100fe00fffffffe000101ff00ff01fe0000ff01000100fe01010101fe0101ffff00fe0100fffefe00fefe00feffff01fefe00fffffeff01fffffefffe00ff
