0101fefeff010100feff000101010100010000ff000000fefffeff01fefffe01000000010100fefefe0001fe01010000feff00fffffe000000feffff01010100
fefffe00ff01feff00ff00fffefeffff000000fffe00fefe01ffff01010001ffff01ff0101ff0001ff00fffe0101fffe00feffff000101feff00fffffefffffe
feff00000101ffff01ff00ffff01ff00fffefe0001fe0101ff01fefeff0101ffff0100feff00000101ff0100fe01fefe00fe000101fffe00010100ff01fffefe
fe000001ff00ff00fe01ff01ff0001fe01ff0101fefe000100ff00fffeff0101fe000000ff00000100010101fe01ffff0101fefffefe0101feff00ff00ff01ff
feff00ff01ffffff0001fffe00000000010000fefe000101ff00ff01000100fe00fefe0101000000ff0101fe0101fefefe00ff00feff01fffffffeff01fe0000
fefe0100feff0101010001000001fefe0101feffffff0001fe00fffefe010100fffe00000000feff01feff00010100fe010100feff0001000101fffffffe0000
0100ff01fefffffe00ffff00fe00010100000100010100ff00fe00fffe01ff01feff0101fffe01ff000101fe0100000101fefe0001ff00010001ff0100feff00
fefffefe01fffe01ff0101fe00ff0001fefe0101000101ff00fefe010101fe01010100ff000001010001ffff0001feff0101fe0001fe010000fe01feff000101
00000000000000000000000000000000000000000000000000000000000000000000000000000000000000000000000000000000000000000000000000000000
0100ff0100fe0100fe00fe01ffff0000fffeff0100fefe01000000ff0101000100fefffefefeff0100ff0000fe00ff000101feffff00010101fe0100ff0101ff
feff01fefffffffffeff01ff01010000ff01fe000001fe01fefefffffffe00ffff00000100fefffffefe01000000010101fe000000fefffffffefefffffffefe
fefeff0001fe0001fffffe0001ffff000100ff0001fe00010100fefe0100ff01fffffefeff0101fffefefefeff0100ff01ff01feff0100fe01fe01fffefe0100
0001ff0000fefeff0000fe010000fe01fe00fe00ff01ff01feff0001fe01ffff00ffffff00fffe010000fe01fefe00fe01fe01fe01fffefeff01000001fe0100
0100ff01fefe010101fe01fefe00fe0000fe00ffffff0000fefe00fe010100fffefffe01ff00000101ff0100ffff00ff010001fefefefffe01fe01fefe010101
010000fe00fffeffff01fefe01fefe01fffe00ff00ff0100ff010001fefffffeff0100fe01fffefffefefffe0100000101fe01ff0100000000ff00fe0000fefe
00ff010001feff01fe01fe00fe0001feff0000ff01ffffff01fffe0100feff01010101ffffffff00000100ff01fffffffe00feff00010000fe01fe010001fffe
0001ff000001fefeff0001fffe01ffff00fffffe01fe0000000100fffffe00fefefffe00fe0100010001fe01fe0100010001ffff00ff01ffff0001fefffffe00
00000000000000000000000000000000000000000000000000000000000000000000000000000000000000000000000000000000000000000000000000000000
fe0001fffffefe0001fffe000000fe0100fefefefeff01fe00fe01feff0100feff00ff00fe00fe0000fffe01ff01fefefffffffe01fffffffe01000001ff01ff
ffff00ff0101fffefe01fe01ff0100fe01ff0001fe01fffffe0101ff0000ff0100feffff010000010000fffeffff00fe00fffe0101000000fffe00fe01fe0101
feff0100fffe01ffffff00ff0001fffe0001000001ff01feff0101fe0000fffffffffeff0100fefefffeff00ffff010101fffffe01fe000001feff01ffff0100
ff0100feffffff00ff01ffffffff0000000001fffeff0100010000ff000100fffffeff01000000fefeff00feff0100feff0101010000fe0001fe00fffe00fe00
00fffe00fefffe010100fe000100feff00010000fe01ff00000001fe0001000101fe000101fe0101fefeffff00fffffefeffffff01ffff01000001ff000101fe
0001ff00fffffefe00fefeff010000ff0001ffff0101fefffffffffefefeff00fffffe0101ff00fefe0001ff0000fefefeff01fe01fffefefe01fffe00fffffe
fe00000100ff00ff00000000ff00ff0101fefeff01ffffff0001fe010100fefe01ff00ff000001ff000001fffeff00fffffe0001010000ff0100fe01ff01ff00
0101000000ff000100fffeff0000fe00feff00010101fffeff00fe01fe0101fe00010101fe01fe01fefffeffffff0101000101ff00ffff0000feff01fffffeff
00000000000000000000000000000000000000000000000000000000000000000000000000000000000000000000000000000000000000000000000000000000
