feffff000100fffe00010101fe0000fffe01fffffefe01feffff0100fffe00ff00010001fffffefe0100ff0101fffeff00010101fffefffe00fe00ff0000ff01
ff00ff01fefefe00fe01fefefefffefe00ffff010101ff010100fffe000001fefe0000ff0100ff0001fefefe0100ff0001fefffe01000100fefeff0001fe0001
fffefe00fffeff01fe0001ff0101feffff01fefe0000ff010101010000fefe000001fe0101fe01fefffe0001fefe00fe00ff00010000ff00fefeff00000001fe
010001fe0000fe01feff0100fefeff00ff0000fe01000001fe01fe0101fffffe0000feff0101ff000000ffffffff01fefe00feffffff00fe01000101fffefe01
0100fffefeffffff01fffefe0001fffeff00ff00fefe000100ff01feff01ff0001ff01fefe0100fefeffff00fe0001fefffffe01ffff010100fe0100ff0001fe
00ff0000feff01fefffe0000ff00fe01fefffe00ff00ff0000feff00fefffffe01ffffff000001fffe000101ff000001ff00fefe01fffe00fe01fffefe01fe01
0100fffefffe01fefe00ff010000ff010000ff01ff01fffffe01fe0101ffff0001fe000101feffff00fefe00feffff010000fffe01ff0001010000feff010001
ff0101010101fffeff00feff00ffff010101fefefeff00fffefe00fe0100ff0100fffefeff01ff010100ffff00fffffe0101000100ff01fffefe0000000000fe
ff01ff0001ff0000fe00fe000000feffffff01fe0000fe01fe00fefffffefefe000100fe00ff00000101ff00feff00010101fe010100fffefffffeff00000101
fe010100010000ff000101fefe0101ff00fe01fffeffff00ffff01ff00feff00fe0001ff000000ffff0000ff01fffeff0101ff0100fe00fefe00ffff00010001
0101fe00fe01ff01fe01fe01fefffeffff01000100feff01feffff0000ffff01000000fe010100fe010000ffffff00ff010000ff01010000fefefffeff01fffe
feff01fe01ff00feff000001ff0000ff000101ff01fe00fffffeff0000ff000100fffefe0000feffff01fffefe00fffeff00010101000000fffefe0000feff01
0000fefefe00fffeff01fe010001fffffffefe01ffff00000000fe00fe010101fe00fe00fffefeffffff0100fe0100000101fffe01ff0100fefe0000ffff0001
000000fffefefffffe00fe00ffff01fe00010100feff01ff0000fe0101fefffefffffe000000feff01010101fefeffff000000fe0001ff0101ffff010001ff00
000101fffefe00fe0101fe01ff0100fe000001ff00ff00010100ff01ff0001ffff00ff00fe0101ffff01000100fe00fffe01ffff01010001ffff0100feff01fe
000100fffe01ffff01fefefffefefefffefeffff00ff0101fe000100fefe0001fe01ff000000fefffe0000fffffefefe01ff00ff00ff00ff01fffeff000101ff
