00fffe010001000000ff0101010100ff01feffffff0100fe00fe00ffffff010001feffff01fefe00ffff01fefffe01fffffeff0000fefffe010100fe0100fefe
0101fffffe0100ff01fffe0000fffe0001feff01fefefe0001feffff00fefe00ff00fe00fefe0000ff01fe00ffff00fe00feff0101000000000000fefffefe01
ff0000ffff00ff01fe01fffe01fefe010100010000feff0000000000fffffffe01fe000101fefe0001ffff0001fffe00ff00feff00ff0101fefeff000101ff01
fefe01010001ff01fffeff00fe00fe000000fe0000fe000100fefefffeffff00fe00fefefe0100000000fffffffffe00fefeff000101fe0000feffff010000ff
0000ff000101fffe01fefefffffffe01feff00ff01ff0101ffffff01ff010001010000fe01ff0000ffff01fefe000100fffffefeffff01000101fe0101010000
00fffffe00ff01fffe0001fefeff0101fe01ff00feff0101ff000100fffefe0100ffff01000001ffff01ffff01fe0001fe00fefeffffff00feff0000fffffefe
fe00feffff0101feff0101fe0100ff0000010101fefefffe00fffe00010100ff000100fffeffff0000fefefe0001fe01fe00ff0001fe01fffe00010000ff0101
01ff01ff00fefefeff0100fe010100fffffefe00ffff0101fe01ffff01fe00fefffe00fefe0001ffff01fffefefe00ffffffffffff00ff01fe01ffff000101fe
00000000000000000000000000000000000000000000000000000000000000000000000000000000000000000000000000000000000000000000000000000000
01ff00fffeff01ff0101fffeff00ff0101fefefffefefe0100fffefeff01fffefeff00ff00fefe0000fefefe01010001fefe01fffe010001fe01fefe01010001
00fe00fefeff0001fe00fffffefefe0100fe0000010000fe01ffff01feff000101ff000001fefffe01ff0001000001ff00fe00ff0100fefe0001ff010100fe01
010101fe00ff0000ff0000ffff0101fe0001fefffeff0000010000feff0101fefe01fefefefefefefffefefffefe01fe01fe01feff00ff0001ff01ff0001fe01
0101fe01fe01fe00fe01fffe0101fe01000000fe000001ff00feff01fe0101fe01ff010000010001feff0101000101ffff0001feff0100fe00fffefffe0001fe
0101ff00fefe0101fffefeff01fe0101fffffeff01ff010001ff000001fefffe01feffff0101010100fefe0001010001000001ff01fe00ffff01ff00fe01fe00
0000feffffff0000ff010001000000fffefe010100010000fefefffffffeff0001000100ffff00fe01fffe0000fffe01fefefffffe01fe01feff00fefe00fffe
0101ff00ff01ff01ff00fffffefe00fffffefefefefeff01ff00fefefefe0101fe010100000100fffffefffffefefeff01ffff010100ff00ff0100fe00ff0100
fe00ff0101fe0001000100fe00fefffffeff0101ffff00feff010101fffffeffff000100fffefefefeff00000000ff00fe00010101fe01ff01ff0000ff01ffff
00000000000000000000000000000000000000000000000000000000000000000000000000000000000000000000000000000000000000000000000000000000
00000000000000000000000000000000000000000000000000000000000000000000000000000000000000000000000000000000000000000000000000000000
00000000000000000000000000000000000000000000000000000000000000000000000000000000000000000000000000000000000000000000000000000000
00000000000000000000000000000000000000000000000000000000000000000000000000000000000000000000000000000000000000000000000000000000
00000000000000000000000000000000000000000000000000000000000000000000000000000000000000000000000000000000000000000000000000000000
00000000000000000000000000000000000000000000000000000000000000000000000000000000000000000000000000000000000000000000000000000000
00000000000000000000000000000000000000000000000000000000000000000000000000000000000000000000000000000000000000000000000000000000
00000000000000000000000000000000000000000000000000000000000000000000000000000000000000000000000000000000000000000000000000000000
00000000000000000000000000000000000000000000000000000000000000000000000000000000000000000000000000000000000000000000000000000000
00000000000000000000000000000000000000000000000000000000000000000000000000000000000000000000000000000000000000000000000000000000
