01000000fe00000000fe01fffe01fe00fefe010100fffffe00000001ff0101fffe00fefe01010000ffff00fefffe01000100fefffffffe0001010000010101ff
fffe000101fffe00fe01ff0100ffff000001ff01fe0100ffff00ff010101feff0000ffff0000fe0101fe010001010101fffe01fe01ff00fffffeff0101fffe01
01fe00fffefffe01fffefe00ff0100fffffe000100ffff00fe0001ff0100fe00fefefefe0000ffff01fefe00fefe00ff0000fefe0000fe01fe00feffffffff00
ffffffff01feff01ffff01000100ff00ff01000100fefe01ffff01fffeff000001fe000001fe00000100ff0101ff01fefe01ffff01ff00ff0001fffe01feff01
ffff00fefeff000000ffffff00fffe000000fffefefffffefe0001000101fefefffffffeffffff010001fe0100ff00ffff00fe00feffff0100fe0001000001ff
0101ff01ff00ff0100000101ff0101fffe0001fe00fe00fefefffffeff01fefffefefeff01000100fe00010101000101ffff00fe0101ff0001ff0101ffff01ff
0000feff0001ff01fefefe000101010100ff0001feff00ff0101ffff0000fefeffffff00ffff0101ff01010101010001fe01fe0000fe00fe000101fefefefefe
feff01fe0000010100fe0100000000fffffefe01fe000101fe010101010101000000fefefffffe000000fefeff01ff0001ff000100ffff0100000101fe0001fe
00000000000000000000000000000000000000000000000000000000000000000000000000000000000000000000000000000000000000000000000000000000
fefffe0000fe0101ff010100fe0001ff0001000100ff0000000101fe0101000100fe0101000101feff000101ff00fffe0100feff00ffffffffff00010001fe00
00fe00fefffffe01fe01fffe01fe00fffe01fe01000000010001ff00fefefefeff000100fffeff01fffefefefeff0101fe0001ff0000000000ffffff0100ffff
fefffe0100ff01fefeff0001feff010000fe00fe01feff0101ff00ff0000fe00010101fe01fe0101fe00000100010101feff0001fefe0101ff0100fefefe0100
ff00fefffffffffefefefe00fefefe0001fe00ff01ff010101ff01fefffffffe000101ff01fe01fe01ff01fefeff01fefe00fffefe01ff00ff01fffe01000100
fe0000fe01010100feffffff01feffff0100fe01fffefefefefefe00fe01feff0000fffffefffffe0100feff01ffff00010001fe00fefe01fefefeff0001fefe
fffefeff00ffff01feff010100fefeff00fffffffffe00fefefefefffe000001fe00ff01ffff0001fe0101000101fffefe01ffff01fe000101ff000101ff0000
01fe01fffe0101fffefe00fe01fe0100fe0001010101fffe000000fffe01fffe0100ff01ff000000ff010000fffefffe00ff0100ff01fe000100fffe01fe01fe
0101ff00ff00feff010001feff010101ff00fefe0101ff01fefefe010101fefffe000100fe00fe01010000feff00ff01ff01ffff01fefe0100fffe00fffe0001
00000000000000000000000000000000000000000000000000000000000000000000000000000000000000000000000000000000000000000000000000000000
00000000000000000000000000000000000000000000000000000000000000000000000000000000000000000000000000000000000000000000000000000000
00000000000000000000000000000000000000000000000000000000000000000000000000000000000000000000000000000000000000000000000000000000
00000000000000000000000000000000000000000000000000000000000000000000000000000000000000000000000000000000000000000000000000000000
00000000000000000000000000000000000000000000000000000000000000000000000000000000000000000000000000000000000000000000000000000000
00000000000000000000000000000000000000000000000000000000000000000000000000000000000000000000000000000000000000000000000000000000
00000000000000000000000000000000000000000000000000000000000000000000000000000000000000000000000000000000000000000000000000000000
00000000000000000000000000000000000000000000000000000000000000000000000000000000000000000000000000000000000000000000000000000000
00000000000000000000000000000000000000000000000000000000000000000000000000000000000000000000000000000000000000000000000000000000
00000000000000000000000000000000000000000000000000000000000000000000000000000000000000000000000000000000000000000000000000000000
