fffeff00fe00fefffe00fffefefe00ff000001fefffe0100feff01feff01ff00010100fefffeffffff01feff01ffff0001ff00fe01fffefffe0001fe0001ff01
feffffff00ff000100fffefffe0101ff0000ff01000100ff01fe01fefffe00ff01fefe00fefe01ff0000fe00000000ff0101ff00ff000100fffe00fe01fe01ff
ff01fe00fe00ff000001fe000101ffff00fffffe000001010000fe01fe01fffefe01ff0001fe01fefffffe01fe0001ff00fe0000feff00000000fffefffeffff
010100ff0100000000ffffff00fefe01fefe01fe00ff00fe0001fefe00fe010000ff01fe0100ffff01ff01ff0101fffe01fefffefffffffe0001fefe01010001
fefefe0101fe0101ff000101ffffffff000100fefe01ff010000fffefe00fe00fefefeff00fe01fe00fe010101feff0001000000fefeff0001ffffff00000100
ff000101fe01ff0101fe0000fefe0000fffffeffffff00fffe0100feff01feff000100ff01ff01010100feff00fffe00000000feff0101ffff0001ff0100ffff
0100ff00fe00000100010000ff0100ffff0000ff01ffff01ff000101feff00ff00fe0101000100ff00fefe01fffffe01ff0001fffffffe00fffe010101fefffe
0000fffffffe000000fe0100fefeffff01fe000001ff00feff010001feffff0000fe00fe0101fffe00ff00fffe01ffff0100010001fe00fe01ffffff00fffeff
00fe01ff000101fefe01fefffefffefffe010100fffe00fefffffefffe010001fefe01fe00feffff01ff00000100000000fffe01000001fe0001fffe0100feff
ff010100fefefefe0000ff000000ff00fe0000ffff01fffffe0000ff000000fffefefeff00ff00ffff00ff00ffff0100ffffff01010100ff00ff0000fe0101ff
00fffeff01ff01ff0000fffefeff00ffffff01ff0100ff01fefe01fffefefeff01ff0000fe0001ff00000001feff01fe01000000fefefe000100fefffffe0000
fe01fe00fe0100feff00feff00000001fffe00ff0101ff01ff0101000000fffefffefefffe00ff0000ff01fffffffeff01000000000000fffffffe00fe01ffff
fefeff00fefeff0001fe0001fefe010001ff00ff0000fefeff01fe0000010101fe00000101ff000001fe0101fe0100010101000100fffe00feff01fffffe0100
01ff00ff0100ff00ffff0000ff00010000fefefe010100ffff00feff0100ff0000ff010000ffff0101fe000001fe01000001ff01ff0001fefffe00fefe01ff01
fe0000fffefe00ff010000fe01fefeff01fffe0100fefe00fefffffffefffffeff01ff00fefeffff01fefffffe01fe010001fe01ffffff01000101fe00ff0100
00fe00ff01ff0101fe000000ff0100ff000100fe00ffff00fefefeff00feff00ff00000001feff01ffff01ff01ff00feff01fefe01fe0101feffffffff00fe00
00000000000000000000000000000000000000000000000000000000000000000000000000000000000000000000000000000000000000000000000000000000
00000000000000000000000000000000000000000000000000000000000000000000000000000000000000000000000000000000000000000000000000000000
00000000000000000000000000000000000000000000000000000000000000000000000000000000000000000000000000000000000000000000000000000000
00000000000000000000000000000000000000000000000000000000000000000000000000000000000000000000000000000000000000000000000000000000
00000000000000000000000000000000000000000000000000000000000000000000000000000000000000000000000000000000000000000000000000000000
00000000000000000000000000000000000000000000000000000000000000000000000000000000000000000000000000000000000000000000000000000000
00000000000000000000000000000000000000000000000000000000000000000000000000000000000000000000000000000000000000000000000000000000
00000000000000000000000000000000000000000000000000000000000000000000000000000000000000000000000000000000000000000000000000000000
