fffefefeff0101fefffefe0101feff00fe00fefe00fe00fefffeff00ff0000fe00fefffffe01ff01fe0100ff000001000101fe0100fefefeffffff01ff00fe00
01fffffeff00feffff00feff0101fefeff00feff0101ff00ff00ff0000ffff01ff00feff00feff00ff000001fe0001ff00fffffffefe00fe0000010101010001
0000fefe01010100ff00fffeff0000feff00010001feff000100010000fffffe0101010001ff00000001fe01ff0101fffe0000010100fefffe00fffe01ff01ff
0001000100ff01ff01fe01000100feff010100000001fefeffff00ffff00ff01010001fffffefe0001fe01ff01ff0000010001ff0101ff01fe01ff0000feff00
0001fe0000ff01010001fe01fffefefffe01ffff00fffe01ff00ff0001ff01ff00fffe010101fe010101fe01feff01feffff0000fefe0001fe01ff00fefefe01
01fefefe010100fffffe00000000fe01feff01fefe010000ff00fffffe00fe00ff0101fefefffeff0001fefe00ff01000001010000fefefe01ff01fffe00fffe
fe00ff01fffe00feffff0001ffff00fe01fefe010101ff010100000101fffe000100fefffefefe0101000100ff01fffeff010101ffff01fe00ffffff0000fefe
010100fefe000000fefefffffefffffe0100fefefe000101fe0001ffff0101010001fffefffe00000101ff01fe0000fe0101fefe000000ff00fefe0001000100
ff01fffe01fffffffefe01ff000000fefffefe000000fffffe00fefe0101fefeff0101fefefffffefefffffe01010001feffff01000000fffefffffffefeff01
010001fffefefffffeff010100feffff01010100feffff01fffffefffe0100010001ff00ff0100000101fffe0100fefe01000001fefffffffffefffffeffffff
fe010000ff0000ffff00fe0100ff0001fefeff0000ff01fe00fefe010100ffff01fffefeff01ff000101ff0001fe01ff0101ff01fefefeff010101ff00fefeff
feffff01fe00fe00ff00feffff01ff0001fe01fefeff010100fe0000000100000100ffff01feffffff0100fefffefffe000001ff0000fe0000fe01000100feff
feff01fe0101fe0101fffefefffe00ff01fe00ff01010001fefffe00ff01ffff00fefffefeffff010001ff0101fefefe0001fe00fe0101fffe00fefe01fe0101
010000ff000001fefefeff0001fe00fe0100feff0001ffff00ffff00010001fefefeff0001fefefffe010101ffff0101fffefefeff0001fffeff0101ff00fffe
fe0001fefffefe00fffeff0001fefe00ff00fefffffefe0100010101ff000000fe010000fffe0000fe01fefffffefe0101fefefffefffefefeffff01010001ff
01fe00feff01ff00010100feff00fffe00ffff0101fefffe01fe01fe01fffeffffff00fffe0001fffefefeffff0001010001ff0000000101ff0001fffeff0001
