00ffff00ff01ff01ff000000fefefefeffff01ffff000001ff0100000101fefe0000fffefefffe0100ffffffffff01ff000001010001ff0101fffe010100fe00
ff010100ff0000ff00010000feffff00fe000001ff01fffe00ff00fe0001010000feff01fe01fefe01fffffffffffffe0000fe0000ff010000fe0001ff010000
010100feff00feff00fefeff000000fefe01fe00010101fffefe01ff000101fefffffefffeff00fffffffe000101010100fffffefefe01ff01fffeffff000000
fffffe0101010001fffe01fe00ffffffffff01fefe0101ffff00fefffeff00ffff01fffe010000010000fe0100ff0001010001ff00ffff0100fe01fe01ff00fe
ff00ffff000001fe0101fe00fe0000fefffffeff00ff0000ff0100fffffeff01fe00fefe01fefefe01000000fffefeff00fe01fefffeff0100feffff01ff01fe
fe00fe0001fe0100fefffe01fffefe01ff00000101010101ff01ffff010001000101fefe01fefeffffff00010101feff0001ff00ff0001010101fefeff01fe00
0001ff0100feff01fefffffe0001000100fe00fefe000000ffff00fe01fffe00feffff0101010001feffff01010001fefffffefffe00fe00010101fefeff01fe
0101fe000000010100000100ff0101fefeff00ff0000fe0100ff01fffefffffe0100fffefffe01fe000000fffefe01ff010100feffff00fefe00feff0000fffe
0100ff0000ff00fe0001fe0101ff01ff000101fffeff01000100fe01ff0001fffefffeffff0100ff00ff01fe010001fe00ff01fe01fffe01ff01000001000100
fffffffeff00fe01fffefffefe00fe0001fe010101ff000001010101feff0001ffff00fe0101ffffffff00fffefefe00fefffe00ff00ff0001fffeff01fefffe
ff01fe01ff0001fe00fefe00fe00fe01ff010000fefefe000100ff00fefe0000000100fffffeff000000ffffffff0101fe0100fffffffefefefe01ff01ff01fe
000001feff00fefe01ffff00fe00fefe00fffe010100fefffffefffefefeffff01fefeff0100ff01fe01010101feff010101ff01fefe0000fefffefffffe00ff
fffffeff00fffffefe00ff0100ff0000fe0101ff0101fe01fefffffe01010000fefefffffffe00010000fe0000feffffff01010101000101fffffe010001fe01
ff0100ff01fffffffe01ff010101ff0100feff01fe00feffffff0101ff01fe00ffff01fffeff00fefe00000101010001ff000001fe010101000000fffffefe00
fe00fffe0101010000feff0100fe00feff0000fe0001fefefe00fffe0001ffff0001ffff00ff0000fe0100fffefe0100ff0101fe01fefe0101ff0000010100ff
0101fffffe0001fffefeff00feff01fe00fefe01fefffe0000fe010000fefffffffffefffffe00010000ff0000fe00feff0101fffe00fffefefffffefeff0000
