00fe0101fe01fffefeffffffffff0001fffefe00ff00fefffeff01fffe0101fe0100fefffffe000100010000fefe01fe01ffff010100000101fffffffe010001
fe00fefffefe01010000000101fe000101fefe000001fe01fefe00fe00ff010001fe00fe01fffe0101ff0101feff00fffeff00ffff000101feff00feff01fe01
0000fffeff01fffefffe0100fffefe010101ff0100ff00fefe00fe0101010001fefffefefe01feff01fe0100fefffe00fffeffffff01fefefefe0101ffff00fe
0000fffe010000fffe01fe010101ff00010101ff0000fe00fffe00fefffffe01fffefe00fe010000fe01fefe01fefefeff00fefe01fe010100fe010101fefeff
00000100fefe00010101ffffffff00fefe0001fe01fffffffeffff0000feffff0000feff0000fefffffe0100ffff00fffefffffefffefe0100feff0101ffff01
fe00fe01fffe00ff01ffff0100ffff00fe0000fffe00ffff00fe000100ffffff01fffffe000101ff01ff01feff00feff0101fffffe01fefeff01ffff0000fffe
00ff00ff0101fffefefefe000101fefe01010101ff0100010000fe00ff00ff00fefeff0100fe01ff00fe00ff01fefe01000100feff01fe000000fffefe0001fe
fefffe0001fe0101fe000000ff00feff000100ff0001ff00fe0100fefe0001fe0000000100000001fe0001fffeff01ffffffff01fe01ff0101fe000000010100
010001fefefeff0101ff0001ff0000fefefe01000101fe010000ffffff01000101feff0101feff0000fe00fefe01ff01fefe01feffff01fffefffffffe00ff00
0000ff00fffefffefefffe00fefe0001fffffe000001fe000000fefe00fe01ff01fe00010101ff0000ff00feff00fffefe00ff000100fefffffe0000fffeffff
00ffff00ff01fffe00fe0100ff0000fe0000fffeff00ff01feffff000101fe00000001feffff01fefe01fe01feff00fe0100fe0100fffefefeffff01fefe00fe
ff0000ffffff00fefefe0000fefe000101ff00ff01fffeff01fe00010000fefffeff00feffffff000001ff0101fffe0001fffe0001fe010000ffff00fffe0100
0100fe000000fffffefefefe00ff010000fefffe00feff0100ff00fe00ff01010001ff0001fe00ff0001ff01000101fe00ff01ff00ffff00ff000101010000ff
fefe01fe01fffefe00ff0100fefffffe00fffeff00ffffffff0001010101ff0101ff01ff0100000101fffe00fefefeff01ff0101feffff000101fefffefe00fe
00fe00fffe0000ff00ffff00ff01ff01010101000101fe0000fefe00010001ffff00ff01fefe0001ff000000ff0101fefefffffffefe00ff0101ff01010100fe
fefe00fefefefe0001feff0100ff00010001ff00fe01fe00fe01fe00fffefe01ff0001fffe01ff01fe0101fffe00fefe010001ff0101feff0101fe01ff01ff00
