0101fffe01ff01010101ff0101fe01fe000100fefe010000ffff01feffff01fffefe0101fe0000feff00ff0000fffe0001ff000001ff00fffefe0000ff0000ff
01fefeffff00ff00ff00ffff010101fefeff0000fe00feff00fffe00fe01fefefe00fefefffe010101fffefefeff00fffe0100ffff00fefe0000ff01ffff0001
fffe01fefeff01010000ff00ff000100feff01fffe01fffffefffeff00fefe00ffff00fe00feff00fe000000fe01fe0001010000fffe00010001fffefe0001ff
01fe0001fefffffe0101fffffffefe01fefefe01fefefe000100ff000101feffff01ff01fffffe010001fefefe000101ff00ffff00000000fffefffffffe00fe
00ff01fe0000000000ff01fe01010001000001fefffffe00fe01ff01ff0100ff0000fe00ff0000fefe0000000001fffefe00fefe010000fe0101ff0100ff0100
ff00fefffefefefe00ff01ffff00fe000101fefffffefffffffefe0100fe0101ff0100fffefe000001ff00ff0000ff0101feff010100fe0101fffe01fe00fe00
01fefe010000fe01fe00fe00ff0100fffeff0100ff00fffffeffff0100fe000000fe0101000000fefefe0100fefefeff00fefefefefeffff0001fefeffff01fe
ff0100fefe0001ffff00fffe010100feff0101fe000100fe0100fe00ff01fefffefffe00fe000000ffffffff010100ff010100010000000000ff01fe0001ffff
fefffffe01fefefefe01ff0101fe0101fefffefe0101fefefffeffffff00fffffefffefe0001010101010000fefe01fffffe00ff0000ff010101000001fe0000
00fffeff01fffffefe0001fffeff000100fefefefe0100fefefffe0101fefefe0100fffffffefffefe000101fefe00fe00fe00feffff01ff0000ff01010100ff
ff01fffeff01010101fefeffffff01fefefffffffe00000001feff000100ffff0101fe01ff010000fefe01ffffff01fe0000000101ff01010100ff00ff000101
010000fefefffffffe01feff000000fe010101fefefffffeff0000ff0000ff000100ff01fe01fe00ff00fe00ff0101ffffff0001ff00ffff00ff0001fffeffff
010100fe0001000101000001fefefefeff01ffff01ff01fe0000ff00000000fffefe0100fe00fefe01feff010100fefffe01ff01fefefefeff000101fe00fefe
01000101feff00ff01fe0000fefefe00fe01fffe01ff0101ff00fe010000fe0000fefefe00fffefe0101000100feff010100fffefffeff00fffeff0001000000
00fe0001fe0001fffe0100ffff01fe0000fe010101ff00ff010100ff000100fe00fffffefe00000001feffffff00000101ff01fffe00fffeff0001010001fffe
000001fffe01010100ff01ff00fefe000000fefe01ff0001fffefefe01ff0100ffffff0101fe0001fe01feff01ff00010001ff01feffffff000001feff00ff00
00000000000000000000000000000000000000000000000000000000000000000000000000000000000000000000000000000000000000000000000000000000
00000000000000000000000000000000000000000000000000000000000000000000000000000000000000000000000000000000000000000000000000000000
00000000000000000000000000000000000000000000000000000000000000000000000000000000000000000000000000000000000000000000000000000000
00000000000000000000000000000000000000000000000000000000000000000000000000000000000000000000000000000000000000000000000000000000
00000000000000000000000000000000000000000000000000000000000000000000000000000000000000000000000000000000000000000000000000000000
00000000000000000000000000000000000000000000000000000000000000000000000000000000000000000000000000000000000000000000000000000000
00000000000000000000000000000000000000000000000000000000000000000000000000000000000000000000000000000000000000000000000000000000
00000000000000000000000000000000000000000000000000000000000000000000000000000000000000000000000000000000000000000000000000000000
