ff00ff01ff0100fe0000fefefeff01ff000000010000fffefefe0101000000010000fffe000001ff000101ff0001fffefe010101ff010100fffefe01010100ff
00fefe00fe000100ff01ff01fefeff010000fffffe0001fefefefffffffe010000ff00ff00ff000000fffefe00010100feff0101ff01fefeff0001fefefeff01
ff0001ffff0000fe01ff010100fefffefffefffeff000101010100ff0001010001fe0001ff0001fefe00feff000001fffffefefffeff0001ff00fffe01fe01ff
fefefffe0100ff0001000001fffe0001ffff00fefe000100ffffff00fffffe01fefefefffffefe01fefefefe0100fffe01fe0100fffffe0100ff000101ff0000
fffe000001fe00feff00ff00fffeff00fe010100feff00fefe01fe01fffe01fffefeff00feffff0001ff0101fffefe0100000000feff0001ff01feff0100fffe
00ff0100ff0000fffffffe01ff01fefe0001fe01fffe01feff00ff0101ff0100ff01fe01fe01ff0101fffeffff000001fe010001fe00fe0001fefe0100ff01fe
00fffffefffffffefefefeffff01feff0101ff01fefefefffffefe010001010101fe010101010001fe010000ff00fffe00ff01fe0100fe010101ff01feff00fe
0000fefffefefeff01010100fefefefefe01feff01ff0000fe00fefefefffefe01feffff00ff0001ff0000fe01ff0001feff01fe00fffefe01010101ff01ff01
0000ff010101fe010001ff00ff0101ff0101ff0001fffe01fefe000101fefe000100ff0101000101fefe0001ffffff0001ff00fe00feffff0101fffeffff0001
fefe01010101010000fffe01000001ff00fefe000101ffff01000100feff01fe01ff01ffff0100ff0001fe01fe00feff01fe0001ffff01000101ff0000fefe01
01ff00010000fe01fefe0000fe0001feff01fe0100010000fffffe010100fefe0001feff0000ffff0001ff00000001fffffffefefffe01fe01fe01fe00000000
fffefffeff000100feff0001ff01fe01000001fffe000000000000ff0100fe0001ffff00feff0001fefefffefe00ffff0001000000fffe0000ff0000ff0100ff
01fffffffe01fe01fe0100fe0101ff010001ff01010000fffe00ff000101fffffffe0101010001fe000100fe01fe01010100ff0100ff0101feff0101010001fe
ff010101fe01ff0100ffff00fffe0101ff0100fefeff000000fe01ff0100fffffffffe00ff00fffefe0000ff01ffffff01ff01ffff00010101010001fefe0001
fffffefefe00fffefe0001010101000100fe000100fe0100fe0100010101fefefeffffff00010000ff0001fefffe0000ff00fefe01ff000001fe00fe0100fe01
01fffeff00ff01fffefe0100000001feff00feff01fefe01010000ff00ff010000fefefe010000feff01ff00fffe00ff00fe01fefe01feff000101ffffff0000
