ff0001fefefe01ffffffff0001fffffeffffff00000001000000fe0001fefffefe00fe0000feff010100ff000100fe01ff0001010000fffe0000ff00fefe01fe
010001feff00fffe0001ff0101ff01ffff0100ff01fffe0100ff00ffffff00010001fe0101fe00feff010100fffeff0001fffeffff01fefffe0100fe0000ffff
fefefefefefe01fffe0101fe000001feff010100ffff0000feff0100ff0001fefeff01fe0101fefe010100ff01fefe01fefefe00fefefffffffe00fe0101ff00
01fe010000ffffff000000fe0001fffffffefeff01fe01ff00feff01feff0100ff01fffe00fe0000fefffefe01fefe00ff01fffffe010100fffefe00fe010000
00fefffe0000ff0100feff000101feff00010101fe0000ffff00fffe010001fe01fefffefeff01feff000000fefe01ff01ff000101fefeff0100fefefefefffe
fe0101feff0000fe01010000fefefefefe000001fefffe01fe00fe01ff0001fe0100ffff01ff0100ff00fe0000fe0101ffff01feff01000100fffeff00fe0000
01fffefefeff0001fffeff000101ff00ffff01fe0101fffefefe00fefeff01ffff0100feff01000100fefe01fe0001ff01feff01fe0100000100fe00fffe00ff
fffe00000001fefeff01010001fefefeffffff01ff0001000001fffe01fefffefeff0001ff010000fffefffffe00fefffe0100fe00ff01fe00fffefefefefefe
fe000000fefefe0100fefe00fefe01fefffe010101ff01000100fe01fefefefefefefefefffffffffe000100ff0001fe0100ff000101010000feff0101ff01fe
ffff00ffff000000010001ff01ff000000ff00ff00fe0101fe01ffff01fffe00fffe010100ff0000fe010100ff00feff010000fffe01000101fe000101fe0001
0101000000010101fefe010000fffe00fe00fffffe0000010000fefe01fefffffefe01fffefe00ff00fffe010101feff00fefe0100fffe01010000fffeff0101
01ff000001fffefe01fffe0001fffe01fe00ffff0001ff01010001000100fe0000fffefe01fffefefefe010101fe010000fe00fe00ff00fefffe0000000100fe
0000fffffffefe0000ff0101ffff01fe0101fefefe00ff00feff0000fefeffff010101fefffefffefefe00000000fffe00ff010000fffe01feff00ff01000000
feff01ff00ff0001feffff01ff00010101fffffffffe010101fe0101fefffffffe0001feff0000fefefefefffeff01ffff00fe010001feff00ff0000fefeffff
01ff01fffefe00fffe0100feff01fefeff00fe01fffefe0000fefffefe0000ff01fefe0101feff01ffffffffff01000100fe01fefefe01fffefe0100000001ff
fefe0000ff010001ffff0001ff01fe01000001010000fffe01000000fe0001fefefe00feff010101fffeff0000feff010101ff00fe0001ffff0100ffff00ff00
0101fe01ffff010001ff0000010101feffff00010001ff00fe01fefffeff0101ff0000fe0100ff000001feff01fe0000ffff00ffff00fe01fffefe010001fffe
fe00fefefe01ff010001fe00000101fe00ff010000ff01ff01ff0000fffe01ff00fefe000101ff01fefefe010101fefffffeffff000001000100ff00ff0100fe
010101ffff0101000101010100010100000100fefffffe0000fe01fe01fffffeff00010001fe01fefe0101fe00000000fe00ff00fe010101fffe000101ff0101
00fe0100fe0101fefe010100fffefefffffe01ff01ff010101ff0000fe00fefe00ffff00ff00fe000101010100fe01fe01ff01fe01fefffffefefe0001fe0001
00feff00fe0000fefffefeff000101fffe0100fe0000fe00fefe00fe00fe0000fffffe0101ff01000001fefe00010000fe00ff00fefefffefeff01ff00fe01ff
00000001feff01000100ff01fe000001fefefe00ff01fe01fe00fffefefe010000fe01fe01fffe000101fefe00000000fefe00fe00ffff01fe00fe01fefe0000
0000fefe01fefe00fefffffeffff01ff01ff01ff000100fffe01ffff00feff0001ffff01010100010001010001fffffffe00fffffffe000101ff010000fe0100
01ff010001000100ffff0000010100ffff01feff0101feff00fffffefffe01fe00010100ffff00fe01ff00fefeff0100010101fefefeff010001fefffffefefe
