fe000000fefe0000fe00fefe0001000100ff0000fffefefffffefffefffffefefe000101fe0100fe00ff0101fe010100ff00ff0101fffe0001fe0101fefe0001
0000fe0100feffffffffff00ff01fe01fe00ff00fe01fe010101feffff01ff010101fffefe00fe0000000001fe0101ff0000fffffe01ff00ff00fffffefffefe
01fe0100000101feff0101ff01ff01010000feffff010000ff010101feffff000001010000fe0000fffe0101ff01ff010100ff01ff01ff00fefffe00ff0000ff
01feff010001ff0001010000ff00fe01fe010100fefefe01ff010001ffff0101fefe0101fe01fffffe01fefffffe0000010000fefefefefffe0001ffffff00ff
0100fffffefffefe00fe01fefffffefefefe00fefe01000000fffefe01fe00ff010101ff00fffefffefffe0000000000feff0101000001ff01ffff00fe0001ff
01fefefefe000001010101fffeff01fffe0001000100ffff00fefefffeff00fe00ff0101feff000101feff01fe01fefffeffff01fefeffff0001fe00ff00ff00
00fe0000fffe01fe00fe0001ffff00ff01feff0101fe0101010001ffff000101fe01fe01fe00fe01feffffff00000100010000fefe00ffffff000101fe000001
00000000010000fe00ffffff01ffff01fefefefe0001feff0101feff00fe01fffefefe01ffff0001010000feff0001000001000101fefeff00fe00fe0101fe00
00000000000000000000000000000000000000000000000000000000000000000000000000000000000000000000000000000000000000000000000000000000
fffffeff0101ff01fe01fe01ffff0100010000ff0001fffeffff0001ff00feff00fe01ff0100ff00ff010101fffefefffffefefefefe00fe01fffe00010101ff
00fefe00fe0101ff01ff01feff00fffeff01ff01fe00ff01fffe0001fffe0001010001fffeff00ff01fe01fe000100fe000000fefefffffe0101fe00ff00ff00
000001ff00fffffe00feff01fe01fefe01fe00fe00fe01ff01fefefe0000ffff01fe0100feff0001000001ff00ff00fefe01fefffe0000fffe0001feffff0000
0101fe0000fe000101fe00010101000101fefe010000fe00fe01fefffe00fefeff00fe00fffefe01ff0001fffefefe00fe0100fe01fe01000101010100fe0100
000101ff0100fffeff0000fefefe010100ffff00ffff00ff00fe0101fefe0100fe00ff0000ff00ff01fe01fffffe0100ff000001ff01fe000001ff0000000100
fe00fefefffffffffe01ff01fffe0101010101ff0100feff01ff000001fefefffe00fe0001ff00fe000100fe01ffff00fe0100fe0100ff0000fefe000100ff01
01feffffff00fe01ff0001fe0101fe01ff0100010101ffffffff00fefffeff01fffe01010100fe00fe0001fefe00fe00ff0101010101fe010100fe01fffeff01
fefefeff00feff00fe01000001ff0001fe01feffff010001feff0000fe00fffe01fe0000fe01fe01000001010101feffff00fe01fefe01ffffffff01fffe0001
00000000000000000000000000000000000000000000000000000000000000000000000000000000000000000000000000000000000000000000000000000000
00000000000000000000000000000000000000000000000000000000000000000000000000000000000000000000000000000000000000000000000000000000
00000000000000000000000000000000000000000000000000000000000000000000000000000000000000000000000000000000000000000000000000000000
00000000000000000000000000000000000000000000000000000000000000000000000000000000000000000000000000000000000000000000000000000000
00000000000000000000000000000000000000000000000000000000000000000000000000000000000000000000000000000000000000000000000000000000
00000000000000000000000000000000000000000000000000000000000000000000000000000000000000000000000000000000000000000000000000000000
00000000000000000000000000000000000000000000000000000000000000000000000000000000000000000000000000000000000000000000000000000000
00000000000000000000000000000000000000000000000000000000000000000000000000000000000000000000000000000000000000000000000000000000
00000000000000000000000000000000000000000000000000000000000000000000000000000000000000000000000000000000000000000000000000000000
00000000000000000000000000000000000000000000000000000000000000000000000000000000000000000000000000000000000000000000000000000000
