fefe01010001fffefe01fefeff01fefeffff00fffe00fffffffe00000001ff00fffefffe0100ff0101fe01010001fffefffe00ff00fefeff01fffeff0001feff
0001fefefffefffefffe01fe010101010101ffff00fe000101fffe01000100ff0000ffff01feffff00010101fe0100fefe01fffe00fffeff01ffff0001ff0001
ff01fefeffff01ff01010001000000fffe00feffff01000001ff00ffff01feff01ff0100fffe00fe01fe010101ff0000010001fe0100ffff0001fe0000fffffe
0100fefe0000fe0100fe00feffff0100fffe00fe0100ff000000feff01010101feffff00fe01ffff0000ff000100fefeffff00fffe010001ff0100010100fffe
fe01010101ffff0101fe00fe000001010100fe01000101000000fe0100ffffff0101fffe00ffff0000feffffffffff00ff00fffffffefffe00fe01ff01fe0101
00000000ff0100fefefe0100010000feff000001fe010000fe0100ffff0100fe01010000fe00fefe0100fefeff00fefffffeffff0000fffefefe0100ffff00ff
00fefefe01feff010100fe00000100feffffff000000ff01fefe01ff0101fffe0001fffeffff01ffff010001ff01fefe00010101fffe01ff0100010101ff0000
010101ff010101ff00fefefe01fe01fefeff01ff0100fe00ffffff00000000ff01fe00feff000100ffff00ffff01ffff00000101ffff01fefe0101ff01fe0101
00000000000000000000000000000000000000000000000000000000000000000000000000000000000000000000000000000000000000000000000000000000
00ff0001fe00fe010100fe010101fe0000ff00fefe01feff01ffff010100010100fe0000fe0100010001ff000001010101000001fefefe010000fe01feff0100
ffff00fe01ff010101ff00010101fefffe0101ff01feffff00ff00000100fefe01fe00ff0000ff00fefeff00fffefffe00ff000101fe0001fefffefefffefe01
ff00fefe01fe010000ff01fe00010001fe00fe0100fe00ff01ff010100fe010000feff0000fffffffffffe0000000100ff01fe0100fe010100ff01fffefe01fe
00000101fffffe00ff010100fffe0100fe000000ff0000ff00fffeff00000001fefe000000ffff00fe00ffff01fe01ff00fffe000100ff01010001ff00000000
00fefe01ffff01feff000101fffefffe01fe00ff0101ff00010101fffe010100feff00010100fefe01fffefe0001ff00fefefe0101ff00ff01fefeffff01ffff
00fe01ff00fffe0101fffe00ffff00fe00fe01feff0101fefefeff0001000100ffffffff01feff01ffff01ff0000fffe010100ffff01ff01010100010000ffff
fe000100fefe00fefefe01fffeffff000001ff01fefefefefe0001ff000000fffffffefe01ffff0000ff00fffefe00fffefe00fefffefffffeff00000001fffe
fffefefe01ff00fffffffeff010001feff0101fe010101fffefe0000ffff010101fefeff0100fe0001ffffffff01fffefefe01fefe01fe0101fefffe01ffff01
00000000000000000000000000000000000000000000000000000000000000000000000000000000000000000000000000000000000000000000000000000000
00fffeff00ff01010000ff00fefefe0001fffefffefe0100fffefe01ffff0001ffff000001ff0100fe000101ff01ff01fffeffffff010001010100feff00feff
fffefe0001fe00fffe0101feff0101010101010100ff00010000ff00fffffefe00ff0001fefffeff0101fffeff00ff0101010001fe0101fe0001ff010000feff
fffffffe0001fffffeff01fffe0101fefefffe0101fe00ff00000000feffff010001fe0001fefefe00000100000100fe00fffe01ff01ff000000fffe01fffe01
0000fe000101ffff0000000000fffffffffe010100fffefefefe010000fe010101ff00010100ff010001010100010101ff010001fffefefffeff00fe0000fe00
feff010001fe0101ffff0100fffefe01ff01ff00ffff01ff0100000000010000000001fe00feff010100ff0001fffe000000ffff0001ff0001ff010100010000
fe01ff00fefefe000100feff0101fe01010001feff000101fefffe0101feff0000010100fefefefefefeffffff000000fe00fe00fe0101000001ff0001fe0000
fffefffe01ff000001ff00ff01000101fefe00fffe00fefffe01ff0000ffff01ffff010100ff01ffff01ff01fffe01fe0001fffe01fe00fefefffffffffefe00
0101fe0101000101fefe00000100fffe01000000feff0101ff0100000001fffefe00fffeff010000fffe00fe01ff00fefffe01ff0100fefefefefe010101feff
00000000000000000000000000000000000000000000000000000000000000000000000000000000000000000000000000000000000000000000000000000000
