00ff00feff0101fefeff01fe01fffeff010001ff0001010000000000feffffff01fe0000ff00ff0101fffefeff00ff000000fe0001000000feff010100ff0000
01fefeff00feff000100feffffff01ff0001feff01fffeff0101fe00fefe00fe00ff000001ff00fefeff010100ff01fffeff01ff010100000001feffff010001
fefefffe010101ffff00ff00fffe00010100fe0101fefe00010100fefefeff00fefffe0000feff00ff01fffffefffe0000ff0000fefefefffefefe0001fe0000
010000ff0100feff00ff010101000101ff00ff0000feffff01ffff00fefe00000100fefffefefeff01fffe00fe01fefe00feff0100fefe01000000ffff01fe01
