00fefe00fffe00fefeff0100ff00feff01fe0001feff01feff01fffefeff0101010001000000ffffffff0101feff000001fefe0100010100fffffe0100ff0100
01fffffeff000000fffefe01fffffeff01fe000000fe01fe00ff0001ff01fe00000001010100ffffff000100fffe00ff0001feffff010100fefefeffff010100
fefeff01ff0000feffff00fefe01fe01ffffff00ff0001fefe0000010000fe00fe01fefe000100fefefe00fe010000fe0001010000000000fe00fffe00ffff00
ff00ffff01ff010100fe010000ffff0101ff00fefefe0000ff00fe01000000fe01fe0100fe01fe00ffff0000ff00fffeffffff00fefe01fe0001fffffe000001
fe010101ff00fe00fefefe0000feff0001ffff01ff0000010100010000fffefe000001feff000000fe01fe0101fe010001fffefeffff01fe0001fefefe00ffff
00ff010100fffe01fefefe00ff0101fe00ff00000000ff0100fe00000000fefffe01ffffff01fe00fe01fe0100fe0001fe01fe00fefefe0001010101fefe00fe
fe0000000101fe01010101fe01feff0100feff0001fefe01fffe00fefeff01000000feff00fffe000001fe00fffffefefe01fe01ff010101fffffefefffe00fe
0100000100ff00ff01fefffefe0100ff000000ff01ff01fe00feffff01fffffe00fefe00fefe01fe01ff00feff01000101fefffe00fefffefe00fe0001ffffff
00000000000000000000000000000000000000000000000000000000000000000000000000000000000000000000000000000000000000000000000000000000
0100ff00ffff0001ff0101fefefe00fe0101fffe00fefffe01fefe01fffe01fffefefefefefffe00010000fe0101fe01fefe00ffff0100fe01000100ff01fefe
0000fe0101ffff0101fe00fefffffefffefefffeff000101ff01feffffff00000101ffff00fefeffffff0000ff00ff0100fefefe01010000fefe00feff0001ff
000100feff01fe0100fefe0100feff00feff0000fefe00fffeff0001ff0000fefefe000001fefffffefefffe00ff01fffefeff01ffff010000ff00fefeff0101
feff01ff00fffffe01fffefeffff01fefffffe00ff00010000fffffffefffffeff00fe0101ff0000fefeffff0101ff00fefe00fe01fe000000fe0100fefefffe
0000fffe00000000fefefe00feff0000fffffffeff0100feff0101ff01fe01fe0100fffe00ff000100ffff0100ff010100fe0001ff0001ff00ff01ff01000100
ff000101000101feff01ff01fe0000000100fefe01fe01fefefefe000001ffff00fe00fefe0001fffeffff0100fffe00fffe01feff00fffe00ff010101ff01fe
000100fffefffe01feff00fe000000fe000001fe0001fffeff00fefefefffefffe00ff0001feff010100fe00fffffefe0000fffefefeff01fefeff01ff01feff
01000001feffffff00fffe000000fffeff01fffeffffff00fffe01fe0000feff01ffff01fefffe01ffff00ff00fffe00ff01ff000001fefeff0001fefe01fffe
00000000000000000000000000000000000000000000000000000000000000000000000000000000000000000000000000000000000000000000000000000000
ffffff01feff0100feff01fefe01fefffefefe00ff00ff010100fefffe0000fefe01fe00fe01fefe01010101ff00000101fe00feff01010100fefe0100ff0000
0100ff00ff00ff010100ff010001ffffff0101ff00010000ff0100fe01ff00000100010101ff010101fe01000100ff01010100fe01fffe01feff0101fefffe00
fe00fffe01fe00ff0000ff00fefe0100ff01ff00010100feff01fe00000100fffefefefffffe00010000fe00fffe00fefefe0100fffe0000fe0101ff00ff00ff
0101010100fffeff00ff000001010001ff0000ffff00feff010001010000fe01fefefe00ffffff00feff00fe0100ffffff0100ff0000000001ff00010001fe01
000101fefe01ff0001fe01010101010100fffeffffff01feff00ff01fe00feff01ff01fffffe00000000feff000100ff0101ff00fefe00fffe010101fffe01fe
feff00fe01fe000100fefe00fefeff00ff00000000fefefefe010101fefeff01fe0100fe0000010100fe00ffff00feffff0100ffff0101fe010000fe00fefeff
ffff00ff0001fe0101ff00ff00fefefffefefe01ffffffff0000feffffffff01ff00010100000001ff01fefffe01fffe01fefeff01ff00ff000001ffffffff01
0001fefefe0001fe010100fe01fe0001fe010000fffeffffff0001000001feff00010100fe0000fefffffe01010100fe00ff0001fffefffefffe0000fe01fefe
00000000000000000000000000000000000000000000000000000000000000000000000000000000000000000000000000000000000000000000000000000000
