01feff0000fe0101fe0101ff0001ff00ff00fffe0001feffffff010100fefffefe00fffe01ff00fe00ff0100fe010000ff01000000ffff00ff01fffeff010000
feff0100feff00ff0000ff01fe000100ff00010000ff00feff0101ff000101fffe01000001ff01ff01ff010001fefffffefffe0100ff000100ff00feff0001ff
ff00ff010101fe0001fe00fe00010001010100fffeffff01ffff010000fe0001fffefffeff0001010001fefefeff010000ff010101ff00ff00fefefe0101fe00
fefefe00fe00010101ffff01fe00ff01ffffff00fe0100fe000101ff01fe00fe0000fefefe01fffe01fffefffefe00ff000100fefefeffff0001fffefeff00fe
fefe01ff00ffff0100ffff00fffeff00ff01ffff0100010100fffe00ffff01fe00010100ff00fefe01fe00fe0101ff00ff010100010100fffe01fefefe01fe01
fffe0101fefe0001fffffefffefefe0101ffffff0001ff0000ff000100fe010001fe00fe01fefe00fe000001fefffefefefeff0000fe0001ff00ff00010100ff
000000fffe0001ffffffffff00fffffe01fffe000100ff0100fffffffe01feff0000ff00ff00fffefeff00fffeff0100000001fe01feff0100ff0101fe00fe00
0001feff0100feff0000ff0101ff01fefefefefe01feff00fe0101fe00fe010001ffff010101ffff01ff00fefffffffefefffffe0001fe01fe00fefe01fffffe
00000000000000000000000000000000000000000000000000000000000000000000000000000000000000000000000000000000000000000000000000000000
ffff0100fe01ff00fffeff00fffefe010100ff0101fe0000ff00ffffff010001fe0001fe0100fe0000fefefeff010101fffe00fe00ff00010001fefefefffe01
00000000fffeffffffff000101010001010001ff0101fffe010001fefe00fefe01010101fefe01fe000100010100fefeffff000001fffefffe000100fefe0100
feff000000ff010100fefe0100fffe01ff01ff0001fffe00fe00fffefefefeff00fe0100fefffe00feff0101000101fe01010100fe0101fefeff00fffefefe01
0001ff0001fffeffffff0000ff00fefffffe00fe000000fffefffffefe01ff0001000101000000010101fefeff000100fffe00ffffffff0001fe0001fe01ff00
fefefefffe0001fffffe0100fe00fe0000ff00010001010101000101010000ff000101fffe0000fffefe01fefefffefe0101feffff0101fe00fffe00fefe00ff
ffff01ffffff00ffff00fe00010101fe0101010001ff01ff01010001fefffffffefffefffe0100fe00fefe010100ff01fefefe01010000feffff00000000ff01
0100ffff01fefffffe0101fffefffe00ffff0000fefefe01fe000101ff010000ff01fefefefe01ff00feffff01feffff00feff0101fffefffffffefe00feff01
feffff00ffff010101fe0100ffff0000ff0000fffefe000000fe000100ff01fffe010100fffffeffffff01fefefe0101fe00ff01feffff0000ff0000fe000000
00000000000000000000000000000000000000000000000000000000000000000000000000000000000000000000000000000000000000000000000000000000
ff010000fe0101fe01fefefeff00ffff01ff01fefe010000fffefffefefeff0001fefefeff0101fffffefeff00fe00ff0100fefe010100fe0001000000fe0101
fefffefe01ff00000101fefffffe01ff010100ffff01fffeff0100ff00ff00fefe00ff00ff0001ff0101fe00fefe01fffe00ffff0101fefffefffe00feff00fe
ff0000ffff0100fffeff0101feff01ffff01ff00fffefe01010101ffffff0001fffffefffe0000ff01fffe0101010001fe00fe01fefefe000101fefffeff0001
00ff00ff010100fffe01fefefeff00fefffefffe01ff0101fffffeff0101feff0000fe01ff00feff01fefe01ff0001ffff0100000101feff01ff00fffffe01ff
fffffe010000010001fffe00fffffeff00ff01ff00ff00ff00fe01fe0001ff000100feff01fffefffefe01fe0000fffe01ff0000fffefefffe01fe00010101ff
fffe00fe0100fe00fffffe01000100ff0001ff01fe01fe0101010000fffe01ff01fefe00010000fffe0101ff0100fefe01fe00fffe00fe00000001feff0100ff
0000fefffe0000fe00fffefffefeffffff00ffffff0100fffefe01fefe01ffff0100fffe01fe000101ff0100fefe010001ff0001ff0100feff0101010100fe00
fe010001feff000100fe0001ff01ff00ffff0100fefefffe01010001000001fe01fffe00fffe0001ff0101ff000001ff01fe0101fffffe00ffff0000010000ff
00000000000000000000000000000000000000000000000000000000000000000000000000000000000000000000000000000000000000000000000000000000
