01ff01010001ffff01fe0000ffff0000ff00ffff0101010100010101fe010100fefe00ffff000001000101ff0101ff0001ff000000fe00000101ff01fefe0000
fe000001fefefeff0101fffffe000101fe0001ff01fe00fe010000fefe00ff010001fefe01fe0101fffe00ffff00fefefefe000100fe0100fefeff00fffe00ff
00fffe010100fefefffe0100fe0101fefeffff0100ff0000fffe00ffff0001fe010100ffff0001010000010100fe010000feff00fefeff0001010101fffe01fe
fefffeff000101fefe0101010001010000ff01ff0101feffffffff01fe01ff01feff0000fefe00fe01fe01ff00ffffff0101fe010101fe01ff0000fe01ff01fe
feff0101000101ff0100fefe00fffe01fefefefffe00fe00ff00fe00fefe00ff010001fe01fe00fefe0101fe0000ff0000fefefe0100feff01fefe000001ff01
feff00fe0101fefe01ff0101fe00fefefe010100fefefeff00fefefe00fe00fffe01fefe00ff000000ff000100fe01fefe0100fe00ff00000001010001fffeff
00ff01fe01ffffffffff00ff010000fffeff0001fffe00ff0000fffefffffe01fffefefffe01ff01ff01ff00010101ff00fefe01fffefe010101fefefefe0001
fefeff01ff00ff0001000001ff0001feff00000100ffffff00fffffeffff01fefe01fffe01ff0000fefffefefe01fe00feff00010000fe000101fe0001ff01ff
00000000000000000000000000000000000000000000000000000000000000000000000000000000000000000000000000000000000000000000000000000000
0001fffefefefe0000fffeff00ff0001fefeffff000101fffe010000ff0000fe01fffffffe0101fffefefe0100feff00fefffffffe0100fffe010000fffe0100
ff000100ff01ff01fe0000feffff01fe010101fe00fffefe01fe0000fe000001ff01fe00fe000100fffefffefeff00feffff0101fefe010100fe00010101fefe
000100fffefefefefe00ff00fefffeff01ff00ff01fefe0101ffff01ff00fffffeff00fe0000000100010100fefefe000001fe00fefefffefefffeff0100ffff
0100ff0000fefffefefefe00ff00ff0101ff00fefeff0100fe00fe00fe000100fffe0000feff0000fffe01ff0100ff0100fefefefefffefffeffff01feffff00
000101ff0001fe0000fe0100ff01ff01fe010000000001ff0101fe000100000001fe00fffefffe0101fe010000fefe0001feff01010101fefe00fefe01fe01fe
01fffffefefefe0100ff00ffff00010100fefe01fffe00fe01000000fffe00fefefefeff0100ff0000fefefeff0101feff01feff0100fe01fffe00feffff01ff
fe00ff00010101ff00ff01000000feff01ffffff0000ffffff0100fe0000fffeff00000000ff01fefffe0001fefe01ff01fefeff0000ff010100ffff0001fe01
fffffe010001fe0101ff0000fefefffffe00010100feff00fefe01fffefefefffe00010101010001ff00ff01ffff010100fffffffffeff00000100fefffe00fe
00000000000000000000000000000000000000000000000000000000000000000000000000000000000000000000000000000000000000000000000000000000
00000000000000000000000000000000000000000000000000000000000000000000000000000000000000000000000000000000000000000000000000000000
00000000000000000000000000000000000000000000000000000000000000000000000000000000000000000000000000000000000000000000000000000000
00000000000000000000000000000000000000000000000000000000000000000000000000000000000000000000000000000000000000000000000000000000
00000000000000000000000000000000000000000000000000000000000000000000000000000000000000000000000000000000000000000000000000000000
00000000000000000000000000000000000000000000000000000000000000000000000000000000000000000000000000000000000000000000000000000000
00000000000000000000000000000000000000000000000000000000000000000000000000000000000000000000000000000000000000000000000000000000
00000000000000000000000000000000000000000000000000000000000000000000000000000000000000000000000000000000000000000000000000000000
00000000000000000000000000000000000000000000000000000000000000000000000000000000000000000000000000000000000000000000000000000000
00000000000000000000000000000000000000000000000000000000000000000000000000000000000000000000000000000000000000000000000000000000
