01000000fe0101feff01ff00fe0001fefe0001fefeff0001ff010100fffe01fffeff00010001ff000101fefefeff0101ffff0101ff00fe00fffe00fffefffeff
ffff010000010100fffffe00010100fefffffefe010001ff00feff0001fefefe01fe00ff0100000000ff010000ff01fffeff01fffeff00fefeff010101fe0101
0100000001feff000001ff01ff00fffefffeff01ff00fefeff0101fe0001fffefeff000100ff01fefeffff0101fffffe00fffe00fe00fefeff0101fffffe0101
fe0101fffeffff0001fe0101fe00feffff00ffff01ff000101fe0100000101fefefffe00fe01fe00feffff01fefefefefffffe01feffff01fffffe00ff0100fe
