0000fffefffe01010100ff01000101fffefffe00fe0000ff00fe01fffffe01ff010100fefefe010000fefffefe000000fe00000001fe00fffe0101ff01ff0001
fffffefeff0100ff01ff010100fefe00fe01fffe01000101000000fe01fe00fffeff000101ff00ff00010000ffff0100ff0100000001fe0100fefe00fffe01fe
010000fe010100ff0001fefe01ff0001fe010100fefe00fefe00fe01000001fffe00000000000101fffffe00ff00fe01fe010000ff01ff01ff010100ff00feff
fffe01ffff01fefe01000000fffffeffff00fe010101fe00fffffffffffffe00ff01feff0100feff01fe0100ffff01fe00ff010000fffefe00fffe0101ff00ff
0000fefefeff00fe00ff010001ff00ffffff0101ff00fe0001ff01fefefefefe0100fefffe00fefeff00fffefe01fe0101fe0000fefefefffe0001fe000100fe
010000010100ff0101fffe0000fefffe00feffff00ff01fefffe000001feffff0100ff01fe01fe01fefffffefe01feff00feff01ff00ff00fe01010000fefffe
feffff01fe01fefe00fe00ff01fe00ff0000fefeff0100ff00fe00fffe00ff00ff01ff0101000101ffffff0000feffff00ff00fefffe01fe01ff0101fe00fe00
feff00feff000001fe0101fe01ff0100fe000001000001fffefefefffe01feff01fefffe00010101ff010001000001ff0101fe0100ff01fefffe0100ffff01fe
00000000000000000000000000000000000000000000000000000000000000000000000000000000000000000000000000000000000000000000000000000000
0101ff0000ff01ff01fffeffff00feff01fefe00fefffffffe00010001fe01fe01fe0000000000fffe01fffe01fe0100ff000100ff000001fefefe01ff0001ff
feff00fe01fe01010001fe00ff00feff01feff01000101fe010101fe0101fefe01fffffefefe01ffff00fefefe0101ffffff00fffeff01ff00fe01ff00ffff01
fe0101fffefe01fffe0000fefefeff0000fe000001fffe00ff01fffeff00010101ff0000ffff00010001000001fffefefe01fefffeff01fefe01fffefefe00ff
010100fefe0101fe00000100fffffffefeff00fffffffe01010101feff0101fefe01fe000001ff01fefe01ff01fffe0000ffffff000000fffe00fffefffefeff
fe01ffff000000fe0100fe01fffffffe00010101010001000000fefffe01fffe00fefefffe01ff00fe00ff0101000000fe000101ff01ff0000fe00fefefeffff
ffffff0000ff00fe0100010100fefeff000000fe0001ff0100fe0000fe000000fe00fefffefefe01fefffe01ff01010000ff01fe00000100fffffe01fe000000
ff00fe00feff0101ffff00feff00fffe01fe0100ff0001feff00fffe01fffe0100fe01ffff0100fe000001fffe00fe01010001000000feff000100fe00ff01fe
feff000000fefe000101fffe01fffe00000100fefffffe0100ff01fe0100fe0000ff0000ff0100ff00ffff00000100ff00ffff01fe010101010000fe00fe0000
00000000000000000000000000000000000000000000000000000000000000000000000000000000000000000000000000000000000000000000000000000000
00000000000000000000000000000000000000000000000000000000000000000000000000000000000000000000000000000000000000000000000000000000
00000000000000000000000000000000000000000000000000000000000000000000000000000000000000000000000000000000000000000000000000000000
00000000000000000000000000000000000000000000000000000000000000000000000000000000000000000000000000000000000000000000000000000000
00000000000000000000000000000000000000000000000000000000000000000000000000000000000000000000000000000000000000000000000000000000
00000000000000000000000000000000000000000000000000000000000000000000000000000000000000000000000000000000000000000000000000000000
00000000000000000000000000000000000000000000000000000000000000000000000000000000000000000000000000000000000000000000000000000000
00000000000000000000000000000000000000000000000000000000000000000000000000000000000000000000000000000000000000000000000000000000
00000000000000000000000000000000000000000000000000000000000000000000000000000000000000000000000000000000000000000000000000000000
00000000000000000000000000000000000000000000000000000000000000000000000000000000000000000000000000000000000000000000000000000000
