fefefefefefeffff00ff01fefeff00fefefffffefefefe00010000fefefeff0001ff00fefe0001fe01000000fffe000001ffff0001fe00fffefeff0100ff0100
000000fefe00fe0100fffefe00feff010101fefefefeff00feff000101000100fefe01fefeff0000ff00fffffe00feff01fe01ffffff00fe010000fe01ff01ff
fe000100fe010000ff00feff01000001fefeff00fe0101feff0101fefefefe010000ff010100fe00fefffeffff0000ff00000000fe000001fffffffe00ffff01
fe01000100000000fe01010101fefe0100fe01feffff010000fffeffff0001010101ff00ff000001010000ff0001feffffff00ff00fefffefffffeff00ff0100
fefe0001fe01fe01fefeff01fefffe010001ffff00010100fffefe0100000001fffefe01fefefe01ff000100fefffe00000000fefffeff01ff01000000ff01ff
fffeff01fe01000101ffff00fefefe00fe00ff0101fe01fe01fefefffefe00fe0100fe00ff01fffeff0100fefefeff01ff00ff010000fe010000fffefeffffff
01ff010001fffffe00fe01ff00ff00ffff01000100fe01fe00fffe0001ff01010100fffe00fe0001ff00fe0100ffff01fe000001010001fe00ff01ff0100feff
01fe0000010100fe0101ff01ffff00fefffe00fe00ff00fefefffeff0000fffeff010001fefefefe01ff0001fffe00feff00fe0100feffff01ff0000ff00fe00
000101010001fefffefffffefe01fe00ffff00fe00000001feff00fefffe000000fffeffffff000100fefeffff010100ff01fffefe0001ff0100000100000100
000000fe010000fefe01ffff00fefffe0001fe01fefefe01fefeff00feffffff00fffefffffefe00fefefe0001fe00fe01fefe01fe000101fefffe01ff010101
0001ff00fefe000001fefe00fe000000fffefe0000ff00ffff000100ff01ff0100ffff01fefffffe01010100fe010001feff00fffefefffe010100fe00feffff
ff00fe0000ff0100fefefefefe00ff0100ff01ff01feff010100ff00fe01fefefe01ff01ff00feff010001ff01000001fffefeff010101fefe00010000010101
fefe00fffefe00fe00fffefeff0000fe01fffe00fefffffe00ffff00ffff0101fffe0101010001fe01ff00fefefffffe01feff00ff00fe000001fe0001fe0000
0101ff00fe01010001ff0000ff0001ff0101fe010101fffe00fffefefeff01ff0100fffe00fffeff0001fffefffefe00fefefefefffeff00fffefefe00fffe00
01010001feff01fefffffefefeff00fefe01000101fffe00fefffe010101fe00fefe01000000feff00fefe0001fefffe00feff0001ffff00000001ff00fffffe
fe01fe01fe0000fffe0100ff000000fe00ff00fe0100000101000100fefe00ffff010001fefe0101ff01fe00feffff01ff00fefffe00fffffffefefffeff00ff
0001ff0000fe01fffe00fe01fffefe01feffffff00fe01fe010100fe00fe01fefefffe0001fe0000feff00ff01feff00fefe01fffefe00fe01fefe0000000001
fefeffff0001fe00ff00ff0000000101ff0000fe01fe00ffff01fffe01ff01feffff01fffe010000ff00feff01fffefe0101fe00010100010101fe00fe0001fe
0000fffeff00fe01ff01fe00fe00fefe00fefe0101fe00feff01fe000001ff0001fe0001fe01fe0001fefe0101fe01ff0000ff0100fffefefeff0101feffff00
01fe010101ff0101fe00ff01fffeffffff010100fe01feff00ff01ff00000001fffe0001ff01fe0001ff01ffff00ff01ff000100fe01ff01fffefe01fefffffe
00010101010100fffefe0000ff01010001ff000101ff0100fe0101feff00fe00ff01ff00ffff00fe01ff0100feff0000ff00ff010100fffe0100fe0000ff00ff
fefeff0001000100000001000000fefe0001fe0100fefe010001ff0001ffff00fefffeffff000101ff0000fe000000ff01fefffefefefefefeffff00feffffff
0101fffeff0101fffe01fffe00fffe01ffff01fe0100ff0100ff01ff0100fe01fffefefe0000fffffffe0001fe01fefffe00fe0101fffffe0101fe010000fe00
feff01feff00fffe00ff00010000fe00010100ff01010000feff000101ff0001fe01ff01ff0000010000fe000100feff01fe01ff00feffff0101fefefffeffff
