fffffe0000ffff01ff00feff0101ffff01fffe00ff0001ffff00fefefeff0100fe0000ff00ff00000100feffff00fefefffffe01010001fffe0100ffff00fe00
fffe01fe000001010000010100ffff01fe00fe01fe00ff01fe010000ff00fe01fe01ff01fe01fe01fffefe0101fffe0001feff01ff01ffff00ff01ffff0001ff
00fe000101010101000000fe01ff000001fefffeffff01fefffffe0101ff00feff0000fffe01ff00ff01feff00fffe0000fe00fefefefefe00fe00000000fe01
0000000001ff0001ff0000ffff00fefefefefefeffff0000fffefffffe00010100ffff00fefffffe01ff010000fffffefffefefefefffe00fefefeffff01fe00
fe00fffe0001010101fe00ff00fefffe01fefefefefe0000ff00fefefffe00ff0001fe0101fffe01ff010001fe00010100fe010101fefe00010001fe00ff0100
fe00000000fffffeff010101fffefefffe00010100fefefefffffefeffff0100fe00feff010000010000fe00fefe00ff01fefefe01fe00fe00ffffffffffff01
feffffff01fe000000ffffff0000fefffeffffff0001fe00fffeff010000ff0100ff00000101fe0100fefe0101fefeff01ff010000fefffefeff01ff00ffffff
feff0101ffff00fe010100ff01ff01feff00ff01fefe0100fffe00ff01ffff01ff010001ff00ff00fe010100fe0100fffefffffeff01feff000100000101ffff
01ff0101fffefe0001fe0001fffefefffe0000feff01ff01ffffffff0100000100fffe00fe0101fe000001ff01fffeff0100fe010000ff0100fffffffe0001fe
000000000100fefe00fe00010101fe01ffffff01feffffffff00ffff00ff00010001fffffe0100ff010001feff0000fefe000100fe00ff00fe01fe0001fe00ff
fe01fe0101feffff010001000001ff01fffffe00ffff01fe00fefffe0100fe0000ff01fefffeff0101feffff00feff00ff00010100000000ff0001fe0000ff00
fffffefffe00ff01ff00fefffefefefffffffe00ff01fffe0000ffffff00000000ff000101feff01feff01fe000100ffff0101feff00ff0000ffff00fefeffff
00ff00fe01fffeff0100000101ff01ffff01fefefffffe000100fe01fefe01010100fe01fffffeff00ffff0100fe0001feff0001fffe0100fffffefffe0001fe
010101010100000001ff00fffefffe0001fffefffffffefe01fffeff01fefffe0101000101ffff000101fe01feff010000feff01fefefe0100ff00fe00feff00
fffefeffff0000ff00fefefe01ffff00ff0100feffffff01ff01fffffe01fffeff01fffe01fefeff0101fffe01fe01fe0100ff0001ff0000fe01ff01ff0101ff
fffffe0001ff00fe0100fe0001ff00fefefe0001fffe0100fefffe00fe00ff010100ffffff01fffefe0100ffff010000ff000001fe01ff01fefe0000fffe00ff
