fe0000fe00fe0001fefefe01fffe01fe0001000001fefe00ff01fe01fe0001000101feff01ff0101fe01feffff0100fffe0100ff01fffefffffe00fe00ffff00
fefefeff010001fefe00fe00fefeffff010000fe0001fe01fefe01ffffff010000fefffe0000010000ffff0101ff0101fe01fffe01fefe01ffff0101fe01fe01
00fffffefefe0100ffffff00feff0100fe01ff01fefe01ff00ff0001010101ff0001fefe0100ff010100fe00fe0101ff00ff010000feff0000fffefffefffe00
ffff0100fe000000fefffe01fffffffe0001feffff00ffff000000ff0100ff01fe01fffeff00ffff0100000000fe01fe010101fffe00ffff0000fe01ffff0101
