00ff01ffff0100fffe00fefe0101ffff000000ff00fffffe000001ffff010101ff00fffe00fe00000101fe01fe01fefefe0001fe0100ff010000000000ff0100
feff01fe0100feff000101ff01fefefeff01000001fefefffefffffe00fffe01fffefffefe00ff01ffff0101ff01010100010100ff00000100ff00fe000100ff
0100ffff0101fffe0001ff01fefeff00ff01010101fffffe01ff01ff0101fefe01010000ff01fefffe000001feffff01feff0001fefefeffff01ff00010101fe
01fefe0100fe00fe0100ff00ff000001feff010101ff01000100ff0101fefe00ffffff0001000001fffffe01000100fe01feff00000001ff01fffffffe000101
010000000000fffefefefe00fefffffefe01fefefefefffffefffeff010001fefeff00fefe00ffffffff0000fe00feff000101010001fe00fffefffe00000100
fe0100fefe00fe0000010000ff01fe0000000100ffff0100010100ff0101010000000100fffe01fe0101ffffff00fe01ff01fffe00fffffe0100ff00ff0101fe
ffff01fffe00000000ff01010001fe01fffefffffe010100fffffeff010101fe00ff00feff010101fefeff00fe01feff01fffe01fffeff00fe00ff0001feffff
0000fe0001fffe00ff0001ff01fefffffe00fe00feff0101fffeff000101ffff0101ff00ffff0101ff00ff01fffe00ff010001fffe00fffffefe0100ff01fefe
0001fefeff0001fefe000000fefefe01fffffe0100ff00ffff0001fffffe0001ff0001fffefefeff000100ff0000ff00fe01ff01fe00fe0100fffffffefe0101
feff01fe01feff0101fe0101010101fe00000101ff00feffffff01fefefe0001fefe0101ff0001fe01fefffe0100ff0001ffff01ffff0001fefffe010001fe00
ff00ff0101010101fe01fefe01fefefe01fe00feff01fe0001feffff01fe010101ff0100ff01fffe00feffff000100fefe00010001ffff0100fe010000fefeff
ff00fe00fe01ff0001fe0001fefeff00fffeff00fe0101fffe00fe01fe00ff01ffffff01ff01fe01fefeff01fffe00ff0000ff01feff0100ff01fe01ff000100
feff01ff00fe010101ff00010101fe0100000001feff0101ffff00ff00fe00feff0100fe01ffffffff01fffe00feff00feff01feffff0000fffffffe00fe0000
feff0001fffe00ffffff00fffffe000101ff00ffff01ff0000ff01ff01000100fefefe01ff00010000ff0100fefefe0000ff01fe01fe00000101fefefefe0000
000001fe0100010100feff0000fefeff0101000000000000fefefffffffffe00fffefe00ffff0000ff00ffffffffff010001010001fefffe00ffff0100ff00fe
fe0100ff0101fe000001fefe01fffe00ff00fefffe0000ff01010001fe0000000000ff01feff000001ff010101fefffefffe0000feffff00feff00fe01fe0101
00000000000000000000000000000000000000000000000000000000000000000000000000000000000000000000000000000000000000000000000000000000
00000000000000000000000000000000000000000000000000000000000000000000000000000000000000000000000000000000000000000000000000000000
00000000000000000000000000000000000000000000000000000000000000000000000000000000000000000000000000000000000000000000000000000000
00000000000000000000000000000000000000000000000000000000000000000000000000000000000000000000000000000000000000000000000000000000
00000000000000000000000000000000000000000000000000000000000000000000000000000000000000000000000000000000000000000000000000000000
00000000000000000000000000000000000000000000000000000000000000000000000000000000000000000000000000000000000000000000000000000000
00000000000000000000000000000000000000000000000000000000000000000000000000000000000000000000000000000000000000000000000000000000
00000000000000000000000000000000000000000000000000000000000000000000000000000000000000000000000000000000000000000000000000000000
