0000fefe00ff00ff01fffe0100fe0000ff0000000100ffff0101fefefe0001ff0001fffe00ff010100fefeff000100ff0001fe000101fe01fe00fffffefffefe
ff01fefffffeff0100ff010100ffff01fe010001feff01fefe010100ff000100ff01fffe00ff00fe01ff00010001fffefefeffff01010001feff0001fefe00ff
fe01ff01fefffe00ff00010001fe0100ff00000100fffffe01fefefefefffe00ff0101fffffe01fffe01fe00ff000000feff000100010100ff000101ff01ff01
feff00fe0001010101ff01ff01ff01ffff01fefe0101fffefefefffefeff01feff000000000101fffefe01ff000001000100fffefe0100feff01ff00ffff01ff
ffff010000010001fffe0000ff00010101fffeffff0100fe01ff0100feff01fe00fe0100fe00010001fffe01ff0100010100fffffe01fefe00ff000101ff0101
fe00000101000100fffffefefffefe010101000101fefffefe00fffe00ff0001fefe0001ff0101fe0100000101fefe01feff0000fffe0101ff00feff0101fefe
00fefffffeff01fe01fe01010101ff000001fe01fe0101010001fefefe0000ffffff00feff0000ff0100fffe00fe00fffeff010001fefeff010001fe0101ffff
00fefe0101ff010100fefe00ff010100ff000001fefe01010101fffefe00ffff010101ff0001fffeff0000010001fe01fe00ff00ff00000101ff0101ff01ff01
fffffe00ff01fefe01010000000000fffffe01fffffe0000000101ff01010101fe010000fefeff000000ff01010101ff00010000fefe0001ff00ff0001ffffff
fe0100ff01010000fe0001fefe000000fefffe000101ff0001ff00fefffe000101fe01feff00fffffeffff01fe000101ff0101fe00ff00010100feffff0100ff
ffffffffff01fefeff0001ff0000fffe0001ff0100ffffffffff0001ff000000fffffeff00fe0101ff0100fefeff00feff010000010100fe00fe0100fefffffe
fe00fefe0101010101feff00010101010101fe01010000fffffe010001feffff00fefffffe010101010001ff01ff01fe01fe01ff0001010100ff01010000fffe
fe0101fffe00fe010100fe01fe0101fffffffe00fffffeff00fffe0000010101000101ff01fefefe01ff000000fefeff0001ff0000fffeff00fe00fe0001fffe
fe01fffe00fe000100ff0100ff01000000010000fefe01ff01fe01000000fefe01ff00ff0100ff01fe01fffe01ffff000001fffe010001fe01ff000000fefffe
ffff01ff01fe0000fffe0100ffffff00fefe0000fe000100fffe00010000ff0000000001fe00ff00000101feff00fe0101fefefffffe01ff000101fffe0000ff
fe000100fe00fe0100ffff00fffffeff0001fefffffe010101fe010000feff01fffeff00fefffeffffffff01010001ff0101ff0000ffff00ff01fffffefeffff
0000fe00ff0100fefeff01fffffe00fefe00ffff00ff000000000101fefeffff00fe00fefeffff00fffefefefffe0000feffffff01ffffffff010100fefffe01
fefe00ffff01fffefeff01fefefe0100fffefffffeff000101fe0001fffeffff0001ff0001fe01feffffff01ffff00fefe01fefe0000fe01fffffefffe00feff
00fe010001010100fefefffe01ff01fefefefefeff0100fefe00feff0001feffff0001000001fefeff010000fffefe00ff01fe01fffffefffe01fefffefe01fe
ff0000fefffffefefffefe01fe000100ffffff0001fe01ff01fffffe00fefe00fefefeff01fefffe01ffffffff00ff00fe01fefe00fefe00fefe01ff01fffefe
fe01fe000000ff010100fe0101fefefe0000fe00010100fffffffeffff0001fe0101010001fffefeff0100000101fffffefffe010100fffefe000101feff00ff
ff0101fe0101ff0000ffff00fefe00010001000101ff0101ffff0000ffff0101feff01fe01fe0001000000ffffffff00fffe01fe01fe0101010000ff00010100
00fefffeff0100feff0001ff0100fe00010000fffffffffefffffefe0101fe0100fe01fe01ff00000001fe0001ff00010101ff00ffff010001ffff0000ffff01
01fe0101feff0000ffff00fe0000fffe00010000ff00000000fe01ff01ff0000fe01fefe0101feffffff0001fe000000ff0100fefefeff00ff00fe0000fefe00
