00fe0101fffe01fefefefefffefefe01feffff01fe010100fe00ff00fffe0100ff01fefe01fe0101ff0101ff0000ff0100ff010101010001fe010000ff0100fe
01feff01fffffefe01ff01ff0000fffeff00fe00fffefeff00fe01ff010000000100fffefe00fffefe0100010101fffe00fffffffe00010000000001fffeff00
fe00010001ff00fffffe01ff01ff00000101fffffe01000100fffffefefffefe00fffffffe01010101fe00fe01fffffefe0101fefe00fffe01fefe0100ff0001
0000fe0101ff00fefe00fffefffffffffffe01ff00ff01feffffff01fffe010001fe01fefffeffff0101ff01fefefe01feff000000feff0000fe00ffffff01ff
fe01fe00fefffefefe00000101ffff000101010100fffefe00ff0101fffefe01fefe00fffe0100fefefefffffefefe00fe000001fefeffff01fefefffe01ff01
010000fffe00feffffff000000fe01fffffefe01fffe000100feff00fefeff01fe01fe0001fefefeff00ffff000101fe0000ff00ff00fffe010100ff01fe00ff
01ff01ff0101fefefffe00fe0001ff000100fe0000fe0000ff00fe00feff0100ffffffffff00fffe01010100ffffff00ff00fefffeff0001ff0001fefefffeff
ff01ff01fffe010000ff0001010100ff00000101fffe00fffefe0101feff0100feff0001ff0101fefe00010001fefe00fffe01fe0101ff01fffe0000ff0101ff
0101fffefffefffffefffe01fffefefefe01ff01fe00fefe0101fe01ff010101feff01ffffff0100ff0000fffefffeff0101fe0000fefefefffefe00feffff01
ff01ff0101ffff01fffffffffefe0101fffe000001feff01fe01000101000101fffffefffefefe00ff00fefffe00fe01fe0101000100fe01feff010001ffff01
fffffffefe0001000001fe00feff0101fe01000001fffffffffe01010100ff0000fffeff0001fe010001ff0101fe01fe0101fe010101ffff00000100fffe00fe
00010000000001fe00fffefe0000010101fffe010001ffffffff01ff0000fefe0000ffff00fe010100fefe0100feff0000000001fffefefe00fe01fe0001ff01
010100fffe01ffff01000001fe0100ff000101fffeffff010000fffffffe01fe0001fe01fefe0000ff0000fe01fe01fe01000101ffffffff010000fffefe0100
ff00fe0000010000fefe0100fe01fe0000fefeff0000fefefe0101ff010000ff01feff00ff01fffe01ffff01feff0000feff01010001ffff01ff0000feff01ff
00fe010101ff0100fe0000ff0001ff0101fe01010000fffefffe01000000fe0000fe01ff00feff01fe00fffe0101000101fffe0001ff0001fffeff0101fffe00
ff01fefefeffffff0000feffff0100ff00fefefe01010100ff0000fefe00ffff01fe01fefffefeff00fffe0101fffe00fe00fffefefeffff000001fffeffff01
00000000000000000000000000000000000000000000000000000000000000000000000000000000000000000000000000000000000000000000000000000000
00000000000000000000000000000000000000000000000000000000000000000000000000000000000000000000000000000000000000000000000000000000
00000000000000000000000000000000000000000000000000000000000000000000000000000000000000000000000000000000000000000000000000000000
00000000000000000000000000000000000000000000000000000000000000000000000000000000000000000000000000000000000000000000000000000000
00000000000000000000000000000000000000000000000000000000000000000000000000000000000000000000000000000000000000000000000000000000
00000000000000000000000000000000000000000000000000000000000000000000000000000000000000000000000000000000000000000000000000000000
00000000000000000000000000000000000000000000000000000000000000000000000000000000000000000000000000000000000000000000000000000000
00000000000000000000000000000000000000000000000000000000000000000000000000000000000000000000000000000000000000000000000000000000
