010101fe01fffefeffff00fefffeff00feff0001fffefe0100fefeffff0000010001ff00feff0100fffffe0101fe01ffff01fefefe010000ff00fefefeff0101
fe010001fffe00ff01fe0000ff0100fe000101fe000100fe00fefe000001fffe0101ff00ff01ff01fffffeff01fffefefe00fffe010000fefe00fe00fffe00ff
00fffffeff010001fe0001fefefe0100fefeffff00fefefffffefefe0101ff010101fe010001fe01fffeff000000ff00ff00fe0001feff01fffe000100ff01ff
ff0100fefefe01ff0001010101feff0000ff01ffff0000ff00fe00ff01fe010000fe01ff01feff0001ff00feffff01fffeff01feff0000fefefffe00fe010001
010001fe0101010100fffe0001feff010001fe01ff0000fffeff01fe010000000101ffff0101fefffefeffff00fffe01ff00fe00fffe00010001ffff010000fe
0000010101fe0001000000fefe00fffffe00fffffffffeff00000101ff01feff0100fe010001010001000100fefefe0100fe000100fe0100feff01fffffe00ff
000101fffffffffffefefe01ff010101000000fffe0101fffffefe01ff01fe000101fe0100fffe01fefefe01ff010100fefffffffe01feff00ff00000100fffe
fe00fe00ff01ffff01ffff0001fefe01feff000100ffffff00fe0100fe00fffffffefefffeffff01ff01fffefffe00ff010101fe000001fe01fffe01fe01fe00
00000000000000000000000000000000000000000000000000000000000000000000000000000000000000000000000000000000000000000000000000000000
ff0101ffff000101fefe01010101fefffe01fe01010101ff01fffe01fe00010000010001ff00ff00fe01fffffffefffe01fe0000fefe0000fffffeff01fffeff
0001fe010101feff00fffefe0101fe01fe00000000fe0000000101ff00fe0101fe00fefffffe00fe01ffff000101ffffffffff0100fefefefffefe0100000001
fffefeff0001ffff010001ffff01ffff0100fefeff00ff00000101fe00ff00fe01fefe00ffff01ffffff0101fefefffffefeff01feff00fefe01fefe01fffeff
01ff0001ffff00ff01ff00feff01fffe000101fffefe01fe00fffffeffff00fefefffe01fe01ff0000fe01fefffe01ff01fefe01fefe01ffff00fffefefffe01
000000fffe01ff00000001fe0001010000feff00fffe0001fefeff000001fe01feff0000ffffff000000fefffe0001fe01feffff00010000fe00000001ff0100
ff00ff00fefe010101fefe00fe010000fffe01ff010100fffe00fefefe01ff0001fe0100fe00010100ff0001fffefe0101000100ff0000000100ff00ffffff00
01fefe01ff00ff01fffe0100ff00ff0001fe01fefe00ffff01fefefffefe00ff0001fe00000100ff0100fffffe010001fe0100fffe00fefe01ff00fe0001ffff
01ff01000101fefefe01fe01ff00ff00ff01000100fe0001feff0100010100ff00ffff01fffefeff01fe01ff01ff01fe00fe010100ffff01fe01fe00ff000000
00000000000000000000000000000000000000000000000000000000000000000000000000000000000000000000000000000000000000000000000000000000
fe0001ff00fe00010101fefe0100ff01fe01fefeff0001feffff01ff0100fffefefe01000101fffffe01feff00010101000100ff000101000100ff0100fe0000
01fe00feff01ff00ff01ff00fefefeff01ff0101010001ff0001fe000001ff000000000101010000ff00ff0000ffff000101fffe0101fe010001fe0100010000
0001feff0001fe0100ff010100ff00fefeff0000ff0100000101ffff0101ff01feffff00ff01feff0101ff00010100fe0001fffefffe01feff0100ff0001fe00
fffe0001fefefffe00000000ffff0001fe0001010000feff01fefe00ff00ffff0000fe01ff01fffefe0101ff01ff0100ffff01ff000000000000ff01ffff0100
01fe00fffffeff0001010001ff01feff0101010101fffeff01000101fffe00ff01fffffefe000001feff00ff01010001000101feff01ff01000000000000fefe
ffffff0000ff000101fe01fffe0100fe01fefefeffff00ff0101fe01fe01fe01fe0100fe0001fe0101fefe00000000ff00ff00ff01fefe01000100fe00ff0001
010100ff00ff0000fffeff000000feff01fe00fefe0100ffff01000001fe01fefffffe000100ffff000100feffff0000fe0101ffff000001fe010000ffff0001
0000fefffffe01ff01fefeffff0000fe00ff01fefeff0100010001fe010101fe01feff00feffff0000fffeff0001fe00010100fe00ff0000000101ff01010001
00000000000000000000000000000000000000000000000000000000000000000000000000000000000000000000000000000000000000000000000000000000
