0000ffffff01fffe00ffff0100fe01fffe00fe0101fefffe00ffffff0101fefe0000fefffffe00fefe00fffffe0000fefefefe0101fe00fffffeff000000ff00
00ff0000010100ff00fe010101fefe01ff0100ff00fe0001fe00fe00fffffefefefffeff0001fefe01fe0001ff0000feffff00000100feff000001fe0101fe00
01fe0001ff01000100fffe0100fefffffe000000010101fe0001fffeff000000fe0100fffffffefe01fe01fffffffffffe01fefeffffffff00fe010000ff0101
ff01fffeff000100000000fefe00ff01fefe0101feffffff000000fe000101ff0001fffeff0001ff01fffe01fe00fe00ffffff00fffffeff01fe0000ff01fefe
fffefefe00fe01fe0000ff00000000fefe0100fe000101fffffffffefefffefffeffff0001ff00fefefffefe010000fefe00000100ff01fe00ff01010000ff00
01fe00ff00ff0001fefe01fefeff00ffff0001ff00010100fefffffe01fe00010100ff00ffff0100ff01fe01fe00ff01fe0000fe01ff01ff00fe0101fe00feff
fe00010100fffeff0101ffff01ffff0000fe00fe01fffffefffe010001fefffffe0001fe01ff01ff010000ff0100ff010001ff0001feff01ff0000fe01fffe01
00fe0100fe01ffffff00fefffffe00fe000101ff0100ff00000101ffff010001fe01ffff00ff01fffefe00fffffefe01ffff01ff00ff01feff01ff000000ff01
00000000000000000000000000000000000000000000000000000000000000000000000000000000000000000000000000000000000000000000000000000000
01ff00fefe01fefe0100fffe00fe000100ff00fe0000fe010000ffffff00feff0001fefe01fefffe00fefe010000000001fe0000ff01feff010001feff00fffe
00000000ff00000100010100fe0100fe01fffe01fe000000fefffffffffe00010101fe01feff01ffff01010100fe00ff0101ff01fefefe00ff0001fffefefefe
fffe01000001fe01fffefffe0101fffe00010100feff00fefeff01fe01ffff01ff01fe01feff0001ff00ff00fefe01fefe01fefeffffffff01fe0000fffe0101
0101fffffe01ff01fe010001fe0000ff00fefffffe0000ffffffff00fe01fe0101fe01ff0101fffeff0101fefe0101fe00fe0100010001fffe00010101fe00fe
fefe00fefe01ff00fe01fffe0001010001fe0000010100ffff00ff01ff01ffff000001fefe00fffe01feff0000feff00fffeff000000ff010100010100fe0000
feff01000101ffff01ff0101fefe0001010001fe00ff000001ff000000fe01fe01fefefefe00fffe00ff00fe00ffff0000ff01fefe0000fe010100000001fe01
010000fefeff0100000101ff01fffffefefeff000001fe00ff0100000100fe00fffeff00ff00ff0001ff0101ffff01feff000000ff00ff0100ff0101ff010000
01fefefffe01ff000001fe0100000101ff000100000001ffff00fe00ffffff0001fefeffff00ff00ff00ff00fefe01fefe00feff0000ff01ff0000ffff01ff01
00000000000000000000000000000000000000000000000000000000000000000000000000000000000000000000000000000000000000000000000000000000
00000000000000000000000000000000000000000000000000000000000000000000000000000000000000000000000000000000000000000000000000000000
00000000000000000000000000000000000000000000000000000000000000000000000000000000000000000000000000000000000000000000000000000000
00000000000000000000000000000000000000000000000000000000000000000000000000000000000000000000000000000000000000000000000000000000
00000000000000000000000000000000000000000000000000000000000000000000000000000000000000000000000000000000000000000000000000000000
00000000000000000000000000000000000000000000000000000000000000000000000000000000000000000000000000000000000000000000000000000000
00000000000000000000000000000000000000000000000000000000000000000000000000000000000000000000000000000000000000000000000000000000
00000000000000000000000000000000000000000000000000000000000000000000000000000000000000000000000000000000000000000000000000000000
00000000000000000000000000000000000000000000000000000000000000000000000000000000000000000000000000000000000000000000000000000000
00000000000000000000000000000000000000000000000000000000000000000000000000000000000000000000000000000000000000000000000000000000
