ffffff01000001fffeff01feff01fe00010100fefefefe00fe0001ff01ff01fe000001fefffefe0000fffefe000000010001fe00ff01ff0001000101fe00ffff
01ffffff01ff010001fffefffffe01fffeff0001ff00ffff010100ff0101fe0101fffeff01fefefefffe01fe0001ff00ff0000fe01ff00feffffff01ff000100
fe01ff010001fefffefffe010001000101feffff0000fefe01ff01ff0001fe0001fffffefe01fffe0001fe0000fe00000101000001ff00ff0101ffff01fe00ff
fefefffefefe01fe01fefefefffffefffe00fffefe01ff0001fffe01fefe00fffe0100ff00ff0001fe00fefeff0100010001fe00ffffff00ffff000100ff01ff
feff01fe010001fffe01fe01000000feff01010100fe0101fe00ff01fe0000feff0100fe010001ff01fe00ff01000100feff01fe000100ffff0100fe0100feff
fffe01ffff010000ff00feff01ff000100fefffffe010001feff000101000000010101000000ffffffff010101010100ff00ff0001fe0001fe01ff01fefffefe
fe01fffe00feff01fffe01fe00ff000001fe01000000fefffffe00fefefe0000fefe01010100000100fe00010100000001ff010001fe00fffeff000101fe0001
fefffe000000fefe00010100ff00feff01ff01fe00fefeff01fe0100feff01fffe01ff00ff00fe01ff00ff00ffff0101ff0101fefeff0100fffe0100010000ff
01000101ffff010101ff010101ffff010101010000fffe0101ff0000fffffffe00fe01ff0101fe01fefffe01feff01fffffeff00000100ff01fe00ff01fffefe
fefefefefe00fefefffeff0001ff00fffffefffefffe000101fe00fe01fffe01fffe00fffffe01ff00fe0101000000fe010000fffefe000001feff01ff0000ff
ffff0001ff01fffe0100000101000100fe010101ffffff01ff00010001fefe0000fe00fe010001fe01fffffffe0000010000fefeffff00fefffe00fe00fe01ff
0100fffe0000ff00fe000000fe00ff000100fe0101fe01fefefeff0101fffefe00fefffffffffffefe01fe00fe00fffe00ff01ffff0000ff000001ff0101fe01
ff01ff01fe01fe00ff01ff000000ff0001fe0000fe010000ff000101fffffffe0000fefe00010101fffefffe0100ff01fffe00ff00ffff00fefefffffffffffe
0100fffe01ff01000101ff00ffff00ff00ff0000ffff00fe01fefe00fffe0101fe0001010101fe00fefe00fefefeff0100feffff010101fffe0100fffeffff00
fffffeff01fffffe00fe01ff0100010100fefefe01fffe01fe01fefe01fe0000feff010000fffffeff0000ff0101ff01ffff0101feff00fefffffffffe00fffe
feff0001fe00fffe0000fe000001fe00fefeff000000fffefe01ff01fe00fffe00fefe000001fffe01ff00fffffeffffff0000ff0101000000fffeff00fe0001
