ffff00ffff000000fe0000ff00010001ff000001fe0100fe01fffefe00ffff0101fffe0000feff0101fe0101ff0101ff0001ff0101ffff00fe00fe01fffe0001
00fe000100fe0100ff00000001fefe0100ffffff0001ffff00000000feff01fefe00fe000101fe00ff00feff000100ffff010101010101fffffe00fe0101feff
feff000101ffff0101ffff01fe0001fe0101fe00fffffe000000fffe0001fefefe00ff0001ffff000000fefe00ff000000ff000000fe00fe00fe00fffe00feff
0100ff01ff0100fefefeff01feff010000fe00fefefffe01fffe0000fffefffefe00ff0100fefffe00ff0001fefefe00fe01fefefeff00fe01ffff01fe0101fe
ff010000fe000001ff01fefe01fefffffe0001fefefeffff00ffff000101fe0000fe01ff0101010101fefefefe01fe01ff01fffe0000fe01000100010000fe01
01fe00fefe01fefefe01ffff01fefe00ff00010100feff010100fe01fffeff01ff00ff00fffe0001ff00fefefe01010100fefffefeffff0100ffff00fefefe00
fe0101fffffffeff0000ff01010001fffefe00fe000000ff01ff0100fefefe0000010100fe00010001ff00fffffe01fefffe00ffff01fe00fffffe00fe0100ff
fefe0000fe00ff010001fe0001fefffffefffffffffffffe01000001ff00fffefefe010100010000ff00ff01ff000001fefe0001fefeff0100feff00ff010100
0101fe0100fe00fffe0100fffe01fffe0101000100ff000101ff00feff0100010000fffefe0001fefe0101fffe01feff01fe0000000100fefe01ffff0001ff00
fefe0001000000feff00fe01feff0101fffefeff00fefffefefefefffefe01ff01ff000100fe0100ff0000fffffeffff01ff01fe0100fefefffe0000fe00ff01
00ff0001ffffff0100000101000101fe01fefefefe00fffefe01fe0001010100fe0100ffff00fffe00ff01ff000000ffff0101fffffffe00000100fefffe01ff
00010000feffffffff00ffff01fe0000feff01ff01010100fe01fe0100feff0100fffeffff010100000101fefffeff0000ff00fe0001fe00fffe00fe01ffff01
fffefffe01000001fefe01fefffffe01ff01ffff01ff00ffff01fe00ff0000fffe000100feffff0100fe0000000000fefffe000100fe000000fffefe00fe0000
ff01feff01ff00ff01ff00ffff0100fe01000100fe00fe00fefefe0101feff0101ff000101ffff01fe01fe01ff01ff01ff010001ffff01ff0001010100ffffff
ff00ff0101ffff00ff0001fffe01010000ff0000fefffffe00010101fe000100fefe00fefe010000fefefefffe00ff01fe01fe01ff01feffffff00fe00010101
ffff010101fffefefffefeff00ffff00000000ffff010000fffeff00ff01feff01fffeff0000fffffefffe00feff000001feff00fffe01ff0101fefefeff0101
01fffe0101feffff00fffeff0100fe00fefefffe00fefe010100ffffff00fffefffffe00fefefeff01ff01000101fffe000000fffffe00fefe01fffe0000fe01
000100ff01ffffff01ff0101000001ffffffffffffff000001fffefffe0001fffffffffefe01fe0101fe010101fffffe00fffefffffefefffeff00ff00fefeff
00ff010100fffefeff0000fffe00fffefeff010100fe010001fefe00fffefffe010100fffe01feff000001ff00fffe0001fffefefe00fe01fe0000feffff01fe
01fffeffffff0100fefeffff0101fffefffffe01ffff0101fe01ff01feff010001fe01feff00ff01fefffe00ff0100ff00fefffe01feffff0101fe01ff00feff
0100ff00ffff0000fe0100ffff00fe01ffff00fffffefeff00ff00fe00feff00fefe010100ffff010000fefffefe01ff01fefeff01fefe0101010101fe01ff01
01fe01ffff01fffe01fffffefe0101fefeff01fffeffffff0100ffffff01fe00010001010101fefffffe000001fefffe00fefffe01fe01fffefffffeff01fe00
0100ffffffff01fefe00ff00fffe0101fffe00ff00ff0100fe00ff01010001000100ff01fe000001fffe010000fe0101fefffe01ff01fefe01fefffefefe00ff
01fe01ffff01ff0100010000fefffefffe0000010100ffff01fffefffeff0000ffff01fe000100fe00010100fefffefffe00fffefe0000fe00fe000000ff0101
