00ff01010101fefffe01fffe01fffefe0000fe0001feff00fe00feffff01fe00ffff00ff010001ffff010101fffffe0001fefefffe01fe010001fe00fe0000fe
ff01fefe000000010001ffff000001fffefe01ffffff010100000100fe0100feff01fefffeff000100fe01000000fe0101ff01fe0000feffffff01fffeffffff
ff00fefffffe0100ff0100fe00fefefe0101010100ff01fe000000010100ff01fe01fe01ffff0101fe00010101ffff0001fffe0000feff01000000fffe01fe00
0001ff010000ffff01fefffe00000000fe00fe0101ff0101fe01ff000100010100fffe00ff00fe01fffffeff000000ff00fe01fefe00fffffe01ffff01ff0100
0001fffe0100ff0100fefefffefe0001fffe00fefefefe010101fe0000fe01fefeffff0101fe0000000101ff00fe01010000000100fe0100fe01fffffeff0100
ff01fefefffe01fefe0100fe00ff01fe0101fefffe00fefffefe01fe0101fefefffefffeff01ff01ff01fffffeff0101fefffffefefffefffe00010101010000
fefffe00ffff01fefeff00fefffefffffffeff0101fe0100fe000100ffffff00ff00ffff01fffffffffe0001fefe01ffffffff0100000001fefe0100ff000000
01fe01fefe000000ff01fe0101feff01ff010000010000fefffe00fffffe0101fe00ff01fefe01feff00ff0100ff00fe00feff00ffffff01ff0100000100ffff
00fefe000000fffffe000100ff00fffe00feff01fe0101fffefeffff0000fe00ff01ff0001ff01fe01010001fffe0001fe0101fffe0100ffffff01ff01000100
fffffeffff010101fe00feff01fefe00ffffffff01fffefe0101fe01fe00010101000100fe01fe00feff0100fe01ffff0100010101feff00ff00ff00fe01ff01
fe00fffffe0000010100ff00fffeff01ffff0001ff00ff0101fe01fefeff0000feff0100fefffe0101fefeff01feff0100000001fffefffe000001fefffe00fe
000000fffe00fe0101ff01fffffe00000001fe01fffefe0001000000ff00ff01ffff0001000001ff0001010001010001ff0000fe01feff0100fffeffffffff00
0101ffff00fe0101fe000000ff010101feff0100fe0101fefeff010000fefffe0001ff01feffffffffff0001fffe010100fe00fefefffeffff00fe000001fffe
fefe010000fe0100fe01fe01000001ff0100010000fefeff01fe00ff0100feff0101ff01feffffffff00fffe000101fe0001fffefe0100fefefe0100fffffeff
00ff00ff00ff00ff000001ffff00fe00fefefffefefffefe01fefffeffffff010100ffffff00fefe000101ffff01feff00fe00fe0101ff01ffffffffff01ff00
fe01fe01fefe0000fefffffffefe01fefefe00ff01fffeffff01fe0100fefe00ffff01ff00ff0101fffffe00fe00fffe0000ff00fe00010000010100ff010100
