ff0000fe0001fe01ffff01ff0000fe000000ff01ff00ff0100feffff000001feff01ff00ffff01feff01ff0001feff00feffff00fe01ffff0000000101fefeff
000100feff01ffff01fefefefe0101000001ff010001ff0101fe00fe01feff0001ff0001000101fffefeffffff00ff0001fffefffffe01000101ffffffff0101
01fe0000fffffefefe00fffeffff00fefefefe000001ffff01fefffffe0000ff0101010001ff010000ff010001010000fe010100ff01ff0000fefffe00ffff00
fffefeff01ff00ff010100fffffffeff01ff00fe01fffffefeff01ff01ffff0100fffffffffe00ff01fe00000100fefefffe000001fffefe0000ffff010001ff
fe00ff01fe00ffff01fe01ff010101fefe0000fefffe01ff000001ff0100000000feff0101fe01fe0001fefe01feff00ffff01ffff0001fefefe01010100ff01
ff00ff01ffffff01010001fe00ffff00000100feff010001ff01fe01ff00000100feffff01fffe0000ff000101fffefffffefffefeff00010100ffff00fefeff
00fffe000001fefefe010000ff01ffff01fe00fffeffff01ff01feff00fffeffff0100fe00000100fe010001fe00fffefeff000100000101fffe01010100fe01
fe01fe010000fefffffe0000fefe0100fe00ffffff00000001ff0000ff0100000000feff0000fe000101ff01010000fefeffff01ff000101fe00fe00ff00fe01
00000101fe00fe000100ff010100fefe0100fefffffeff0000ff01fe000101fe0101fe000001ff01feff01000001fe00ff00fffffeff00ff01fffe0100fe0000
01fe0001fffe0001ff000001fe0001ff0000ffff00fffefe00fe00fe01feff01ffff0100ff01ff00010001fe00ffffff0000ff00ffff01ff0001ff00ff01feff
fe010000fffffeff01fe000000fe00ffffff00feff01fe01fefefefeff00fffefefe000100fe0001ffffff01ff0100ffff000000fe00fefe0000fefe01010001
fe00fffe00fe01fffefe010000ffff00ff0100fe00fe01fe000101fffffefeff000000ffff01ff01fe0001fe01fffeffff010000fe00fefefeff0001fefe01fe
feff0000fffeff000100fffffe0001fffeffff00feff01fe01fefe000100fe0000fefe0001ff010101fffffe000001fe01fffefe010100feff01fefffe01fe00
000101fe0001ff01fe000000000100fe01ff01fffffefeff010100fffeff000000010100fefe000000ffff01fefe0100fefefe0100fefeff00010100fe01ff00
fefeff00ffffffffff0100fe01fefe01ff01ff00fe01ff01fffffe00feff01ffff010101fe00ff010001ff0001fefe01fffe01ff0100fe0001ff0001ffffff01
ffff010001fefeffff01ff01ff00fe01010001ff01feff010001fefe0000fe0100fffe01fe0001fffe01000100fefe0100ff00fffe0000fffffeff0101ff01ff
01ff0101000001000001fffe000000ffff010001ff0001ff0100fefe0001ffff01fe00010101000100010100fefefffefe00ff01fefe00010000fe0101feff00
00fefefffe000000ff00fefe0101fe00ff00fe01feff0001010001ff0100fffeffff0001fefe00fefe01feff01fefffe0001fe0101ffff01fe01fe00ff00fffe
feff0101fefefe00000100fe01000101000100ff0100fffe00fefffffe00ff0001ffff01000101fffe0000fffffefe01ff010000fffe00feff00fffeff0100fe
0001fffe000000fefe00ffffff0000000000ff0101fefffffffffeff00fffefefffe00fefe0100ff000001fefffffefeff01ff0001fe01ff0100000101fe01ff
fefe000100ff00ff000101ff010001000101fe00fe0000fffffefe010001fe00ff0001fefffe01ff01feff0101fefe000001fefefffeffff010001ff000000ff
ff00010101fefeff00fe0100ffff0101ff0001fffe00fefe00fffffefe0001ff0100fefefefffffe010100fe0101feff010000fefefefffe0100fe0001ffff01
01fe00010001ffffff01fffefefefe01feff01fe01fefffefe00ffff01ff01fffefefe0100ff000000ff01fffeff0100fe010100ff010101ff01fe0000ff00fe
ff0000fefeff01000100fe0000000100010001fe01feff00fe01fefffffffe0100fefffe00ff0100fffeff00010001ff0101fe01ffff01ff0001fe0001fefe01
