fffffe00ffff00fffffe01000001fe0100fffe0100ff00fefefe0000ffff01fe010100fffefe01feffff00feffff01ff000000feff000100ff0101fe0100fefe
ff010001fefe0101ff00ffff0100feff0000fffe01fffe00ff00feffffff01fe00ffffff00fefefffefffffefefe01000101fefe01010100ffff000100fefffe
00010001ff01fe00feffff0001010101fe0000010100feff01ff000000000000ff01010001ffff01fefe00fefeff01fe00010000ff01fe000000ffff01feff01
fefffe01fffffe0001fffffe01fffffe0101fefefeff0001fefffffe000101ffff0100fefeff0101fffffe00010001ff0100fffe0001fefffffeff0101fe0000
