00fe00000001000100ff000101feff01010100ff01ffffff00feff00fefffeff0001feff00ff00fe00fffeff01010101fefffffe0001010100000100ff0001fe
01fe0000fefeff0100fefe01fe0100fe00fffe01ff010000fffffffe01feff00fffffefffefeffffff00000001fefe00fe00fefe000001ff0000fe0101ff0001
fe00000001ff0101ff00fe000100ff00fefffe0101ff0101ffff0100fe00fefefeffff000101fefeff010101fffe000101ff00fefe01fe00fefe00fefffeff00
0001fefefffffffefe01ff0001ffff0101fefe00feff01fe0100fefe0001fefffe0100010101010101fefe01fefe0101fe00010101fe01fffe0101fe00000000
01fe0100ff0101fefe01fffe00fe010100fe0100ffffff01ffffff01ffff01ff01ff00fe0001fffefffffffe000001fe01ff00010100ff000100ff000101fffe
ff0101fefe000001fffefefffffffeff01ffff000100fe01fe00feff0001fe00feffff0000fefe00fe0000ff00fe000001feff01000001ff00fe010101000101
0101000100ff010000fe0101ff000000fffeff00ff000000ff0100fffe01feffff01ff0101fefffffe000101ffff0001010000fe00fefe0101fffe0000fe00ff
fe000001fffe01fe0100fe01ff01ff00fefe01ff01fffefe00fefffffefe01fe0100fffffffefeff0000ff01ff01fe00ff010001fe01ff00000001fe01ff01ff
00000000000000000000000000000000000000000000000000000000000000000000000000000000000000000000000000000000000000000000000000000000
fffe01000000fe01010000ff0001fe01fe000000fe01fe00ff01fe00000001fe0101fe010101fefe00fe01fefeffff01fefe00fe0000010001fe01fffe01feff
ff0100feffff00ffff00ff0100010100ffff00ffff0001fffe00fe00ff00fe01feffff000000fffffefffefe01ff01fefeff00fffe01000101fe0101feff0000
fe0001fe01ff00fffeffff01feff01ff01ff00fffefe01fffefefe0101fe010001ff00ff01fe01fe0100010000fe000000feff0000fe0000ffff01ff0000ffff
0001fffe01fefefe00fefe01fe01ff00feffff00ffff01fe00ff01010101fe00fefffeffff00fe00ff00fe010100fe0000ff01000001ff0101fefffeff010101
00feffff01ff00ff00fffe0100fefe00010101ff01fefffffefeffff0000fffeffffff0101fefffffe0101000101fe0100fffefffe01feff0101fefeff0101fe
fe0101fefefefefe010001ffff0000ff0001fefffefeff0100000100ff0100fefefe0100fefeffff01010101ff0101feff00fffe00ff00fe00feff01fffe01fe
ff00010101fe01fe0101ff00fffe00fffefffefeff0001feff010000ff000101feff00fffefe00fefe00ff00fefe0101010101ffffff000001fefeff00fefe00
fe01ff0000fe00ff0100fe01feff00ff01fe00010101fefffeff010101ff000101fffe0100000000fffe0100fffe0101ff00fe00ff00fffe0100ff01010101ff
00000000000000000000000000000000000000000000000000000000000000000000000000000000000000000000000000000000000000000000000000000000
00000000000000000000000000000000000000000000000000000000000000000000000000000000000000000000000000000000000000000000000000000000
00000000000000000000000000000000000000000000000000000000000000000000000000000000000000000000000000000000000000000000000000000000
00000000000000000000000000000000000000000000000000000000000000000000000000000000000000000000000000000000000000000000000000000000
00000000000000000000000000000000000000000000000000000000000000000000000000000000000000000000000000000000000000000000000000000000
00000000000000000000000000000000000000000000000000000000000000000000000000000000000000000000000000000000000000000000000000000000
00000000000000000000000000000000000000000000000000000000000000000000000000000000000000000000000000000000000000000000000000000000
00000000000000000000000000000000000000000000000000000000000000000000000000000000000000000000000000000000000000000000000000000000
00000000000000000000000000000000000000000000000000000000000000000000000000000000000000000000000000000000000000000000000000000000
00000000000000000000000000000000000000000000000000000000000000000000000000000000000000000000000000000000000000000000000000000000
