fffefe00fefffefe00000001ff00fefefffeffff00fe00ff0000fefe01fe01ff0001ff01feff0000fefeffffff010100010001ff01fefeffff0100ff01ff0100
ff01ffff01010001feffffffffffffff0100ffffff0100feffff01ff0100fe00fffffefe0001fefefeff00fe000100fefffeff0000ff01ff01fe00fffe01fffe
fefe00feff00fefe0000ff0000feff010001fe01ff0100fe0100fe0001000101ff0100ff00fe00fffe0101ffff01ff0101fffffe01fffe01ffff00ffff00fefe
01fe00ffff0100fefe01fe00fe01000101fe00fe0100010101ff0001fe00000000fefefe00fe0000ff01fffffefefefe01ff00fefffe0100fffe01ffff01fe01
fe000100ff0000fefe01fe0101fe010101fffe01fe00fefeffff01ff0101ffff01ffff0000fefeffff0000ff010000000001fe0100fefe01fefffe0101ff0100
00fefe01000101ff01fffffffeff0001fffe000100fe01fefe00feff00ff01ffffff00ff000100000101fffeff01fffffefefffe010001fe00ffff00fe010001
000100fffffe01ff01fefe00fffe0001ffff01fefffffe01fe01fefffefe01fe00feffff00fefeff01fffe0100fefe000100feff00fe00fe01ff01ff01ffffff
ff010101fe0001fe00ff0000fefe00fffffffe00fffe01fe00ffff01ffff01fffe01000101fe000000fffeff00ff000100ff01ffff0101fe01fe0000000100fe
fffffefffefeff01fe0100010100ff01000001fefffe0001fefffeff01fe0100ff00ff00fffefefefefefffeff01ff00fe0000fe00ff01010001fefefffefeff
00feff01fffe0101feff0100ff01fe01feff01fefe0000000100fe00ff00ff010001010100fe01fefffffe0100fefefefeff010101ff01ffffff01ffff01fe01
00010001fffffefefefeff0101ff01ff0101fffe01fe0000ff0000feff010101ff0000ff00fffe00010001ff01fe00fefe01000001ffff0100fefefffeff0101
0001fe00fefefeff00fffeff01feffffff01fefe0001ff01ff000001fefe01ff01fefe0101ff00fe01fffefefffefe0001010101fffe00ff01000000ff000100
0101ff0001ff01ff0001ff0000feff01ffff000101feff00ff010101fffffffeff01fe00fefefeff0100ff01fe00ff01fefefe01010100fefffefe01000000ff
01fefe00ffff01fe01fe01fffefefefe00fe010100feff01ffff0000ffffff01ff00feff01fe01ff0101000101fe01fe0001fffefefffe0101feff00ff010001
fefe0000ff00fefefeff0100fffeffffff01fffeffff000100ff000001fffe000101fe00fffffffefe00ff01fffeff00fffefffefe00fe0000fefeff01ffff01
fe00ff00fe01feff00fefffefefeffffffff00ff0101ff00fefeffff00fe0101fefefe00ff0000010001fe01fe00ffff00feff01fffffefe01ff01fe01fffffe
01fefe0100ff0000fe00feff00ffffff01fe00fefefe0001fefe01fffffe010000ff01fe0100feff01ff000100fefefeff00ffff00fefe0001ff01ff000001ff
fffeff00010101fe0001fffffffe00ff00feff0100fefe000000000100ff00fffeff00000001ff0000feff00fe01fe0100ff010001fe00ff0101fffefeff0001
01fffeffff01ff01fefefffffefffe0100fefefe00ff00ff00fe0000fe0001fffe010100ff01ff0101ff01fe00fe000001ff00ff010000ff01fffe000001fefe
00000000fffefefe01fefe00feffff00000001fefffe0000ff00ff00fe0001ff0100fe01fe00fffefe010100fffffffe0000fe0001000101000001fffe0100ff
0000ff01ff00fffefffeff00fe01010001fe000001fe0100fe00fffefeff01fe000000000100fe01ff01010100fffefe0000ff010101ffffff000101fffeff01
00fe01ffff01fe01fefffe0101fe00fe01fefe0101ff0000ffff000000ffff010100fffefffeff0101fffefefffeffff01ff0001fefeffff010100fffefefeff
ffffffff0000010001fffffefe00ff01fefe01feff01feff01ff00fe00ffff000001fffe0000fffefe00fffe01fefefffe00ff010101fe00ffff01fefe010000
01fefe000100ffff0101feffff00000101fe01feff00010101fe01000001fefffffefeff010000ff0100ff00fe00ffffffffff0101feff010001ffff0000ffff
