fefffefefefffeffff01feffffff0101fffe00ff0100fe01fefefffffffe00fe010100fefe0000ff01fe000101ff01fe00feff000101fefe00fefefe01fe01fe
01ffff00fe0100fefffe00fffeff01ff0000fe00fefffeff0000fefffffffeff0100fe0100fffefffeff0100fffeffff010001fe00fffffefefffffe00fffffe
01fe00fefe0000fffe01ffffffff0000fffffefffffefffeffff0000010101ff010101fffeff01010000ff010100fe00fffe01ff0100000100010101fffffe00
fe000100010100fffffeff01ff0001ff00ff01010100ffff00fe0001000100fe0000fe01feff00fe010001fefeff010001010001fe01ff01ff0001fe01010001
