01010101fefffefe00ffff000000fefffe01fe00000001ff0101fefe00fefe0001ff0001ff0101fffffffefffeff00000001fffeff0100010100ff00ff0101ff
ff010100000101fe0101ff0000ff01000001fefe010001fe00fefffefefe00fe01fe01ffff01fffe0000fefefffe01feff000101fe01feff010100fffffe01ff
ff0000fe00ffff0001fe00ffffff0100ff0101feff00feff000000fefe0000ff00fffefefe00fffe00feffff00feff0100fefeff00fe0000fe00ff0100fefefe
fe00ff00fe0101ffff000101000001010000010100fefe00fffeffff00ff01fffffefffe00ff01feffff000001fffe0101ff00ff0000fefeff01fefffe00fffe
00fefffeff010101fe00000001000101ffff010100feff010100fefefe00ff000000fe01fe0101ff00ff01ff00fe00fe00ffffffff000000ff00ff00fefffeff
00ff0001000100fe00fe000001fe0100feff00feff01fffe01ff00feff01fffefefefeff000100ff01ff010101fe01fffeff01fe01010000fffeffff00010001
01ffff0100fe00fe01fefffe0100fe0000fefefefefe01ff01000000fefffefefe0100fefe01fffffffe00fe01ff00ff00fe000000fefe01ff010100feffff01
0101fe0101fffffe0101ff00fefefffefe01fe00fefefffffefffe010101feff01fffffe01fffffe01ff0000ff00fffe01ffffff01ff01fffffefe010001fefe
00000000000000000000000000000000000000000000000000000000000000000000000000000000000000000000000000000000000000000000000000000000
ff000100fffe00ff01fe0101fe01010101000100ff0000fe010001fffffe0100fefe00fffffeff01fe01ff01fe00fffe01fefefeff00ff00feff00010101ff00
ff0000fe00ff01000001fffefe0001fe0101fefefeffff000000fe01fe01010000fefe000001ff01ff010000fe000001feffff01000101fe010000ffff00fefe
0000fe0101ff0001ff010100fffeff01fefefefe0000ffff0000fffeff0000fe01ff01fe00fe01fffeff00000001ffff000001ff00ffff01fffefefffe01fefe
fe00fefe0000fefffeff0000fefe010000ff010000fe010100feff0100fe01fe0000010100fe0000fffffe00feff01fefe0101fefe0101ff000101ff00fe0000
ffffff01fe000101fe0100ff0000fffe0100fffeff0000ffff00ff00ff01000000fe00010000fe01ff00fefeffff01feff01feffff0001ff0101feffffff0101
00000101ff0000fefeff0101fffefe0101fefe010000fe00fefe0001ff01fffefe0000010000ffffff00fffefeff00fe010000fe01fffefefeff0000fefe01fe
01fe01fe000000ff00fe01fffefefefefffffeff000001000100ff00fffffe01fefefffeff01fe000001fefffeff00fe01fefefffe00ff01ff0001fefffffe00
fffe010101fe0100ff00fe0000fefe00fffefe01feff01fefffe00fe01ff00fe01fe01fe0000fe010100fffe0100fe000000fffffffffffefefeff01fefe0000
00000000000000000000000000000000000000000000000000000000000000000000000000000000000000000000000000000000000000000000000000000000
ff01000000ff01fffe0000fefefefe01ff01feff00fe01ff01feffffff00ff01fe00fe00fefe01fe00fffeffffff01ff0001fefefe01ff0000fffe00ff000000
0100010000feff0001ff010100fffffffffe0100fffefefeff010000feffff0001fffe00fefe01ff01ff01ff00ff010101fe00fe00fe00000001fe0000fffefe
fffffefffe01feffff00fefe0101000001fe00fe00fe00ffffff01fefe0100ffff010100fffefffffe0000ff0000fffffefe010100fefffefe01fe01ffffffff
fffeffff000101fe0101000101ff00fe0101fefffe00fe000101fe010001010001ff000000fefffeff010101010000000100ff00ff01fffeffff0001fefe0101
0000fefffe00000100fffeffffff00ff01fe00fffe00ff00fe01000000fffe01ff0000fffeff00fefffffe00fefe00fefeff01010000010001000001fe0000ff
fefe0101fefffe0000ffff01ff000001000000ff00ffff01ffffff01000100fffeff01fffe000000ffff00ffff00feffffffffff01fffefe00010000ffffff01
fefffe0001fe00ff01fffe01fe01fefffffefffefffefefefe01fffefe00ff01ff0100fefe01feff0100ffffff010000ff0101fefe00fefe01fe00fffe010100
0000ffff000100fe01fefffffeff00feff0101fffffe01ff0101fe01fe00fffffffefffefefe0100fefe010100ff01010100fefeffff0001fe0101ff010001fe
00000000000000000000000000000000000000000000000000000000000000000000000000000000000000000000000000000000000000000000000000000000
