fe0100ff00fffffffffe01feff00fe00fe01feffff00fe000000fefe000000ffffff0101010100feff00fe00ff00feff0100fffffffe01feff01ffffffff0101
fffffefe010100010100ff01fefe010101fefefefffe0000fefefffffeff00fefeffff000001fffefeff0100ff01ff000001feff010100ffffff000000fefffe
01fe00ffff0001ff00fefefe01fffe0001fe00ffff01ffff0000010101ffff000001ff01fefeffff01feff0101feffff00fe0100fffe00fe01fffefeff01fe00
ffff00fe01ff00fffe01fe01fefffffeff01fefefe000101fe01ffff0101000001ff0000fffffefffffe01fefeff0001fe0000fe00fffefeff00ff01feffff01
ffff01fffeff0100fefeff00fe00fe0001fefefffe01fe0101ff00fe0001000101000100ff00fe0001feffff0100fe0000fe00fe01fe01fe01fe010101ff0000
0101fe0000fe01ff00ff01ff010100feffff010101ff01fefe00ffff01ff0100fefefffffefe00fe00ff00000101fffefffffe0001feff01fffeff0001fe0000
01fffe0100010101fffffe000101fe00fefeff0101fe0000fefeff0100feff01ff0101fe01ff01feff00ff0100fe00010000fe00fffeff000000fe000001fffe
00fefe00ff01010000fffe0001ff01fe010000fe00fe01fe01fe01010101fffe01feffff010001fffe00ff000100fe00ffffff0101fffe00ff00ffff0101fe00
ffffff01ff01fe000001fe00fe01fefffffffeff01010100ff0001fffefeff00fe01fe01fffe01fe00fe0001fffe00ff00ffff01000000fffffe01fffffe01ff
01fe00ffff010101fefeff0000fffffefffe00010101fefffffe000101fe010100fe0001fefffffffe0101ffff00fffffe00ffff01feff01fefe010101fe0001
00fefeff00ff0101ffffff00ffff010100feff01010101fffe010101fffeffffff00000001feff00fefeff00ff0001fe01fe01ff0000000001ff0101ff010000
00ff00fe0001ffff01fe01fefffe01ffff00ffff01ff0001ffffff01fe0001feff01fe01000001ffffff00feff00ff0000fe0000000001fffeff00000101fefe
0101000000000100ff0100ffffff00fe01fefe01000100fffeff00fffe0001fe000001fe0101fe00ff0100ff00010100ff00ff01ff00fffe0100000001010101
ff01fe01fefe000001fefe000101fffffeff000001fe01fffffffeff01fe00ff010101fe0000ff00fffffefefefeff01ff00ff01ff0101feff000101fefe01fe
fefefeffffff00fffefffffe0101ffff01fefe0101fe01fe01ffff01fffefffffefe000101fefe00fefeff00fefefe01fffe00fffe0000ff0100fe000000fe00
fe00ff010000ffffff0100fe00ff01010100fefe0000fffffeff01010001fefe010101feff00fe00ff00ff0001feff0101ffff00fe0101ff0100000000ff01fe
01000101fe01fe00fe01ff01fffeffffff0000fffe0001fe00000001ff0100fefe00010101feff0101fffe01fe01000101fffefe00fffe00010000fefffe0000
ff00feff01fffe0001ff010001fe01fe0000feff000100ff0100fffe01fe0000fefeff0100010101feff00fffe0100010100ff01fffffe0000ff00fefe00ffff
01feffff01010100ff00ff010000ff01fefe0101fffffffefffe00ff00ff01fe0100feff01fefffffffeff00ff01ff00fefffe0100fefe0000ff01ff00fffeff
feffff0101ff0100ff010001000100fefeffffffff01fffefeff00ff0100feffff01fefeffff000100fe01fffffffeff000100000000000101fe00fefe000101
fe0000010000fefe01feff01fe000101fe00fefffe00ff0001ff0101feff000001feffffff0101ff0100fffffffeff0000ffff00fffffe01000101feffff01ff
fefeffff0100fffefefe0100fe01fffefeffff0100ff0001fe01ff00ffff01fffe00010000ff00000000010001ffffff01feff00fe000101feff01ff0100fe01
01fefe010000fefe01fffefe00ff00000100ffff00ff01fe0000000001fe010001fe010101fe00010100ff00fe0100ff0001fe00ff01010000fffe0000010001
fefe000001ff01000101ff01000000feff0000000000fffefffe01ff00fefe01010100feff00ff01ff00fffeff0000ff000001fffefe0100000001000001feff
