fffe01fe00010100ff01ff00feff0001fffeff01fe01fefe01ff0100fffffffeffff01feff00fffeffffff000001fffffe01fe000101fefefefe0001fe010100
01fefe000000fffefffffffeff00fefefffffeff010100fefffffffffeff0100fffefe0000fe00feff0001ff0000ffff0000ffff000001fe000101fe00feff01
fffffe00ff0101fffeff0000ff0001000101ff0101fffe00ffff01fefefffe01fffe0000000001fe0001ffffff01ff01fe00fe010101ff00ff01fefe01ffffff
fefe0000fefe01fffefeff000101fefe00fefffeff0001ff00ffff01ff000101ff00010100fe0100010000fffeff00fffefffe0100fefe01fffefefefe01feff
000000fefe00010100fe00fefffefeff0101ffff01010001000101fefe00fe00fffffffe01fe00feff0100fe0101fefe01fefffefefefe00fefe0001ff01ffff
fe000101010001fe01fefe0100000100ff00fe00ff000101010000010100010100fe00fefe01fe010001fe0001fe00ffff0101fe00ff01fffe00ffff000000ff
fffffffe000001fefffefe01fe00fffefe00fe00ffff01fe01000001ff01fefe01fefe0101fefffefffe0100fefe0001fffffe000101010000fffffe0101fe01
ff0001feff0000fe01fe00feff01fefeffff0100fffe00010100fffffe01feff01fffe0101feff0000000100fe01fe00fe010101ff00fe00000000010100fefe
00fefefffffefeff0001fefe0100ffff01fefffe00fefefffefffeff01fe0101fefeff0000ff00fe000100fe0101ff000101fffe01fffffefffeff00000101fe
fffeffff010001ff000100fffe00fffe00fffeff0101fe000000fe0101fefe0000fe00ff00ff0000000000fefe0100ff01fefeff01feffff0000fefe01ff0000
01fe000001fe01000000ffff01feff00fe000100fe010000fe0100fe010001fefe00feff0100ff00fefeff000000fe01fe00ffff01fffffefe0000ffff000101
ff000100fe010100fefffefe00fe0101ff00fefe0100fe00fffffefe01fe000001fe01feffffffff00000000fffffefe00fffe0001feff01000000fe00fffefe
fefefe00fe010001ff01ff0100fe00fefffe01fffffe00feff0101fe0101000101ffff00fe000001010101fffefffffffeff00fefe01fe00fe00fefe00ffffff
ff00fffe01fefe0000fe000101ff01ff00ff010001fffffefffeff0100ff01fefe00ff00ff0001ff01fffffefeff00fefefefe00010101feff0000fffefefe01
ff0001fe01000001ff01feffff010001fffefffe0101fffe00feff0000fffe010100ff00fffffe0001fffffefe00fefe0101feffffff01ff01fe000101feff01
0000fefefefffe0100fe00fffefefffefe01010001010001fe010101feffff0101fffffffefefe0100fe01ff0000fefffe01fe00fe00feffffff0100ff0000fe
