ffff01fe0000ff0000feff01ff0101fffefe01feffff01fefeff0001feff01ffff00010001000100ffffffffffff000001fe00ff010101fefffe010000ff0001
01fe01ff01fe01fefffeff00fffefe0000ff0100fe010001feff0100ff00000100ff00ff00ffff0001ff01ff01fffeff00fefefefffefe01fffefefe0100feff
fffffeff00fe00ffff01ff01fefe010101ff0101ff01fe01fefefefefffefefe00fffefe0100000001fefefefefe01ff00feff00feff0000ff010100ffffff01
00fefe0100ffff01fe000100fe0001fe00010100feffffff01ff01feff00000100000001fefefeff000101fefe0001ff01fe01fefeff00feffff01010001fefe
