ffff00fe0101000100ff01ff00fe010001000000fefeff0000fefefffe010000fe01ff01ff0100fe00fefefefe00010100fe01fffe01fffeff01000001ffffff
000100ff01fffffffe00ff01fe0000ff00ff0100fe01fefffefefe01fffeff0101fe0101ff000101ffff00ff0100fffeff01fefffffeff010001ff01ffffff01
ff00fe01ffff0101ff00ff01000001010000fe0000fe0100feff01fefeffff0100fe0100ff01ff01fefe0000fffffe010100010001fefffefffe010001ff01fe
ff01ff000100ffff00ffffff00fe0100010001fffefe00fe0100ff00ff0001feff00fefe01feff0100ff01fefeff00fefffefffffefefe01fe01fefefefffefe
fffe0001fe0001ffff000100fe01fffe00010001ff00fe01ff010001fe0001fffe0000fe01ff00fe0101fe00010101fffe00000001fe01feff010001fe01fffe
fefefffe01ff01fe0100fe0100ff00ff000101010101ffffffff000000010101000000010100fffe010001fefffffe000100ff01fffe00ff000001ffff01feff
0100fe010100fffeff00fe010001ff01000000010100fe00010000010101fefe0000fefefe00fefffffe00000001fe010000ff00fe01feff01fffe00feff01fe
ff0000010001feff0001fffefe0101ff0101ffff00ff00ff01fe00ff00ff01feff01fffe0001fe01fffefe00fe01ff01fffe00ff00010100fefe000000fefffe
fefeff01ff00fe01ff00010000fffeffff01fffe01fefffe01fe0101ff01fe00feffffff0000ff0101feff000001010101ffff010101ff010101ffff01010001
ff0000ff01fffe010000fefeff000001fe0000000101fe00ff01feffff00feff01feff01fe00fe010100fefffefffeffff00ff0100fffefffefe00fefefefefe
ff01fe00fe00fefffe00fffffefe0000010000feffffff01fe010001fe00fe0000fefe01000100ff01ffffff010101fe0001000101000001feff01ff0100ffff
01fe0101ff010000ff0000ffff01ff00feff00fe00fe01fefefffffffffffe00fefeff0101fffefefe01fe0101fe000100ff00fe000000fe00ff0000feff0001
fefffffffffffefe00ffff00ff00feff01ff0001fefffeff01010100fefe0000feffffff010100ff000001fe0000fe0100ff000000ff01ff00fe01fe01ff01ff
00fffffeff0001feff010101fffffe0001fffefefe00fefe00fe0101010100fe0101feff00fefe01fe00ffff0000ff00ff00ffff00ff01010001ff01feff0001
feff00fefffffffffe00fffe0101ffff01ff0101ff0000fffeffff000001fffe0000fe01fefe01fe01feff01fefefe0001010001ff01fe00feffff01fffeffff
0100fe00fffeff0000000101ff0000fffffffeffff00ff01feff010000fefe00feff00fe01ff01fefeff000000fffefe00fe010000fe0000feff00fe0100fffe
