ff0101fe01ff00ff000101fffe00ff0101fefffeff00fefffe01ff01000101fffffeffffff01010100fffefffffefefe0001fffffffe00ff0100fefefe010001
ff00fffe0000fe01fefe00fffe000101ff00fe01fe01ff01fe010101fefefe00fffefffefefe00fe0100ff0001fe00fefefe0100000101fe00fefefefe000001
ffff00fe00ff00fefefe00ff01fffeff0101feffff00fefefffffefeff010100fffe000101fe01ff00ffff0100ff00ff010001ff000101fffefffe01fe00fe00
feffff00ffff0101ffff00fe00ffff00fe0100000101ff000000ff00fe01feff010001fffe01fe00ffff000000fe01ff000100010100fffefe0000fefe01fefe
01000001fefefefffe00fe0101feff01fe00fefffe000101fffe010100fefefefefeff0000ff01ff010000fffeff0101feff01fffe0001fefffffe0100fffeff
fffffefffeff01ffff01feff0101ff010000fe00fe010100ffff010000fefe01feffff0000fe0101ffffff01fe0000ff010101fe0100fffe00ff0001feff0101
0000fe0001feff01fffeff00000000fffefe00feff010000ff0101fffe0100fe0001fefefffffefefefffefefffe0000fe0101fffe01ff00ff01fe0000fe00fe
ff0001ff010101ffff01fffffefe01feff000101fe00fefeffff0101ff01000000ffffff00fefffe0100ff010101fe00fffefe01fffefeff0100fe000000fe01
010101fefeff0001fefe00010101010000000101ff01fffffefe01ff0100fe00010101ff000100010000ffffffffff00fffefe00fe01fefe01ffffffff01ff00
ff0100fefffeffff0101fe00010101fffe00fefefffeff0000ff01fffe01000101feffff01fefefefffefe01fffefefefffe0101fefffffefefe01fffffe0100
00fe00fe00fe0000fffefe01fe00fefeff0000ff00fffeff00ff0101ff0001ffffffffffff0100ffff0100010001ffff0001ff0101ffff01fefffeff00010001
00fefe01ffffff000001fffe0101000001fe0000fe00fffffefe0101fe0000fffefffefefe0100fffffeff0101ff00fe01fefeff010000fefeffff0001fffeff
0101000101fffefefffe00ffff00ff01fefffe000101fe0100fffe01fefe00010100ffff01fe01fffe00ff00ffffff00fffffefe00ff01ffffff00fefe010101
ff01000101fefe0101010001fffe000000fffefffe01ff0101ff000100ff000100feff00ff00fe01fefe01fefefefefeff00ff0001000100000001ff0000feff
00fefffffefeff0001ff00010100ff0001fffffefffefe01fe000100ff0000000001fefefffefefffefe00feff00fe000101fe0001010000fffe0100fe000100
00fefffe010000fe010001ff0001010100ff0101ffff010101fefefffefffe0100feff0100000000fe000100fffe00fe00ff00000100ff000000ff00ffffff01
