01fefe01fe01feff01ff0000000000ff000100fe0000010000fefe01fffeffff0000fefeff01ffff01fffefefffffefe00fe010101fffffe01000000000000ff
fe01fffe00fe010001fe00ff00fffe0001fefefe01fe000100fe01fe01ffff010000fefe00fe01fe01ffffff00fe01feffff00fefefffe01fefffe010100ffff
0100ff01ff01fffefe01fffe00ff000101fe00010001fe01ff00feff00000100fffffeff0101ff01fffe00fe01010000feff00fffe00fffffe01fefe00ff01ff
fffffefefeff00fffefffffefefefe01fe01fefe00ffff010100000000000000fe000001ff0101fe0001fe01ffff0000ffff0101fe0101fe00fffffe00ffffff
feff0000ff0001fe000100ff00ffff01fe000000ff0001fefefefffe010100fe00fefe0001fe0000fffffe010001ffffffff00ffff01fefe0001ff01fffffeff
0000fffe00fffffffefffe01fefffe00000101fefeffffff0001000101fe01010101000101ff0100010101fefefefefffeffffff01fffe00fffffefefe01ff00
fefe0101fffeff0000fffefeff00fe01feff0001fffe01fe0100fefe01fffe01fffe00000101ff0101fffe00fe01000100fefffffefe00fe01ff00fffe000101
01fefffffe00fe00feffffff0001fe01fffe00feff01ff00ffff01fffeffff00fffe0001ff010100fe00fffefffffe01fe01fefefffefe00ff00ff00ffffff00
0000fe000001ffff0000fefe00ff0101fffffefe00feffff0000ff00fe0100fffe0001fe0101ff00ffff01ff00fe01ffff00fefe01feff00000101fe00fe01ff
fefe000001fefefefefefffe000001000101ff01fe0100ff0001fe00fe01fffefffefffffe0101ff000101fe01ff00ffff010100fefe00010000fffefeff00ff
000000fe01010001fe0101fffeff0100000100ff00fe000001fe0101fffe00feff0000ff0100fefe0101fffe0000ff01fe00fe000100010001fffffe000001fe
ff01fe0001feff000100fe01fffe00fffe00fffeff00feff00010101fe0100ffff00fe00fffffefffe0100ff00fefe00fefffe00ffffff00fffffe000100fe01
ff01fe0100ff010001ff000000fe0100fefe0001fffefe00fefffe01fffeff01fefe00fe01fe01010000ff000100ff00fe01fefffe01ffff0100fe0001fefe00
00fefffefeff0100fefe00fffe00fffffefe00ff0000010101ff01fe00fffe00ffffffff00ffff01fefeff01ffff000101fe0100fe0100ff0000ff0101fefefe
ff0100010100ff010101ff00010100fffe01fe000001fffffeffffff01000001fe010101ff01fffefe010100fffe00fe01fefeff0100010101fe0000ff0000fe
ff00ff0001feff01000101fffefeff0100fe0001ffff0100fffeffffff01000000fe00feff00ff0101ffff0001fefe01ff01feff010000fe0100fe0101fffffe
