ff0001ff01fefefffffeffff010001ff01fe00ff00fffeff01fffefe0101fffefffefe00fe01010101000101fefeff000000feff01fefeff00fe010001000101
00fe00fe01fffefe00ff000001fe0100ff01fefffe01fffffffffe01fefe01ff0000010001fe010000fefe01ffff00fe00fe0101010100010001ff00ff01feff
fefe01fffe0001fe00ff00000001fffefe01feffff01fefefffeff0100fffeff00feff01fe0001ff010000fefffe01ff00fe01fffe00010100fe00feffff00ff
feff010001ffff0100010000ff000001ffffffff00feff01fe000001ffff0100fe00fe0000fefeffff010000fffffffe01fefe01fefffe01ffffffffff01fe01
fe00010101fefffe0101ff00fefe00fffefe0100fe0100ff01ff0000ff00fe010101fffe01ffff0101ff00fefe0100fffffefffe01fefefe000100ffff0101ff
00fefefefffefefe000000010001fffe0100fefefffeff00fe00ff00ffff00ff00ff00fffefefeff0100feff01fe00ff000000fe00fffefe0001fffe0101feff
00fffefefeffff00fefe01fe0001fe00fefe00ff0101fefe0001ff01fe000000fffefeff01feff0000feff0101fe01ffff01fefffe01ff01fefe00fefe00ff00
01000000fe01fe01ffff0101fefe0100000101fffe01fefefe000101fe00010000fe01000001000000ff00fffe00fffeff01fefeff01ff01fefffe010001feff
00000000000000000000000000000000000000000000000000000000000000000000000000000000000000000000000000000000000000000000000000000000
00fefeff00ffffff00feffff00feff000100ffff00fffeff000100fe01fefe000100feff00fe01ff0100fefe01ff000101000100fe0101ff0100ff0001ff00fe
ffff0100ffff0000feff00010101fefffeff01ff000101ff01ff01ff0100fefe01000001ff00fffefeff01fe00fffeff00000100fefe0101ff00ffff00fffeff
0001fefefffffeffff01feffff00010000ff0001ff00ff01fe01fe01ff00ff0101010100fe00010100ff01fefe0001fefe01fe00fe0100feff01ff0101ffffff
fffe00fe010000fe01fe00fffeff01fe0100ff01000100fffe01ffff000101feffff0000ff00fffefeff0100000101fefefe01ff000101010000ffff00fe0100
01ff000000ff010000ff00010000fffe00010101fffffefffefefe010001fefffe00010000feff00ff0001fe00ff0100ffffffffff00010000fefffefffeff01
ffff00fffeff0101ff00ff000100fefe01ff0001fffe0001fe01010000ffffffff00fffefe0001010100fe0001ff01feff01ff000000ffffff01fefefe000101
01fffe01ff000101fffefe00fe00fefeffff010101010100fffffe00fefe0101ffff0001fefe00ff0101ff00010001feffff00ff01fffefefffe0000fffefffe
fffffe000101fe01ff0100feff0101ffffff00ffff0000000101fffffe01fefefefefefeffff0000ff010001fe01fefe0101feff00ff00000000ffff00fefffe
00000000000000000000000000000000000000000000000000000000000000000000000000000000000000000000000000000000000000000000000000000000
fefe000100fe01fffe010101ffff0100ffffff01010001fe01fefffefefeff00fffeffffff00feff00fe0100fffffefefffe01000001000000feff00000101fe
fffe01fffe01fefe0101ff00ff00fe0101fe00ff010101fffe00feff0000fefe00ff0000fefffe01fffe00fefe01fe0100000100fffffffffeff01fe0001ff01
00fe00ff01fe01ff010000ffff010000010100fefeff01fefe00fe00ff0001fefffffffe00ffff0000fe01fe00fefefe0101ff0001fe0100fe000101ff00ffff
00fffffffe00fefe0000fffeff00010001fe000101ff00ff0100fe00fffeffff0100000101fe0100fffe000101fe01fefe01010001fefe0101fe00feff01fefe
010001fffefefe00ff00feff00ff0000000001ff00fe010100fe01fe00010000fefe00000101ff00fe0101ff0100fefefefffefffeff01ff01ffffff00fefe00
00fe00fefefe0000fffffffe01fefefe01fe000100feff0101000101ffff0001ffff01ffff000000ff00fe01fffe00ff01fefe00fefeff010000ff00fffe00ff
0100fffffeff0000fefffe00fefffeff00fe01fefe010000fefffffffe01feff0001fffe0000fefffe01ff00fffffe000001ff010100fe01000101feff00ff00
0000ff0100fe00feff00fefefeff00ffffff0100fefe01feff010000ffff00000101fefffe01ff000100ff0101fe01ff010000ffff000101fefeffff000001fe
00000000000000000000000000000000000000000000000000000000000000000000000000000000000000000000000000000000000000000000000000000000
