00fe00fe000000fefffffffeff010100ffff01ffff010000fffefefe01fe00000100ff0100fffefefe0000fefeff01fe000101ffff0000ff0101ffffff0000fe
01feff0101fe01feff0000fe0101ff01000001fffffefffe000001fefffeffff0001ff01fffeff0101fffefffffe01ffff01ff01ff0101fefefefefffe000001
0001fefe01feff0000fffffe01fe0100010001fefeff0001fefefffe00fe01fefe01fffefffefffe01fefefe0001fe01fe00ffff00feffffff0101feff01fffe
fffe01fe0000ffffff01fefffffe01fffefe01feff01fe01ff0100fe0101fffe00ff0100fffefffeff01ff000101ff01fefe01ff01feffff01feff01fffe0100
feff01ffff0001fffe01ff01ff0001ff01fe0000fe0101fe0001000101010000fe01fffeff0000feff01fefeffffff00fe010001ff01fffefeff01feff01ff01
fe0001ff0100ff0101fffffeff00fffffefe0100ff0001ff0000fffe00fffefffffe01fe0101fffe0001fe00fe01fe01ff00ff0101feffffff000001fe00feff
feff01fe00fe010000fffefe0100fe0101fffefe01ff01fffefe01fffffe00fffeffff0000fffe0000fffe01010000010101fefeff0001fe0101fffe0001ffff
ff00010001fefffeffff01fffe010101ff0101fe00feffff0100fe0100fe0101fe00fffe0100feff01feff01fe00fefefe00fffe01fe01ff0100fefe0001fe00
0100ffff00ff01ff0001fe00010001fffe00ffff01fffe01fe00000101ffff010101feff0101feffff01fffffefe01fe00fffefefefffe0001ffff01ffffff00
ffff01fffe00fe00fe01ffff00ff00fe00fffe01fe01ff00feff01000001fe00feffff0100010101fffe0001feff01010100ff0000000000fe00fffe01fe01ff
00ff01000100010000fefe0100fe0000fefefe0001fefeff00fffffefeff010101fe010000ff0101ff0000ff0000ffffffff00ffff00ff0001feff01feffffff
0100000000fefefeff0001feff0001fe010100ff010001fe00ff0100fffe00fefefefefffe00feff00ff000100ff01feff01ff0100ff0000fe01fefefffe0100
fffffeff01fe010101fffefe01fe01ffff00fe0000fefffefefe000001fefefffe01ff0101ffffff01fe01fffefe01fffefffeff000000fffeff010000ffff01
000001fe01fffeff010000fffe010000fe01ff01feffff000100ff0001fe00fefe01ff01fefffe00ffff0101fe0001ff01fffefefe00ff01fe00ff00ff000100
fe01feff000100fffe01fffffffe01ff0001fe00ff00fe0001fe01ff00feff00ffff01010100feffff0001fffeffff0001ff00fefefe0001ffffff00ff010001
fe01fe01fe0000fe00fe00fffe01fe0101ff0001fe000101ff00feff0000ff0100fefe0000fffefeff0101fe01ff00fefe00ff00ffff0100fe0101000000feff
