010101fffe00fe0000ff0000ff0101ffff01010101fefefe010101ff01010100000000feff00fefffe00ff010100fefefe00fefe0100ff00ff00ff00ff0101ff
0100ff0000ff00fffe010101ff0100ff0100fefe00ffff01feff00fe0001feff000100fe00fffffefe0101fe00fefffefe01fe00ffff01000101fffffefefeff
01ff00010000fffe00ff010101ff00ff00fffeff00fefffe0100ff01ff0000ff000000fefefe00ff00000000fe00feff01ffff00feff00fe0100feffff00fe01
010000ff00ffff010100000000ff00fe000100ffff01000001fe01ff01ff01ff01000101fefefffefe01fe010001fe00000101fe0000fefefe00ff00fefefe00
0100ff01ffff000000ff010000feff00ff00fffeff01fe0001fe010000ff00fffe00ff0100fe000000fe01fffeff01fffffeffff00fe0101ff000101fefe0101
ff01fe00feffff01ff000100fe0101feffff01fe00fefffe01feff00ff00fefefefefeffff010101ff0001ff01fffe00fffe00feff00fffffefefeff01feff01
0100fffe00feff0100feff01fe0001000001000101ff01ff0101ff010001000101fffffffefe0000fefefe0001ffffffffffff00fe00fffe0001fffefffffe00
0100fefffe00fefe0000000101fe0000fe0000fffeff00fefffe0000ff00010101010101fffefe0101fffefeff0101fefeff01fefffffe01fffe01feff00fefe
00000000000000000000000000000000000000000000000000000000000000000000000000000000000000000000000000000000000000000000000000000000
ff0000fefe00fe00000000fffffe000101010001ff010001000000ff0100fe00fe0100fefffeff00feff000000ff000100fffffe0001fe01000001ff010001fe
fe01fe0000ffff00fe0001fffe01000101010101fffe00ff0101fffefefefffe00ff01ff0100010100ff01fffe0000ff00ff01feffff0101000001fffefffefe
00fefefeff0000ff01ff01ff010001010000fefe00fe000100ff01fffffeff00fefe000001fefe01fe010000fe000100fe01ff00ff0001fefe00fefffefffe00
0101ffff00fefe00fffe00fe00fefe01feff0100ff0001fefffe0001fffefefffefefe00fffffffefffffe00010001feffff00fe010000feff01ff010100fe00
fefeffff00ff0000fffefe0101feff0101000001fe010001ff0001fe01fe0100ffff00fe010101ffffff00feff00000100fe0001ff01fefe01ff010000fe00ff
fffefe00fe01fffeff01fffffe0100ff01ffff01000100ffff0100fefe0100ffffff0100010100ff00fefe01fefe0101fffefeff00010000ff00fffe01fe0101
ffff0000fe01000100ffff00fffefefefefe0101fffefe01ff00ff0101fefe0101ff0100fe0100010001feff0101fffffe00ffff01fe0100fe0000ffffff0000
00010101fffefe0100000101000000fe000100010001fefefe00fefeffff0000fffefffe000101fffe00feffff01fffffe00fefe00ffff000100feffff01ff01
00000000000000000000000000000000000000000000000000000000000000000000000000000000000000000000000000000000000000000000000000000000
00000000000000000000000000000000000000000000000000000000000000000000000000000000000000000000000000000000000000000000000000000000
00000000000000000000000000000000000000000000000000000000000000000000000000000000000000000000000000000000000000000000000000000000
00000000000000000000000000000000000000000000000000000000000000000000000000000000000000000000000000000000000000000000000000000000
00000000000000000000000000000000000000000000000000000000000000000000000000000000000000000000000000000000000000000000000000000000
00000000000000000000000000000000000000000000000000000000000000000000000000000000000000000000000000000000000000000000000000000000
00000000000000000000000000000000000000000000000000000000000000000000000000000000000000000000000000000000000000000000000000000000
00000000000000000000000000000000000000000000000000000000000000000000000000000000000000000000000000000000000000000000000000000000
00000000000000000000000000000000000000000000000000000000000000000000000000000000000000000000000000000000000000000000000000000000
00000000000000000000000000000000000000000000000000000000000000000000000000000000000000000000000000000000000000000000000000000000
