ff00ff0000fe00010101fffe0101fefffefe00feffff01fffe00fefe00000101fefefe00010001fe000101feff0100ff01fe01ffffff00fe01fe00000001feff
00feffffff00fe01ff00fffffe0100ff00000101fefffffefefffe0101fffe00feff0101fe010100fffefe00ff010001fe01fefeffff00ff01ff0100fe00fe00
00010000fffffefe01fffe01ff000001fe00ff00fefe0101fe00ffff000101feffff0100fe00fe000100feff00fffe01fe0001fe0101fefefe010101ff010101
0100fe0100fffffffe00010100fefefefffeff00fffffffffefe000000ff0001fffefefeffff00ff0001fefefffefe00feff0001fffffffeffff010001010001
01fefffffffefefefefefefffe000101ffff000100ffffff010000ff01010000fe010001feffffff0000ff00000101fefefeff0001fe01000100ffff010000fe
fe01000000fffe010000feff0001fefffffe0000ff0101feff01fffeff00ff00ff00ffffff0001fffffe00ff00feff01fe000001ff0001ffff01ff0000fe01ff
01fefefffefffe0100ff0000fe0100ff010001fefe0000ffff0000ff01fe00fe01fe00fe00fe01fe01010000feffff0000ff000000fffe000101fffefe010100
0100ff0101ff01ff01fffefffeff01ffff01ff00fe00fefefffe00fffefffeff0000feff0000010001ff0100fe00ff00ff00fe0001fe01fe0100000100ff0000
00000000000000000000000000000000000000000000000000000000000000000000000000000000000000000000000000000000000000000000000000000000
01fefe0000feffff000001fefefe0001fffefe00fe0000ff00000101fe0001ffff01feff000000ff010000fffefffefeffff0000fefffeff0001fefffe01feff
01ff01fffe0001010001fe010001ffffff00fe00fffe01fffffffffeff01fffefefefe01fffe010100ff00fffefefe01010101ff01fffe00fe01ff01feffff01
feff00ff01fe010100fefe00ff00fefe0000ff000101ffffff00fe01fffe01fe010001fefe01fefeffff000100fefe00ff01feff0100fffe01010000fffe00ff
feff0001ff00000101fe0101fefefefeffff01fffefffffe0000fefeff00000101fe01ff01fefffefe0101fffe00000001fe00fe00ff0001fe01fffefefeffff
01fe00fe000001fe01010100ff0000fe00fefefe01ff00fe0001feff01fe0100000100fffefffe00fffffe010001fe01fefe0001ff01ff0000fe0100fe0001fe
ff00fe010001000101fefffe01ff000100fe010001fefffe01000001ff0101fe00ff0100ffffff0001fe0100000001010001feff01fefe00fe0000fe00feff01
fe010101fefe000000ff0100ff00fefefe01010101ff0101fefffffeffff01000101fe0101feff00fe0101ffff00feff01fefe00feff00010001feffff01fefe
feffff00ff000001ff01fefe0000fefefeff00fefffe0100fffeff01ff01fffe00fffe01ff0000ff010101fe01ffffff0100010000fe0001fefffe00feffff01
00000000000000000000000000000000000000000000000000000000000000000000000000000000000000000000000000000000000000000000000000000000
01fe0100fffefeff01feffff0100010000ff01fffe00ff01ffff01000001ff01fefeffff010001ff01ff00010001feff01ffff000000fefe01fe00010101fe01
ffffff0100fefeff00010001ff01fe01000001ff01010001ff0001fefe01fefffefe01fefffe01ff010101fe01010001fffeffff00fffefffffeffffff010101
fffe00fffefffefe0101ffffff0000fffe00010100ff00fe00feff01ff00fffffe000000ff0101010000fffe0000000001fe00fffefffefffe010000fefffeff
00ffff000101010001ff00fffffeff000100fffffffefe00fffe010000ff0000ff00fe000000ff01ff0000fe0000ff01ff00fe00010101010101ffff01ffff01
0001fe0000fefe00ff0001000001000001fefffe00ff0101fe0101fe00fe0001010001fe010001fefefe00fe01fefefefefe000000ffff01ff01fefefe00ff00
0100fffffe01ff01010100feff00fffe01ff0001ff0001fe00fefe00fefefffe0100000100feff0101feffff01ff010100fefe010000ffff010000ff00ff01fe
0001010101fe00ff000001ff000001fffffe0001fffe01010100ff00fefefe00fffefe01fefefe00ff00ff00000000fffefe01ff000101ffff0000000001ff01
00fe00ff0001010100ff01fefefefe00fffefffefffeff01000100fefffe01ff0101fe01ffff01fffefe000001000000010000fffe01fffefefffefefe000101
00000000000000000000000000000000000000000000000000000000000000000000000000000000000000000000000000000000000000000000000000000000
