fefefe00fe0001feff0101000000ff00fffefefe0000ff01ff00fffe00fefefe010100ff0100fe01010100fe00fe00fefefe01fe01feff00ff0001fffeff0001
000101000000ff000100feff00000100010101fffeff0000ffff00fe01fe0000fe00ff0101ff0001010101000000fffe00fe01fffffe0001fefffefe00fe00fe
fefe01fe0100fe00fffefefffffeffff00000000ff0000ff0000fefffffe01fffe000100ff01fefffffffefffefffffffe00fefe00fffe01fe010001fe00ff00
ff000000fe000101ff01000000ff0100fefefe01fe0101ff0000fefffefe0000fefefffffefefe0101000001000100ff0101000101ffff00fe00fffeff000101
feff01fffffe0001ff00fe0001010101feff0001fefefefe0101fe01010001fefefe0100fffffffe000100ff00feff00fffffeff0100fffefefe01fefeff01fe
ff00feff0000000100fe0100010001ff000101fffefffe01010100ffff0100fe01fefffefe0100fe000100010100fefe0000ff01fe00000000feff01fffe00ff
00fe0100ff00fffeff00ffff0000ffffff01fffefe01feff00010101fe0000010101fefefefefe0001ffff000101fe00ff0100fe000101fefefe00feff000100
0100ff00fffefe0100fe01fe00ff0001ffffff01fffeff0001fefeff01fefe01010000ff01fe000000feff0001ffffff0101ff01000100ffffff0100ff010101
0101ff01fefefffefe00fe00fe0101ffff0100ffff01fe0101feff0100fffffffe000000ffff01feffffff0100fefe010100fe01ff00fe0101000100feffffff
0000fefefffffe000001fefefefe01fffffefffffefe010001000101010001fe01ff01ff000101ffff0101ff01ff01fefeff01fe01fffffe0000fefe01000100
00fe000101010101fefffffeff0100010101fefffefffffffefe000001fefefffefffe00ffff01010000feff0101fe00feff0101fffe01fe01ff00feff010101
fffe0100feff0101fefffefe01fe01ff00000100fe000001ff0001fffe0100fe01fffffefeff0100ff01fe010001ffff0101feff000000ff0101ff0001ff00fe
01ff01ff0001ffff0100ff00fe00fe010100ff00fffffefe01fefefffe0001ff00ffff01000101fe0101fe0000fe00feff0101fefe0100fe0101fe00fe00fe00
fe01ff00fffe0101ff01ff00ff0101fe01fffe000000fe00fffe000001fffefeffff01feffffff00fe0000010000fefe00fe0000fefe00000000ffffffff0001
0000fe000100feff01ff01ff000100ff0000000000ff0001010100feffff0100ff010000fe0001010100fe01ff00feff0000ff00fffffffeff010001fefffe01
00feff00fe0000010100ffff01fe00ffff00ff01ff01fe01fefe01fefffffffe00fe01fe0100ff00fffefe01fe0001fffefe01ff0101000000ff00fffe01fefe
00000000000000000000000000000000000000000000000000000000000000000000000000000000000000000000000000000000000000000000000000000000
00000000000000000000000000000000000000000000000000000000000000000000000000000000000000000000000000000000000000000000000000000000
00000000000000000000000000000000000000000000000000000000000000000000000000000000000000000000000000000000000000000000000000000000
00000000000000000000000000000000000000000000000000000000000000000000000000000000000000000000000000000000000000000000000000000000
00000000000000000000000000000000000000000000000000000000000000000000000000000000000000000000000000000000000000000000000000000000
00000000000000000000000000000000000000000000000000000000000000000000000000000000000000000000000000000000000000000000000000000000
00000000000000000000000000000000000000000000000000000000000000000000000000000000000000000000000000000000000000000000000000000000
00000000000000000000000000000000000000000000000000000000000000000000000000000000000000000000000000000000000000000000000000000000
