000100fe000101fefe0101ff010001ff000000fe00fefffefeff01fffffe00000100fefe01fe0100000100fffeffff010001fe000001fe00fffffe01fe0101fe
0101fe01010100fe01ff00fffffffe0001fffe01ff010001fe010000feff0100ff00fffefffefe0100ff00000101fefe010101ff0001ff00fe00fe010000ffff
0001fefefffffe0000000001fe010101ffff0101fe010001fffffe0100fefefe0100ff01010001fe01ff00fe0101fe0001feffff0001fffeff0000ffff01fe00
fffe000001ff000100feff0101fe00000000fffefefe01fe01fe00000001ffff0001fe00fe00010001ff01fe00fe01fffeff0101fffefe000001fe00feffffff
01fe0000fe01fefffe01010100fffffffffe000000ff0100fffefe010101fefeff00ffff00fe00ffffff01010000fe00fe01fe01fe000000fe0000fffffe00ff
01fefefe0100000000fe0100ff000001ffff01ff0101010001ff0001fffe01ffff01ff0001ffff0101ff00ff00fefffe01fffffeff00fefefe01000001000101
010101fefffe010000ffff01fe00feff010001feff000101fefefe01fffeff00fefefe00fefffe0000ff0101fe00fffeffff010100fe00fefffffefe0100ff01
00fffefe01fffeff0101fffefe0001feff000101ff010101fe00fffefffefffefe0001ff010000ff01fe01fe00feff01ffffff00fe01feff01010101feff0101
00000000000000000000000000000000000000000000000000000000000000000000000000000000000000000000000000000000000000000000000000000000
fefefffffe00fefeff0101ff000101fffefeff01010100fefffe01ffff00000101fffeff0101fefe0101fe00fe000100010100fefffeffff01fe00fefe000100
01fefffeff00ff00fe00ffffff00000001feff0101ff010101fefffe01ff01fffeffff0000fe00ff000001fefffe01ff01fe0000fe01feff0000ffff01fefeff
fe000100ffffff000001fffffefe00fffe00fffefe0001ff0100fe00000001fefe0100ff00010000fefe01000000ff01fe01fe00010001fffeff0001fffffe01
fe0000010001010100fefefe01fffe010001fefffffefe01fefffffefeff00fe00010101fffffe0001ff01fffffeffff010100fffffffe000001fe00fe010101
00feffff00ff01ff01feff01010001fe010100fffffe01fffe01fe010101000100ff0001fefeff000000fffeffffff0101fe0100fe01fe0001000000ff000001
00fffe0000000001fe01fe00fffffffefffffeff01fe01010101fffe00ff000001ff010100000000fefefe01fe01fffe010101fffe01feff01ff0000fefffffe
fffe000101fffe00fe00feff00ff01000000fefeff01ff00fffe01ffff010001fefffeff01fe010100feff01fefefe00fe010000ff0001ff00fefe01fffefefe
fe0101000101fe01fefe01ff000100fe000101fe000000fffffffeffff00ff0101fe0101ff00000101000100fefffeffff01fe00fffefffefe00010100ff01ff
00000000000000000000000000000000000000000000000000000000000000000000000000000000000000000000000000000000000000000000000000000000
ff00fe0100fffe0100010101ff0100ff00fefffefffeff0101feff0101fe01fefeff00fefffffe0101fe01fe0101000001010101fe000001fe01000000fe01ff
fe000101fe00fefe00fe0100ff01feff0101fe01fffe01fefefefeff01ff00fe010101feff01fefe00000000010100fffefe0001fffe00fe00fe00ff00fe00fe
fffffeffff00fe0001fffefffe0101fe0001ff00fe01fe00ff0100feff00fffeff01ff00feff01ff01fefe0001fefefe01fe00000101fe0001ff0000feff00ff
01ff00ff00fffe01feff00ff0100ff01ffff0001010100ff00ff0101ffff0100010000fffefeffffff01fe0000fefe00fe00ff00fffffe01010100ff01fe0000
00fffffe000101010100fefe0101ffff0101ffff010100fffe00ff010100ffff01ff00ff01fefefe0101ff01fffffefeffff000001ff01fefe0001feff0101fe
fe0001fefefefe00000100fefffeffff00fe00fe01fffffffefeff01fffe01fffe01fefe0001fffefffeff0100ff01000101fe01fe00ffff0100ff000100ff01
01ff000100ffff00fffe0000fefefffe00010001fffefefeff000100ff01ffff010001fffe01ff01ff0001fffe00fe0101fe00fffeffffff01ff01fe01fe00ff
010000fefe000100fefffe0001feff0001fe00ff01feff00fefe0000feff010101fe00fefe0101fe00fefefeff000000fffffffe01fe01fffefe0100ffff0001
00000000000000000000000000000000000000000000000000000000000000000000000000000000000000000000000000000000000000000000000000000000
