0100fefe01fe00fefefe00ffffff00feffff0100fefe00fe0100010000ff010101000000ff0100fefe00ff0101fffe0000feff010100fe0001fffe0001000000
ff00feff00010001ffff01ffff010001feff0100fffffffefe00ff00fe0100fe00000101feff0101ff0001010001fffefffffefe0001fe01fefffe010000fffe
00fe0101fefffeff01000100fe010100ff00fe00ffff0100fe01fefe0001ff010000ff01fe000101fe0001fe01ff00fefffffefe00fe0001000101ffffff01fe
fe0000fefe0101feff00fe010000ff000001fefffefffffffffefe0001fefe0000ff01ffffff00fefe01fe01fe0000fe00fefefeffff0100ffff01fefefe0000
0001ffff00ff0100ff01feff00ff01fe0101fe0100fefffeff0101fefeff01ff0001ff01fffe000101fe00fffe0000000100ffff0001ff00fffffefe00ff01ff
ff0100fefffe00fefefffe00ff01fe010001010101fefe01fffe0000feffff0000feff00fffffefffefefeff01ff0100ff00fefe01fe00fe0100ff0001ffff01
010100010000ffff01feff01010101fe0000ff01000001ffff01ff0000ff0100010000000001fe0001010100fefe01ffff00ffff000100fffefe01ff01feffff
feff0100fffeff0101fffefe01feff00fe01fe01ff01ff0101fefffffe01fffe0101fffffeff0101ff0001ff0000fe00fe0000fffefffe01feff010000ff00fe
ff0001ff01fe010101fffefe00fffefe010001fefe00feffff0100feffff000100010001fe01000000ff010001fe01ffff00fffeff01fe01ffff01fffe0001ff
0001010101fe01fefefeff00fffe01ff01feffff00fe0001fe0001ff0001ffff0100fe010101feff010101ff01ff01ff0100fe00fefefffe0001ff010001fefe
ff01fffeff01fffeffff01ff01fefefeff01fefe0000feffff00010001fe010101ff0100fefe00ff00ffff01ff0101000001ff0000fe010101fefeff01fe0100
0000fffffe00fe00fefffe00ff01fe000100feff00feff00ff01000000ffff00fefeffffff0101fefffe0000fe0000010100feffff01ff0100fe00fefe00ff00
01fe0100000001000101fe010101fefe00ff01fffe0101fefeff01ff0100feffffffffff0100ff01fefffe010001ff0101ff0000fe01fe01fffffefe01feff01
fffe00ff010001fe01ff01ffffffff01ff010100ff00fefe0000010000fe01ff010001fe00000000010001fffe00ff00fffe01ff01010001fefe00fefe0001ff
fe00000000ff00ff0000ff01ffff01fe01010001010100fefeff00feff010000fefffffefefeff0001ff0101ff000101fefefe01ffffff01fe00010100fe00fe
fe01ff01ffff00ff00feff00feffffff010101ff00feff01fffe00fefefe01ffff01feff0001ff0100ff00feffff00fe01fffe01ffff010101fffe000001ff00
