ffff000100fffeffff0100ff00000100010001ffffff00000100ff0000fffe01fffefe01ff00ff01fe000100fefefffeff0100ff010000ff00ffff0000010000
fefe0000fe0000fffefe01fe0000ff01fe01ffff01000100010000fffffe01010000fe0101fffe0001fe0000010000ff01fffefffe01fffefeff00fe00feff00
fefe000001fffefe010100fe000001000001fffffffffeffffff000001fe01ff01fffefefeff01fe01000000ff00fffffefefefe01ff00fffefefeff01fe0101
00fe010000fe000100fffe010000fefe00ffff010000fe0100ff01ff01ffff0101ffff000101ff000100fe01000000feff00fffefeff0101ffff000100fe00ff
ff01fe00ff0000000100fffffe01feffff01fffe00ffff00fffe01ff01fe00feffffff01fe0000ff00fffe00feff0000fefe01010101fefefe0101fffeffff01
fefffeff00ff0100fefefeff01fffeffffff01fe01fefe01fe01ffffff00fefe0100ff00ff00ff0000fe01fffeff01010100fffffefffffe00fffe00fefe00fe
fefe00ff0100ff010000ff00fffeffff0001fffffeffffff00fffffffe01000000fefeffff01fefffefeff01fe00fffeff01000001fe01ff0000ffff0101ffff
00fe000000ff000000ff000000fefe01fffefffe000001fe0101000001feff0100fffffefefefeff01fffffe00fe01feff01fe01fe0100fe010101ffff00fffe
ff01ff0001fffffefeff0100fffffe01fefffe0101feffffffffff01fe0001fffefe00000101fffeff00fe0000ff01ff010001fe01ff01feff00ff01feff0100
000001fefeffffff00000000ff01ff010001fe0000fefe0100fe00010100fe01fefe000001fefe00000001fefe01fe0001ff00feff0101fe00ffffff01fffe00
0000000000fefefe000000fe01ff010001feff01fefffe00ff00fe0101fe0001fe01ff00fffe000001000100fe00ff00feff00fffe01ffff0000fefe00feffff
fefffffefffe0100fe01fffefffffefe00fe0101fffffe00000000ff0001ffff0101fefffe000101fffffeff0000fe00fe0101fe00ff0101fffffe000001fffe
01ff01ff00feff0100fefeff010100000000010000fffffffefe0101000000ff01fe0001fe00fe0101010101fffe010101fe010100fffeff0101fe0001010001
0001ff00fe01ff0001ffff01ff00ffff0101fe00feff00fefffefffefe0001000001000000fefeff00fffeffff00fffefefe01fefe01010001feffff01fffeff
01fefefeffff010000fe00010100ff01fffefffffffe00010100ff00fe00000100ff000100ff0000feff01ff0100fe0000feff000101010100ff01fe0001ffff
00fefffe0101fffeff010000fefffffe000101ff0000fe01feff0100fefefefe0100fffe01010001ffff00ff0101fe00ff0000fefe0101fe01ff01ffff00ffff
