0001fe00fffffe000001fffffeff01fefe0100ff01ff0101ff010101fffefefeff00ffff0100fffe010001fefe0001fe0000fefefffffffefeff00fffeff01fe
00fefe00ff00feffff00fe00fe0001010000fefefe0100fefe010001010001fe01feffff0000fffeff0100fffffe000101fefefe0101fefe0000ff00fefe01fe
0001ff0001fe01ff000001ff01ff01fefe01ff0001ff01feff010100010001ffffff00fefeff0001fefffefffe000101ffffff0001ff00fe01ff00feffff0101
01fe000101ff0001ff00fefe01ff01000001ff0001010001ff0001fefffefefffe0001ff000001010001fe0100ff00fefffffe01ff01010001000000fefeff00
fe01fe01fefefffe0001ff0100fefe00000100010101fefe010001ffff01ffffff0000000100ff0100ff00ff0000ff01fe01fe01feffff01fefefe00feff0101
ff01fe010100fefffefe0000feff0001ffff0100fefe01fffe000101000101fefefffefe00fefe0001fe01fe01ff01fe01fefeff01ff00000100010100ff01ff
fffe00fe0001010001fe01fe0000fe00ff0001fe00fe01ffffffff000100fe01feff01ffff0101000000ff0000fe00fffe00ff00fe00010100ff010100fe0000
ff0101ffff000101ff0100ff00fefe01ffff0001feff0001fffffefffffffefffeff01ff0100fe00010100ffff01fe000000ffffff0001010000ffff00fe0100
fe0100010001fffefe01ffffff00fffeffffff0000ff010100ff01ffff00000101ff0001ff01ff01fffefefeffff0101fefeff01fffeff01fe01000101ffff00
fe000001ff0001ffff0100ffff0100fe01fe01fe010100010101ff0100ffff00fefe01ff01ff01fe0000feffffff000001fffffffefffffefefffe00ffff0000
feff00fefe00fe010100fefe01ff00010000ff01fffffffffefe010100000101010001000001ff01feff00fe0100fe00fe0000010100000001fe01ff0001ffff
000100fffefefefeffff00fffe000001ff00010101fffe00fefffffefffffefe00ffffff00fe0101ff010000fe0100fe0000ffffff0001ff0001ffffffff00fe
000100fe00fe010100feffffff00fefefefefefeff00ff00ffff01ff0000fefefefffe000000fefefeff01fe0100fffe00fe01fefe0101feffff01ff01ffffff
feff000001fe00fffe0101ff0101010001000001feffff00fffefe00ffffff0100ff00fefffe000101ff000000fefffe0000ff00fe0100fefe010101ff0100fe
fe010000fe00ff01fefe01ff0101ffff010001ff00ff000100fe0001ff00ff01ff00ff01010101fffefe00000100fffe0001feff01ff01010100ff01ffff0100
ffff0001fe01fffe00fe01ffff010000feff01ff010001feff010001fffffffefe01fefe00ff010100ff01fefe010001ffff00fffefefe010100010101fe0000
00000000000000000000000000000000000000000000000000000000000000000000000000000000000000000000000000000000000000000000000000000000
00000000000000000000000000000000000000000000000000000000000000000000000000000000000000000000000000000000000000000000000000000000
00000000000000000000000000000000000000000000000000000000000000000000000000000000000000000000000000000000000000000000000000000000
00000000000000000000000000000000000000000000000000000000000000000000000000000000000000000000000000000000000000000000000000000000
00000000000000000000000000000000000000000000000000000000000000000000000000000000000000000000000000000000000000000000000000000000
00000000000000000000000000000000000000000000000000000000000000000000000000000000000000000000000000000000000000000000000000000000
00000000000000000000000000000000000000000000000000000000000000000000000000000000000000000000000000000000000000000000000000000000
00000000000000000000000000000000000000000000000000000000000000000000000000000000000000000000000000000000000000000000000000000000
