01ff0100fefe000100ff010100fe01ff0000fe010101fe0000fefefefe01ff01010101fffffeffffffff010000ff0001000100feff000001fefe0000010100fe
01fffffefe00fe00fffe01fe0101fe010001fefefefe00ffffffff0000ff01ff000100fe00fe01000001000101ffff01ff0000000100010101010100fefffe01
ff00010101fffefefeff0100ff00fe01fe00fe00ff00010101ff0000000101010000ffffff00fe010000fefffffe00ff000100fe0101fefefffeffff00fefe01
feff00ffff01fefe000000ff01010000feff00fffeff01fffe01fffe00ff0001ffff00fffefe0101fefe0100fe01fefe00ff00fe0001fe01fefffefffeff01ff
