fffeffff0000ffff010001fe0001ffff01ff01feffff01ff0100fe00ff0001ff01fefe01fffffe01fe00000100fe00fe00fe0101fefffe00fefe00010101ffff
0101fe01fe00fffffffefefe0001ff01ff0101ff00ffff00fefeffff01010000fffeff00fefe01fe0101ff0000000001fe01ff000100ff00fefeff01fffe00ff
fefe0100ff0000ff0001fe000000000000ff00fefffefeffff010000000000fffffffe01fffffe01ffff00ffff01ff0001010000ff0000000000fefefe010101
01fefffe0100ff00fefffe0101fe0100ff0100ffff010000fffe01fffffffeff0101ff010001feff0001ffff01010100ff01ff00ffffff01fe010101ff01fffe
ff0001fe010000fe01fffeff0100fefe01fefe01ff0001fe00000001feffff01fe0100ff0001000000fe01feff010000fe0000ffff01fe01ff010101ff01fefe
00000101ff0001000001fe00fefffefe01ffff01fe0101ff0001000000000001fe01ff01fe010100010000fffefeff00fefe01ff0101feff00010101fe000100
0001fefeff0000ff00fffffe0100fffe0000fffefe00ff01fe01ff0100ffff01feff01fe000001fffe0100fffffefffffffefefeff00000000fefe00fe01fe01
feffff00ff00fe000001010101fe01fe000100010100fffefefefe00ff0101fffefe01fe00ffff0000feff0001fefeff0100ff0100ff01fefefe00fffeff00ff
00feff0000fe00ff0000fe01fe0101fffe01fffe0001ff01fe0101fe01fe01fe0101ff01fe0101fefefefeffff00fefe010101feff01010101feff01fe00ffff
fefe0001fffefefe0101ff00000100ff00fffefefffefe0100fe0100ff01fefefffffefe0100fefe00ff00010101fe00ffffff0100fefffe01ff01ff010101fe
fe010000ff0001feff00feffff0100fe0000ffff000001ffffff01fefefe0001fffe0001feff0101ff0101fe01fe010101fffefeff00feffff00fe00ff0101fe
01ffffff01ffff00000000fefefeff01ffff0001000000fe01fe0100ff00fffeff0101fffffefffeff00fefffe010001fe01fffeffff01ff01fefe0000000101
fe00fefeff01fe010000ff00ff01fffffe00fefe000101fe0101fffe00fffefefeff00000101fe00ff0001ff0101ff00fffe0001fe00010101ff01fefe010001
00feff00fe01000100fffe00fefffeffff0001ff000001ffff01ff0100ff0000ffff01fe010100000100fefffefe00fe01fe00000000fe0000fefffffeff01fe
fe01ff0100ff00ff0100fefefefeff00ff00000001feff01000001ffff00fe00fefe00ffffff01fefeffff01fefe01ffff0000010100fefffeff0100fefe00fe
01fe0001fe01fefffffe01fe010100ff0100fffe0100fe0101fffe01fe00fffe00ff01fe01ff0100fffffeffff00fe0001fffe00ff0000fffefffeff00fe0001
00000000000000000000000000000000000000000000000000000000000000000000000000000000000000000000000000000000000000000000000000000000
00000000000000000000000000000000000000000000000000000000000000000000000000000000000000000000000000000000000000000000000000000000
00000000000000000000000000000000000000000000000000000000000000000000000000000000000000000000000000000000000000000000000000000000
00000000000000000000000000000000000000000000000000000000000000000000000000000000000000000000000000000000000000000000000000000000
00000000000000000000000000000000000000000000000000000000000000000000000000000000000000000000000000000000000000000000000000000000
00000000000000000000000000000000000000000000000000000000000000000000000000000000000000000000000000000000000000000000000000000000
00000000000000000000000000000000000000000000000000000000000000000000000000000000000000000000000000000000000000000000000000000000
00000000000000000000000000000000000000000000000000000000000000000000000000000000000000000000000000000000000000000000000000000000
