fe01ffff000000000100000000fe0101ffff0000fefffefffefefe010000ff00ff01fffe0100fefe000101feff01fe0101ff00fffe00ff00fefffffe00feffff
01feffff000100feff0100fe010100ffff0000ff01ff01fefe0101fffefefe00fe01fffffefffefffffe0101ffff0000fefefeff01fffffefeffffff01fe01fe
0101000001ff010000ff00fffffeffff00ff0001000000fefe00fe01010101ff01fefffe01ff00fefefe01ffffff01ffff01fffefeff01fefefe01000000feff
feffff00fefe01ff0000000001fe00fefe0100fefe00ffff01ff0101fffe00ff00fffe0000fe00ff0100fffe01fefefeff01fefefe00ff01fe00ffffff01fe01
fefe00ff00ffff01fe00feff0000ffff010000fefeff0001feffff00fe0101fffefefe00fe010000fe000000ff01fe01fe01fffffffffeff0101fefe00fefe01
0000fffe00ff01ff000000fe00feffffff010000ff00fe000000ff01fffefeff010101010101fefefe0000000100000100fefe010101ff0100000100fefe01ff
0001000101ff0000ffff00ff00010000ff000001fe00ffff000000fe0101010100ff0001ff010100ff00fe00fffe00ff00ffff00ff0000010000fefe01010000
fefe01fe01fefeff01ff01ff00ff00fe00fffefffe00ff0101fefffefefffefeffffff0101fe0001ff01fefefe0000fffe0000fe010000fffe01feff010001ff
fefffeff0101fffeffffff00feffff00ff00fffffe00000100000001fffffe00fe010000fefe0101feff01fefefe00ff0000fffefffffe0101ff0100fe010101
feff00ff0000ffff01ff010000fe01ff00fffffe0101fefffffeff01fe01feff000101fe01ffff01fffe00ff000100fe01ff0001010101000101ffffffff00fe
01fefe00fffefffffefe00feff01ff00fefe00fffefeff00fffe00fe010101010100fffeffff01fefffe010000fe01fe00fe00fe0100ff00010100ffff000100
fe00fe00ffffffff0100feffff01ff0100010100ff000101feff01fefe01ff01fe01ff01ff000001fefe010100000101fe0101fefffefefffe00fefe00fffe01
00ff010000fefeff01fffefe0001ffff00fe0001000000ff0001fffefe0001fefffe00fe01fe00fe00feff01fffefeff010101ffffffff00fefefeff00ff0100
0101ff010100fe0000fffffe0001000000ff000001ff01ff0000ff0100010101feff0101ffff000000ff01ffff00fe01fefe010000fffffefeffff0101fe0001
0101ffff00fe01ffff00010000000000fe01fefe010000ffff0100ff01ff00ff0000fffefefefe0101ff00fe01fe01fefefefefe010000fffe01fffe0000ff00
00fefe00fffe0000010001ff000100feffffffff0101000101fefffe0001ff000100ffffff01fffe01000100ff01fffffe00ff00fefefe010000feff01ff01fe
