feff00ff0001ff00ff000100000100fe000101010000fe01fe01ff01ff00ff01fe0101fffe01fe0001ff00feff0000ff00fe01fefffe01ff00ff010001ff00ff
ffffffffff010100ff0100ff0101fe01fffffefffe0100fffe00fefe01000000fffe0001feffff00feff01ff0000fefeff00fefe00fe01fefffeff00fe0101ff
ff01010100feffff00fefe01ffffff00fe000000ff00fffffe010101fe01fefffffe00fe01010101ff0101ff01fefeff01010001fe00fe01fefe0001010000ff
ff01ffff0001fefe0101fffffeffffffff01ff01000000ff00fefffffe0001feff00fffeff01fe000001ff01010001fefe01ff0100fe00000000ffff01000100
fffefefe00fe01ff01feff00fefefffefeffff00ff01fe0101ff00fe000101fe0101fffeff000000fe01feff0101fe010101ff00fefeffffff01fffe0001feff
fffe000001fffe01ff00fe0001ffff0000ffff010101ff00ff0001ffff00feff01fffeffffff0100ff00fe00fefe01fe0100fffffefffffffefffe01010001ff
010100ff01ffff00fefefe01fe00ff0101feffff01feff01fe01fefefe00fefe00feff01fe00ff000000fefe00010101000100ff00fe0101ff00fe01ff0001fe
fe0101ff0101ff0101feffff000001fefe01ff00feff00ff00fe00fefeff0001fffffefefe00feff00fe01010100ff0100fe010100fffffffe00010001fe0000
00000000000000000000000000000000000000000000000000000000000000000000000000000000000000000000000000000000000000000000000000000000
fffffffe00ffffff01fefffe00ff01fe0001fffeffff00ffffff00010001fe000000010000fe0100fefffefeff0000010001000000fe0100fe0000fefe010000
01fe000001fe00fe0001fe00fe01ff010000fe00ff01fe010001fe00fefffffe010000fefe01ffff01fffe01ff00ff01ffff00fefe01fe01fe01feff01010100
00ffffffff01fffeff01fefefefefffe0100ff01feffff00ff01fe000001ffffff01ffff01fe00010001fe00ffff010000fffe000101ffff010001ff00010101
01feffff01fffe00fefffffffe0001fefffefe0100feff01ffff0101feff00000000fe01010101fefffefe01ff0101fefe01fe0001ffff01fefefe0100010000
ff00000101feff000000010101fe00ff00fe00ff00fefffeffff0000fefffefefe01fefe00fffe00ff01ff00000100ff00feff01fe01fefeff010100ffff00fe
ffff0001fe01ffffff0101fffefeff0000fffffe01fffffefefe00fe0001fe01fefe01fefe000000ff00fefe010100000000fe000000fe0100fe01ff01010100
010101000101ffff00fe0100fffefefeffff0101000001000000010000ffff01fffffe01fefe00ff01ff0100000001000101fe0101fffeffff01fefefe01fe01
fe0101ff01000000fffefffefe01ff01fefffe0000010100fe01fe01000100fefe0001fffffeff00ffffffff000101feff00fefe000000010001010101fe01ff
00000000000000000000000000000000000000000000000000000000000000000000000000000000000000000000000000000000000000000000000000000000
00000000000000000000000000000000000000000000000000000000000000000000000000000000000000000000000000000000000000000000000000000000
00000000000000000000000000000000000000000000000000000000000000000000000000000000000000000000000000000000000000000000000000000000
00000000000000000000000000000000000000000000000000000000000000000000000000000000000000000000000000000000000000000000000000000000
00000000000000000000000000000000000000000000000000000000000000000000000000000000000000000000000000000000000000000000000000000000
00000000000000000000000000000000000000000000000000000000000000000000000000000000000000000000000000000000000000000000000000000000
00000000000000000000000000000000000000000000000000000000000000000000000000000000000000000000000000000000000000000000000000000000
00000000000000000000000000000000000000000000000000000000000000000000000000000000000000000000000000000000000000000000000000000000
00000000000000000000000000000000000000000000000000000000000000000000000000000000000000000000000000000000000000000000000000000000
00000000000000000000000000000000000000000000000000000000000000000000000000000000000000000000000000000000000000000000000000000000
