0100fe01ff0101010100fe01ff01000101ff0100fefeff01ff0101fe000100fe000100fe0000fe00fe00fe00fefe01fffe01fe0101010101fffefe0000ff0100
ff01fe00ff00ffff000101fe00fefffe010101ff0100fe0001fe0000fe0100fe01000000fffe01fe01ff00fefefe0101fe0100fffffe000000fffe01feff0001
ff0101010100fe00000100000100fefe01fffe0100feff01010101fffffe010001ffff01fefffffe00ff00ff01fe0001fe0101000100000101ff00010001fe00
00fe01ffff0000feff0000010001ff00fefe010000ffff01010001feff0100fffe01fffffe01ff0001ff01fe01fe01fffffffefffe0101fe0000fefe0001ff00
00fe01fffffe01000101ffff000000ff01ff0000ff01fe00feff0100fe0100feff0001fe01fefe0000ff0000ff010000fe0101fefe000001fe0000fffefffefe
fffe01ff01fefefffe010000fffefffffe00fefe00fffeff0000fffe00010101ff0100ffffffffff01ff0100fffe00fffeff01fe0100000101fffe01fe01feff
fefefefffefffeff000101fffe00010001fe000101000000fffefffe0000010101ff01ff0000ff00ffff0100ff00fe010001ff000101ffffff01fffe000100fe
ff01fefeffff010101ffff0000000101fefe0000ff010100fffe010000fe01fffe00ffff0000feff0000fe0101fe00000001ff0101000001fffeff0101fefefe
fe00ff00fe010101ff01fffeffff00010101fe000001000000fffe01feff01fe00ffff0101000001000000ff00ff00fe00fe01ffffff01fe0101ff000001fe00
00ff00fe010101ffffffff00ff00fe00ffff0000ffff0000ff0101ff00fe00feff00fe0000fe01fe01fe0101010100fffe01fefefefefe0001fe00ff0101feff
0000ff0001000001ffffff00010100ff010101ff0101ff0101000100000001fefefeff0100fffefe010000feff01ffff01ff0101fe010000ff010000feff00ff
0000ff000000fe00fe01feff00ff00ff00fffefefffefefe0100fffefe01ffffffff010100ff00fefefefe00feff0101fe0001ff0001ff0100fffefe0101ff00
00feffff01ffff0001ff010100010101ffff00fefeffff00fe01010000ff000100fffefe00ff01ff00ffffff01ffff01fefefe00ff0101fefe0001fe010100ff
0101ff01ffffffff01fffe00fffe01fefefffeff01fefe0000ff000101fffefffe0100ff01ff0000fefe00fe01fe0101feffffffff00fe0000fefffe01fffffe
01ff00ff01ff00ff0000fffeffff000001ff00fe00000000fe0000fefffffe00feffffff0001fe0001010100fe00fefe0101fe0000010001fefefefe000100ff
ff00fffffffeff000101ff00fe01fe01ff00fffe00ff00ff00ff01fefffefffeffff01ff01fffeff00fefffffffefe00ff01010000fe01fe010000ff0100fffe
