fefefe0001fe00fefeff010101ffff00ff01fefe000100fe01fe0101fe0101fefffefefe01ff00feff01ff01fe0000fefffffe01000100feff01ff0000fffffe
01fe0000ff00000101fffeff01fffe00fe00fffffefeff0100ff000000ff0101ff00ffff0101ff01ff0101010101fe00fe01fffffe01fe000100fefe01010001
fefeff010100feffff010100fffe0100fe01feffff00fe00fefefe01fffe0000010101fe0000010100fe010001ff01fe00fe000100ffff01ff0100fefffffe00
ffff00fe010101ffff01ff0001fefe00fffffe010001ff010001fefe0001000000fefe0000ffffff01ffff0000fe01fe01010100fffe00fe00fefffe000000ff
