0100ff01ff0101feff00fe01000000fe000000fefefffe000001fefefe000101ff01feffff01fe00ff0000fe00fefffeff01010001ff00010101fefffeff0000
fe01feff00fefe0001fe0100000001ff0001ffff00000100ff00ff010100fffeff00fe01fe00000001010001feff01fe00fefe000101ff01ff0001fffefeffff
fffe00ff000101ff01ff01ff000001fe01fe00ff00feffff01010000000000feff01000001fe00fefe00fefe000101fe0100ff01fefe0100ff000101fe000001
ff00ff0101feff00fefeff000001ff00fe01ffff0001fe01fffe0001fffe01ff00feffffffffffff00fe010101fe00fffffeffff00000001fefe01ffff01feff
fe000100fe0100fefffefefe0000fe0101fe01fefeff00fffefe00fefffe0001fefefefefe01ff0100fe00ff0101ffffff00ff010001ff00fe00fffefefe0000
fefffe00000101fe00ff00ff01fffe00fffe01fefefffffe01fe01fe01ff0001fffffe010000fefffe01ff00fffffe00fefffe0000feff0101ff000101000001
00fe00fe0101ff01fe01fefffe00ff00fffffe0000ffffff0101000101ff01ff00ff00feff00fe00ff0001fffefe0000ff00fe01ff00fe00fefe01fe01fffffe
fe01ffff0001fefffe01ff0001fe0101ff010000010001ff01010100fefffe01fffe01fefffefefeff010000010000fe0001ff01fe0101fe010000fffe00fffe
00000000000000000000000000000000000000000000000000000000000000000000000000000000000000000000000000000000000000000000000000000000
ff0100ff01fefefe010000ff000100ff0001fe01feff01feff0000000000fe01fe01fe01000100fefffffffe00fefe01fffe00fffffeff01ff01ff0000ff0101
01ffff00ff01fe00ff01fffeff00ffffff0101fefefe00ffff01fefefeffff01fefe0101fe010101fe01010001fffe01fffe00ff00fe01000101fe01fe00fffe
ff00fefefeff01fefe01fffefffe01fefefeff01000001000100ffff0000ff01010100fffeff01ff00feff010000fe0000fffefefe0000feff01fefeff0101fe
fffefefffeff00feff000000ffffff0000feff01ff01fefe01ff010000fe01fefe0101fffe01010101feffffff00fffefeffffff00010000fe0101fefe000101
fffffefefe00fe0000ff01ff010100fe0000000101ff00fe00ff01fefffefe00feff01fefffe00000001000101010100feffffff01fe0001fe000000ffff01fe
000000fe01feffff00010000fe01ff00000101ff01fefffe01fefefefffe00fe000000fe0000fe0001ff0100fe000000fffefe0001010001fe00ff0000ffffff
fe01ff00fe000100fffe00000001000101fe00feff010000fe0001ffff01fe0001feff01feff00fffe0100ff0001fe01feff00fffe00ffff0101fffe00fe00ff
0000fe00fe000001010101fe01ffff00ff00010000ffff00ff0001ff0000ff0000fe0001fe01ff0001fefffffe00010000feff01feff010100fefe000000fffe
00000000000000000000000000000000000000000000000000000000000000000000000000000000000000000000000000000000000000000000000000000000
00000000000000000000000000000000000000000000000000000000000000000000000000000000000000000000000000000000000000000000000000000000
00000000000000000000000000000000000000000000000000000000000000000000000000000000000000000000000000000000000000000000000000000000
00000000000000000000000000000000000000000000000000000000000000000000000000000000000000000000000000000000000000000000000000000000
00000000000000000000000000000000000000000000000000000000000000000000000000000000000000000000000000000000000000000000000000000000
00000000000000000000000000000000000000000000000000000000000000000000000000000000000000000000000000000000000000000000000000000000
00000000000000000000000000000000000000000000000000000000000000000000000000000000000000000000000000000000000000000000000000000000
00000000000000000000000000000000000000000000000000000000000000000000000000000000000000000000000000000000000000000000000000000000
00000000000000000000000000000000000000000000000000000000000000000000000000000000000000000000000000000000000000000000000000000000
00000000000000000000000000000000000000000000000000000000000000000000000000000000000000000000000000000000000000000000000000000000
