fefffe0001000101fffe00ff0001ff000001ff0000feff0000010101fffffefffefe00ff01000101000000ff000100fffffe0000fe0001ff00ff01fefefefefe
fefeffff01fffe0000fe0100fe0101000001fe00ff01fefe01fe0001feffff00010000ffff000101ff010001fefefefe0000fe0001fefffefe00010100000000
fefefefe0000fe01ff01fefffe00fe00ff01fefe01fe0100fefe01000101fe00ffff000001000101feffff0001fffe01fffeff01ff01fe0000fefefffeff01fe
fefefeff0001fefefe010000fefefefffe00fe01fffeff01fe00fe00ff00fffe0000ff0001fefffefffe01fefe0101ff01ffff00000000fe0000fe0100fefeff
fe0001fffffefe0000ff0001ff01000101ff0001ffff0000fe0100ffff01fffefe01ffffff00ff01010001fe0100ff01fe0101feff01fe00ff0100fffffeffff
01fffefeff01ff01000100ff010000fe0001fe00fe01fe0000ff0001fefe01fe01000101000100ff00fe01fe00ffffff00010100fffffefffe0001ffff0001fe
fffffe01ff0000fe01ff010001fe000000fefeff01ffff010001ff0100fefffffe01fefe01fe0101ff00ffff01feff010000ff01ff01010100fe010100feffff
fe000100ff00000101fefefeff0100ff01ff01010001feff0000fe01ff010000010100fefe0000fe01ff00ff01ff01ffff01fffe010101ff0000fe0001fefe01
ff0000fefffe00ff01fefe01feff0001fffe0000fe01ff0100ffff010101feff0000fefeff00fffffffefffefe0000010100ffff010101fffe00fe0101fe00ff
fefffefefefeff0100fe010100000001ff00000101ff01feff01fefefeffffffff00fffe00ffff00fe01fe0000fe01ff00fe01feff000101ff00fffffe000001
0100fe0101000101ff00ff00fe010000ff00fe01fffe010001ffff00feff0101ff0001010101fffefffe010101ff00fffe01000001fffefffffeffffff00ffff
ff01fefefefffefefeffff0001000100ff010101fffefffffe0101ffffff0001fffffefeff00000100fefeff01fffe01fefe0001ff00fe000100ff00fefefe00
010001fefe01fefe0100ff0100000000fffe01ffffff000100010000fe01ff01feff00fe00ffff00ffff0000fffe01fefe0001fffe010000feffff0100000100
0100ff01fefe00fefeffffffff010001fffffefe00ff010000fe0100ff0001feffffff01ff00fffefffefe01fefefefffefe01010100fefffe0100ff0001fffe
01fe0101fefefe0001010000ffffff01feff00ff00fffe0101fefe00ff00fefeff01fefefffe00fefffefefffffefffefeffff0000010100ff0000fffe00fefe
01fe01fe000101ffff000100ff010000fffefe00fffefe01fefe00feff01fefe010000fefeffff010100fe00010000fefe00ff01010100fefe01ff0000fe0000
