ff00fefe0101fffe01ff00010100fefe0101010101fe00fefefe01fefffe010001ff00000100fe010101feff0100ffff01fffffefe00ff01fffeff0101000100
fffeff00ff00ff01fe0101ff00fe00fe01000001fffe0001ffffff0100feff01fefefe00fffffffefe00fefffe0001fffffefefe0000010000fe00ff01fefe01
ff0101fefe00ff00fffefefffe0000ff01fe00ffff0000fefeff00ff01ffff010001010000fffe01fffefe01fe01ffff010001fefefefe01ffff00fefeff0001
01ff01fe010000ff00feff000100ffff01fe0101000101ff00000101fefffeff01ff010000fe00fe01fe00fffefefefeff01fe00fe010001fffffeffff00fffe
010100fe000101fffffeff01fe00ff00fffe0101fe00fffe01ff00fe00ff0101ff00ff00fe000001ffff00feff01fefeff00ff01fe01fe01ff00fffeff0001fe
ff00feff0000fefefffefefeff00fffeffff01fefe00fefe010101fefffe000000ffff01000100fefeff0000010000fe0001000000fefeff0000000100010101
fe010000ff0101ff00fffffeff00fffffe00ffff01feff000001010001fefe01feffff01fefeff01010001feff0001fefe0000ff00feff0100fffefefe01ff00
00fefefffefe00ffffff00fefffffe01ffff00fffe00fffe01fe0001fe0101fefe000100010001fe0001fe00feff00ff0001ffff0100ff000101feffff000100
00000000000000000000000000000000000000000000000000000000000000000000000000000000000000000000000000000000000000000000000000000000
fe0101ff0101fe0000ff00fe01fefffffeff01ffffff00000101fefffe01fffffeffff01000001ff010101fe0000ffff01fefffe01ff00ff000001fe00fefffe
ff000100fe0101ffff000000ff00fefeff01fffefffefe010001fe01ff000101feff00ff01010100fffe0101fffefeff01fffe0100fe00ffffff01ff01ff00ff
ff01ffff010001ff010000fe0000ffff00ff00fefe0000ff0100010001fefffffefffffeff00fe0100fffe0100000000ff010001ff0100ff0001fffe00fefe00
000001fe0000ff000100ff01010001ff01fe00fe0101010000ff0100fffeff0101fffe0100fefffffe000100fefefe00010000fffe0101ffff0001fe01000100
010001feffffff01feff0000ffff01fefe01000000010001fe0100fe00ff010100fe00ff01010101fffefffeffff0100fefefefffefffffffe01fe0001ffff01
0000000001fefe01ff0100ff010001fe00ffff000000fe01fefffe010100fffffefeff00010100feffff00000101000001fffe0100ff00fefffffefffefe0100
00fe00feff0100fefe00fe010101ffff00ff0001fffeff00fe010001fefe00fe0001fefffeff01010100fe0001fe0000feffff0001fe00fffffffefe01000101
01fffffffe01ff0100fe0000ff00feffff00ffff0100fefe010100fe01feff0001000101fefe0001010101fe01010001fe00fe01fe00ff000000ff00feffff00
00000000000000000000000000000000000000000000000000000000000000000000000000000000000000000000000000000000000000000000000000000000
fffe0101ff01fe010001ff00feffff000101fe00000001fe00fefffe0100fe0001fe00000000ffff000001fffe0101000100fe00fefefefffffe010001000101
01fffe01feff00fefe01ff000001fefefefffefe01fefffefe00fffe01fffeff010100fe0000fe01fe01fe01ff00fe000101ff01feff0000fe00ff0000fe0101
01fefe0001feff00fe0101fffffe0100ffff01fe0001010100fe010100fefe000001ff01ff01000100fffefeff00ffff0001000101fefffefffe01feffff0101
fe0000fe01fefe0000fe0101ffffffffffff00fe010100ff01ffff0101fefffffe01fe00fe0100fe000000000100fffe00ffff010001ff00ff00fffffe010100
ff00fe00fe0000000101feffff01ff00ffff00fffe01000101010000ffff01fefe0101ffff0001fe00010100ff00010000fffe010001feffff0001ff0000fe00
00ff0101fefffffffffe00fe01fe00ffffff00fe0100000000fe01ff01010100feffff0101feffff0101000000ff00ff00010100feff00ff0101ff0001ffff01
fe01ff01fefeffffff010101fefffefefeff0101fffe0100fffffffe00ff00fe01feffffff0101fffffe00000001010101fefefefffefeff01fe01ff0100fe01
ff000001fefeff000101ffff00fe0000000101ff00010001fe0000fefefffffffe01fe0001feffffffff010000ffffff0100feffff0101fe0001fefeff01fffe
00000000000000000000000000000000000000000000000000000000000000000000000000000000000000000000000000000000000000000000000000000000
