ff0000feff01fefefe0101ff01fffffefffe01fe0001ffff00fe0001fffeff01ff0000ff00ff0001fe01fe01ff00fe00ff0100ffffff010000feff0100fefe00
00fffe010101fe00fefffffe00ff00010100feff00fefe01fe01ff000001ff00feff00fe01ff00fe010001ff000101ff01ff00fffe01ff01fffe00ff01fefe00
000100fffe01fefe00fefffffefffe01ff0000fe00fffefffeff010001ff0000fe01fffffeff01fe01010101fe0100000100fffe0000ffff0001fefe00fffe00
01000100fe0001fe0101ff00fffffe00feff010101fefeff01010000fe000100fffffffffffefeff00ff00fe01fefefefe0001ff0000ff000000000101fffefe
000101fe00010001fe00feff000100010001ff010001ffff0001fe010000fffffe01ff01fe010001ff0100fe010001fe00fffffefe00000100ff00ff01010001
0001fffffeffffff000100fe0000fe00fffeff00fe00fe0000fefe01fefe01fe01fffffffeff00ff010001fe01feff01fefeff01fffe00feff01fffefe01fe00
fefffeff010101fefe01fffefeff0100000001010101fe0000ffff00000100000000fffefe00ffffff0001fe00ff00010000fe00feff00ffffff01fe00ffff01
ff00fe00000001ff00ffff01fffffeff0101fe00ffff0101000100ffff000100ffff0001feff00fffe00fefe00ff01ff00ff00010000fefefefffe0001feff01
fffeffff00fe01feffffffff00ff000000fefeff01fefe01feffff00ffff00fe01ffff0000ff01fefffe0000010001fe0101fffe01feffff00ff0100fffe00fe
010001fffefeff01ff000001ffff00ff01fe01fefe0000fe00fe00ffff00fffefefe01ff01ff00fefe0101fefe010100fe01fffe00ffff0001fefefefe00fe00
fe010100ff01ff01fe010101fe00fefe00feffff000101ff00fe010001000101fe0000fefffffffffe01ff00ff00fe000001ff0001000000fffffffe0101ff01
01fe01fe01ff01ff010001fefefffe01000100000000fe0001010001fe01010100fffeff01fefffffffe0000ffffffff0001fffe01fffffffffefe0101fe01fe
01fffffeff00000101feff01fe01fffffe00ff00fefffe0001ffff00fefe0000fefffe01ff0000fefeff000101fe00fe000100fefe0000fe0001010101ff0000
01fffe00fffffe00feff00fefeffff00fe0001fe000001ffff01ffff010000fe01fe00fffffffffffefe01000101fe00fe010101feff01ff010000fffe0001ff
fffe01ff01fffefefffe01fefe00fefe00fffe00fe0101feff00fefffe00ffff01ff01ff01010101feff01ffff00fe00ff01fe0100ffffff000001fffe0001fe
01fefe000100ffff01fffe0101ff010101fe010101ff01fe01ff01fe01fefe010000fffe01fe010100feff00fe01fefefefe00fefffe0101ff0000010000fe00
000100fffffffffffe01feff000101fe01ff01fe0001fefe01fe0100000100fefe000101fe00ff00ff0100ff01ffff000000fffe00feff00010000000001ff00
ff0001fe01fe01fffe010101feff0101fe0000fe00fffffefe00fe0100feff01fffe000100fffffeff0001ff01fffefefeff0000ff000000ff0101ff00ff00ff
0100fffe01fe0000fe0000fefe00010100feff0100fefe000101ff000001fe00fe0000feff01fefe0100000000ff01ff01fe0101ff0001010101ff01fefe0101
00fe000100ffffff00ff01fe000100fe00fe01ffff000001fefe0101ff01fffeff000100fefeff00fefe000000fefeff01ff01ff00010100ffff01fe0000ff01
fe01010001fe00fe01fffe01000100ff00fe00fefe0000fffefe00fe0100fffefefffefeff00010001feffffff000101fffffefefeff010001ff0101000100fe
0001ffff01000100fffffe00ffff00fe01ff0101fffffe01ff01fefeffff01fe01fe0101010000feff0101ffff0100ff00ff01feff01fffe01fffe0101000001
00ff0000ff01fffe0000fe01ff00ff01feff0001fe01fefe01fe000101fe000101fffefe0001fe01000101ff01ff01ff01ff00010000000100feffff01fe01ff
fe0000fe0100fffefffefe000000ff0001fe0000fe00010100010000000000ff00feff00ffff0001feff00000001fffefefffeff01fffffefefffe01fe01ffff
