fefeffff0101ff010101fffffefffffefefefe00000000000101fe0100ff01ffff0001010101000000fe000101fe010000fe00ff000101ff00feff00fffefeff
01000000ffff01ff00ff01ffff010001fffefffe01feffff0101fe00ffffffff0100fefeff010100fe01fe01fe01000001fffe01010000ff0101ffff0000fe00
0001fe000100ff01ff01fe0000ff010101fe00fefe0001ff00fffe000101fffe01000001fe000001ff0001fffefeff01ff01fffe0101fefefe000000ff010000
fffe01ff00ffffff0000fe00000000010100fefffffffe01fe01fe010100fffefefffffeff0100fffffefeff01fefe0000ffffff0001ff01fe00fe00ff00fe01
fe00000001feff00fefefffefe0001ff01ff00010000000101fffefefe0100fffffffe00fe00000100fffffeff01ff01fe0100fe010101feff010001010001fe
ff00fefffe0001ffff0000fffe010101fffffefe000100000000fefffefeff0101ff01000100fefe01fefffe01fe00ff00ff0001010101ff000100fefffeff01
ff01ff00fe0100fefffffeffff0001fefe00ff01000000010101ffffff00ff00fe0100fefffe00ff01fe0001fe00fffeffff01fe01fefffe00fefefe00000101
feff00fe00fe01ff00fefffe00ff00fffe000001fefefe000100feff0101fefe0100feff000000fe0000feff00fe00fe0101ff0000ff0000fe01ff01fefe0001
fe00010100fefe0000fe01ffff01fffe0001ff010000ff0001fe01ff00000101fe00ff0001fefe00ffff01fe0000fe00feff00fffeff000000ffff01fffe0000
00feff00ff0101fefefefeff01fffe000000fefffeff0001000100000000fe0000fe00fe0000000100fe010101fe0001fffefe0000ff00feff00ff01010101fe
ff000000fe00fefe0000ff0000feffffff0000fffe0101ff000000ff010000feff00fe01fefefefefe01ff000100fffefe01ff01ff01fefe010001010100ff01
fefefe0100fe01ff00ff00fe0101ff00fe0000fefeff0101fefe00fe0100ff00ff00fefeff01fefe0101000101feff00ff01000101fe0100ffff00fffefeff00
0101fffeffff0100fefefe00fe0100ff000101fefeff00010000ff0001fffefefefefeff00fe01ff00fffffefefefe00fefffe0000fffffefeffffffff0000ff
0001ff0000ff000001fffe01fffefefefffffe010101000001ff01000001fefe01fe01fffe0000ff0001fe00fe0101ff00fe01fffe00ff0101ff01fe00ff0100
ff000100fefffe010001fefffefeff010001fffe0101fe0001fffeffff0101010100fffe00fefffe0100ff0000fe0001fefe0100fe01fe0100ff00fefefefffe
fffeff01ffffffffff010101000101010000fefffe01fefe01feff01feffff00ffff01fe00feff0001feffffffff00010101fffeff0100000000fe0000fefe00
