000001ff0101ff00fefefffffefefe0001fe01fffe0100fefe0001fe01fffefffe01ff010000feff01ff01fefe010001fe0100ff00fffefeff00fe0001feff01
fffefefffffe00fffefe010100fffe01ffff00fe00fe0001ff01000100ffff0101010000fe0101000101fe000100feff0101ff010100fffffe0100fe0100ff01
fefe00fefe01ff0101ff0001ffff00ff00ff01feff0101fefefefe0100ffff0001fefffefe01fffe01fffe010000ff01fe00ff00fe00ffff01fe0101fefe01ff
fefe00ff000100ff01ff01fe0000ff0000feff01fffeffff0101fffefe0000feff01fffe010100fefffeff00010000fffefe01ff000100fe00fefefe0001feff
ffff00fe01ffff000001fffefe0001fefffefe00fffe0001fefefeffff0001000001000100fe00feff00fe00feffffff00fffe010001ff0100fe00fe0100fe01
fe00ff0000fefe00fe0001ff00fffeff0100ff01fffe00010001fe0001fe0001fe01fe01feff00010100fefffefffffefeff01ff01fefe000101fefffe00fefe
ff0101fe01feffff00fefe0000010101fefe0100fe01fe01ff01ff0100fe00fe00fe01fe01ff000000fe010001000101fefffe000001ff01010000feff0101ff
01feff01fefefeff0001010000ffffff01ff00000100feffff0100fe00ff010101fffefe0101fefe000101ff0000010101ff01fefe0100fefe0100fe00010101
00ff00fefe01fe01ffff00ff0101ff0101fffe01fe010101feff000101000101ff00ffff0000ff01ff0001fe01feff01fe0100fe000101fefefe010101ff0001
01fefefe00fffefe0000fe0101fefffeffff0101fe000100fe010100ff000101fe00fe0001fe0000fffefffffffeff0101fffefffefefefe0001000000fefe01
00fefeff01fefefefefffefefefffe000000fffefe0100fffffe01fe0101fe000001ff00feff01fffffe0001ff0100000001ff000100ff0100fe0100ff010001
fffeff00fe00ff01fefe0100fffffeff00ffffff01feff00fefffe010100fe000000fe0001ff000000010100ff01ffff01fe0001fefffefffeff010100010101
010100fefffefefe000100fefffefefeff01fefefefefefffe0101fefefefefefefefeff01000100fe00fe000100ffff00fefe0100fefefefe0001ff00ff0001
000000ffff00fe00fefe01fefffeff01fe010001ff000101fffefefffe00ff0100fffefe00ff00fefffe01fffeff000000fe0101010100ff010101fe00fefefe
ff01fefe01ff01fffffefeff01ffff00fe0101000100fffefefffefe01fe00fefefe01000101ff00ff0000fe0001fffe00ff00fefeff0000ffff00fe0000ffff
000101000101fe0001ff0001fffe010000ff000000ff01fe010100ff01fffffe0100ff00ff0000fefe000000feffff01000100fe0101feffff01ff0100000101
00000000000000000000000000000000000000000000000000000000000000000000000000000000000000000000000000000000000000000000000000000000
00000000000000000000000000000000000000000000000000000000000000000000000000000000000000000000000000000000000000000000000000000000
00000000000000000000000000000000000000000000000000000000000000000000000000000000000000000000000000000000000000000000000000000000
00000000000000000000000000000000000000000000000000000000000000000000000000000000000000000000000000000000000000000000000000000000
00000000000000000000000000000000000000000000000000000000000000000000000000000000000000000000000000000000000000000000000000000000
00000000000000000000000000000000000000000000000000000000000000000000000000000000000000000000000000000000000000000000000000000000
00000000000000000000000000000000000000000000000000000000000000000000000000000000000000000000000000000000000000000000000000000000
00000000000000000000000000000000000000000000000000000000000000000000000000000000000000000000000000000000000000000000000000000000
