ff0000fefe00ffffff010000fffefe01fe00fefe00fffffefe0000ffff00fefe01fe010001fffefffffeff00010000ff01fffefe0000feff00ff010100fe0101
ff00fe00fffe00fe01ff01fe01fefffe0100ff01ffff00fefe0001fffefffe000001ff01fffffe0001ff0101feff0000feff0000000001fefefefe01fffe0000
00ff000101fe00ff0101fffe01fefefffeff00fe01000000010000fe000101fffe00fefefffffffffe00fe000000010000000101fefefffefefefe01fffefefe
fffefffefeff000000ff0100fffe0100fe01ff00ff010000fffefe01fffefe00fe010000fe01fe010000fffe000001fe01fe0100fffefefe01fe01fffffffefe
fffe00fe0101fefefe0000ff00fffffe01fffeffff010101fefefefefe01fefe01ff00fefefffefeff00fe01fefefffffe01010001000101fe0000000100fffe
00ff000101fe01fe0100fefffe01fefffefffefe00ff00fefefeffff01fe01fffffffeff0101fffe01feff01000101010100fe010001fefffffffffe01010001
ff010101feffff01feffff00ff0000000001fffe0000fe00fe010100feff0100fefffe0000ff00ff01010000feff00ff010100fe00feff0000fe0000010101fe
fe00fe00fe01ff00fe00fefe01fe0101fffeffff01fffffeffff00ffff000101ff0101fe00fe0000ffffff01fefefe010100fe00000000ffffff00fe00fe01ff
01fefefefeff0100fefe01ff01fefe01010001fefe010100fe000000fefefffe000101010000fe01010000fffffffe01fefeff010100000001fe01fffe0000ff
fe00feff0000000101ff01ff00fe010001ffff01ff01feff01fefe0100fe0000fefe01ff0101fefefe01fefe000001fefefeff01ffff00ff0000000100feff01
00ff01ffff010101fefffeff00ffffffff01fefefefffe00fe0100010001fefffe01ff01fe01010000fefffeff0100feffff01fefeff00fe01feff0100fffffe
000101fefe010101ff0000fffffefe01ff0100ff0100ffff0101000001feffff000000feffff0000000000fe01ff01ffff0100fefefefefefefe0001fefe0101
fefeff01ff00fffefe010100000101fffe01010100010100ffffff00fffefffefffe010100ff01ffff010100fe0100ff00fefefeff0001ff01fefe00ff0001fe
00ff010000000100ff0000fe01fefffffefefefe00fefffefe00ff01010000fffe01ff0000fffffffffe00ffff0100fe0100feff00ff0101fe010000fffe0000
fe0001000001fffe01fe010100fe00fefffefffeff0101ff00feff00fffffffffffe010101ff00fefefefefe0001ff0000ff010001fefffffe01010100ff0000
fefefefffffe0100fe00ff00ffff0100fe00feff000100fffe00ffffff010101ff01feff01fe0001ff00fefefe01feff00fe0100ff0001ff000101ff0100ff01
0001fe00fffefefeff0000feff01fe000100010101ff00fefffeff01ff000100fffefefffffe0000feff00fefeff01fe00fe0101ff000100feffffffffffff01
fe000101fe000100010000fefefe01fefffffffefefffeff00ff00ff00ff00fffe01ff00fffe00000001fefeff0101fefe01010101ff01ff0001fefe000001ff
000100feff00fe00fe01ff00ff0001fefeff00000101fe01ff00fefefe00fe000001fefe00fffffefefe01fe0100010001fefe000001fefffe000100ff00feff
0101fe01fe01ff00fe0101ffff0001fefffefefe0100fffe01fefe010100ff0000fefffe0001feffff0001fe000000fe01ffff0100fe0101fe01ff00feff0001
fe000101fe01ff01fe01fffefffeffff0101fffe0001fe00fffe01fe01fe00fe010001fe000000fffefefefefffe000001fffeff01ff0000ff01fefe00fffefe
fe00010000fe00fe00fffeff00feff0000010000ff0000fffffe00fffeffff00ff0100fffffe00fefe000101ffff0000fefefeff00010000fffefefffe0001ff
ff0101fe01010101ff01fe0001fe0001ff0101000000010000fe01000101fe0100ff00fe00feffff00fffefefe000000fffe000000000001fffffffe00010100
fffffe01fe010100ff0101ffffff01ff00ff00fefeff01010000fe000001ff01ff0001fe0101ff010100fefe00ffff01fffe0001ff00010101fffffe00000001
