ff0100fe01ff01fe01ffffffff01010001fefe0001fefeff00fe0101000101ff00feffff00fe0100ff0101fefffefe01ff0100fffe0000fefefe00fefe00fe01
00000101fffe01000000fe00010100feff00ff00fefffeff0100fefe0000ff0001ff00feff010100fe01fffe01ff000100fffe010100feff0100feff00ff00fe
01000100ff00fe00fe000001fefefefffe00fe01ff01ff01fe01ff0000fffffefefefeffff00fefeff0001010101ff0000fe010001ffff0001fffe01fffe0000
fffffffeff00010001fffffe00010001010001fefffe000001ff0000fe01fefe00fffeffff01ff01ffffffff01fe01fffffffefffefe00ff01fe0000ff0001ff
fe0001ff01ff01fefefefefefe010100fefe00fefefe010101ff00fefffefe0000fffefefe00ff0100ff0100ff0101ff01fffffefe01fefe00feff00feff0100
feff0000fefe0001fe0001ff01ff0000000100feff0001ff0101fe00ff01ff0001000000010000010001ffff0100fe010100fefe01fefffefe01fffffe000000
0101010000000001ffff010100ff00fffefffffffe00feff00feff01fe01ff0101010000fffefeff0000fe00ff00ff0000fe01feff00fefe010001010101fe00
01fefe01feff01fe0001feffff0001feff0000fefe01ffff00fffe00ffff01feff00fffe00fefeff000101feff01000001fffe000001fe01fefefffffefffe00
00fe00feff00fffe0000ffff0101000101fefefffe01feff01fffeff01ffff00fefe00ff00fe01fefe0001fffe01ff01ff00feff00ff0101fefffffefeff01ff
00fefe0100010000fffefeffff0100000000fe0100000100ff00ff0100ff0101fffefffefe000100feff01feff00ff0001fffeff0000fefeff0001fefe010100
00ffffff0001fe0101fe01fefe0101fe000000ffff00fefe01fefe000100010101010001ff00fe01ff01fe0001feff00fefe00fffefefefe010100ff010001fe
ff00fefefefffe01fe000100fffe00ff00ff0101fefffe0100ff0101fefe01fe00ff00fffffeff0001fffefeff01fe00fffffe01fe0100ffff0000ff000001ff
0101ff01ff010100010100ff0100ff00fe000100fefeffff0101ffffff000001ff0100ff0101fe01feff00ffff0101fffefe01fffffeff01010100ff00fefeff
0101ffff00ffff01feff0000ff01fe00fe0100ff0100010100fefffefeff0001fefefffe01fffeff0000ff00fefe0000fefefffffffe000000fffefefeffffff
ff0001fffe0000fe0001fe01fffe0101ff00000101feff0000fffe0100ff01ff0101000100010100fefefe0001ff01fefefe01fefe00fffeff010101ff00ff01
01fffefffffffeff0000ff000001ffff0000000100fe01fe0001fe01ff01000000ff01fefffeff010100fe010100fe000100010101fefffffe00ff0001fffe00
