feff00fe00fe0100ffffff01fffe010101ff01ff01fefe0101fefffffefffe01ff00fffefffe0101ff0101010001fffe0001010001010101ffff01ff00fe01ff
000000ff00010001fe01feffff000101feffff01fe01fe00ff0001000000fefe00fffeff00fe0001fffffffefefffe0100000100000101feff01fe01fe00fefe
0001010000feff01ff01000001ff0001ff00ff00fefefe01fefefeff0101fe01ff0000fe00fe0100ff01fe010000fefefe01ff01ffff000101fe010001010100
00ff00000101fe01fe010001010100fe01000000feff0100ffff010100ff00fe010000fefffffe0100fefeff01ff0101010001fe000100ffff00fe0001010100
00ff00feff01ff0001ff0100ffffff01feff00feffff00ff01feffffff01fefffefffffffffffefe01fe00ff01fe000001fffe010001feff01fffe00fe00ff00
fe01ffff0100fe01ff0101fffe00feff01fefffe0100ff0000ff0101010100ffff01fefe0000fe0001fffe010101feff00fe000000ffff01fffffefffffe01fe
01fffe000100010000ff00000101fe00fe010001010101fffe0000fe0001fefe0100fefffeff01fffe0000fffefeffffffffffffff01fefe01fe0100ff0100fe
ff01fe00fe00ff0000fffefe0000fe01fefeff0000010100ff0101fffffffeffffff01fffefeff01fe01fffe000001fe00fefffeff0100fe00ff01000100feff
00000000000000000000000000000000000000000000000000000000000000000000000000000000000000000000000000000000000000000000000000000000
fe0000fe01fffe00ff0000fe00fe00fe00ff00fefefeffff000101fefefe010101ff00feff00fffe0001ffffff0000ff01fe0101fffefffe00ff00fffffe0101
fffffe0101fe0001fffe00000100fffefe00fffefefefefe01fe00fffeff0101ff00fe00fe000001010001ff0100ffff00fe00ff0000fe0100ffffff01000100
0100fe00feff0000ffff01fe010101010100ff000001fe01ff010001fffeff01fe01000100feff01fe000101000000ff000000ffff01fe00fe0100ffffff01ff
0000ff01fe0101000000ffff00fffffffefeff0001ff01fffe01fefe000000fe00000001fe00feffff0101ff00010100fe00ff010100ff01ff01fefe01ff0000
000000010100fe01010100ffff00ffff00ff00ffff00000001ff010001ff00fe00feff00ff0000fe0000ff00fe01fe01fefffeffff01fe0101fe01010000fffe
01000101ff01ff0000ff01010000ffffffff00fe01fe010001000101ff01010101fffe010000fe0100fe00ffffff01fefefe01ffff0001ff0000ffff0000ff01
ffff0100fe01ff01000000fe00010100fffeff01fe01fefe00ff0001fefe01feff00ff01010000fe00fffe00fffe01fefefe01010100ff01ffff00fefffefefe
01feffff0001fffe00ff00010000fefe01ff01ff01ff00fefefefefffffefe0101010101fe0100fe01010001ff000100ffffff0100000100fefffeff01fefe01
00000000000000000000000000000000000000000000000000000000000000000000000000000000000000000000000000000000000000000000000000000000
fe01ff0100fffefefeffffff0001010101ff01fefe01fe0100ff0000feff00feff01ffff00ff000100000100ff01fe00fffffefffffffffe00fe010100fe0100
fefeffff01ff0101fe00fe0000fffeff00000101fffffefe00fe0100ffff0001feff00010100000001fe01fffeff0100ff00fe01fefeffffff00ff01fe0100ff
fe00ff00fffefffe0001fe00fe01ff00fe01fefffefe01ff0100fe00feff01feff00000001ff00fe0101fe00ffff000101ff01ff00fefefe0001fffe00fefefe
fefe00fe01fffffefe01ff0101fffefffeff0001fefefe0101fe01fffe00fefefffe01feffffff00ff000100fefffe00fe01ffff010101fffefefefeff01feff
0100ff00ffff0101fefeff010001ffffff0000feffffff0001fffe01ff0001ff00feffff00fefe00010001ff000101fe0000ff00fe010000fffffffffe00fffe
ffffff010100fe0100010100fefe00fe01fe01010100010100fe01fe00ffff01fe0100fe0100ffffffffff01ff000101ff000100ff0000fe01fe00fe01ff00ff
ff00fe00fe00ff0001fffefffe01010001ff000100ffff0101fffe0000feff01fefffffffffe0100fe0000fffefe01fe00fffe0000fffe0000fffefe0001fe00
0101fffefe00fe00ff01ff010101ff00fe01feff01010100fefe000000ff01ff0000feff010101fffffe0100fefefffffe01fe0001feffff010100fefe0100fe
00000000000000000000000000000000000000000000000000000000000000000000000000000000000000000000000000000000000000000000000000000000
