0001000000feffff0101fffe01000001fffffefefefe00000100ff000100ff01ff000100ff00ff00feffff000000fffffe00fffe000001ff00000001feffff00
01ff00000101fffe0001fe0101fffefefe0100ff010001fefffe00fe0001ff00fffe00fefffeffff00ff0000fffffeff0000010100fffeff01ff000001ff0001
fffe00fefe0100fffe01ff0101fe00fefe00fefeff00ff000100000001ffff0000ff0000010101010000fe01fffffeff01fe00ffff00ff00ff00ff01ff01ff01
01000001fefeff00ff00000101ffff0001fe00ff0001ff01000100ff01fffe01fefffefe0001fe0000ff00fefe01fefeff00000001ff01fffffeff00fefe00ff
fffe00fffeffff0101fe010101000000000101ffff0001fe01fffe00fffe000001fffffffe010001ff0101ff01feff0001feff01ffff0001fffefefe01fe0100
fffe01010000feff01fffffe0001fe000000fffefefe0001000000ffff01fe00fe00feff01fefe01fefefefe00ff01fe01fe00ffff01fe01fffe01ff01fefe00
fefe00000001fefffefe00ff0001fffffefeff01ff0000fe00ff00fefe0001ff0001fffffe0101fefffe01feff01feff00010101fe000001feff01feff0101ff
0001010001ffff00ff00fe00ffff00000000fffffffe0100fe0101ff00fefffefffe00fffefeffff01fffefefefe010100fffe0101ff00ff01ff0100ff00fe01
00000000000000000000000000000000000000000000000000000000000000000000000000000000000000000000000000000000000000000000000000000000
fe00ff00feff010101fefffe010101010000ff01feff00fe0001fefffe01fffefe0100fefefe000101fffe000100fefe0101ffff00ff0001fe000000fe0100fe
01fffe0001000000feff01ff01fffffe01fefffeff0000ff00fefefe000100fefeff01fe01fe01ff01fe000101ff0001fffefeff01feff00fffeff00ffff00ff
fefefefe0100fffffeffffffff000100fefe000100ff0000ff010100fffefefe000101ffff000000ff01fe01ff010101feff010001fffefeff00ff0101010000
fe01fefffe00fffffefe00fe00feffff0101ff0001fe01ff010000fefe0000010001ff00fefeff00feffffff00fefefe0000ff0001ffff0101fe01fe01fffffe
fe01010101fe0100000100fffefffffeffff010101fffefe00ff01ff01feff01feff0001fffe0101ffff010001fe01ff00ffffff010100ff0000fffe00000001
00ffff00fefffeff010000fffffffeff00ffff01ffff0101ffffff00ffff0101fefe0100ff00feff0100fe00ff01fe010101000000feff01fffe000100fffe00
00fefffefeff01fffffe0000ff00feff0001ffffffff000100ffff01feffff01fffefffefe010001fffefffeff01fe01fe0000fe0100000001fe01fefe00ff01
fe0101fffffeff00ff01000000fe000100fe00010001fefffe01ff0101ff01fffeff01ff000000fe0000fefe0000fe00fffe00ff00010000fe01ff01feff00fe
00000000000000000000000000000000000000000000000000000000000000000000000000000000000000000000000000000000000000000000000000000000
ffff0000ffffff00000000feffffff0101ffff01fefe01fffe0100fe01fe01fffeff0100fefefffe0100010101ff00fe010100fefeffff0101feffff0001ff00
ff00ff0001fefffffe00fefefefe00fefffefe00fefe00ff00fe0101fe0000fffe0101fe01fe0101fe00ffff010000feff00feff01fefefeff00fefe00fffe01
ff01ff0100fffe00ff01ffff01feff01fe01fefefeff00fe0000fefffeffff01fefffe000001fefeffff000101ffff01ff00fffeff00fefe01fe01000001fefe
01ff00ffff01fefe010001ff0100ff00ffffff01ff00fffefe0001fe01feff01010101fe0000010000ffffff0000ff0001fffe01ff00fffffffeff010101fe00
fffefefe010000fe0001fefefe00000100fe00fe01ff0000fe0101000100fffe01ff010101ff000001fefe00ffffff00ffffffff0100010101ff0001fe010000
0100fe00fffffffffefffe000000ff00fefefffefe010100fefffeff00fffffffeff00fffe010000ff01ff00ff01ff00ff00000101ffff0000fe010001fffffe
00fe00fffefeff01fe0001fffefe0100ff0000010000ff01ff0001fffe0001ffff0000ff000001feff0000ff0000fe000000fe0100ff01ff01ff01fefe01fefe
00fffeff01fe00ffffff01ff01fe01ff0100feff00000100ff0001ff00feffff0101fefefefe00ff000000ff00fefefe010000010000ff0001ffff00ff000101
00000000000000000000000000000000000000000000000000000000000000000000000000000000000000000000000000000000000000000000000000000000
