01feff00ff010000fffefefe01fe01ff0101fe01000101ff00fe010100ff00010100fe0100fe01000000fffe01fffffefefeff000100feffff01feff0100fe00
01fe0001fffffefe01000000feff01fe01fefffefeff0000feff01fffffe00010100fffffffefeffff0000000001000101fe0101feff010101feff0001fefe01
fffe0100ffff010100000000ff00010101ffff01feffff0101ff010100ff0101ff01fe01fefefeff01010001000000fe000000ffff00ff010101fefe0000fe01
00ff00010101010001fefe01ffff00ffff01fefffeff00fe0000feff00fefffefe01ff0001fe0100010101ff0100000000fefefe00fe0000010101ffffff0101
fe01fffe010001000001fe000100fffffffeff0000feff00ff01fe00fe00fffe000000fffe01fe000101fffe00feff010101010001ff01ff00fefefffe01fe00
01010001fe010001fe01fe00fe00fefe00ff0101fefeff00ffffff01feffff0100fffefffefefe0000fffffe00ff00ff00ff01fe0000ffff00fefffe010101ff
000100ffffff010001ff000100fefffeff00fefe00ff00fe0101feff000001ffff00fe0000fe00fe00fffffe00ff00fefefe01fe0000fefefefe00ff01fefffe
fe01feff00ff0000fffeff000100fefefe00fe01ffff00ff00000100fffefe00010001fe0101fe01010100fefe00fffffe01fffe01ff000100fe00ffff0100ff
00fefe01fe00ff00ff00fe0001ffff00ff0001ff01feff00fe01fffefffffefffefeff01ff0101ff01fefffffffe0101fefefe0100feff01ff00fe0101fe0001
ffff00ffff01fe00ffffff01fe01fefe00ffffff01000000000001ff0101fffe010000ff010000010100ffffff0000fe01ffff010001fffe01fe00ff01ff00ff
fefe00fe0101fffffeffff00fefeff00fffefe000100ff0001000100ffff01fe000000fe00ff010100feff01000001ff01ff01fe00fe01fefffe0001000100ff
00fefffe0100010000fe0001fefefffffe01ffff01fefffefe0000feff010100fe010100ffffff000001ff00fefeff000100fefffe01fe0001ff0001ff00fe01
000101ff01fefeffffff0000fffe01ffff01ff01fe0100000101fefffe01fffefefe01ff00fffffffeff01fefefe01fffefe0101ff010000ffff00ff01000000
fe01ff0100ff0100fe000001ff0000fffe00fffe0101ff01fefffefeff01feff01ff01fffe000100ff0101ffff01fefe01fe01010000feff0001fffe000000ff
feffff01feff0101ff01fffffffefffefe0000fe00fffefe010100ffff0100fffffffeff01ff00ff01ffff00ff01000100fefefefffffffeff00fe00fe000100
0001ffffffff0101000100ffffffff00fefefe0001fe01fe0101fefeffff01fefeff00010001ff0001fffe00ff00fffffe01fffffe00fe00ff00ffffff00ff00
