01ff01fe000101fffe01fffeff00fe01fe000001fefefffefe010101ff00fefefefe0001ffff01ff01ff00fe0001ffffffff0001fe01fefefefeff0001fe00fe
fffefefeff00feff0100feff01fefe0000fffffe00000101fffefeff00feff00fe010100fe00fefe00ff00fffeff0100ffffffff00fe0101000001ff01000001
fefeffffff00fe01000000010101fefe01fffe00fefefefe0101fe00010100000000fefffe0100ff00fffe0101ff01fe0100fffe01feff01fe000101ffff0101
fffefefffe010000ffffff00000101fe0100010000ff0001ff010101fffffe000000fefffeffffff010000fffefffefefe0001fe01fefffffe01ff00fffeff00
010000fefefe000000fefe00fffffffeff00fffffe00fffe00ff01fe010100fefe01000000fefe0101feff00fe0000fe01fe00fe0001fffeff0001ff000100fe
fefe00ff01ff0000feff01fe010101fe01fe01fe0100fe0100ff00fe01fffefe0000ff000000fe00ffff01fefffe0000ff00fe0100fe01ffff01ffff00ffff01
00fffffffefefefffe00fffe00ffffffffff010000ff010101fe0100fe000001feffffff010001fefffefffefe01000000fffe00fe000101fe0000feffff01fe
fffffe01000100fffe010000feffff00fe0001ffff0101fe00000000fffefe00ff000100fe010101ffffff0100fefffe00ff00fe0100fefeff010001010101ff
00000000000000000000000000000000000000000000000000000000000000000000000000000000000000000000000000000000000000000000000000000000
01fefffffefefefffffe0001ff01ff01ff01ff0000fffefffefefefeff01ff00fe0000fefe00ff0101ffffff00feff000001ff00fe010101fe00fffffe010101
ff00fffffe00fe0101fe01fffe01ff01feff01ffff00fffe010101fe01ffff01fefe00fefeffffff0001fe0001000100fffeffff01ff00ff00fe00ff000001fe
01fffefefe01fe00fffe00fe01fffeffff00000001ff01fe010000fefefffe0001fefffe0001fefefe0100ff01010001fefffffffe01ff01feff00ff00ffff01
01fe00fefe01feff00fffe00fefffeffffff0101fe01feff0101ff00fefefefefefefe000101fefefffefefefefe00ffff00fffeff0100fe01feff0100ff0101
01fefefeff01fefffefeff0101ff01000101ff00ff00ff0101ff00ff0101fffefe01fffffefffffe000000ffffff0101ffff0001000000fefe0001000100feff
000100fe000000fe01010100feff00ff01fffe0101ff00fe0000fefeff000001ff000101010000feffff00fefffffefefe00fefe0101feff000000000000fe00
010000fe01010000ff00feff0000fefe0100000000fefefe01fe00fffffe0001feffff00fe0000fe00000100fefe0101fffe00ff0001ffff01fe010101ff0001
fefffe000000ffffff000001fffefe0001feff0100fffe01fffeff0001010001fe0101ff01fe00fefeff00fe0000fe00fefe0101ff01ffff0100010000ffffff
00000000000000000000000000000000000000000000000000000000000000000000000000000000000000000000000000000000000000000000000000000000
fe01ff0001ff00fffe01fefe01fefeff01ff00fffffffe00fffe0101ff01feff00fe000000ffff00fe0101fe000100fefefffe01ff0101ffff01fe01fffeffff
010000ff0100feff0001feff00fffe01ff00ff0100fefffefeff0001fe000101ff01fefefefe01fffffeff010000ff01010100fe00ff00ff010000fffe00fefe
0100ff01fe0100ff01fffe0100ff01fefe0101ff00ff01fe00010000fe0000010001fe01fe0000ffffff0101feff00ff01fffe00ff01ff00ff0001fefe000100
ff01ff00fefffeff0001ff01fe00fffe01fffefefe0100fefe01ff0100fffffe00fffffe0001010001fffe00fe0101ff000001fe0000fefeffffff01ff00ffff
fefffeff00ff00fe01feff01fffefffffe010001ff0000fffffe01ff0001ff01ff00fe0001fefe01ff01fe00ff000101fe01ffff0100fefffefefefe00fffe00
000001ff0000fe01fefffe00000100fefffe00010101fe01ff00ff01ff000001ff00000101ff00ffff01ff00fffe0101000000fe01000000fffffeffffffff01
fffeffff00ff01fe01ff01feff010000ff00fefe00ffff00fefe00fe0000fe01fe01feffff01fe01fe00fefefe01fe01010101fefe010001fe01ff01ffff0000
ffffffffff010101fe01fe0101fe01ff010101fefe01fe0000ffff00fe00010100fefe010100fefefefefffe01ff000001000100fffefeffff01ffff00ffff01
00000000000000000000000000000000000000000000000000000000000000000000000000000000000000000000000000000000000000000000000000000000
