00fffefffeff0001fefe01ffff0101ff01ff01fe010101fefe01ff01ffff00fe00ff01010001fe0001fe00fffefffeff000100fe01ff01fe01000000fe00ff00
fefefe01fe01ff00ff00fffe00010101fffe010000010100fefefe0001000000ff0000000000010101ff01feffffff0000fe00feff01ff01fffe0101000101fe
00ffff00ff00fefe0000000000fefe01ff0100feff00feff01ff0101fe01ff0000ff0001fefffffffe01010100fe01ff00fefffefe0100fffe01fe01fefeffff
fe01feff0000ff0100ff01fefffefefe01fffe01fefffefffe000101000100fe0000ff00fffffffffe0000010100fffe0100fffeff01fefffe00fefeff01ff00
000000fe01fe000100fe0101fefffe00fe0001fffeff01ff00fefe010000010100fefe000101000000fefffe010001ff0101ff01fe01fefe0001fefffefffefe
fefe0001ff00fefe01ff01fefe0101fe00000000fe0001fffe01ff00fefe0001ff00fe01fffeffffff01010001feff010000ffff010100fefeff00fe000000ff
0001fe01fe0100ffffffff01fe01fefefe0101fe010001fefffe01ff01ff00feff01fffefefffeff00fe0001010100000100fefe01fefefeff01ff0001000100
fe0101fffffefefefefeff00ff000000fe00ff00ff000000ffff0000fefffe01ff01fe00fefe00ff010101fefe00ff01ffff0101fffffffe0000ffff01fefe01
00000000000000000000000000000000000000000000000000000000000000000000000000000000000000000000000000000000000000000000000000000000
fffefe0100000100feff01fefffe0101fe0001fefe0001fe010100fefffefe0000ff00fe0101fe0100fefefe000000ff0000ff01fffffffefeff010000010001
01000000fe01000101000100ff00fefe00010101fefe01feff00fe010100000101010001fefe0000fefe0001fe01000001fefffe01fe010000010000ff01fe00
00fe010000ffffffff0000fefe0000fefefffffffe0001ff00fe00fe0100fffeff0000fefefe0101ff000100ff01fefe00fffffeff00ff00fe01fffe0001fe01
ff010100fefefeff00ff00fe00000101ffff01010001fffefefefffe0000ff0001fefeffffff010001fe0001ffffff01000001fffe00ff0000ff01010100fffe
fefffefe0100ff01fe01fefffffe01ff00fffe00010000feffff01ff01fe0000ff010100ff010101fefefe00010001ffffffff0100fe01ffff0001feff01ff00
ff0000ff010100fffeff01feff00fe0000010100feff000001ff00000101fffe01fe010001010000fefe01fe00ffff000000ff000101010001010001fffeff00
feff00ffffff0000ff0000ff010100010001010100ff01fe0000010001fe00fefffefe00fffffffefefe00fe0001fe01ff00ffff01fefe0100feff01fe0001fe
01fe0001fe0100fe01fefeff010000000001010101fe0000fe00fffe01feffff000100fffefffe0000000100fe01ffff010100ff01ff0101ff0101fffeff0001
00000000000000000000000000000000000000000000000000000000000000000000000000000000000000000000000000000000000000000000000000000000
00000000000000000000000000000000000000000000000000000000000000000000000000000000000000000000000000000000000000000000000000000000
00000000000000000000000000000000000000000000000000000000000000000000000000000000000000000000000000000000000000000000000000000000
00000000000000000000000000000000000000000000000000000000000000000000000000000000000000000000000000000000000000000000000000000000
00000000000000000000000000000000000000000000000000000000000000000000000000000000000000000000000000000000000000000000000000000000
00000000000000000000000000000000000000000000000000000000000000000000000000000000000000000000000000000000000000000000000000000000
00000000000000000000000000000000000000000000000000000000000000000000000000000000000000000000000000000000000000000000000000000000
00000000000000000000000000000000000000000000000000000000000000000000000000000000000000000000000000000000000000000000000000000000
00000000000000000000000000000000000000000000000000000000000000000000000000000000000000000000000000000000000000000000000000000000
00000000000000000000000000000000000000000000000000000000000000000000000000000000000000000000000000000000000000000000000000000000
