01fe000100fffffffefe000101010001fffefeff0001fe0001ffff01fefffe01fe01ffff00fe00fefe01010000ffff0101000000ffff010101fe000100fefefe
fffffeffff00feff00fffe0100ff010101fefe0000fffe01ff00000001fefeff0001fe010000feff01ff000000fefe01fe010100010100000000fe01ff00fe00
00000001feff01ffff01fefe000101fefe00000001fefffeff00ff01feff01ffffff00000001ff00fffffffffefe01ff0001fffffeff0001010000feffff0101
ffff01fe00fffffe00ff00ffffff0000feff01fffffefe00fefeffff01fffffe01fefe00fefe0100fffefefffeffff00fe0001fe0100ff00ffffffffff000001
