0001000101fffeff01ff00fefeffff01ffff0001fffe010101fe00010000ff010001fefffe01fefefe00fe0101010101fefe00010100ff01feff0101fefe00ff
01fefe01ff00fe0000010000fefefeffff0100fefffe00fefeffffff00fefefe01fffe0001ffffff0100feff01000001fe00fe00ff0101fe01ff00ff00fffeff
0100fffefe00ffff01fefefefe010001ffff01fe01fefeff01feff000001010001ffff01ff00fffefe0000ffff00fe01ff0000fefffefeff00ff00fefe0101ff
feff00fffffeffff010001fe00fe01fffefefefeff00fe01fe00fe000001ff01fffefffe01010000ff0101000101fe01ffff000100fffe00ff000001fe01ff01
fe0100fffeff00ff01fe01fe01ff00fffefe01fffe00ffff010000fe00ff00ff0101ff00fe00ff01feff00fe0101feff00ff00fe01fffeffff010100fe000101
0101010001000000fffefe0000000100fe0000010000fffefe00010001ffff000000fefffe010101fefe00fefe01fffffeff00fffefefefffefe0000fffe00ff
00ff01fefefeff0001fffe00ff0000fefe0100fffe01000101fffefe01fffffe01fefe010001010000fffe01ffff00feffff00fffeffff00ff0101ff000001fe
000100fffffe010100ff0001ffff0100ff00fffe00fe0100fe010001000100fefe0101fe0100fe01feff00feff00ffff01fefffffe00ffffff00fefefffefe00
00000000000000000000000000000000000000000000000000000000000000000000000000000000000000000000000000000000000000000000000000000000
fefffe00fe010000ff00ff01fefffe01ffff0000fe010101ff01000001fffffeffff01fefffe01010000ffffff01fffefffffe01fe00ff0000fe0101ff0101fe
ff00ff01ff01ffffff00fe0001feff01fffefeff0101feff00010101ff00fffe010100ff01fe010001fefefffeff01fffefe00ff000000ffff0101fe000100ff
00fefe00feff0100ff0001ff010001ff0000000001feff0001fe00fffefffffefffffe0100010001ff0000fefe00ff00ffff0000fe000001ff010001ffff01ff
00010001fe0100ffff0101feff00000100fefefe000100fefffffe0001feff0101fffeff0001ff0000010101fe00fe01ff01000101ff000100ff0000fe010000
01ffff0100fe01fefffffffefffefefe0001fffffefffeff01010101ff00fe000101ff00fe0001fe01000100000001fefe01ffff0000fffe01fffffffe010001
0001fefefffefffffe00ff0001feff01000001010000fffffe00010100fffefeffff000101fefffe01fe000000ffff00fe010001ff0001ff01fefe0100000000
01010001fefeffffff00fe0100fffffe0000fe0100fe00010101fffefffe0100fe00fefe010001fe00fffeff0100ff00ffff010101fe00fefe0001fffe00fe00
00fffffe00ff000000ff00fe01fe00fe01000101fe0101010100fefe0101000100fffe01fe000101fefe0001ffff00fffffe00ff0000fe0001ff01feffffff01
00000000000000000000000000000000000000000000000000000000000000000000000000000000000000000000000000000000000000000000000000000000
010100010001fefffffefefe00fe0001000101feff010000ffff00000000fe0100fe0001fefffe00fe01000000fe010100fffffe00ff010001fe01ff0101feff
0101fe0000ff00fe0000fffe01ff010100fe00ff01fe01fe01fe0000fe000101fffeff01feff00fefefffe01fefefffefefe010000ff01fefe00fffe01feff01
0101fffffe01fefffefffe0101000100ffff00fffefeff00010001ff01ff010000fefe000101fe0001010100fe01ffff0001feffff0101fe00fffe0100fefe01
000101feffff00ff00ff010001ffff00feff000100000000fe0001fe00fe01fefffffe0101ffff01ff000101fe00ffffffffffff0101fe0000fefe01fe0000fe
00fe0000ff0100fffffe010001feff00000100ff00010100fe0100ffff0101fefe01ffff00000101010001feff00ffff00ff01fffffe0101000000fe00fe00ff
01ffff0100ff0101ff00fffe00010100ff00ff0000000101fffffe0101fffffe00010101ff01fe0000000001fe00ffffff00fe01fe00fefffffffffe0101ff00
01fe0001ff01fe01fffefefffefefe01010101000000feffff0101fffffffe01fe00ff00feffffff0001feff0101fffefefefffe010101fffffffefe01ff01fe
feff01fffefe0100fe0101fffffe0001ffffff000001fffffffffe0100fe01fefffffffefe0000fe01000100ff0101000000fe00ffff010100fffefe010000ff
00000000000000000000000000000000000000000000000000000000000000000000000000000000000000000000000000000000000000000000000000000000
