00fffe01ff0100fe00fe010101ff0001feff01fe010101fe0001000000fe010000fffefefe0101fffe0100fefefe00ffff0101fe00fffefeffff0000fe00fe01
00fe00fffffeff00ff01feff00feff000100ff01ff00fe0001ffff00fffffffeff00fefefe00000000ff01000000fe0000fefe00fe01ffffff0100fe000000ff
01fffe00010000fefe01fe0001ff010100feff0001ff0100fffeff00fefe00fe00fe0100feff0001010001010000fffffe0000ff01ff00fffffefffffe00fe00
fefe0000000100fefe00fffe00ff0100fefe0101fffffefefe010001ffff010000fe000101fefeff00fe0001ffff00fe000001ff010100fefe01fffeffff0101
fe0101fefe0101fe0000fffffffeffff000101010001ff0101ff010001000100ff01feff01fefe00ffff000101ff01fe01feffffff010001fefefe01fe01feff
01000001feffff01010101fe01fffe01010000fe01ffff00010000010100fffefe00fe01fe0101ff01ff01fefe00fffe0100fffe0001fffe00fefe00fffefeff
00ffff010101000000fefe010100ff01000001feff01010000ff01fe01ff00fe00fe010100fefffffe0000ffffff00fe0001fffffefffefffffe01ff00fe00fe
00ff0000ffff01fe0101ff01feff000001ffff00feffffff0001fe0100fefe0000ff010000ff00feff0101fffefefefe0001fffffeff00fe01fffe000100fe00
01fe01fe01fefe0000feff0000ff01ff01fefeff00ff00fe01fe0101feffff00ffff010000ff01fe00ff0000feff01fe010101fe01fefe01fe01fefeffff01ff
fffffe0000ff01fe01ff0100fe0101fffe01fe01ff010000fe01fefffefffeff00fe0001010001000100fffeff01fe01fffe000101ff0000ffff01000101fffe
00fe01fffe01fefe00fffe01010000ffff00fefffffefffeff00fefefe0001fe0000ffff0001fffffffffefffffe01010100fefefffe01feff00ff01ff00ffff
01000001fffeff00fe0000fffe00fffffe0001ff00fefe010000ff00fefefe000101fe00fe0001fefffe0100000000000101fe00fe0000ff0001fffe00fe00ff
fffffe01ff00feffff0001ff01fffffeff000100fefefe0101ff0101fe01fe0100fefe00fe00fe010001fe01feff01fefeff00fe0001ffff0000feff000101fe
0000fefefffe0100fefefeff00fefefffe01feffff00ffff00ffff01fffe000100fffe00feff0100ff01010100fefffe01010100fefe01fffeffffff00000001
00010001000100ff01ff00fffefefefffe00ff01fefe00ffff00feff010000fe0100fffeff01ff0100fefefe0100fe0000ff00ff01ff0001fe01ff01fe00ff01
fefffefe01ff01fffffefefefe00fe0101ff0001ff01ffff00ff0100fffefe00fefefefefffeffff0100feff0000ff0101fe00fe01fe00fe00fefeff01fe01fe
