0100fefefefeff0100ffff01fffe000000fe010101fefe0100fefe00fe0101ff01fefffefe01fffe0101fffefe0100fefe0000fefffe00fe01fffffe0001ffff
fefefefe0000ffff010100ffffff0101000101ff0000ffff00fffe01ff0100fe01fe0100ff01fefe01ff0000ffffff01fe00ffff010101ff00fefeffff0100fe
00010001fe01ff01010000fe0101fffe000000000001ff00fefe00ff00ff01fefefe0100010001ffff01fffffefe01feff01fefffffefe01fe000100ff01feff
010001ff0000ff01fffe00fffefe01fefe00fffe000101ffff01fefe00000100ff00fe0001ff010100feff01fe01ff010100feff00feff0100fefffffffffeff
