ff0001fefe0100ffff00fffffe00ff010101010100ff00fe0001fe01fefefffffe00fe0101ffff0101000001ff01ff0001fffefefe00fefffffefe0001ffffff
fffe00fffffe00fefe010001fefe0101ff01ff000001fe01feff00ff000100010101ffff01ff01ff01ff01fefe000000fffe01fffffffffffe01ff01fffe0101
01fe00fffeff010101ff010101000101ff0001fefefffffefffefe010100ff0101fffe0001fefe0101fe01010001fffffffffe0100fe01ff01fe0101fe01ffff
0000fffffffeff01ffff01fefe01ff000101fe00000001fe000101fffefe000001fe01fffe01fefffe010101fe01ff00ffff00fe01fffe00fffe000100fffe00
fe0001feff0100fe01fe00ff01ff00010000010100fffffefe00ffff00fe010000fffeff00fe01fe0101fe0100fe00000100ffff01ffff01feff0100ff0001fe
010000000101ff0100fefffefefe01fffefe01ff0000fefe0001fefeffff00ff00ff00fefefefefefffe00feff00fe010000fefe0100fe0000feff00ff01feff
fffffe01fe0000fefeff000101feff00fe010100ffffff00010100fffffeffff00fefffe00fe01fe01ff00fe0000feff01ff01fe01fe0100fe010101ff0101fe
0101fefefe0101ff0001fffe01fefeff01fffe010101fffe0100fe00fefffefffeff0000fefffe01fefeff00fe00ff0000fe0100fffeff00feff0101fffeff00
00000000000000000000000000000000000000000000000000000000000000000000000000000000000000000000000000000000000000000000000000000000
fffe0101ff00fe000000fefffe01fffffffe01fffe0000ff00010000feff010001fefe00fffefe01fe010100ff010100ff00fffeff0101fe0100fffefffffe00
0001fe0000fffe000000fffeff0100fe01fe010000fffffe010100010101ffff00ff01fffe0101010001fe0000fffefe00fffeffffffff00ff010000ff010101
ffffffff01fefe010000fefe00ffff0101fe01000100fe00fe0101ff01010001fffffe000101feffff00ff0100010001ff01ff0001fefe010000000000fffe01
00fefe00fefffe00ff00ff000001fefffe0001fefffe01fffefefffefffe000001fe0100ff0000fe010100ffff0101ff01fffefefefefeff00ff01fe010100fe
feff0101000000ff00fffe01fefe00ff00fefffe01000001fefefffeff010100fe00ffff0001ff00fefefe0101fefefeffff0001fffffeff0100fe0001ff00fe
fefe0101fffefffeff000101fffe0000fe00fffffe010001fffe00fe0101fe01fefe0100ff000100010000ff01010100feff00fe01fefffe00010101000000fe
fefe01fe010000fe0100fffffeff000101ff00ff000101fe0100010100fe010001fe01000100fefefeff0100fffe010100000100fffe00ffffff01fe01fffeff
fffffffefefe00fefeffff01ff01000001fe01fefffeffff01fe01feff0101ff01ff0000ff01ff01fe0101fe00ffff01fe0101fffefffffe00fefe0101fefefe
00000000000000000000000000000000000000000000000000000000000000000000000000000000000000000000000000000000000000000000000000000000
00000000000000000000000000000000000000000000000000000000000000000000000000000000000000000000000000000000000000000000000000000000
00000000000000000000000000000000000000000000000000000000000000000000000000000000000000000000000000000000000000000000000000000000
00000000000000000000000000000000000000000000000000000000000000000000000000000000000000000000000000000000000000000000000000000000
00000000000000000000000000000000000000000000000000000000000000000000000000000000000000000000000000000000000000000000000000000000
00000000000000000000000000000000000000000000000000000000000000000000000000000000000000000000000000000000000000000000000000000000
00000000000000000000000000000000000000000000000000000000000000000000000000000000000000000000000000000000000000000000000000000000
00000000000000000000000000000000000000000000000000000000000000000000000000000000000000000000000000000000000000000000000000000000
00000000000000000000000000000000000000000000000000000000000000000000000000000000000000000000000000000000000000000000000000000000
00000000000000000000000000000000000000000000000000000000000000000000000000000000000000000000000000000000000000000000000000000000
