0101ff0001ff0100ff00fefe00fe00000101fe00ff0000feff01fffeff00fefefe01000101fefe000100ffffff01ff0001ff0100010100fe000100fffe000100
00fe0100ffff01fefffe01feff01010100feff00ff000101ff00ff0101000101fffe00000001fefffeff0000000101ff0000fefffeff000001ff0001fefe0101
0100fefe01ff01010000fffe00fe0101fe0000000100ffff0101fffe0100fefe01fe01ff0000000100fffefefffeffff010101ff01000100ff01fffffe0000ff
ffffffffff00ff01fffe000101fe00ffff0000fe01000000fffffeff0101feff01fefffe000100ff0101ffff01fe00000100fefe00ff00fffe00ff0100ff0000
fffe01ffff0001fffffeff010001fe010000fe000101fe00fefeff00fe000000ff00fefffffeff00ff00ffff0000fefffffe00ff00fffefe00feff0001fe0100
0000fefeff0000ff0100fffffefefe0100ffff00fe01000101fffe000101010100ff01fe00ff000000fefefefeffff00fe0100ff01feff00fefefffeffff0000
fefe00fe0101000000ff0100010000ff00fffe01ff0100fe0001ff00010101fefeff00fffffffefefefeff01ff0100feff0101ff010001fe01ff0000fefeffff
fe000001ff000001010100fffeff0000fe000101ff00fe01fe0101fe00000100ff0100ffff000001ff0001fefffe0101ff01fe010100ffff0100fe01fefeff00
0001fe00000000fe00000000ff0101feff010001ff0101fefe00fefeffff01fe00010100ff00fe0100feff01fe01fe0001fe010001fe01feffff0101ff000101
fefe00fefffefefeff01feff00ff01ff00fffefffefffeff00fffffffe01fe00fefe010000010000fefe01fe0000000000fffffffe00fefe00fe00fe01fffffe
fe00fe00ff01fefefe0100ff00ff000001fe0000000001fe00ff0000ff00fe0101fe00fe0100fefefffe00fffe0101fffe0000ff0001fe0000ff0001fe01ff01
0000fe010101fffe01ffff01fe000001fffe01fffffe0000fe00fe0101ff00feff01fefffefe0000fe0000ff00010100fffefe00ff00ffff00000001010001fe
ffff0000000001fefeff0101fe0100fefefeff0100ff0000000101fffefffe01000001ff0001fe0000010100fffe0001fefffefffe0000ff01fefe01fefffe01
00fe01fefeff0101fefe01fffeff000100fffefffefffffeff0101ff01ff0101fefffe01fe0000ff00fe00ff01ffff000100ff010001ffff01010001fffeff00
0000010100fefffe00fefffefefe000100010000ffff00ff010001fe0101fffe010001ff00fe01ff01fefe00feff00ffff00fe00ff00000100fe00fe00000100
00feff0001fffe00fe00ff000000ff01010000fffeffffff00010000ff00fefefe0100fefffe0001fefefe00fffeffff0000fe00fffefe000100fe0100fe00fe
01fffffefefffefe0101fe01000101ff01000000ff010000feff01ff01fffefeff00fe00000001fe01fe00fefefeff000001ff01ff0000fefe0001ffff0001ff
fffffe01ff01fe00fefffe000100ffff01000101fffefffe01fefefffe000101fffe0100010101010101ffff01010001ffff0100fe0000ffff0100000101ff01
ff010101fe000101fe01ffff00ff01fe0000ff010001fe000101ff010100ff010001fffe00000101fffeff0101fffeffff01ff01fe010100fe0101ffff00feff
0101fffffe00fffe00fefefefffffe0000fe000001010100fefe010000fe000001ffff000001010100feffffffffff0001ff01ff00fe0001ff00fffe00ff0000
ff01000000feffff0101010000ff0001fe000101ff01010000ff01fefffe00fe00fffe01fffffefe01fefe0000fefffe00ff01fe00000000ff01fe01fefefeff
010101fefe010000ff00fefe01fe00ff0001fffeff0100000101ff0101ff00fffffeff010000fe00fe00fffeff0101fefffefe01fe00fffe00feff0100ffffff
ff01010100ff00ff01fe00ff010100fefefeff010001ff00fe000100fffe0000ff010000fefe0001ff0100fffffe0000fe00ffff00010000fffffeff000000fe
fefffefefe0101fffe01fefefefe010001fffe01fe01ff01fe000101fffe00feff01fefffe0000fe0100000101ffffff00fefefefe00ffff00fefffffefeff01
