00ffff0001000001fe0101ff00ff0001fe01010001fe00fffefe00fe0101fffffe01fefe01fe010101fffffefe01fe01fe0101fe01ff010100fefe01fffffe01
fe00ff00ffff00ff010000fffffe0000ff00ff00ff010001ff0001010101ff00000101fe000000fffe0000ff0000fe00010101fefe0000ff00000101fe000000
00fe0100fefe0001ff0101fe01fefe000101fffefe00010001fefefefffefffeff00fffe01fefe000100ff01ff01fe000100000101fffffffe01ff0101fffeff
fffeff01fe000001ffffffff010001fe01fefeffff01ffff00ff000101feff01fe00fefffffe01ff0001fe00ff01feffff0000fe0000010100fe00feffff0100
