fefe000101ff00000101fffe00fe01ff01feff00ff00ffff00ffff00010001fe00fffe00ffffff01fffffefefe00fefffe00fefe0000fefeff01fffefeffffff
fe01fe0001fffe0001fffefe00feff0101feffff01ff000001fffeff0000fe00feff010100fffefffeffff0101fffeff000101ff01ff0000ff01fefefefffe00
010101fefeff0100ff000000feff0000feff0001fe0101ffff01ff00fe000001fe000100fe0101fefffefffffe000000fefeff00ffff0001ff010001fe000101
ff010100ff01fe01ff01010000fffe010101fe010100fe0001ff00ff0001fffeff000001ffff0000fffe00ffff00fefe0101ffff00fffffe000100fefe0101fe
00feff010001fe000100fefffffffefffe00feff01fefe00fefefe0000ff00fe01fffffffeff01fe0001fffffefeffff00ff000001fefeff0000fffffe0000ff
ff0001ff00fe0101ffff01fefffffffe01fe0001010000fffe01fe01000000fffeff0100fefe01ff01000000fffe0001fe00fe000000feffff01fefe01fe00fe
01fe01fffffe0001fe00feff0001ff01fefffffefefe01fffefe01ff010100fe010001fffe0000ff01fffffffeffff00000101fe00fe01fefefeff0001fefe01
fefeff010101ff0101ff00fe01fffefefe010101fe01fffefefefe0001fefeff0001fefffe00ff01fe00010000fe01ffff00fefe00fe01fffffeff01fe01fe01
00000000000000000000000000000000000000000000000000000000000000000000000000000000000000000000000000000000000000000000000000000000
fefe01fefefefffe000000fe00fe0001ff0101000001ff01fe0001ff00ffff00ff0000fe0001fefefe01fe00000000fffefe0000000101ff0000ffff0001fe01
01fe00fffefefffffe0000ff00fe01fffe01fffe01fe010100fe00fefe01fe00ffff0001fffffffffefefeff000101feff00ffffff00ff0001ff0100feffff00
feff00fe0000ffff0101feffffff010001ff01fefe01fe0101010101fffffffe0000fe00fefe0101fe00010100ff00fefffffe01ffff000000ff01fe0000ff00
01fffe0000fe00000000000100ff01ff0000ff0000ff000000ff00fe01fe01fe01fe000100fffe010000fefffefeff00000101fe010101fe0000ff00fffefefe
fefeff00ff010100fefe010001000001fe00fffffffe0101fe01fe00fe0101fffefefeff00ffffff00fe00ffff01ff01fefe01fe01fe01ffff01010000fe0001
0100feff01010101fe01ffff01fffefeff00fefefe00fefefffefe0001fffffffefe00fffffffefefeff0001ff0001ff0000fe01ff0101000100fe00ff010101
01fe00ffff0000feff00000000fffe0100010101fffffefe010001ffff00fffefe010000feff01ff0101fe01ffff00000001000100ff00fffefefe00ff0101ff
01feff01ff00feff0000fe01fffe01fe01fffeff01ff0100fefe01fe0100ff00fe00fefe00fefe000101010001010101ff0101fe01fefe00ff01feffff00ff01
00000000000000000000000000000000000000000000000000000000000000000000000000000000000000000000000000000000000000000000000000000000
fefffefefffe0101fe00fefe0100fefefffefffeffff0100fe00feff01ffff0101ff01fe0001ffff0000feff0101fefe01fffe0101ff00ff01010100fffe00ff
fefe0100ff00ff0000fffefe0000fe00ff01fe01010001ff00ff0001ff00fffffefeff01ff00ff01fe01fefefefffefefe0000fffe0000fe0101ff01ff0101ff
01fffe000001ffffffff010101ffff000001fe00fe000101feff00fffefefffe01feff000101fe0000ff0101fe00ff01fefffe0101fffffefeff0000ff01ff01
0001fe01fffe01fe010000fe01fffe000001fefefffe00fffeffff00ff0100fffeff01ff0000ff01fefffeff01ff00fffefefffffe000101fffffffeff000100
0001ff00ffffff00ff0101010100ff01fefffefeff01fefefe00fe00fefffe0000feff0101fffe01fefe000000fefe0001fefe01fefefe0101ff01fe010101ff
fffffe010101fefefffeff00fffffe0001ffff00000001ffff00ff0000000101fffefefefeffff01fe00fefe010101feffff0101ffff00fe010000fefeff0000
fffe000000fefe01ffff00fe0100ff01010100fefeff01fe00feffff01000001fe0100ff0101ff0000ff0100ff0001ffff01ff01ff01ffff01fffe00ff00fe01
ff01ffff0101fffe00000001ff00fefeff0101fffeffff000101fffeffff00ff000001fefffe0000fe01fe00ff0101fe0100fe010001feff01fe01fefffe00ff
00000000000000000000000000000000000000000000000000000000000000000000000000000000000000000000000000000000000000000000000000000000
