01fe00fefe00fefefe0000feff0001ff01fefefffe0101ff0001fe00fffffe00ff0101000101fe00fffefe0100fefe01000101ffffffff01fe01ff01fe0001ff
fe00ff00fffe0001fffe000101feff000100ff01feff01fe000101fffe00ff0100ff0000fefe0001fffefffe00ff00fffe00010100fe00000001feff01010000
0000feff01feff0100ffff010001fe0000ff0101010100fffefe00fffffefefefeffff0000ff01fe01ff01ff01fe00fefffefefe010000fe00fe00ff00010001
ff0100ff0000fe01ff00fefefffeffffff01fe01ffffffff01ff01fffffeff00fefe01fe0000ff010000fefffe01000101000100feffff01000100fffeffffff
0001fffe00fffe00fefe01fefeffff01ff0101ff0001ff0001ff00fefefeff0000fefefffe00ff010101fefefe00fefe000101fefefefefefe01ff01ff0100fe
000000feffff01fefefffe01fefe000101fe0001ffff0100010000010000000100ff01ff00fe0101ff0100fffe0001000000ff01ff0100fe0100fefe0000fffe
00fe010101010001fefe00fffe01fe0000ff00ff00fe0000fffefeff0000010101ff01fe01fffe00fffe00fefffffffeff00ff000101ffff0100000000010101
00fefffefffffefe01fe010000feff01000001fffe010100fffefe00feff00fffe01ffff00feff00ffff01fefe0000fffe0100fffffe0100fe01fffe01fefe01
ff01fffefefffffe0101ff00fffe00ff01ff01feff0100fefe01fe00ff00fefe00ffff01fffeff01fffe01fefffefe0101000101ffff0000feff00fffe00fe00
000101fefe0100fffefe0000fffeff0100ff00fffe01fffe000100fefefffeff0101ff0001ff00ff0001000001fe0000000001fffffefeff0000010001fefe00
fe010001ff000101fefefefeff00fefe00fffe0100fe01ff01fe00ff010001010101000100fefe01fefe00ffff000000fe0101fefe01fe0101fe0100ffffff00
ff010000ff0000ffff0001fe01feffff00fe01fffefeff0100fffeffff00ff00fe01fefe0101ff0001fefffe0101ff00ff00feff000100fe01fefffefefe00ff
fffefe00ff00010101fffeffff01fefeff0101ffff00fffe01fe0101ff0001ff010000ffffff0101fffffefe000100fe00ff0001ff000101000101ff01ff0101
fffffffefefeff000000fefffffffefe0000fefe00ff0000fffeff01fefffefe0100fffefefffe0001010001ff0001fe00fe01ff0000fffe01ffff00ffff0101
01ff00ff010101fffeff00fefe01fefefe01ff0100fefefe0001010001000101ff01ff0001feff0000fffe01010000ff0101feff01fe0100fe0000feff0100ff
00feff0100ff00fefffffe010101000100fe000101fe000101fffefffe01ff00000001ff01fe0100fe01fe0001000000ffff010000ff0000fffefffffffeff01
