0001fe01fffefe00fe010101fe010100feff01fe00fe00fe01fe010101fe01fe0101fffeff00010101000000fffefeff000001fe0001fefefffe01fe01fffffe
010000fe0001ffff01feffff01ff0101fffe0001000000fe0000fe0001fefffe00000001fefe000000fefe01ff00010101fe00ff00fffe01fe0001ffffff0101
01010101010001000100ff0100fe00ffff01ff01fefe0101ff01ffff00000100ff00ffff010101feff01ff00010000fffeff0001fe01fe01fefffe0100ffffff
ff00fe0001fffe00010000fe000000fe000100fe00fe01fe0000fefffefeff01fffe01fe00010100ffff010100fe01fefefefffffefefe0000ff000101ffff00
