fe00000101000100fffe00fffffe0101fffe01ff00fffe01010100ff00ff01fffeffffff00fefffeffffff00ffff01fe0000fffffeff00fefe0101fefe0001ff
01ff01010101ffffff01feffffff01010100ffff0100fffefe01ff01feff00fe00fffe0100ffff0000ff000001fffe01fe00fe00feffff00fffffe0001fefe01
ff00fe0100010100feff00fffffe0100fffffefffe01fffe0001fffefe0001ff00ff00fefffe00ff0000fe00000101ffffff01ffffffff0001000000feffff01
0101ff000000ff01ff00fefefffefefe0001fffffffffe00fe010000ffff01ff0000ffff0001ff000000feff01ff0000ffff00fffefe01ffffffff0000fefefe
0000ff00ff01fefefefeff00fffffe010001fefe00fefe000101fffeffff0000ffffffff000101feff01fe00feffff0001ffff01ff00fe000001010101ffff00
ff0100feff0101ff01fefefeffffffff01ff000101fe00ffffff01ff00fe00fefeff0000fffffffeffffff000100fefefe00010100010000ff00fefeff000001
000101ff0101fefefefffe01fffffe010000ffff0000fefefe0001fffeff01fefe01fefefe0100ff00ffffffff01fe00fffe0101fffe0101010101feff010101
fffe0101ff01000100ff000101ff00ff00fefeffff0000ffffffffff01010000fefe0001000001ff00fe00fe01000101feff0101fefffe0001fffefe00ffff00
0100fefffe00fe0101feff0001fffefffefe0001ff00fe01fe01ff01fe00fffffe00fe010101ff01fffefefeff00ff01ff00fefefe01010001000001ffff00ff
fffe00fefffffe0001ff01fe01fe00fe01fffe010100fefe0000fe010001fffffefe0101000101feff01fffffefffeff00fe000001fe00ff01ffff00fe0000ff
fefe01fefefefffe0001fe00000101fefefeff01feffff0000fefefe0001ff0100fefe00fefeff000101010000010000fe01fe00fe01fffefefe00ff01fffeff
fe0100ff01ff01fffffefefeff0101fffffe0001ff0000000100ff01ffff000100fffffe010000fefe00fefe01fe010100ffffffff00000101ff01ffff01fe01
fe0001fe00fe01fffe0101feffff00ff00010101fefe0001fefefffe01ff0000fe010101fe010000fe01ffff0100fe010100feffffff01ff01feff00fe0000ff
0001000001fffe0100ff00ff01010100fefeffff010100fe00fefffe0100fe01feff0100fffeff010001fe01010001fefe00fe0100fffefe00fefe0001ff01ff
feff00ffff01ff00ff01feff0101fefefffe00fffe00fe0001fffe0100ff0100fe000101ffff0001000100ffff01ff01fefe0101ff010101ff01fe0100feff01
000101fefffe00000001fefffe0101feffff00fe00fe0100fe0000fe0000fefe01fe0101fe01010101fefefffefeff0101fe00fe01fe0101feff0000ff00fe00
00000000000000000000000000000000000000000000000000000000000000000000000000000000000000000000000000000000000000000000000000000000
00000000000000000000000000000000000000000000000000000000000000000000000000000000000000000000000000000000000000000000000000000000
00000000000000000000000000000000000000000000000000000000000000000000000000000000000000000000000000000000000000000000000000000000
00000000000000000000000000000000000000000000000000000000000000000000000000000000000000000000000000000000000000000000000000000000
00000000000000000000000000000000000000000000000000000000000000000000000000000000000000000000000000000000000000000000000000000000
00000000000000000000000000000000000000000000000000000000000000000000000000000000000000000000000000000000000000000000000000000000
00000000000000000000000000000000000000000000000000000000000000000000000000000000000000000000000000000000000000000000000000000000
00000000000000000000000000000000000000000000000000000000000000000000000000000000000000000000000000000000000000000000000000000000
