fefe0001fe000101fefffe0000fffeffff01fefffe01ffff00fefe01fffffe010001ffffff00fe00fe0001fffffffe01ff0001010101ff000000010001feff00
01fefefffe0000000000000101fffe00fe00ffff00fe01ff0000fefe00fe00ff00fefe00fffffe0100fefefe01fffe0100feff0000feff01ff0001feffff0101
01ff010100fffefe0101ff00fffe00ff00feff0100ffff0100fefe010100fe01feffffff0000000000fffe000001000101fefe01feff01fe01ff00ffff0000ff
ff000001fffffe0000fe010100fffefe00feffffffff0000000001fefefe00fe00fffffefffefe000100fe0000fe000000fe00fe00fffeff01ff01000101fefe
0000010101fe01010001fffffefeffff000100fefe01ffff0000ff01fe000001010001ff01ffffff0101ff01ff00fffe01fefffffffefe01feff010100ff0000
fefeffff0000fffe00fffffffefe00fe0100fe01ffff01ffff01000001ffff0001fefeff000100ff0101fffe00ff01fe0101fffefe0100feff01ff00feffff00
0101ff00000100feff01fe0100ff00fe01fe0100fefefe0000fffffeff000100ff00010100feff00fefffefe0101010000ff0001fe0101fffe0101fffffe00fe
fe010100ffff01fe01ff00ffffffffffff00fefefeff01ffff0100fefe00fefffe00fe01ffff01fe0101ffff00fefeffff000101fe0001fffefefe00ff01ff01
00000000000000000000000000000000000000000000000000000000000000000000000000000000000000000000000000000000000000000000000000000000
01000101fefe01fe010001feff01fefe01000101fefefe0000fefe00ff00fffefeff01fffefeff0001fefefefffefe0101ff00fffeff0101ff01fffeff00ff01
01fe000101ff0100fefe0001ff00fe00ff0100000100ff01fefffe010000ff010100fffe01ffff01fe0000010000fe0001fefefeffff00fe0100fffefe00fe00
01fe0100ff01ff0100ff00fffe01fe01fe01fefefffefefffefefefefefe01fefe0101fffe0000010000fffefffe0100fe0101ffff0000ff0000ff00fe010101
fe0100fefffeff00fe0001fffe0100ffff0101000101fffe010001000001ff01fe0101fe01fffe00ff010000fe00000001fe0101feff01fe00fe01fe01fe0101
00fe01fe00ff01ffff00fe01ff0100000100010100fefe0001010101fffffe01fefffe010000ff010001ff01fffeffff0101fe01fffefeff0101fefe00ff0101
feff00fefe00fffe01fe01fefffffefe01feff0000feff01fe00ffff0001000100fffefffffffefe000001000101fefeff000000010001ff0000fffffffe0000
0001ff00fe0001ff00ff000101ffff01fffefefefffffeffff000100000101fe0101fefefefe00ff01fffefefefefeffff00fefeffff00ff01ff01ff00ff0101
ffff01ff0000ff01ff01fe01010100fe00ff00000000fffefefefeff000100fffffeffff010101fffe00ffff0101fffefffffe00fe0001000100fe0101ff00fe
00000000000000000000000000000000000000000000000000000000000000000000000000000000000000000000000000000000000000000000000000000000
00000000000000000000000000000000000000000000000000000000000000000000000000000000000000000000000000000000000000000000000000000000
00000000000000000000000000000000000000000000000000000000000000000000000000000000000000000000000000000000000000000000000000000000
00000000000000000000000000000000000000000000000000000000000000000000000000000000000000000000000000000000000000000000000000000000
00000000000000000000000000000000000000000000000000000000000000000000000000000000000000000000000000000000000000000000000000000000
00000000000000000000000000000000000000000000000000000000000000000000000000000000000000000000000000000000000000000000000000000000
00000000000000000000000000000000000000000000000000000000000000000000000000000000000000000000000000000000000000000000000000000000
00000000000000000000000000000000000000000000000000000000000000000000000000000000000000000000000000000000000000000000000000000000
00000000000000000000000000000000000000000000000000000000000000000000000000000000000000000000000000000000000000000000000000000000
00000000000000000000000000000000000000000000000000000000000000000000000000000000000000000000000000000000000000000000000000000000
