fffe00fefe00fffffe0101010001ffff0001fffe000101fe0000fefffffe01ff01fefe00fe00fffe00fefe0100fefefffefeff0001ff010001fefe00fe0001fe
01fe01fefffffe01ffff0001fe00010000fe0101010100010100ffff0100ffff00ff0000000101000000fefefeff0101010001ffff0000fe0100fefffe010001
ff01feffffff00010101fe0000fe010100fe01fefe000001ff0100000100fefe01ffff0000fefe01000000010101fe0101fe01fffe010001fefefffe01fffffe
ff00feff00000001ff010000fe0101ff01fe01fe00fffe01feff00ff01fefffffeff0101fe000000000000fe00000001fe00ff0000feff00ffffff0100ffffff
010000fffefefe0101fffe01fffeff0101ff0001feff01fefefe00feff01fffffefefeff01ff0100fe0101feff01fefe0101fffefeff010000fffe010000fefe
fefefe01fe01fe00fffffffe0101ff0101ff000000fe00ff0101fefefffe00fffffffe010000ffff00fffefe01ffff0001fffffffe01fe00feff0100fffeff00
ff01fffffffefe01fefffe00fffeff0100feff0100fefefeff000101010100fffffe0001feff00fe01ff00fefefefe00fefe00ff0001fefefffefeff010000ff
00010100fe01fffefffeff01fe0000ff00ffff00010101ff0000000100fffefefe01fe0100fe00ff00010000ffffff01ff01fefe00fe00000000fe01fffe0101
ff0001fffe01ff0101feff0000000001ff0101fe0001ff00fe00fefffe01fe0101ff010100fffffffefe00fe0000ffff000100ff0001fe0000ff00fefefffe00
0000010001feff010101ff01fe00000001fe01010100ff00ffffff00fefffe010100fffffefefffeff00fffe0101fe0101fefe0100ff0001fffeff0000fe00ff
01feffff01fefeff01feff010101fefe0000ff00000100ff000101fe0100fe01ff01fe010001ff01010000fe00fe0101fffffe01ff00fffffffe00ff0000fe01
fe00000100000101fffefffffe0101fe0101fe00fffe0001000101ffff000101ff0100fe01fefe00ff01000100fefe0101fe0100ffff0000fefe0000ff01feff
0001feff00fe010001fe01fffffefffffeff01ff01ff01fefefefefe0001fe01fffe000001feff01ffff01000001fffe01fe0100fffe00ff0101fe0001fe00ff
01fffefe01ffff01ff0000ff00010001fe00fefffffe010000fffe01fefe0000fefe010000fefe0001ff00ffff01fe0101fe01fffefe01ff01ff0000fe01fe01
00fe00fe0100fefe0100feff000100fefe01fe010000fe000001fefefefeff0101fffe01010001010001fffe0001fefeff000000fffffffe0000fe0100000101
01fe01fe0100ff000101fe01feff0101fefffefeffff000001010100fe01ffff00ff01fefe01fefffe0000fe00fffe000000ffff00000101ff01ff0101fffe00
fffefe01000000ff01ffff0101feff0001010001fffefe0001fefe000001fefe000001ffff00fefe01fe00fefeff01ff01ff00fe00fe00010101fffffe01ff00
ff00fe01fe010000ff01ffff01fe00ff0101000001fe0101010100000000ff01fe01fefe0000ff0101fefe0001ffffffffff00fefffffefefe00fffe00ff01ff
01fefefefe01fffefefefffefefe000100fefe0000fe0000fe00000000ffff00feffffff01fffe01ff0100fefffe01fe01fe01fffeff00feffffff00feff01ff
ff000000fe0000000101ffff00000001fefe0100010001fe01fffffe010001fe0101fefeff0100fe00ff0101000001fffefeff0001fe000001ffffff00fffe01
01fe01ffffff01feffffffff00feff01fffffe01fe01feff0001fffeff000001fffefefe0101ff010101feff01fefe010000fffeffffffff00fe00fe01010001
00ff01fe00000000fe000000ff0001fefe00fefefe0100fe0101fefe0000fe01fe01ff0001fffe0000fe00fefffe00fefffefefffe01ff01fe0101fe01fefffe
feff0001fe00000100fe01fefefeffffffff0101fe01feffffffff01fefefefffeff0000fefeff00fffefffffeff0101ff01000100000101fe0100ff0000feff
00feffffff01ffff00fe0000ff0101ff01fffeff00feff0101fe010100000001fe01fefe01000101fffffe00fe01fefffe00fffe0100ffff00fefe00fe00feff
