0100fffe010000fffffefefe0001feff0000ffffff0001fe0001fefefe00fe01ff00ff01fefffe01fefe0100fe01fffe0001fffefe00000001fe00fefe00fffe
01fe0100ffff0100ff01fe00fefeff0000ff00ff00ff0000fe0001000001000001ff000001ff00feffff01fffe01000001fffefefffe010000fefefefffe0100
00fe01fffefe0100000000fe00fe01ff0000fefefffe00010001fffe01fffefefe01fe01fefeff00ff00ff01ff0000fe0100feffff0100ffff0100ff0001ff00
fefeff0001ffff0001feffff0101fe0100ff000000fe01fe00fffffe0001fe0100000001feffff0001fefefefefe01fefefeffff01ffffff00fe01fe000101fe
