000001ff01ff00fefffe01ff0000ff00fefffffffe0000fefe010101feffff0000fffe00ffff010000000001fe0001ffff01fffffefe000001010101ff01ffff
ff01ffffff000001fffe01ffffff000000fffe00fffe01feff010000fffffeffff01fe00010000ff00000100fe0000fefffefe0001ffff0001000101fffe0001
00fffffefffe010000fe0001010100fe00fe000001feff01fe0100ffff00fffefe00fe00fe0000fe01ff00010101fffeff01010100ff0000ff000000000001ff
00000100ffff0101feff00ff0000000001fefffffe0001ffff0101fe0100feff00ff01fefeff0100fffe00ffff01010100fffeffff00feff000001fe0100fefe
fe0101fe0001fefe01fe01ffff0001fefe01000001ff01fe0100fe0000fffe00ff010100fe00ff00fefefffe01fffffeff01feffff000101010100fffe0100ff
00ffff0000ffff0101ffff00fefffe01ff010001fefefffeff00fffefefe0101ffff00fefefefefffffe0101fe0000ff01ff010101fefefe000100fefffe00ff
fefefe0101ff00fefe00ffff00fe0001000100ff000001010000ff01ff00010001ff01fefefefeff01ff00fefffe0001fefe010101fefeff00feff0101fefffe
ff00fffefeff010000fffe01feff00010001ff00fe0101fe00feff00fffe01fe01fffe010100fefffffe01fe0101ff01010000ffff01000001fffeff00fe01fe
00010001000101000101fefefefffffeff0101fe00fe000000feff01fefe0000fefffffefe0000fefefe0000ffff00fefffffefefefe00000101fe0001ffff01
00ff0000ffffff01ffff00ff0000ffff010101fffe000100fe01ff0100ffffff00fe0101feff0000010101fe01fefe01000101fefffeffff01fffe00010101ff
0100fffe0000000000fe00fefe0100ff0100fffefffffeff00fffefefe000101ff000100ffff01fe00ff00feff01ffffffff0000fe0000fffeff000000fffe00
ff01ff00fe01010101fe01ffff00ff000100ffffff000101ff0101010101fe00fe00fffe0001feffff0100fe000000fefe010000ff00fefefffe00ff00ffffff
feff01ff00ff00000100feff01fefffe00feff0000fefefeff00fefffe00fffffe00fffeff000000fefefe00ff0001fffefe0000ff00ff00fe010101fe0100fe
0000ffff0000010101fe0100fe0001ff0001fefefefe0000ff010000ffff00ffff01fefe00010101fe01fe01fe01ff00feffff000001ff0100fefffefeffffff
0101010101fffe00fffefe00fffe00fe01010000fe00ffff0001fffffefe0101feff000000fffe01000101fe00fe00fe010101ff00000100ff0100ff01ffff00
010101fe01fefffefefffeff01ff0001fe01fffe01ff0100fe01ff01fe01fffe01fe010101ff0100ffff0000ffff00010101fffeffff01fffe01fefefffe0001
