0001ff0100fe00fefefe0000fefffe0000fffefffefefe0000fe00ff00010101ffff01010001fffffefe00010000fffefe00feff00fe0100ff0100fffeff00fe
fe0101feff01000000fffe00000100fe00fffe0000fe0100fe00fe01fe000001fffe0000000100fe0101fefffefe0101feff0000fefffefe0000fe0000fe00ff
fe0100000000ff01fe01fffe010000fffeff00ff00fe0001ffff0100fffffe00fe0101ff01fe010001fffe00000000fefefefe00fe0001ffff0101fefe00ff00
00ff00ff00fe0100ff00fe000100000000fefefffe00fe0000fe0101000000fffffefefefe0001fffe01fffe01fefefe0000000101010100ffff000100feff01
01fe010001fffe010001fefefffefe01fefe0101010101ffff0101ffff0001fe01fffe00fefefefffffe00fefe01fefffeff0000000000ffff00ff0100ff01fe
01fefe00010101ff00fe00ff0000ffff01fffe0000fefe0101fe0001fefeff000000fe01ffffff0001ff0000fe000001fe0100fe00ffff01ffff010101ff01ff
00fe00010101fffe00fe00fe01fefe0100fefffffe0001fefefe00ff01ff01ff01fffe00feff00fefefeffff0100000100fefffffffe01fe00fffefe00fe00fe
fefe0100fefe0001fe0100fefeffff00fefe0100ff00fefefe01fefefffffefefe00ffff00ff000100fe01fefffe01fe0001fefefe00fffefefe01fe000101ff
00000000000000000000000000000000000000000000000000000000000000000000000000000000000000000000000000000000000000000000000000000000
00ff01fefeff01fe0101fe00010101fffeffff0100fe0101ff00feff01ff00000000010101fe010001fefffe00ff00ff00fffffffffe0001feff01fe0001fe01
00feffff000000ff010000feff01fefe0001fe0100feffffff0000fe0001ffff0000fefeff000101fe00fffe01010001000001ff0001fe00fffffeffff0101fe
fefeff00fefffe0000ffffff0000fffefefffe00fe000000fffe01fefefe01010001fe00fe0100ffff0001fefe01fefffffe000000000001ff00ff01010101fe
0101ff010001feffff0001fffe00fe00000001fe01ff00fe00fefeff00ff0000feff01ff0101000100ff010000fe00fffffffeffffff01fefe00fe01ff0000ff
010100000000ff000000fe00000000fe01000101fe01fe01fefe01feff01ff000001010001000001fe01010000000001feffff01fe0101ff0001ff00fefe01ff
01fefe00fffe00feff000101fefeff0100ff010001fe00ffff01000001fe0101fe00ff0001ff00fffefeff0101000101fe01fefe0001000001fefe01feff0000
00fe010000ff00ff010001ff010100fffefffefefe01fefe0001fffe000100000100fe000100fe0000ff0001fefffe01fffe000001fe00fe00fefffe01ff00ff
fffffffffffe00010101000001ff01ff01fffe01fe01fe000101fffffeff0100fe01ffffffff0100000101fffe01ff000000ff0101fe00fe01010000ff00ff01
00000000000000000000000000000000000000000000000000000000000000000000000000000000000000000000000000000000000000000000000000000000
fffffffefe0101feff01fffe0000010101ffff0001010101fe0001ff0101ff000001010001feffffffffff01010101fefefffe01010100010000fffefe00feff
fe00fffffe000000fffeff010100000001fe00010101fefe01fefe00fefffe0100000001ffff0100feffff0001fe0000feff01ff00fe00fefffefffe00fe0100
ff0100fe01fefe0100fe0100000000ff00fffefffffffe00fffeff0001ff0000fe01ff01fe01010100ffff0100ffff01ff0101fe01ff0100fe01010100fe0101
fefefe00000001fefefe0101fffeff010000feffff0001fefefe00fefe010000fefefe0101fffeff0000000101ff000100fe01ffff01ff00fe0100010001ff01
ff00ff01fffe0001fefffeff0100fe00ffff010000fe00fe000100fffe01feffff00ffff00ff00ff0100feff000000feff01ff0101ffff0001fefffffffefe01
fe0100ff010000fffe00ffff00feff01fffefe01fefeff010000fe00fe01feff0100fe00ff01fe00ff01fe0100fffffe00fffeff000000000101fefe00fefe01
fefe000000ff01ffff01010000fefffe0001ffff01feff01fefe0101fffffffffe00feff0001ffff00fe00ff0001ff0001fe000001fefefeffff00ff0100feff
00fffefefeff000000feffff01000101ffff0001fffe010101ff00fe00ff00ff01fefe01feffff00ff01ffff00fffffefeffff00fefe0101fffe010101ffff01
00000000000000000000000000000000000000000000000000000000000000000000000000000000000000000000000000000000000000000000000000000000
