fffffe0000ff0101fefffe00fffffe01fffe0101ff0001feffffff0001ff0101010101fffefe00fe01ffffffff01fefffeff0100ffffffff00fe00ff00fe00fe
fffe01feff00ff00ff00fe00fefffffeff01fefefeff0001ff01fe01ff00ff0101feffff01ff00fe00fe00000001000000ff0100fe00000000fffe0101fe0100
0101fe01ffff00fffffffe010001fe01ff0100feffff0001010000000000ff00010101ffff0100ffff01fefefefefe01ff0001fe00feff0100fefe000000fe01
fffe0000fe00fffe01fefefe00fe010101ff00ffff0000fe00fefefefefe0000fe0001ff01ffff000000000101feff00ff00fffefffefe0101ffffff0001fefe
01fe0001ffff01010100fefe010100fefffffffefeff0100feff01fe01ff01fe01fe010001fffe01ff0000feffffff0001fffffffefffe0001fffeffff0000fe
01000101fe0001fefffe00ff0100ff00fffefffe00fefffe000100fffe0101fe01ffff0001ff010001fe01000000ffff01000101fefefe00000100ff01fefffe
00000000ff000001fefefe00ff0100fffeff0000000100fefefeffff0001ff0100ff0001fefefeffff010000fffe0001ffff0001ffff01fe01000000fffe01ff
fefe00ff0001fe0100fe00fefe0001ff00fefeff00fffe01fe00fffffefeff0100ffff00ff00fffe010101feff0100feff010000000101fffefeff000001fefe
ff010000fffe00fefffeff010001fe0000ff00feff01ff00fe00ff01fe00fefe01fffffffeff00fe0000fffeff0000ffff01feffff0000010000fefe000100fe
0000ff01ffff0101010100fe01feff000100ff0001fefe0100fe000000ffff00fefe01fe00ff01ff00ff01fe01fffefffeff01fefe00ff0100010000fe0100ff
fe000000010000fffe0001fefffeffff01ff01000000ffff0100ff00ff000000fffeff01fe0000fe00fffffeff0101ff00feff0101feff0001000100fffeff01
0000fffe00fe00fefe0100fe01fe01feff01000101ffff000101ff0000fe01fefe01ff00fe01ff0100fe00fffffefeffff01ff0000fe0000fefe0100fe01fffe
feff0100fefe0100fe010100fe0001fffefe0101fe01ff010001ff00feff00fe0000ffff0101fe00fefefefe0000010001010100feff01fe00fe01fe01fe01ff
0101010100fffffefe01000001ffff0100fe01ff0101fefeff0001ff00fe0000ff01fe00ff010101010000ff00fffe00fffeff0001fe01fe00fffefffe010101
010101ffff010101fe0101fe01fffefe01fffefe00000001fe0000fe00fe010000fefeff0100000100fefefe000100fefefe01fefffefeff00ff00ff0000fffe
0101ff00fe0100010100fffffe01fffe00fe01000101010001ff01ff00fefe000000feff00feff01fe01fefefeff00fefe00fe00feff0100fefe01fffffe0101
01ff00fffe00ff00ffff0001fffffefffefffe00ffff0001000100ffffffff000101fffe0100feff00feff010100ff000000fe00ff01ffff0000ff0000fefffe
00010000000100ffff010100fe01fefefeffffffffff00000000fefefe00fe00fffe00fe0000fffffefe00fe01feff00fefeff00fefe01fe01fe0101ff01fffe
01feffffff010101ff00fefe00fefe01fffeff01fefe00fffe00000000fe01ffff01fffe0101000000000001fefeff01fe0000fffe01000101010100000000fe
0101feff01ff01000100fe010100fe01ff010000010001fffe0100ffff00feff01ff01010001fe00fe01fe01feff00fefeffff010101fffe0101000000ff0001
00ff0000fe010000010001fefffe00ff0100fefefeffffff00000101ff0101fe0101fe01ff01ffff00fe01fe0101fefefefffe01fefeff010100010101fe00ff
00fefefffefefe0001ff01fe0001fefefefefe01fe00fefeff0100ff000000fe01010000ff01feffffff0100ff000001fffefe01010000ffffff01000000ff01
0000ffff01fefeffff000100ff01ffff01ff01fefffffffffffe0100ff0101ffffffff00feff00fffffeff01fefefffffeff0001ff00ff00ff00fe00fffe0001
00ff0001fe01fffffffffffefffe0100fffe000001fe010001fffe00fe0101fe0100ff0100fffe0100fe00ff010101fffefe00000001fffe00ff00ff0101ff01
