fefefffefffe0001fe01fe00ffff0101ff0100fe000001fe01fefefe01fe00fefefe00fefffe01feff00000001fefefffffefefe000100fefe010100fffe00ff
0101ff0000ff000101fe01ff00fffefffe00ffff00ff0000000001fefefefe01fe010001010100fefefefe010100fffffeff00fe00fefe00ff010001ffff01fe
ff01fe0000ffffff00fe0101ffff01fe01fffefe00fffefffe00ff00ff0000fe00ff0000010101fffe01ff01fe00ff000001feffff0000ff01fefefe010001ff
fffffffeff0001010000ff01fe000000fefefefe00fe00fe01000100ff000001fe01fffefe010101ff00fffffe0001000000fefffffeff01ffff0001feffff01
0001010000ff01fe0100fe01fffffe000001fffe01010100feffffffff0000010100fe00010101fffe01000001ffffff00fe00ff0101fe0000fefefffefe00fe
ff01feff01feffff010001ff01fffffffe0100fe0101fefefe01fe0100fffefe0100ff0000fffffffefeffff0101fe01ff0100feff010000fe00fffefefeffff
01ffffff01ff00fffe00ffff01feff00fffe01000100fffeff0000fefe0100ff000000fffefffe0000fefffeff010001fe01010001ff000101fefe0101010000
fefe00feff0100ff00010100fe0101ff010000fffefe0101fe0000fffe00ff01fffeff0000fefeff000101feff00000001ff00fe01ff000001fffeff010001fe
00000000000000000000000000000000000000000000000000000000000000000000000000000000000000000000000000000000000000000000000000000000
00fefffefefe0001fefefe010001fe0000fffe00fe0001ffff01fffffffe00feff0000ff0000ff0100ff000000fe01fe01fe01fffe010000fe0100ff01fefefe
ffff01fefefe00fffffefefffefe000001fffffefffe01000001fffffefffffefe0001ff00ff010100000101feff00fffe00000101fffefefe00ff0000fe00fe
fffe00ffff01fe00ff01ff01fe0100fe00ff00ff01fefffeff01fffefefffe000101fefe01fe01ff00ff00fe01ff0000fe0100010101fe00fefe01ff0000fe01
0000000001feff010000ff01feffffff000000ff01ff01ff0101fe010101fefffe0000feffff00ff01ff01fffe01fefe00fffeff0001fefffe010100fe00ffff
01fe0000010001ffffffff0100010101fefe00ff0100010100010101ff00feff00000101fffefefe0101ff00010101ffff01fe010101000001fefefefeff01fe
00fffefefefefe0001ff0001ffff01fefffe01fefe00fe0100000100ff00ffff010000ff01feffff0001ff00feff0000fe0000fe010001feff01010101000001
fe0001fffffffe0001010101fe010001ff01fffe01fffe00fefffefefe01000100ff01fe01feff00fe0101fe0101fe00010000fefefe00feff00fe01ff01fffe
fe0101fffffffffefffe0000ffff00ff0101fe0100ffff01ffff01fe00fffe00fffe010100ff01ff0101fe00fffeff00ff01fe00fffefffffe01fe00ff00ff01
00000000000000000000000000000000000000000000000000000000000000000000000000000000000000000000000000000000000000000000000000000000
00000000000000000000000000000000000000000000000000000000000000000000000000000000000000000000000000000000000000000000000000000000
00000000000000000000000000000000000000000000000000000000000000000000000000000000000000000000000000000000000000000000000000000000
00000000000000000000000000000000000000000000000000000000000000000000000000000000000000000000000000000000000000000000000000000000
00000000000000000000000000000000000000000000000000000000000000000000000000000000000000000000000000000000000000000000000000000000
00000000000000000000000000000000000000000000000000000000000000000000000000000000000000000000000000000000000000000000000000000000
00000000000000000000000000000000000000000000000000000000000000000000000000000000000000000000000000000000000000000000000000000000
00000000000000000000000000000000000000000000000000000000000000000000000000000000000000000000000000000000000000000000000000000000
00000000000000000000000000000000000000000000000000000000000000000000000000000000000000000000000000000000000000000000000000000000
00000000000000000000000000000000000000000000000000000000000000000000000000000000000000000000000000000000000000000000000000000000
