000100fffefefe0100010100fefe01ffff0001ff00fe0001000100ff01fffe010001fe01010100ff0101ffff00fffefffe000101fffe01fe000101ff00010000
01ffffff01fe01ff000100fffffe0101fe010100fffe010001000000ff01fefe00fefe01ff000001fe00000101feff0101000001ff010100fffe0000fffffffe
00fffe00fe010101fe0101fefeff01ff01fefefe01ff0100fffeffff01feff01fefffe00fefefe01fffffefeff01fe00010001fffefefeff010001fe00fefefe
0101feff0000ff01fffffe00ff0000ff00fffefeff00fefe00000000ffffff01ff0100fffeff0000fe01fefe00ff01ffff00fffe01fe0001fe0001010000ff00
00fefeff0101ffff0101ff00feff01ff0000fffe01fe00fefeff00fe0000ff00ffff01ff00fe01feff010000ff0001fefe0101fe00feff0100010100fffeff01
010000fe00ff00fefeff0000ff0000fe0000fffe0001010101fefefeff0001fefefffeff010001fe0100010001fe00fe01010101fffe01000000fefffe010101
ff0001fefefe0001fefefefefefe01ff00ff01ffff01feffff0101ffff01010101ff0000fefeffff00fffefffffe0100ff01feff00fefffe0101fefffefefe00
fe00fefffe0101fffe010100010001fe0101010101000101ff010000ffffff000100ff0000010101ff0001ff000000010001ff010001fffe00ffff0000fefffe
0100fefffefe010101fffeff0100ffff00feff000100feff00fefe01fffffffe0000fffe0000ff0101ffff0101fe00ffff01ffff0101ffff010001feff0001fe
00fefeffffff00ff00ff01fe0001ff01fffeff010001fe000100fefefe01fefe0100010101fe0001ff00feff000100fffe0100fffffffffeff00fe00fefe01fe
ff010000fe010100fe00fefeff010100ff0001ff0001fffffe00fe0001010101010101ffff000001fffffe0001fffe0101fefeff00fefe01ff01ff0101fe01fe
00fefe01ff00010100ff01fffe00fe0001fffefefffeff0101ff0100ffffff00000000fffffefefefe00ffff00fffefefefe00fefefe01fe00010101fe00ffff
fe00ff00fefefeffff00fe000001000001feffff01ff010000ff00fe00fefe0101fffe010101ff0100ff00ff01fffeff010001fffeff01fefffefe00fefffe01
00fffe000101fffefe0001fefe00fefeff00fefefefefffe010000fe00fffefffefeffff01ffff000100ff010101fe00fe000101000000fe00000100ffff0101
01fefeff01010100fffeff00fe00fe00fe00010001fffe01fe0100fffffffefe00fffefefefeff0000fefefe00fefe00fefefffe0101fffe00ff01ffff0000ff
01000001ff0000fe01fffe0000ff01ff00fefe00ff00fffffefefffefe0001fffe0100ff01fefefffeffff0100fefe01fefe00fe01fefefffe00fffefffffe01
00000000000000000000000000000000000000000000000000000000000000000000000000000000000000000000000000000000000000000000000000000000
00000000000000000000000000000000000000000000000000000000000000000000000000000000000000000000000000000000000000000000000000000000
00000000000000000000000000000000000000000000000000000000000000000000000000000000000000000000000000000000000000000000000000000000
00000000000000000000000000000000000000000000000000000000000000000000000000000000000000000000000000000000000000000000000000000000
00000000000000000000000000000000000000000000000000000000000000000000000000000000000000000000000000000000000000000000000000000000
00000000000000000000000000000000000000000000000000000000000000000000000000000000000000000000000000000000000000000000000000000000
00000000000000000000000000000000000000000000000000000000000000000000000000000000000000000000000000000000000000000000000000000000
00000000000000000000000000000000000000000000000000000000000000000000000000000000000000000000000000000000000000000000000000000000
