00ff01ff00fefe00fefefeff01ff00ffff0100ff000100feff00fefeffff00ff00ffff00ffffffff00ff010001ff0101fe01ff0000000101000001fffefffe01
fffffe00ff0000fe010001ff01fffffffeff00ff01fe01ff0100ff010101ffff01fe0101ff00fffe010100fefffffe0001fe0001fefefeffff0000ffffff0000
ff0000fffffffefffffe0100feff010000fffffeffffff000001fffefeff00fe00fe0101ffff00fffffe0101010000fe010100ff0001fffffefefffe01000100
fefffffffefefe00fefeff00fefffffefefffe0000fe01ff000000fefefeffff010100ff00fe010000ffff01ff00fffe00ffffff00fffeff0101ff00fe01ffff
ff01fefe00fefeff01000001fe010101fefe000001fffe0100ff0000fefffe000101fffefe01fe01000100fffefefefe000101010001ff00000001ff0000ff01
01fefeff01fe01fffe00fefe01ff00010101ffff010101fe010001ff01ff00ff00fffe0001fffe01fffefeff0100fffffeff00fffe00fffe00ffffff0101fe01
0100fffe01ff0001ff0001ff000000fffe00fefffeffff00fe010000fe01000001010101ff01010100fffefe0001fefefeff00ffffff00ff00ff00ff01000001
00fefffffefe00fe01ff0100fe0000fefefefefe00fefeff00fefefefe0100fffeff00fe01ffff01ff00000000fe01fefeffff01010101fe01fe00ffff01fffe
00000000000000000000000000000000000000000000000000000000000000000000000000000000000000000000000000000000000000000000000000000000
fe01ffff0100feff01ff0101fe000000fe0100fffe01ffff01fefe0100fefffeffff000101ff0100fffefe00fffe00000101fe01fffefffe0000ffff000100ff
fe0101ff000100ff00fe01ff00fe00ffffff0001feff0100ff00ff01ffff0000ff01fffe00fe01000100fe01ff0000000000fffe010001ffffff0000ff01fefe
ff01feffffff01fe01ff01fe01fffe01ff00ffff00fefe000000ff0100fffe0001fe0101fffffefe00ffffffff01fefe01fffefefefffffefe0001010100fe00
0000fe0101fefe0001feff0101fffe0100000001fe0000feff010100ffff01ffff01010000010101ffffff0001ff01ff010000000000ff00ff01ffffff0101ff
fefe01fffe0100010100fe01010100000001feff01000001ff0000ff01ff01fefe01ff01fe0000000001ff00fefe0100fe01ff01fefe00fe01ff01ff00fe0100
00000100ff00fe00fffe0000fe00ff0000ff01fe0100ffff01fffefe0101ff01ff010101fffeff01fffffffffffe0001feffffff0101fffefefffe01000000fe
fffefe00ffff000001fffefffefefe00fefeffff00fefffeff01000000fe0001010100fe00fefe01fffe0001ff000000fffffffefe00fefffe00ffff0100fe00
000001fe000101fe01ff0101ff010100fefe0100010000fe00fefefe0001fefeff00fefe01fe0000fe01fe0101ff00fffffefefeffff010101fe01fe00ff01ff
00000000000000000000000000000000000000000000000000000000000000000000000000000000000000000000000000000000000000000000000000000000
fefe00fefffe00feff01fe01fefe0100fe0000fe00ffff0000fe0101fffe00ffff0000feffffff01fefefeff0100fe00ff00fefefefefffffefeffffff0001fe
0001ff00fe0101fffffefe00ffff0100ff01fe01feffff0100000101ffff010100fe0101fe010101fffeffff01fffe01ffff0001fe00ff00fe010100fefffe01
01000000fffffe0000feff01ff000100ff01fffe00ff010100ff0000fefefe0101ffff0000000100fe0100fffe0100fe00ff01ff00fe00fefeffff00fe0001fe
00ff00ffff01ff00fefe00fe00ff00fffe00ff000100fe01010000fefe01feff000101fefeff0100ffff01000000fefeff01ff00010001fffffffefefe01fffe
ff0001fefffffefefeff01ff00fefe00fefe00000000ffffffff01ff01fffeff00ffff0101010101fe0101000000fefe01ff0101fe00fefefefe00ffff00fffe
01ff0001feff00ffff01fefe0101fefeff0101fefe00000101feff01ff0001ff010000fefffeff00ff010000ff01fe0000fe01000100fffeffff0101fffe0101
000101fefefe000001fe000000ff00ffff00fe00ff0000ff0100fefefe01ff00fffe00ff010000fffe00feff01fefe01fefefe01fe00fefefefeff01ff0100fe
000101000001feff0101feff0101fffeff0000ff01ff00fe01ff0100ffffff01ff00ff01fefffe01ffff0001ff0000fefe01fe0001fefffeff0000fffefe00ff
00000000000000000000000000000000000000000000000000000000000000000000000000000000000000000000000000000000000000000000000000000000
