feff01fefefffffffffe01fffffefe000101ff00fe00fffffefefe00ffff0100010001fe01fefe0100000001000100fffe01fe000001fe00ff010100010000fe
01fffefefe01ff01ffff01000000ffff0001010100000000fffefefeff00fe01fefefe010000000000ff0100feffffff0101ffff0001010001fe01ff0001ff01
0001fe010001ff000000fefeff00fefeff01fe000100fe0001ffff000000ffff0000010101fffefffefeff00feff0101fe01fefe01fefffefeff00fefe000100
ffff01010101fffffefffeff0101010100ff0001fe00fe0100000100fffe01ffff0000ff01fffffefffefefefe01fe01fefffe01fffeff00ff000000fe01feff
