fe0101fe01feffff00fe010000fe010001fffffeff0001000001fe01fefe00010000feffff01fffefefffe00fe000000ff010001ff0101fefe010100fe000100
ffff000001fe00fe00ff0100ff010101fefe01010000ff0001fefefffeff00ff0001fffe000001fe010001ff01feff0100feffffff00ff01fe00010101fe0101
00fe01ffff0000fffeff0100fffffe0100fe0101fe00ff01fe01000101ff0001fefefe0001feffff010001fe0101ffff010101fe0100000000fefffffefe0100
fffffffe00fe010000fefeff0101fffeff01fe00fe01ff01000100fe00fe0100ffff01000000fe01fe01fefefeff00000000fe0101fffe000100ff010000feff
ff00feffff0000fe000000fe01fe01fe00fe00000101ffffff00fe00ffff00fffefe010101fefeff0001ff000000feffffffff00010101fefffe01fe0000fe01
01010001000001fefefe00fffeffff01fefffe00ff00ff0101ffff0100ff01ffff01feff0100ff0100010101ff01ffff010000ff0001fe0000000001fefefe01
01ff0001fefefffffe00fe000101fffffeff00fe0101ff0000fefffe00fefefe00fffeff01fefefe010100fffe010001fffe00fe01ffff000001fefffe010101
0101fffe01010101fffe01fe00ffffff01fffe00fe01fe01ff000001ff0100fefefffefffeff00fe010101ff010100fffe0100fefeff0101fffeff01fefeff00
00000000000000000000000000000000000000000000000000000000000000000000000000000000000000000000000000000000000000000000000000000000
000100fefe00fe01fffffefffe000101000100fe00fe0101fefe0101fffeff01010000ffff01fefffe00010101fffefeff010100ff0101fffefe00fefffffefe
fffefe01ffff0000fffe01fe0000fe01ff01fefffe010000ff00fe0000fffffeff01ff01fefffe010101ff0101fffe01000000ffffff00fe00ff00fffefffe01
01feffff0100fffeff01000100fe01fe01ff00000001fefe00000100ff0001fefe01000000fe0001ff0100fefeff00feff00fefeffff010000ffffff000100fe
010101fe00fe010000feffffff000101fffffeffff01ff0100feffff01010100fe00fffefefffffe01fefefffffe010001feff01fefefe0001010100010000fe
010000ff0000000100fe01fe0001fe0101fffffffeff000000fffefe0100ff000100010101fe01feff01feffff000101fe01000101fffe01ff01ff00fffffe00
fefffffe0000ff01fffe01feff010101feff01fe01fefefe000000000101ff010000ff00feff01010101fe01fffefffffeffffff00fe01fe0100000000feff00
fefefeff01fefe00ff0100ff000001fe00fefefe01fffe000101fe01fffefffe010001ffff01feff00ff01fffefe00000001ff00fffe00fe00feff010100feff
ff01ff00010100fefefffeff00fe01fffffefffe00010001010000ff0101fe0101ff00fffffeffffff000000fe010100fe000100ff01fefe01fe0101000101fe
00000000000000000000000000000000000000000000000000000000000000000000000000000000000000000000000000000000000000000000000000000000
ff01fe00000001fe010000fe0101010100000101fe01fe0101fefffffe00fffefe01fe0101fffe0101fffefffefffe00ff0001ff0101010001feff0001fe00ff
fe00fe00ff00fe00fe00feff0100fefeff00010100000000fefe01fffe010101fe00ff01fffefefefe01feff01fe0101fffe01ff0001fe00fefe00fe010100fe
ff00fffe0000ff0100fe01010000fe01fefefe0100fefe01ff01fffe00ff01fffeff00fffe0001ff00fe01fe00ff0100fe0101fefffeff0100fe00fffffeffff
0000fe01ff00010101feffff00ff00fe00fefe0000fe01fffffffefeff0000010001ffff0101ff00ff0001010100ffff01ff0001ff00fffe01feff00ff00ff01
fe0101fffe0100fefe01ff010000fffffefeffff01ff0101fefefe01ff00ff01ffff000101ff00feff000101ffff0101ffff0101fefe000101010100feffff00
01ff000100ff0001ffff00fe01fe01010001ff0001fffefffeff0100fefe01feff01feff01fffefeffffff01fe00fe00fffffefffe00010000fefefefe0100fe
ff00fe01fe01ff01fffffffeff00fe0101fe00feff0100ff01ff01feff010001ffff01ff000100fffefefeff01000100fefffefe0000feff00ffff000100ff01
0100ffff0001fefeff01fe01feffffff000000fffefefe00fe0101fefe00fe010101fffe0000fefe00fffe01ff00fe0100fffe0100fefffe000100fefe000001
00000000000000000000000000000000000000000000000000000000000000000000000000000000000000000000000000000000000000000000000000000000
