fefffeff00000000fffe01fefeff0100ff01ff0001fefffe01ffff00fe00fe01ff000101fffefefeffff00fefeff010001fffe000100fefffefe00fffffefefe
fffe00ffffffff00ff0001000000fe01fe010001fe000101ff00010001ffffff000101fffe000001010101fefffe00000001000100fe0101010101ffffffff01
01fefe00ff000101000000ff0001fefefe0100ffff0000fefffe010100fe00fffeff010100010001ff0001ff00fe0101ff00fffe00feffff00fe01fefe0000fe
010101000000fffe01fe000001fe01fefffe00fffefefe00fffe00ffff01fefffefe0101ff00ff0100ffffff01fe01ff00ffff0000ff00010101ff0100fefe01
01fe00ff00fffe00fffe0101fffe00feff01fefffefffefffeff00ff010100fe0001ff00feff010100fffe01fe010101fefe00fffe01fe0100fefeff0101ff01
fe01ff00feffffffff0101ff000100fe000001ffffff010001fffffe01fe00ff00feff000101fffefefeffff010101fefeff0000010100fffe0000fefe010001
feffff00ff00fe000000fefeff00fefeffff0100fffeffff01ff01fefe0101ffffffffff0101000100000001fe010001ff010101fefefefe0100fefeff00ffff
0100ff01ff00fe00fefe010000fe0001fe01ffff0001ffff000101fe00010101ff000000fffe00ffffff01ff010101010101fe00fffe000100000000ff010100
ffff010000fffeff0101fe00ff00fe0000feff01fefeffff00ff01fe0000010101fe0000010001fefe0001fe0101ff0101fe00ff01010100fffffe0100000101
00000000fe01000101ff00feff01fe0101ff00fe0101fe01fe010001ffff0000ff00feff000000fefe000001010001fe0000fefffe00fe01000101feff010001
ff01ff00000101ffff0100fefefe01fe01fffffe0000feff01ffff00ff01000000000001fffefe00fe01fffeff01fffefe0100ffff01feff0100fffe010001ff
0100feffff010000fe00fe000001fffefefe00fe0001feffff01fefffe00fffe01ff00fe0100fefefffe0001fefffffe01ff01ffff01fefeffffffffff0100fe
fe0100fffe01fefe010000feff01ff010101ff00010001ffff0001ff0000ff00000001000100ff0101ffffffff000000fffffe0001fffefefe01fffffeff0001
feffff00fefefe0100fefeffff0000ff0100000001ff01fe01fffe00fffe01fefffe00fe00fe00fffe000001fffefeff0101fe010100fe0000ff0000fefefffe
0001010001ff00fe010000fe01ff01fefffefffffe00ffff00fefe01fe00fefefefffefefeff000101fe00fffefe00feff00ffffffff01ffff000000fe01fffe
00fe0000ff01fefe0000fffe00ff0001010100ff0100ffff000000ff00fe010101fe00fe01fefeff01010000fefeff01fe00000000fe0101fefefffefefe00ff
01ff00ff000101feffff01fefe0000fe01ff01000101010100010101fefeff0101fffffefffeffffff0000fe01ff0000fe01ff0101fefefefffffffffe01ff01
01fffefefe01ff010100fefffe0100fefe00ffff01fffeff01fe00fefe000101fefe01000101ff00fe01fffffffffe00ff0001fefeff0100ffff01ff00fe00fe
ff01010001fffe0001ff01fffe010000ffff0000fe00010100fe01fffe010001000101fffefe000001000100fefe0101fefffefeff0101fe0000010101000100
ff0100fe01fefe01fe00feff0100fffffefffe01000001ff00fffeff01010101feff00ff01fe010001fe01fffeff0001feff01fefffe00010000fe01fffffefe
00010000ff010101feff00fefe0001ffff010100ffff0101000000010000fefe00feffffff0000fffeff00010001000101fffefeff00ffff00000100010101fe
010100fefe00feffff01000001ffffff01000101010000000001fe01fffe01fffffeff0001010001ff0100fffefefefe01ff01ff00fffe01fefe01fe01fffffe
0001feff010001ff00ff00fffffefffffffe000000ff0101ff00000101fffefffe00010100fe0000fe00ffff00ff01fe00ff00ff00ff01fffe00ffff0001fe00
0001ffff01fefe0101fe01ff0100fe00010000ff0001000100fefeff01fefffffe0100fffefe01fe01fe00feff00ff00fe000000000100ff000001fffe010000
