00fe0101fffefffe000001fe01fffeffff01fe01feff00feff0000fffffffefefe0101feff00ffff01fefe010000feff00ff0000010101ff0100ff01ff01ff01
ff0000ff01fffe01fe0101fefeff01fffefffffeffff01fe0000ff00ffff010000fffe01ff010000fefefefefefefffffffe00fe000101fffe01fffefefffefe
ffff0001fe00010100fffffefeff00fffffffefe01ff00fe00ffff0000010100fefe000100fefffefe00feffff000101fffe0101010100ffffff01fefefffeff
ff0101000100ff00fe00ffff00fe000101ff00fffefeff01fe00fe00fefffe01ff0001ff0001ffff010001fe00fffffefe01fffeff010000000001fffe0101ff
fefeff00ff0101ffffffff0100fefe01ffff00ff0100fefefffe01fffe00ffff00010000fffe01ffff000000ff010100fe0001fffffefe0000ffff0100fefefe
fefe01fffffeffff01ffffffff00ff01fe00010101fe000001fefffffe0100fe01fe000001ff00fe00ffff0001fe0100fe000101ff01fffeff00ff0000fe01fe
00fe00fefe00fe000001fffffeff0000000101fe010100fe00ff01ff00010001fefe01000001ff01fe0101ff00fefe00fe0100fefffffeff0001feff0101ff00
ffffff00010100feff00feff01fffefffe01ff01fffe01fefffffeff01fe00fe00fffeff0101010001ff01fefeff01fe0100fffefefeff00fe0001ffff00ffff
00000000000000000000000000000000000000000000000000000000000000000000000000000000000000000000000000000000000000000000000000000000
ff010001ff00010101010000fe00fffffffeffff01fe010100feff0000feff01ffff00000001fffe00fffeff0001fe01ff00fe01ff010001fe01ff0000010001
fe0001ff00ff01ff00ff0101ff000000fffefffe01fe01ffff000100fefeffff0100ff010101fe000100fe00ff0000ff0100ffff00fefe00feff0001fefffefe
fe0101ff00000101fe01fffe0100fe01ff0100fe01fe00ff0100fe00fefffeff010000fefffe0001010000fefe0000feff00fefffe0100fffefe000001fffeff
01010001feff0100fffe0101fe00ff01fe01ff01010100feff0101fe01fe0000fffe00fe01ff000000feff01fe010100fe01fffefffeff00ff0000fefe01feff
feffffff00fffe01fe01ff00010000fefe0101ffff0101ff000101ff00ff0001ff01fefefe0100010001fefe000101feff000001fe000100fe0101fffeff01ff
01ffff0001fefefe0001fefe0101ff01fefefe000101010000fefefefe00ff01ffffffff000101fefeff00feff0101ff00ff00ff00fffefefffe0001fe0100fe
0001010000fefe0000fe0100fe00000100fe01fefffe00000001ff0101000101fefffefefefe0001010101010100fe00fffefe0001fe0001010101feff00fffe
01ffff0001fe00fe010000fffffe0100fefffefefefe000101010101fe01fffffefefe00ff0001fffe00ff01000000fe0101ff01ffff01fe010000000100feff
00000000000000000000000000000000000000000000000000000000000000000000000000000000000000000000000000000000000000000000000000000000
00000000000000000000000000000000000000000000000000000000000000000000000000000000000000000000000000000000000000000000000000000000
00000000000000000000000000000000000000000000000000000000000000000000000000000000000000000000000000000000000000000000000000000000
00000000000000000000000000000000000000000000000000000000000000000000000000000000000000000000000000000000000000000000000000000000
00000000000000000000000000000000000000000000000000000000000000000000000000000000000000000000000000000000000000000000000000000000
00000000000000000000000000000000000000000000000000000000000000000000000000000000000000000000000000000000000000000000000000000000
00000000000000000000000000000000000000000000000000000000000000000000000000000000000000000000000000000000000000000000000000000000
00000000000000000000000000000000000000000000000000000000000000000000000000000000000000000000000000000000000000000000000000000000
00000000000000000000000000000000000000000000000000000000000000000000000000000000000000000000000000000000000000000000000000000000
00000000000000000000000000000000000000000000000000000000000000000000000000000000000000000000000000000000000000000000000000000000
