00fe0000010100ff01fffe000101fffefefe01fe01000100fefffefefeff01fe0001fe0000fefefe0100ffffffff01010001010100000001fe00ff01000101ff
01ff01fffffeff0101fe01fe00010100ff01010000ff01fefffe0101ff01fe0000fe0001010001fffffeff01fe0100ff0100fe0001fe0001ff00ff0101000100
fffe01010100000000fe010000ff010100ff0100fe0100fffffeff00fefe0101ff01fffe0100000000fffeff00feffff01fe01fe000001fefe0000fffffeff01
010100fefefefe0000ff0001ffffff000100ffff00feffff00000001ffff010001ff0100ffff010000ff01010000feff01fe00fefe0001fe00010100fffe01fe
00000101ff01ff000101feff00feff000101ffff01010101fe00ff01feff01ffff01fffe010000ff00fe01fe00fffffe010100fe00ff01ff00fe00ff01fffe01
fefefe01feffffff0001010100fe000100010100fefefe01fe0100fe00fffefefffe00fffeff0101fe01fffffe01fefe00ff0101fe0000ff0001ff00fffefeff
01010000feffff0000ff0100010001fefe01ffff0000feff0000fe00fe00fe00ff00ff00000101fe0000ff0100ff00fe01fffe0101ff0001feff00feff01fe01
000100feff0000fe0001fefeff01fffeff00feff01fffffe00fffffffe01fe0100fefe01fffefe00fffefefeff0100feff01fe01fffe01fe000101ff01010100
00000000000000000000000000000000000000000000000000000000000000000000000000000000000000000000000000000000000000000000000000000000
00fefeff000001ff01feff00fe0001000000ff0100fe0100feffff0101ff0101fefffe010100ff01ff0100feff00010001fefefe0100ff00feffff0100ffff01
ffff0000fffe00fefffefffeff0001ff00fffe01fefefe01ff01ff000101fe01ff00fe000001fe000101fefe01ff00ff01fe00fe0101ff00ffff00fffe0101ff
0000fefe0101fe01fffe00fefe000101fe00fe0001fffffffe00fe0001000000ff01010001fffeff010000ff01fefffffefe01feff01fe00fefe01ff000101ff
fe000100fefefffefffe010101ff000000ff0000fefefe000001ff0101000001ff00fe00fffe000100ff010100fe0100fefffe00ff0101ff0100fe01fefffe00
01ff01fe0000fe0100010000010100fe000101000000fe0001000001fefe0000ffff00fefffffe00fffefefefffefeff000001fefe00fe000001fe01fe0000ff
00ff01010100ff01fe0000000000010101feff01fefe0000ff00fffffefe01fe01feffff00ff00fefeff0100fffe00fefe010001ff01fe00fefffe0000fe0100
00ff010101fe000100fe01fefffe00ffff01fe01010001000001fe0101000101fffefefefffe0100ffff010000fefefefeff01fe00feffff0101fe01000001fe
fe0000fefffefe010001ff01fe000101fffffffe01fffefe0001fe0000feff0001000101ff000000fefe00ff0001ffff00ff01000100ff0001ff00ff01ffff00
00000000000000000000000000000000000000000000000000000000000000000000000000000000000000000000000000000000000000000000000000000000
ff01ff01feff0101ff0001ff010001ff00fe01fe01ff00fffffefeffff00000101ff000000000100fefeffff000100fffe0000010001fffe000101fe0101ff00
fffe000100feffff0001ff01fefe00fe01010001fffe01ff010001000000ff00010000ff01010101fe00ff01fe00ff01fffe00fe010000feff00fefe00fffefe
fffffffe01ff000000ff01fe0000010000ff00ff00fffffffffe000100ff01fefeff00fffe01ffff00010100feff0001010100fe01010100fefefffefe010000
fe0000ff0101000000ff00010101ff00ffff01fe0000fe01fe01ff01fe01000000ff000001fefe0001fffeff0001ff01fe0101fefeff01ff01fefffefe0000fe
01fffe000000010001fe0001ff00fe0100fe01fefe00fe0000fe00ff0001fefe0001fe010001ffffff01feffff010101ffff01fe01fffeffffff0000fefe0100
0001fffefeffff00ffff00fffe00ff0001fffe010101010101fefeff0001feff01feff01fefe000100fefffe00fffffffffe010001fe0101fefe0100ff0001ff
010101fe0101fe01ff0001fefe00ffff010001fffefefffefffeff00ff01feff010000ff00fffe01010001fe01010001000001ffff0100fffe01ff00feff0000
fe0100fe01000100ffffff01fefffefefe010000010101fe000100fffeff0000ffff01fe0100ffff010001fe00feff01fe01feff00fffefeff00fffe00fffffe
00000000000000000000000000000000000000000000000000000000000000000000000000000000000000000000000000000000000000000000000000000000
