fefefeffffff00feffff0000fefe0000010101000101000000feff0001fe00ff00fe0000ff01feff01ff00feff0001ff0000ffff00ff010000fefe00fefeff01
fffe01fefefe01fffffffe01fffffe000101feffff01fefefe00ff00ff01ffffff00fffe0001fe0001ffff00010001ffffff01010101fe0000fffffe01ff01fe
feff01000000ff01fefffffffefe00fe0101fe01fefe00feff01fe01fffe00000100fe00fffe00010101000100000001ff00feff01ff0101000001fffefeff01
0001ffff010001ff01ff0001010001fe0001010100fe0100ff010001feffff00fe010000ff00fe01feff01fefffe0101fe01fe0000fe00ffff01ff0100010000
