01ffff01ff0001ff00010100fe010001010001ff00fffffffe010000fffe0100ffff00fefefffe01fe01010000ffff01fffe0001000100fffe01010001fe00ff
0001010100fe010001feffffff01ffff00ff010100ff0001ffff00010000010000fefefe01fefe01fffeff00fe0101fefefefe00010000fe00fe00fe01010100
ff0100fffefffe010000fefe0001fe0100fefe01fefe01010100ff01fefefffefffffefefeffff0100ff00010000fe000000000000000001fefe01fefffffe00
01fe01fefe0100feff00ff01fffe00000101ff0101fe000000fe00000001ff000001fe00010101fefe0100000000fffefefffffe0101fffefefe01010100ff01
fe00ff0001fe0101fefe01000000fefeffff00ffffff010100fe000100fffe00ff01fefffe0100fe0001fffe0100ff0000ff00fe00fffffefefe01ff0000fe01
fe0001feff01000101fffffefefffefffe00ffffff0100fefeffff000000fe0000010001ff010001fffefefefefffefefffeff00feffff01feff0100010101fe
fe0100fffffeff01ffff0001fffe00feffff00010100ff01010101ff0100ff00fe00fe0000fffe0000ffff0001000000ff000101fefe0000fefe00fefeff01ff
0000fefefeff0001fffffe01fefe00ff00fffe000101fe0100000101fffefefffffffe01ffff0101ff01000100fe010001ff0000fe0101fffe0100ffffff0101
fe0100ffffff000000ff00fefe0001fe01fefefefe000000ff01fe0100010001feffffffff01ff00010000fe01fe000101ffff0001fefefffe000000010100ff
0000ffffff0000ff000101fe01fefeff01fefe0001000101feff01fffeffff00fffefe0100000000fffefe000100ff00ff0000fe00ff01fefffeff00ffffffff
ff00feff0001fe01fffefe01ffff01fffe0001fe01fe00ff00ff0101fefe0000fe00fffe01fe00ff00fffe0100fffeff0000ff01fe01fe0101fefe01fffe0001
fe0000fe00010100fffe01ff00fffefefe01ffff0000fe0101ff00ff01ffff00fffffefe01010001fe0100fe00fe0100feff01fefeff00000101fefffffe0101
0100ffff000100fe000100010101000001fe00ff0100feff0101ff01fefefe010100fffffefeff0000feff0101fefffffffffefefe00fefefffeff00000001ff
01000000fefefeffffff00ff00feff00000001fefe00ff00fe0000010100ff00fffe0100ff00ff01feff01feff000001ff01ff0001fefe0001feff01ff01ff00
00000101fffffffe00ff010000fefe00ff0000feff01fe01fefeff01fffeffff00ff00fefe00fffffffe00fe01fefffefefefffffefe01fe00fefe01fffefeff
00feff0001fffe00fe0000ff00fffffffe00fffe000100feff00000000ff0101ffff0100fe00ff01ffffff01010101feff00fe00ff01feff00fe0100ff00ff00
00000000000000000000000000000000000000000000000000000000000000000000000000000000000000000000000000000000000000000000000000000000
00000000000000000000000000000000000000000000000000000000000000000000000000000000000000000000000000000000000000000000000000000000
00000000000000000000000000000000000000000000000000000000000000000000000000000000000000000000000000000000000000000000000000000000
00000000000000000000000000000000000000000000000000000000000000000000000000000000000000000000000000000000000000000000000000000000
00000000000000000000000000000000000000000000000000000000000000000000000000000000000000000000000000000000000000000000000000000000
00000000000000000000000000000000000000000000000000000000000000000000000000000000000000000000000000000000000000000000000000000000
00000000000000000000000000000000000000000000000000000000000000000000000000000000000000000000000000000000000000000000000000000000
00000000000000000000000000000000000000000000000000000000000000000000000000000000000000000000000000000000000000000000000000000000
