fefe010101ff00010001000100fefe01fefe0101fefeffff01fe0001fe0100ff0000fefeff01fefe00fefe01000100010000fffe00ff00010101feff01ff0001
000001ffff01ff01feff01fe01ff00fe0001fe00fe01010000ffff0000fe0001fffe00fefffefe01fefffe01feff01ff0000feff000000fffffffefe0101fe00
fffe0000feff00fe00ff0001ff0001010000fefefffffeff010101ff0101fffe01fffefefe01fe01fe01fefffefefe0001ffff0101fe01feff0101fefefe01ff
00fffefffe010001feffff00ff01fffefe01ff00ffffff00fefefeff0001ff00010001fe0001feff0000fe0101ff01ff01fffefffeff01010000ff000001ff00
0000fe01fefffffffe01ff010001fffefefffe00ff00ff0001ff01fe01ff0000feff01ffffffff01fe00fe01ff00ff01fe00fffe01fe010101fffe00fefe01ff
fefffefe00ff00fe01fffefeffffffff000101fe0000ffff010001fefffffe01fe0101010001ff000000fffffe00fe0100ffffffff01fe00ffff00fffe010000
00fe00fefffefe0000fffe00010100fe01fffe01ff0000ff00000000010001feffffff01ff01ffffff00ffffff0101fe0100ffff01fffefffefeff01ff0100ff
feffff01ffff00ff01fefffefffefe00fe000000fe0001ffffffff00fffe01ffff00fffe0001ff0101fe0000fefefeff01fffeff00fe01fe01fe01010000feff
00fe01fefffefefefe01feffffff0000ff00fffefefffffe0001feff01fffe0100fe00010001ff01000101ff01ff00fe00ff000101ff00ff0001ff000100fefe
feff000001ffffff0101ff00fefe01ffff01ffff0101ff0100ffff000001fe0001ffffff000001fe00fe0101fe0101feff0001ff01ff01000100ffff0100ffff
ffffff01fe0101fe000001ffff00fffefe00010101fffefe01fe01ffffff01010000fefe0100fffefe0101fe01fe00fe00fffe0101fffffe000100010100feff
00fffffffe01ff01010100fe01fffefe0001fffe0001ffff000100fe01fe01fffffe01ff010001fe01fe01fefefe01fefffeffff0100ff0100fffe0001000100
ff00ff000101ffff0000fe0101fefffe000000010001fe0000ffff01000101ff01fe01fffffe000000fe01ff010101fefefeffff00fefefffeff01ff000100ff
fffeff01fffffe00fe01fffffefeff01feff01ff010000fe00fefe010100fffffeffffffffff00fe0000ff0001ff000000fefe000000ff00fffe0101fe0101ff
00fe01fe00fefffefefefe010001fe00010100010000fe01010101fe000000ff0000fefe000101010000ff010101fefffffe0000fe010101fe00fefefefe0001
fe0101fe00fefe000001fefe01010000010100fe0100ff0100010001ffff01feff0001ff0000fe0001010101000101ffff0101ff00fefefe01010100ffff00ff
00000000000000000000000000000000000000000000000000000000000000000000000000000000000000000000000000000000000000000000000000000000
00000000000000000000000000000000000000000000000000000000000000000000000000000000000000000000000000000000000000000000000000000000
00000000000000000000000000000000000000000000000000000000000000000000000000000000000000000000000000000000000000000000000000000000
00000000000000000000000000000000000000000000000000000000000000000000000000000000000000000000000000000000000000000000000000000000
00000000000000000000000000000000000000000000000000000000000000000000000000000000000000000000000000000000000000000000000000000000
00000000000000000000000000000000000000000000000000000000000000000000000000000000000000000000000000000000000000000000000000000000
00000000000000000000000000000000000000000000000000000000000000000000000000000000000000000000000000000000000000000000000000000000
00000000000000000000000000000000000000000000000000000000000000000000000000000000000000000000000000000000000000000000000000000000
