01fefffffe000101fe010100ff0100000100fefffffffe01fffeff00ff0100fffefefe0101ffffff01ffffffff01fe0000000001feff01fe00fffefefefeffff
00fe01010001fffefe0000010101fefe01fffffe0000000001ff0001fefe00fffffe00fffffefefe01ff00feffff01ff00000101feffff01fefe0001fefefeff
fe00ff00feff00fe0001000100fe01fefe000000feff01feff0100fffefe010100fe00fe00fefe00ff01ff0101fe01feff01fffeffff01ffff0000fe000100ff
00000101fe01ff01feffffffff010000fe01fe0001fffefefffeff01ff0001fe0001ff01ffff01ffff010101fefe0101fefffefeff00ff01fe010101fefe01fe
