010101fe0001fe0001fe010000fefeffff00fe00fe00fefefffefffe01ff00ff00feff0101fefe0100fe0000feff01feff01ffff0101fffe01fe01ff01fffe01
00fefffeff00ffff010101fe00fffffe010001fe0001ff00ff0000feff0100ff00fffffffeffff00fefefffe00feff000000fffffe0101fe00010000fffeff00
ff000101fffe0101fffffeffff00ff01fefefe00fe00ff000101ff00010001ff0101ff00fefefefffefffe01000001ff00ff01feff01feff0000ff0100fefffe
01fe000000ff00feff00fefefffefffe01ff0001ff00fe01ff00fffe00010101010000ff0000000000fe00ff010001fe01ffffff000001ff000100fefe01ffff
01ff000001feff00fffffffe01fffefe00feff0000fffe0000fe00feff0100000000fe010000fffffeff00ffff0001ff0001ff0001fffefefe00fffe0000fe00
00010100000001feff0001ff01ff0100fe01ff0001000101fffeff01fe00feffff0000fefeff0101fefffe01fefeff01fffeffff0101000101ff0001fefe0001
ff010101000101fffe01fe00fffe01fe01fefefefffffefe000000fe0101fe0100ff01000000fffefffeff0000fe00feffff000000fffe0101ffffffff00fffe
ffff000100fffe01fefe01ff00fefe0000fe00000001fefe0101ff01fffffffe01fefe0001fffffeff00fefe01fe00ff0001fe00010000fffe01fe000101feff
fe00fe01fffe0000fe000000ffff00fefe01fefe01ff00000101010101ff0100010100fe00000001fffefffefffffffefefe01feff00fffefffffe0100ff0000
fffeffff0000000001010101fefeff0101fffffe0000000000ffff00000001ff00fefe01fe00fe00ff010100ff01fe000000fffefefefeff0100fe0100ff01ff
feff01fffefffefffffefe010000fe00ff00ff01fe00fefe01ffff01ffff01fe010100fe01ff00fe0001feff00fffefefffffe0001fffe00ff0001feffffffff
fe00010000fffefefffe00fe0101feff0001fefefefeff0000ff0101fe0101ff010001ff01fe01fffe0001fffffeff00fefe01feff010100feff000000fefeff
01010100ffff000100fe00feff00fffffe00fe01fffefeff00ff01fe0101ff01ff01ff0001fe00fffefe0100fffffffe01fffffeff00fffe01fe0000feff01fe
00000101ff0000000000ff0101010000ff0001010001feffff00ff00fe01fe000100ff000000fffefefefffefefffefe010100feff00fefe00fefffefefefe00
fefefefe0000fe01ff0000010100fffffffefffffe00fffe0101ffff00fe00fffffefffefffe0101fefefefffefe01fefe00fefefeff01fe01fe00fe00fe00ff
0000fefe01fffe01fffe00ffff00fefeff0101010001ff0101ff0100feff0001feff010000000000000101ff000000000100fe01feff00000000fffe01ff00ff
