fefe000000fffe00fe01fffeffff01fe000101ff00fffe0101feff0000fefe01000000ff0100ff01fe00fffe000101ffffff0101010001fe000000fefffe00fe
fffefe01ff01ffff00fffe00fffe010000fefffeff00fffe01fe00fe01ff010000ffff01000101fe010000fe0100ff0100ffffff0000ff010001fffefe000101
fffeff000001fffffe01fefffefffefe01fffffe00fefeffff00fffefe00fffeff01fe00fe00000101fefefeff01000101feff000100fe010101feff0000ffff
000101ff00ffff00ffff0000feffff00fefefeff01fefefe0100010000ff0001feff01fe0100fffefe01ffff0101fefe01fe01ffff0100fffe00ff00fe01ffff
01000100010001fffe010001ff01fe0100fe0001fe010100fefe010000fe000100fe0100fe00fe010000fefefffe00fe00fffefe01ff01ffff00ff0100fffe01
01ff0000010000feffffff0001ff0100000100010000fffeff01feff00fffe01ff0000ff010001fe000100ff00ff01fe01fe010000fe00fe00fe01fefefe0001
ff0001fe0101fe000100fffffe01ff01000101fe0001fffe01ff01ff01010101010000ffff0101ffffff0101ff0101ff0001ff010000fe0101fefefe0001fe00
fe01fefffe010001ff0101fefefffefffe01fefefffffe0001fe01fffffefffefe0001fe0000fefffffe0100ffff0000fe01fffefeff0101fe010001ff0000ff
0101ff0000fefe000000ffff01000100010001ff000001ff01feff0100ffff0000fefe000000fe0100fffe0001fffe01fffffeff00ff01fefe00fefefe010100
fefe000001fffe0100fffffe01ff0001ff00fefffe010000ff00fefefe00fe0100ff00fefffe010001000101ff01fefe01fe0001feff01ffff0000fe0100feff
00fffeffff00ffff01feff00fefe00fe00010101ffff0101ff0001ff00fe01fffffffffefefffe0101000100fffe00ff000001ff01ff0001ff0000fe00feff00
ff00feff01ffff010001ff0001fe0101fffffefeff010101ff010001ff010000fe010100fe000001fe01feffff01fefe00000100ffff01ff0001fe01fffe00fe
fefffe0100ff01fefe01ffff000101fffeff01fefe01feff0100ff00fe01feffff010100fefe0000ff010001ff0101ff01fe010101fffe000001000101fefefe
01fffffe01ff01000101fe010001feff0000ff00fefffe0100fffffffefffe00fffe0001fefffe00ffff0000000000000101010000fffefe010000fe00000001
fe00fefefffe01000000fffefefffe01fefffeff010001fe00ff01fe0001fffe0100ff0100fefefe00000001010101ff0000feff01ff01feffff00fe01ff01fe
ffff01000001fe0001feffff0001fefeffff01fe00fe0000fffffffe00ff01fe010001fffe01ff01fefeffff01fefeff01fffefefefffe01ff0100ff000100fe
010000ffff0100fe0100fffe0000fe00fffeff0101ffff0000ff010100fffeff00fffeff00fefeff0100fffefe00fffffe01ff00fe000101010101fffe010001
01ff0000fefe00fefefffe010000fffe00fefe010101000100ff00fefe01fffe00fe0000ff00fe01010100ffff00fe01fffeff01fffffffe00ff0100fe000000
ff0000ff01ff010000000100fe0001ff01fefefe01ffffff0100010001000101fe0101ffff00fffe0101ff0000fefffe00fffe0000000000ff0100fefffe01fe
fe010001000101ff01ff0000fe0100ff00fefffffefe0001fffefefe01000001010000fefffefeff00ff0000fffe00010100ff01ffffff01fefffefefefe01ff
fffefe01ff0001ff000100000100fefffffffe01000100feff000000000000ff00000101ff01ff0101fe00fffffefffefffe0001feff0101fffeffffff000100
01010001fe01fefefe01fe0001fffe010000fefe01fe0100010000ff0100fefefefffe01feff01fffefe0000010001fe0001ff00fe0001ff010100ffff00ff01
00fe0000000000fe01fe0000fe0000fefeffff01fefffffffefeff0000feff01fffe00ff01fe01ff01ff0000fefe01fffffefe0001fefe000000ffff00ff0101
fffe01000101fe0001010000ff00fe0100fefe0101fe0101ff0100fefefffefefffffffe0000ff010001010001fe000001fefefeffff01fffffffefe010000fe
