fffefffefefffefe01ff00ff000101fe010001fe0000010100010101fffe01feff01fe0001000001fe00000100ff0100ff00fffe0000fefffe010000fffffffe
fe0001000101ff0101ff00ff00ff01fefeffffffff0000ff000001fe0001ff01fe00ff01010000fffe0000fefefffe01fe01010000ff01ffff00ffffff01ffff
0101000000fe00ff01fffefefe010100feff01ff00fe00fffe01fffe0001fffefeff01ff0101ff00ffffffffff01ffff000101fefe000100ffff0001010000fe
fefffffefefefffffe00ff01000100fe00ff00fefe01ff00fefffe01fe0101ff010001fefffe010100fffe00fffefe0001fefefefffe00fffe0001ff01ff0000
010001ff01ff0001ffff010001fe00fe01fefffe00fffffefe000000000000feff0001fe00fe00ff01fe010100000100fefffe01fefefffefefefffffffe00ff
feff0101ff00fe0001ffffff00fe0001ff01fe01fefffe00fe0001ffff00fffe0101fffffefeff00ff0000fe0001fe00fefe01010001ffffff0100feff01ffff
feff00ffffff010101ff0100010101fffeff0101fe00000100fe0000ff01fffefffefffeffff0001fffe00fe0001feffff01fefefefefe00fefe01ff0101ff01
0100fffe00fe01fe01ff01fffe0001ff01fffe0101feff01fffefefeffff00ff01ff0001feffff01fffeff00ffffff0100fe0001ff010001ffff01ffff00ff01
01ff00fe0000ff00fefefeff01fe0000ffff000001fffe010100fe00fefffffe010000fefffffe00ff000000ff0001ff0001fffe0000ff010101fefe00fefeff
fe0101fefe01fe0001ff0101ff00fe0001ffffff000000ff0101fe0100fe010100000001fe0101ffffffffff01ffff0101ff01ff0101fefe000000fefefefe00
000001ff010100fefffffefe01ff010100fffefefe000000ff0000000101fefeff01fffe00fe0101000100ff00ffff01fe00ffffff0001fffe00010000feff00
fe01feffff01000000ff000100fffffefe01fe010101ff01fefeffffff0101fe0000000101000100fffefe01ff0000ff00010101fe010000fe01fefe00ffff00
ffff0000fefffe0100fefe0000010000fefe00ffffff01ff01fffe00010100fefffffeff00ff01fe000101fe010101ff00fefe00fe0100000000fffe00fefffe
00010000fffe01fffeffff0001fefe00fffffffefeff0001fefeff01fefe010001fe0101fe01ffff01fe01000100ff0101fefefefe01ff0101ff0101fffe01ff
01fe00feffff00feff00fffeff000001ff0000fffefe0000fffeff00fefe0001fe01fefefe00fefefeffff01feff0100010001fffe00feff00fefe00fefe0101
fe00ffffff01ff0101fe01010101fe0101ff00ff0001ff00fe010000fefeff01ff00ffff0001fe01fe00fffeff0001fe000101fffeff0000fefe01ffff01ff00
0000ff01fefffefefeff01fefefffe01ff010101fe0000ffff01fefffe0100ff01010100fe0101ff000000fe010001ff00fefe0100fefefeff00ff0101ff00ff
feff00000000fffe01fefe00fe0101fe0000ff0101ff00010000fe01fefeffff00fffffe00ff00fffffe0000feff00ff00fffefe01fe00ffffffff0100fffefe
fffffeff01ffff0001fefffffffe0001ff00fffefefeff00fe0000fefe00010101fffe00fe00fefffffeffffff000100fe00fefe0001ff0000ff0101ff01feff
fe01feff00fe000100feff00ff0000ff0101ff0101fe00fffefefefe00fe0100fffeff01ff01fffe000000fe00ff0001ff00fe0100fffffeffff01010100fffe
ff0100fffe00fefe01fefe0001fe0100ffffff0000fffefeff010001ff010101fefe0101ff0000fefffe00ff010101fffffffffefe00010001fefeff00010100
ffff00fe00ffff00ff0101fe0000fe01ff01fe010001ff0100000100fe00ff00fe00feff010001fefefefefefffffe01ff0001ff00ff0001fe00ff000100ff01
00fefefe01fefffffffffffe0101fffeff0100010100ff01fefffe01fe0101fefffe0000ff00fefffeff010100fefffe01fe00ffff0100fffffe00fefe0100fe
01fffefefefefe01fefe00fefe00ff0001fe01feff0001fffe010001ffffff01feff01fffe0001fffeff0001fffffefe0001feff0000ff01fffffefeffff01ff
