ff00fe00ff00ff0100fefeff0100feff0001ff00ff000000fe01fe010001fefeff0101fffffffefffe01ffff00fe0000fefe01000100ff01ffff0101fe01fefe
0000fe0100ffff0101010001fffefe00fe010101010001fffeff00ffff0100ff01ff01ff00feff01fe0000000001fefefefefe01feff01fefe00ffff01fe0000
fe01ff0101feff0100fe01feffffff00fefffe0001fffe01fefefffe01ff0000ffff0101fe0101fefefefe0000ffff00fffffefffefe01fefffefe00ff01fe00
00ff0100fe010100ffff00fefe00fefe01fe010000fefefe01feff01fe0001fffe00fffe01fffeff01ffffff010000fffffffffe01fffffffeff01fe00010101
fffe010100ff0101fe0100fffefefe01ff00feff01ff0100fefe010001feffffffff0101fe00fefffe01feff01ffff01ffff01fe00ff000001fe0101fefe01ff
ffff01ff0000010100feff00fefe00ff00feff01feff010100000101ff0101fefefe01ff0000fffefefe01fe00fe00000100fe01ff0100ff00010100fffefe00
fffe00fffefefeff0000fe01ff01010100fffefe00ffff0001010000fefe01feff01feff01fefeff00fffefffe0100ffff00fffffe01ff0101fe00fffffffe01
fe0100fe0101fffe01fefe00fe00fe00feff0101fe01fffeffffff01ff000100010000fffffefe01000101fe00fe00fe010001ff01feff00ffff000000fffe00
00000000000000000000000000000000000000000000000000000000000000000000000000000000000000000000000000000000000000000000000000000000
000000000001ffff010000fe0000ffff01ff00fefefffefe0000fefefe0100ff01fefeffffff00fe010100ff01fffe01feff01fffffffffffefeff00fefefe01
00fffefe01ffffffff00fefffffffe00fe00ff0000fe00fe00fefeff01fe01ff00fffffeff0100ff01fffefffe00fffe010000fffffefe0001ffffff0101feff
01ff010000fe00fe010001feff0101ff01ff01fe0000fefffe00fe00ff00fe0100ffff01fffeff01000000fffefe0100feff000000ff000001fefe0000fffffe
fffffefefe01ff00fefffffe00fe00fffefffefefe01fe00fe00000000ff0000fffffefffefffefffe0000000101fe01000100000100fefe010000fffefeff01
0100010000fe00fefffffe000101ff00fefe00fe00fe0001fe01feff00ff01ff0001ffff0000ffff01ff0100010000fffe00fe00ff00fffefefe01000000feff
00fffffefefe00fe0001ff01fe01fffffffe00fe000000fe00fffefffefefefe0101feffff00010001ff00fe0101fe0000fe0100fffe01fe01fffefffffefefe
ffff00fe01ff0001fefffffffe0000ffffff00ffff01fe01ff01fe0101fffffefefe010101ff01fe0000fe0100010001ff00fe00ff0101ff00feff00fefeff00
01fe01ff00ff00000001ff01010000fe01ff0101fffefeff0101fe00fffe00ffff00ff00ff010100ff0000fe01fffe01000001ff010001fffefe01ff00fffe00
00000000000000000000000000000000000000000000000000000000000000000000000000000000000000000000000000000000000000000000000000000000
00000000000000000000000000000000000000000000000000000000000000000000000000000000000000000000000000000000000000000000000000000000
00000000000000000000000000000000000000000000000000000000000000000000000000000000000000000000000000000000000000000000000000000000
00000000000000000000000000000000000000000000000000000000000000000000000000000000000000000000000000000000000000000000000000000000
00000000000000000000000000000000000000000000000000000000000000000000000000000000000000000000000000000000000000000000000000000000
00000000000000000000000000000000000000000000000000000000000000000000000000000000000000000000000000000000000000000000000000000000
00000000000000000000000000000000000000000000000000000000000000000000000000000000000000000000000000000000000000000000000000000000
00000000000000000000000000000000000000000000000000000000000000000000000000000000000000000000000000000000000000000000000000000000
00000000000000000000000000000000000000000000000000000000000000000000000000000000000000000000000000000000000000000000000000000000
00000000000000000000000000000000000000000000000000000000000000000000000000000000000000000000000000000000000000000000000000000000
