fe00feff00fe00ff01ffff0000ff0100fe0001ff00fefe01fffffffe0000fefffffeffff01fe00000001000101fe01feff0100fe0101010100fe0000fefefe01
010001ffff0100feff00ff0000000100fe01fefe000001ff0001fffefeff00fffefe0000ff0000ff000101000100fffffffe01feff00ff0101fefe0100000000
ff01fffefe0100ffff01fffe00ffff00feff010000fe00fe0001fffffe01fe00ff0101feff01fefffeff01fffe01ff01fe0100fffe00fe00fe000000ff00fffe
01fe0101fe00ff00fffffefe000000ff0001fffe01ff00000101ff0001000100000000feff0000fffeff0100ff00fefffffffe01ff00fe00fefefefe01fe00ff
ff000100010100fefe00fefe0100ffff01feff00fffe0000feff0101ff0100fefe000101fffffe0101feff0100fefe0001ffffffff010000fe00fffe00fefe01
01fe01010001000000ffff000100ff00fefe0000ff01ff010001fffefe000000ff0100fffe00fe01000101fefefffe0100000100feff00fe01ff000000fffffe
0100000101ff01ff00fe0100fe00fefffefe00fffefffe000100010100fe01fe01000001ffff00fefefeff0001feff00feff0001fe01feff00ff00010101ff01
fffefefe01ff01feff01fefeffff00000100010001fe01ff00feff010100000100fffe010001fe00fe010000010000feff01fefefefeff00fefffefe01fe0001
00ff00feffffff01fffefefefe01fefe00010000feff00fe0001fe00fefe01ff0101fffeff01010101fefe0101fe0000010001fefffefeff01fffe010001fffe
ff00ffff000001ff01fe00fe010101fe01fe01feff01ffff00ff01ff0000ffff01ff01ff01fefefefffe00ff0100010001ff00fffe00010000feff01010001ff
fe00feffff0101fffefeff000000ff010000000100ff00fffffe0001000000ffff01feff00010001feff01fe00feff0001ff010001fffe01fe000001ff0100fe
fe0101fe0100fe0101feffff00feff010101ffff01fe0100fffe00fefe00ff00fe000000fe00ff010000fefefe01000100010100fffefe00fe01fefeff0001fe
0001ffff01fe0000feff01fffe01ffff0000fefe01000000ff01fe0100fe000100ffff00fffe01ff00fefe01fffe0000010001fe00fe01000101fffffefe0001
00ff00ff01ff0001ff00fffe00ff0101ff00ff00fe0101fffeffff01fffefefe0000000101fe01010101000100fe01fffeff010101fffffe01010000ff01feff
01ff01fefffffffe01fe000001fe00fffeff00fefe01010100fefe00fffffeff000100fffe00fffffeffffff00ff01fffefffe01ff00fffffe00ff0100ff00fe
00fffe01ffff00fe00ffff000100fefeff00fe01feff010001fefe00ffff00ff0101ff00ff010101fefe0001010100fe01fffefffeffff0001fffe000101ff00
