01ffff01fe00ff00fefffeff0101fefefe000101ffff00ff000001feff00feff000000010001000000fffe00ffffff01fe0100fe000000fe00fffefe01fefe00
0100fffffe01000000ffff0000fe000001fefeff00ffff01fefffefffeff01ff01fefe01fffe0001fe000100ffffff0101fefefefffeff01fffefffffefefe00
01fe01fefefe0001ffff00fe0000fffe01fffe01000001ff000001fe0100fe01fffefe0000010001010101ff00ffff0001fe00010101fefefefffefefefeffff
fffffefffeff01fefefeff01fefe0000000000feff01010000ffffff0101fefe0001ff01010001fffe01fe00ffff01ff0001fe01fe00fffffffffefeff01feff
00fe01ff010001ffff01fefffe00010000ff0100fe0101ff00ff000101fefeff01fefe01fffffffffeff00fe00fefefe01010001ff01fefefffffffffffe01fe
ff00ff01ffff00ff00fffe00fffe01feff00000001ff01fefeff01fffffeff01fefe00fe01ff01000000fffffe0001ffff00ff0001010000fefefe00feff00fe
ff00000101ff000100fe00fffffe0100010100ff0101fe01010101fefefe01fffe01000101ffff010001ff00fe0000fffefffe00ffffff00fffe01fefe000100
0000ff000101ff00fefe00fe00fe010100fefefffe00ff01ff0101ff0000fe01fefe0001fffeff00fe01000101fefe01ff0101fffe00fffffefefefeff00fffe
00000000000000000000000000000000000000000000000000000000000000000000000000000000000000000000000000000000000000000000000000000000
01fffefffe00fffe01fe0101fe01feff00fefefefefeff010000fefefe0001feff0101fefffeff00fe00000100fffefffefe01ff010101feffff00fefe01fefe
fffefffffffeffff01000001fefe00fe01010000ff01fe01fe01fe00fe0100feffffffff0001fffe00000100010100ff00ff00010001fefe01fefffe01fefeff
fefefffffe00fe0000000101000000fffe010001ff01ffffff01010001fe00fe01fe010101ff010000010001fefe00feff0100fffe01fe01ff01ff0001fffeff
01ff0101fe010000000101010100fffe000100feffff01feffff0101ff01ffff0001feff0101fefeff0001fe00fefe01ff000000feffffff01ff00fffefe0100
0101fe0001fefe00fefefeff0100000000fe0101ffff0000ff00fefe0101ff01fe00010000ff00fffffefe0001ff00feff000001000001fe00ff00fefeffff00
0100ff00fe010100fffffe00feff01ff01fffffefffeffffff01feffffffff0100fffffefe0100fe0100ff00ffffff0000010001fffe00fe01fefffeff000101
ff01ffff010001fe01feffff01fefe0100fe01fefe0000000001000001fe00fefeff01ffffffff01ffff0001feffff0000fffeff0101fefe0100fefffeffffff
fe01ff00fefffe0101fe000000fe0001fefeff0100fe0101ff0100fffe01ff000100ff010001fffefe01fe0000000001ffff0101ff00010100010101fffffffe
00000000000000000000000000000000000000000000000000000000000000000000000000000000000000000000000000000000000000000000000000000000
00ff0000fefe00ff01fefe0101000100ff010101ff0000feff01ff00fefefffefe0100000100fffefefefefffe000100fe0101000100fefffefffe010100feff
ff0000ff01ff01fffffe01000100ffff0101fffe010001ffff00ff00fffefffefe010001fe010101ffff0000010100ff00010101ff00fffffffffffe0101feff
fe000000fffffefefe0001ff01fe01feff0000ff0101fffe0101fffefe00ff01fefeffff00fefe01ff00ff01fffefefeffff01fe01010001fefffefefefe0101
00fe0000ff01feff0000fefeff0100010001010100fe01ff01fefe00ff0100ffff0101ff01fffe0101fe01fefffffeff010101ff010000fefefe010101fe01fe
0101000101fefefefe01feff00ff01ff01fe0001010001ff00fefffffefefe010100fe00000001ffff00fefefe0100fefefe01fe0001fe00fe01ffff00fe00ff
ff00fefe0101000100000101ff010000fe000100fe000101010101010101ff00fe00ff00ff00000100fe0001ff0000feff000001fe00feff01000101fefffeff
00ff01ff01fffe01000001fe01010100fefffefffffe01fffe0000fe0001fffffe000001fe00fffefffefe01fffe00ff0100ff01fefefe01fffeffff010100fe
00fffeffffff00000101fe0001ffff00ff01ff000000fe0000fefeffff0000fffefffe01010001fefe01fffffffffefefefffe00010001ffffffff000101fe01
00000000000000000000000000000000000000000000000000000000000000000000000000000000000000000000000000000000000000000000000000000000
