0101fe0000fefefefe0000fefefe00000100fe00ff00fefe00feffffffff000101fe01fffe0000ff000101fe0001fffefe0000feff010100fefe00fffe00ff01
ff00010001fe00feff00ff00fefe0101000101fefeff0101fe010101fe00fffffffefffeff01fefeffff0001fe01fe01fe01feff00ff00ff00010100fefe00ff
fe00fe01fefe00ff01fe0000fe0101fe01fefffe01fffffeffff000001000000010101ff01ff01fefefe01fe000001feff00ffff00010100ff010100fffffeff
fefffefeffff0100010001ff01ff0001000101ff00ffff000000ff00ff01fe0101feff010000ff01ff00ff0001feff01feff0001fefefefefe01ff0101fffeff
ff0000010100ff01010100ffff00fefffefefe01ff01ff0000ffff01000000fe0100fefffffefe010100000100ff01fe00fffe0100fefefe01fffffe00ff01fe
0100010100ff0100ff01ff0001fffe00ff00010000fefeffff01feff01000100fe010100fe0101fffe01000101fe00feff0001feff01fefffe010100ff0101ff
fffefeff0100ff00feff01fe01fe01fefffe00ff000100feff01ffff0100ff000000fe01fefe01fe00fffeff01feff0100fefffffefe00000000fefffefe01ff
fe01fe00ff01fe000101fffffefe01ffff01ff00fefe00fffffefe01fffe0101fe010100fffffffe0000fe01fefefe0000fefe01fe00010001ff000101ff0001
fefefefe01feff01fe00feffff0001ffffffff0000ff00010000ff000100ff0001fefe00000100000000ffff01fefefe00fe01010101fffe01ff0101ff01fe00
fe00010101ff0001ff00ff0001fe00000000fffe0100fe01fefffe00fffe01fffe01ff01fefe00fefffefeff01ff00fffe0001fefe00fefeffffff0101fe00ff
00000000fe000100fe0100fefeffff010000fefeff0001010000fe01fefe00ff010100000000000100ff00fe0001fe01fffefefe00fe01000101ff00fefffe00
00feff0000ff0001ffff00ff00ff0000ffff01ff01ffff00fe0100fffeff01fffefffe0100fffe0000fe00ff000100fe00fe0101ff00ff0100fffffefffe01fe
fe0100010101feff000001feff00feff0100ff00fe010000010100fffe01fffffe00ffff00ff01feff01ffff01ffff0000ffffff01ff00ff00fffe01ff01fffe
ff01ff0100fe00000101fe01ff01ffff0001ffff000101fefffefefe0000fffeffff000100fe0000ff01fe0000000100010001ffff00fefffe00fefeffff00fe
01fe00ff01ff01ff0100ffffff0001fe00ffff0000ff0101ff01fefffefefe0001000001ff00fefe00000001ff00ff00010101000100fe0000ff000101010100
000101ff0100ff010001feff01fe0001ff000100fe000001ff01fffe00fe0000ff01010101fe01fefefeffff00fffe00fefffeff01fffe000100ff00fffeffff
00000000000000000000000000000000000000000000000000000000000000000000000000000000000000000000000000000000000000000000000000000000
00000000000000000000000000000000000000000000000000000000000000000000000000000000000000000000000000000000000000000000000000000000
00000000000000000000000000000000000000000000000000000000000000000000000000000000000000000000000000000000000000000000000000000000
00000000000000000000000000000000000000000000000000000000000000000000000000000000000000000000000000000000000000000000000000000000
00000000000000000000000000000000000000000000000000000000000000000000000000000000000000000000000000000000000000000000000000000000
00000000000000000000000000000000000000000000000000000000000000000000000000000000000000000000000000000000000000000000000000000000
00000000000000000000000000000000000000000000000000000000000000000000000000000000000000000000000000000000000000000000000000000000
00000000000000000000000000000000000000000000000000000000000000000000000000000000000000000000000000000000000000000000000000000000
