fffeff00fe010101ffff01fffe0100fefefeff00ff01fe0000ffff01feff01fefe0101010000000101ffff01fe00feff010100fefe01ff01ff0101ffffff00fe
fffeff0100feffff00fe01ff00ff00fe0000ff0001000001fffefeff01fefe01fe00010100ff0001ff000000fffe00fefe00ff00ffff01000000fe0001fefefe
ff01000000ff01ff01fefe0101ff01ff0000000100ff01ff01ff01fe010101fffe01fffffefefeffff01fefefffe00fffefe01fe0001ff0001fefe0100ffffff
fe00feff0100fe01ffffff01ff00fffe0101fefffe01fefefe00fefeff01ff00010000ff0101010001fefffefffefeff01fe01fffefe01feff01fffffffefe00
0000fe010000ff000100fefefeff01fe00fe0100fe00ff00fefffe0100fffeff01feffffff01000001ff000001fffe00fefeff01ff010000fe0000fe01fe00ff
0101fffe01ff00fe0101fe01fefe01fefffefe00ff01ff0100fe00ff000000ff0000fffefefffffffffe01010101fe01ff01ff00fe0000ff000101fefe010101
fffe0100feff00fe0100feff01000101fe00ff0000fffffefeff0101fe0100ff00010100fffefe01fefe01fffffe0101ff0100ffff0101fe0000fffefefffe00
01fefe010000ff01fe00fe0101fe000001fe0001fefe01fffefe0101feff01fe00fe01ffff01fefe000100fefffffefefefefefeffff0101fe000001fefefeff
00000000000000000000000000000000000000000000000000000000000000000000000000000000000000000000000000000000000000000000000000000000
00fe0101010101feffff0101feff0001ff010000ff01000101fefffefe01ff00feff00010100ff0001fe010100feff00ff00fffefffe010101fefefefe0101ff
000101fffefffeff01010000fefe00ff00fe01fe000001fefefffefffffffe00ff0000ff0101fefefe01ffff00ff00fffe01010101ffff00ffff000000ff0101
fffe0001fefeff01fe0100ffff00fefe0101fffeffff01feff01ff010101fe0100fe0001fe000101feff00fe0100fe0001010100fffe0000ff0001ff00ff01fe
fe00fefffffefe01000100feff00fe00ffffff01ff00ffff01ff0101fefefeff000001feffffffff00ff0101000000ff000100fffeff01fefffffefe01fe01ff
00feff01000001000101fefffefefe01fffeff0000ff01fffefefeffff0000010100ffff0101fffe00ffff0000fffeff010000ff0101010101000000fe01ff01
fe01fffe010000fe01feffff01fe01ff01010101feff0100feff0100ff0101fe00fefeffff0001fe0000ff000101000000ff000000fffffefeff0001fe00ff00
fefeffff01ff00fe0000fefe00fefe00ff01feff0000ff0101fe01000101fe000101ff0000ff0000fe00fefe000001fffeff00fefe0100fffe01fefe01fe01ff
01fffefffe00ff01feff0001000000feffff01fe0100ff01ffff00fefeffff0101ff00fe00fe00fffeff01fffffe01fffffefffe00ff01fefffffefeff01feff
00000000000000000000000000000000000000000000000000000000000000000000000000000000000000000000000000000000000000000000000000000000
0001fe00ff0100fffffefe0100fe00ff0001ff01ff01fffe00fefe01ff01fffefe010100fffffeff01010100feffff000101ff01ff00fffffefffefe0101ff00
fe01ff0100feff01fe01fefefe0001fffeff01fefe00fe00ff0100fe00ff000100fffe010101000100ff01ff010101feff010101fffefffffffe01ff0000ff01
00fffe01fffffefeff00fffe01fe00fffefe00feff00ff0000fe010101fefefffeff0001fe00fe00ff00fffefffe0101fefe010000ffffff0000fe0001ff0000
010100feff0000fe0100010101fffe010101fefffeff00ff0000ff0101ff000101fefe01fefeff0101000100010100feff000000fffefefeff01fe0001ffffff
01fe00010100fefffe01fefffefe00fe01fe0101fefeff01ff000100fe01fe0101000001fe0101feff000101fe00fffefefffefe010100fffffeffffffff0000
fefefe01ffff00ff0101fefeffff00fe0000ffff0100fffeff0100ff00fefffefefefefe000001010001fffffefffe00ff0101fefffe00ff01fffe0101ffff00
ffff010000fefffffe010000fefe0101ffff01fefe00fefffe01feffffffff010101fffeff01ff01fefffffeffff01ff0101fefefe00010001fe0100fefe0101
ff0100fffeff0101fefefe01feff00fe01fe00fffefefffe01000101fffe00010100fe01fffeff01fffeffffffff000001fe00000001fffe01ff01fffe00ff00
00000000000000000000000000000000000000000000000000000000000000000000000000000000000000000000000000000000000000000000000000000000
