fffeff0000fffffe00ff01fe0000feff000000fe00000100feff01feffff00feffff01ff01fe000001ff0001000100fffe0000fefefe01fe01000100fefe00ff
010100fe01fffefffefefffffe0000fefe00fe01fe01fe000101ff0100fe01000001010100ffffff00ffff00ff00fe0001ff00fefefefeff01fe01fe01ffffff
fffefffe00fefe00ff00ff01ffff01fffefffe01fe00fffefffe00fe000000ff000101feff00fe0100fe00010101ffffffff00ff0001ff00fffe00feff0000fe
0101fefefefffefffe0101fffeff00fe00ff0001fffffefffffe0001ff000000fe01010000fefffe00feff00fffeffffff00ffff00ff000000ff0001fe0100fe
01ffff0000000100fe0100ff0000fe000001ff0001000000ffffff01fe00010101ff01fe000001000101fe01000101ff010100ff0001ff00fffe0001fe01fe01
ff01fffffefeff00fffe000000fefe01fe01fe000100fffe01fffeff01fefffefffefe00ff00010101feff000001ff010000fefe01feff0000fffe0100fffe01
00fe01fefe01fffeff0001ff01feffff01fffeff0001ff0001fffefe010000feff01010001ff0001fffe010101000001ff0000010100ffff0001fe0101fefe00
fefeffff00ff000001fffffffe0101fe00fe01ff0001ff01ff00feff0001fffeff0100ffff00fffefe01ff00ffff01ff01fffe010001fffeffffff0001fffefe
00000000000000000000000000000000000000000000000000000000000000000000000000000000000000000000000000000000000000000000000000000000
01fe00fe0001ff000100ff00fefe01fefeff01ff0001ffff000100fffeff01fefffe000001010001fe000000fffe01fefefe00ff000100fe010100fffefefeff
fe0001010001fe0000fffefefe01fffffffe0000fe000001ff000000fe010000ff00ff00ff00000001ff00fffefffffffe01fffefffe000000feff0000ff0101
01fe01fffffe01feffffff0001feff0001fe0000fe01000100ff010100fe01fefefe00ff0100ff0100fe00fefeffff01fffefffeff0000fe0100000000fffe00
ff01010100fefefe000101fffffe010101000000feff0000ffff00fe00fffefefe01fffefe000001fefefffe00feff000100fe000001ffff010000ff00ff00fe
fe0101feff00010000ff0001ff01000100fefeff00feff010101ffff01fe00feff000000fe0001fe01fe00fefefe00fe00ffff010100fe01ffffff00fe01fffe
ff000001fefefe00ffff01010101fe000001ff00fffefefffffe0000ff00fe0000fffefeffff000100fffefe01fefffeff0001fffffffefefffefe0000ff0100
0000010000fffe01fefefefe00fffefefefffe00fe01fe01ff00fe0000fe01010000fe00010001ff00fe00010101fe010001fe01ffff0000fefe00ff01fefe01
fe01010100fe01ff0000feff00ff010100fe01000001fe01fefffeffffff000100fe01ff01fefefefe01feffffffff01000001ff00ffff010100000100ff0001
00000000000000000000000000000000000000000000000000000000000000000000000000000000000000000000000000000000000000000000000000000000
feff01ff01010101010000000101fe0000feffff0000fefffefe0000ffffffff0100ff01010000010000010000fffe01ff010000ffff000000000101ff00feff
00fe01ff01000001fffe01fefe01feff01ff0100ff0100ff00010100fe01ff00010101ff0000fe000100fffe01ff000001fffe0101ff0100fffefefe00ff01ff
0000fe0100ffffff01010100feff010101fe00ff0101000101fe010001ff00feff0000ff01fe01fefeff000101fffffe0101ff00fe0001fffeff0101fe01fe01
fe01fe00ff0101fe00fe01ff01fffffe0100fefffefe00fefffffe0101ff01fe0100fefe01000001fffeff0101feff00fe0000fffeff010000fffffe0001fe00
0101feff0001ffff010100000000ff00fefe0001fe00fffeff00fffe000101fe00fefeff0101ff01fffefefeffff0101fe01fffffefffefefe0001feff010001
ff01fe0100000000ff01fefe01fffe000001fe0101fefefe00feff0100fefe000101000001ff0000000100010001fffefe01ff01fe00fefefeff00fe010101fe
0000fefeff01ffff00ffff0101fe01000101010100fe01feff00fffe00ff01fffffefeff00010000ff01ff01ff0100fffefffefefefffffffe01ff0101ff01ff
ff01fe000101fe0001010101fe0000ff00fe00fe0101fe00fe01ff0000fffefefffe0101ffffff01ffff01000000ff0000010001fe010101fefe0100ffff0101
00000000000000000000000000000000000000000000000000000000000000000000000000000000000000000000000000000000000000000000000000000000
