0100ff000001fefffe010101ff00fe010000ffffffffffff00010001000100ffff01fffe0100fffefe01fffffe01fefeff0101ff01fffe0000ff0000fe01ffff
fffe0001fefefeff01fefefffefefe00fffeff01ff01ff0100ffff00ff00ff00010000ff0001fffe010001fe0001ff0000fefeff00fffefffe01fe01ff01fe01
01ffffff000101ff0000fffe00fffe00ff01fefefefefe0100000001fefeff00fefefefffefefefe01fe01ff0101ff010101fefe01ff01ffff00fe00fffeffff
fefe01000101fffffe00fffefe01fe01ff0100fefe010100fffefefe01000000010000fffe01ff01fffffffe00010100fe0100fe000100fe01ffff0001fefe00
