fefe01fffefffefffefffeff0100ff00ff00fefefefe01ff00ffff01ff0101fffe00ffffff0100000101fe0000fefeff0101fe0100ff01fe00ff0101fffffe01
fefe01000100fefefe0001fefffe01fe01fe01fe010001ff00fe000001ffffff01fffffe0001010001fefe01010001fffefe01fffefffefefeff010000fe00fe
00fe010100fffffefefefefefe00010001fe000001010101fefe01fffe01fefffeff01ff00fefe01ff01fe01fefefe000101ff00ff01fefefeff0000ffff0000
ffffff00ffffff010001ff01feff00010001fefe0100fe01fe0001fffefefe00ff01ff0000feff01ff000100fffe01ff01fe01fffefeff0000fe00fefe000100
fe000001010001ff0101ff00ff000101fffe00feff000101ff01010000fffefe010000fe0100feff00feff00ff00ffff000101fffe00feff0000000101fefffe
ff01ff01fe0100fffffefffe01ffffffffff0101fefe00fffeff0101000000ff0000fffe01fe01fefefffefe01000001fe0100feff00ffff01fefe00fe010001
fffffe000000fffefffe00fe010000010000ff0101fffe010101ff00ffff0101010100fefeffff00fffffefefffe010101ff00ff0101fe00fe00fefe00fefefe
01000000fe00fffffffeff010000ff00ff00ffff00fe010001ff00feff000100000100010100ff01fe0100ff01ff00fe00ff01010001ff0100fe01feffff0001
fe00ff00fffe00ff00fe00000001fefefe010100000101000001fefffeff000101010100fffefeff010100ff01feff000001fe0001feff01fefefe00fffffe00
fe00fefe0101ff00fefe0101fe000000010001ffff00fe00010101ff01fefefe00fe0001ff00ff01010101fffffffeff00ff0101000000ff0101010000fffe00
ff00ff010000fffeff01fefe0001fe00fffe00fefefefe0101fe010101ffff01fffe010101ff00fffffefefefe00000101feff01ff01ffff00fffffffeff0001
00ff01fe000101ff01010001fe00ff0101ffff000000fffefe010101ff000001fefeff010100ff01fe000001fffe0000fefe01fefeffff01fffffefefe01fe01
0101ff00fe01fe00fffefe00ff0101fefffefefffe00ff00ff01000000fe0100fefefe0000ff00ffff00fe00fffe0100010100fefffe0000fffefffefffffe01
01fe000101fffe010101ff01fe0100feff01000101fffe0101ffffffff00fefefe0000ffffff01ff01fffe01000001fe01010100fe000000ff010101ffffffff
000001fe01fe00010000ff0101000000fe01fe000101feff000000fffefe00ffff00ff0100ff000001fe00ff01ffff01010101fefffe01fe01ff01fffeff0100
fe01fefe000101ff0100000101ff00ffff00feff00fefefe0101fefefeff0000fe00010000010000fefe0100010000010000fe0101fefe00ff0001feffff00fe
000101ff01fffffe0001ffff01010000ff01fe01ffff00feff01010000feff000001ff010000fefeff01010000010001feffff00fefefefeff00010001fe0100
00fefffeff01fefefe01feffffff00ff01ff010001fe00ff01fefe010000fffffe01fe00ff0100feff010001fffe01fffe01fefe01ffff01ff01000000010000
fe01010000fffefffe0100fffefffffffe0101fe00ffff000000ff00fefffffffefeffff00ff00fefefffffffffffe01fefe01fe0000ffff01ffff0101fffe01
fe01ff00ff01fe00ff0101ff010001000100fefefe0100fffeff00fe0000fe000001fe0101fe00fe01ff00fe00000101ff00fffe00fe00feff00fffe000000ff
00fefeff01ffff00feff00000100fe00000001fe00fe0100feff01fe00fe000101feff00fefeff010000fe010001ff01ff010101fe01fe000101ffff01ffff00
01fefe00000101ffff00fe01ff00fffe01fe010101ffff0001ff00fe00010001010100fefeff0000fe01fffefe01fefe00ff00feff00fffe00010101ff000000
01fffe00feff01ff01fffe010001fe01fe0001ff00fffe00fefe00fe0001fefefffffefe0001fefe01feff01fe010101010000fe00ff010100010000010001ff
0000000101010000000000000101ff00ff01fffe0000fe01fe00fe0100feff00ff01ff01fffeffff010001010001ff00000100ff000101fe00fe00fe0101ff00
