fe01fe01fefefe00fefe010100fffe00fe01ff010100fe01ff0000fefe000101fe00fefffffffefe01fe0001ff00feff0101fffffffe01fffffefffefefefffe
feffff00fefffffefeffff00fe010001fffffeff0001fffefffeff0001fe0001fffefffffffe0000fffefffe00fe0000ff01fffeff00fefffe0001fe00ffff01
00feffff0101010001000001ff01feff00fe000101ff00000101fffeff010101ff0101010000fffffefffefffffeffff0000ffffffff01feff0000fefe00fe01
01000101fe0100ff01ff01fe010001010001fffefe010001fe00fffe01fe0000fe0001000100fe00ffff00010101ff00ff0100ff01fffeffff000101000100fe
