000100feff000100fe0001010001ff0100ff01ffffff000100fefe01010001fefefe00fffeff01fffe0000ff00fe01010000fe00fefe00ff0001ff0100ff0101
0101fefe0100ff010000fffefffe0000ff0101000000fffefffe01000000feff0101000101ff00ff010100ff00fffe00010101fffe01fefffe01ffff0001fe00
ff0000feffff01ff00010001ff010101fffffefffefeff0001000000ff01fe01fefe0001feff0101ffff0001000000fe0101fe00feff00000101ff01fefe0001
0000ff0001ff00feff00ff00fefe00010000fe01ffff0101ff000100fefffe01fffe0101fffeffff00000001fe0000ffff00fe010100feff01ff00ffffffffff
0001fe0100fffe00fefeff00ff00fefffffe0000ffff00ff00fffefffffe00ff000000fe00fffefe00fe010100fe000001fe010001fffeffff0100ffff01feff
0000fffffefffefe00fffe01ff0001fe00fffffefefefe000000ff00fe01ff000101010100feff01010001fe00ffff0001fefefeffff0001ff0000fffefe0000
fffffefe0000ff01fe010001ff0101fffe0001ff01fffefefefeffffff00fffefe01010100ff0100fe0001ff01feff00ff0000010001ff0000000101fe00fefe
00fffefe01fe0001ffff000101fe01ff0101fefffe0100ff010000ffff0001ff00010000fe0101fe01fe00ff010100fe0000fffeff000101010000ff010000fe
010100ff0101fffffe01fe010001fe0100fe01fe01fffe0001fe00ff00010100fe01fffffefe00fefe0101ff010001fffe0101ff00000000fe00000000fe0100
feffff01fe00fe00fefe00feffffff0000000000fe01fefe000001000001fefe00fe01feffffff00fffefffefffeff00ff01ff00fffe01fffefefefffe00fefe
01ff01fe0100ff0000fe0100ff0000feff0101feff00fefffefe0001fe00fe0101fe00ff0000ff00fe0100000000fe010000ff00ff0001fefefe01ff00fe00fe
fe01000101000000ffff00ff00fefeff00010100ff0000fe0000fefefffe01fffe00ff0101fe00fe0000feffff01feff010000fe01ffff01feff010101fe0000
01fefffe01fefe01ff0000fefffefffe0100feff0001010000fe0100ff01000001fefffeff0101000000ff0001fffefefe0001fe0101fffefe0100000000ffff
00fffeff01000101ffff010001ff000100ffff01ff00fe00ff0000fe01fefffe0101ff01ff0101fffefffffefffeff000100fffeff01fefe0101fffefe01fe00
00010000fe00fe00010000ff00fe00ffff00fffe00fefe01ff01fe00ff010001feff0101fe010001ff00ffff000001000100fefefefffe00fefffe0001010000
fe00fe0001fe000100fefeff00fe0000fffffeff00fefefe0100fefffe0001fefefe00ff00000100fffffffeff00000101ff000000ff00fe00feff0100fffe00
ff0100ffff0100fefe0000ff01ff010000fffefefe00fe01fe01000000fe00fffefeff01ff01fffe000001ff00000001ff01010001fe0101fefefffefeffff01
01ff0101000001ffff0000fe0001ffff01000101ffff0101010101010001feff010100fefffefe01fefffeff01010001ffff000100fefffe00fe01ff01feffff
fffe00ffff0101fe000101fe01ff01fffffeff0101fffeff01010000feff010001ff000101ff010100fe010001ff0000fe01ff00ffff01fe010100fe010101ff
0000ff00feff00ff0100fe00ff01ff0100fffffffffffe000101010000ffff010000fe000001fefe000101010000fe0000fefffffefefe00feff00feffff0101
fffefefe01fe01ff00000000fe01ff00fefffe0000fefe01fefeffff01feff00fe00fefffe01ff00000101ff010100fe0100ff0000010101fffffe00000001ff
ffffff0001fffe00feff00fe01fefefffe0101fffeff00fe00fe000001fffeffff00ff0101ff0101000001fffeff0100ff00fe01fefe00ff000001fefe010101
fe000000fffeffff00000100ffff00fe0000feffff0001ff0100fefe000001ff0000feff000100fe00ff010001fffefefe000101ff00fe01ff00ff00010101ff
01fffefefffffe00ffff00fefefefe00ffffff0101000001fe0000fefffe01fffe00feff010100fe01ff01fe01feff010001fefefefe01feff0101fefefefffe
