ff0101fffffefffffe00ffff0100fe00ff0101feff0000ff01ff010000ffff00fe00ff01fffe0100ff00fe00fe00000000fefefe01fffeff01fffefefe000100
ffff00ff0100fe000101ff01ff000001000001feff00fe00feff000001ff0000fe01fffefffeff00ff01fefeffffff000101ffff0100fffe010100ffff01ff00
ffff0100fe000000fefffe00fefefe010001fefefe00fffffe00000000010000ff0100fe01fffe01fffefefffeff00fefe0101ff00fffffe01fffffffffe01fe
feff00fefe01fe010100fe0001ff0101ff00fffffe0001010000fe010001ffffff01ff01ff00fe00ff010100fe000001fe000101000000fe010101ffff000100
0101feff0101fefeff01ff01ff0000ff0100fe01fe00fe00feffff00000100ffff00ffff01fffe0101ffff01fefefe01fffe0100fe00fffffe01fe00fe010101
01ff0100ff0000fe01010000fe0000000001fe000000fefe01ff000000fe00010100ff01fe0001fffe01feff01010101fffefefe0100fefffefe000000fe0001
ff010000fefffffffe00ff01ff0101feff010100010000feff0101fe01ff0001fefe0001fe01fe01fe01ff00ff010001fe000001fe00fefffefffefe00fe01ff
01fffe01fefffe0100ffff0001fe01ff01fffe0101fefeff0101010100fefefe0001fe010001ff00ff00ffffff01fe000101fefe00ff000000fe00010101fe00
fffe00fe0001ffff00fffe01fffefefe01ff000101000000feff00fe00000000010001fefefe0000fe00000101000000fe0001fe0000fe00fe00ff000100fffe
fefe00ff00ff010100fffffffefeff01ff00ff01fe01fefefefe00fefefefefe00fffefe000101ffff01ff01feffff00ff0001ff010100010000010101ffff01
0100fffefe01ffffffff0000010001fe00ffff01fe01ffff01fe0001ff00fefffefffe00ff0001fffe01fefffeff00fffe0101fffffe0000ffff00ffff00fe01
00fe010000fe01ff01000000ff0000fefe01ff00000000feff0001fe01ff00fefffefffe0001fe0100fefffe000001fe01fefeff01010100010101000101ff01
ff00ffff01fe00000001ff0100fefffffe01fe00fe01feffff00fefffe0001010000ffffff01010001010101fe01fe0101fffefefffffffeff01000000000001
ff0100fffefeff00000000fffe0001000001feff010001fe01000101fe0100fffefe0001ffff00fe00fefe010101ffff0101feff0101ffff01000101ffff0101
fe00010000ff000001ff01fe010100fffefe00000101fffffe010101feffff00fe0000fffe01fffe0101fefeff00ff01010001fe01fe00ff00fefe0100ffffff
fffeffff00010101fefeff01fe000101fe00ff00ff0100fe01010000010000010001010001fe0001fefefffefe00fffe01fe0001fe0000ff01010001fefe01fe
