fffefe0101000000ffff01fe00fffffe00fffe0100ff01fffe01ffff00ff01fffe010000fffffe0001ff00ff01ff000000fe0000ff01ffff01fe0100fe0000ff
0101ffffffff01010001fefffffeff0100ff00fffffffefeff0101000100ff0100fffe01fe00fe0101ff010001ff0100000101fefefefe01ffff01fffe000100
00ffff00fefffe0000ff01ff000101fe000001010001ff000001ff0100010101ff0000fefffffe01ffff010000fefefefe00fffffeff00fefefeffff0000fe01
ff010001ffff0000fefeff010000fefffefe00010000fe01ff00feffffffff0001ffff01ff01fffefeffff01fe00ff01fffeffffff000101ff00ff01fffefeff
01ff00010101fefefe0100ffff01ffff00fffe01fefe0100fe01fe0101fffe0000000001ff010000ff01fefffe0000fefe010101ff01fe01ffff00fe01ff00fe
fffefe00ffff00010100fffefefffefffffeff010100ff0000feff01fffffe00010000ff01fe01ff010001fffe00010000ffff00fe01000101ffffff01ff00ff
01fe00010101feff010100000100fffefeff00fe010001fe00010000fe0001fffffeff00fffe01ff01fffffeff00fe01ffff01ff000001fefefe010000feff00
01fe00ff00fe00fe010100ff01fffffefe00000101ff010100fe0000fffe0000000001ff0000ff01000000ffffff00fe0001fefe0000fefffffe000001fe01fe
0000fe0001feff01ff00fffeffff00ff00fe01000001fffe01ff010000fe0101fe010100fe01ff0000fffefffffe0001fefe000101ff000100fe00fe01010000
fffe01ff00ff0100ff01ffff00ff0000ffffff00fe01000100ff01ff0001ffff01fffe01fe00fe00fefeff00ffff0000ff0100fe010000ff0100feff0100fe01
01000101fefe0000fefe00fe000000ffff0001ff01ffffff0100fe000100fefefeff00fffefefefe01fe01fffe00ffffff00fe000000fe01fffeffff000001fe
fe01fefe0100fffefefe00fe000001fffffeff01fe0100fe01ff01ffff000000fffefeffff010100fe01fe00fe0001ff00ffff000001fefeff01fe00feff00fe
00fe01fefffe01fffe000101fefeff01fe010000feffff010101ff0100fefe0000fe000100fefe01fe01fffe00fffffeff0100feffff000100fffeff0000fffe
00ff01fe00010100fffefe0001fefefe0001fefe01ffff000000fefe000101000000fffeff000101fffefeffff01ff01fe000100000000fe01ff0100fe010100
01ffffff0100ff0100fe0001ff01feff01fefe0100ff010001ff00fe010101ffff01fffe00feffff01ff01fe00ff01ff01fefe01fe0001ffffffffff00fffefe
ff01ff0101fffeffff0000feff00ff0001fefe00010001feff0100fe01feff0001fe0000fefe010001fffe01ff01000101fe00ff01ff01fffffefe010001ffff
00fffe0101fe00000100fefe01ff00fefefffefe00010100010001010100fe01ffff0100fefe0001ff0100ff010001ffff000000feff0100000100000101ff01
feff00ff00fe01fe01ffff0101fe0100fefffe01fffe01fefe00fefe0100fffffeff0001ff0100010100fffe01fe00ff00fe0101fefe00ff000000fefffefe00
fe0001fffeff00fffe00feff000001ff01fefeffff0000feff01010001ffff0100ff00fefffffe00feff0001ff00010001010001fe00010000fefefe0101fffe
ff01fe0101000001ff01fe0100ff01fffefefffffe010000ff0001fefe00fefffefeff00fffefffffffffe0101ff0000000000ffffff00fefe000000feff0100
ff000000ff010001fffffefffefe010000fefe0101fffe01ff01fefffe0100ff00fe010001fefeffff0000fe00fe010100010001ff010100ff00ff000100fefe
01ffff0100fe0001fefffefefe000001fffe0101fe000101fefffffefefe0001ff0100fefeffff00fefe00feff0100ff0101ffff0001fe00fffefe01010100ff
fe00ff0000fe01ff010101ff000101fe0001fffeff01ff000000ff0001fefefeff01ff01ffff00fefefffe01fe01fffe01fefefefeff01ffffff01000100fe01
01fefe0100fe0100ff01ffff01fe0101ff01000100fffeff0001ff00fefffe0001fefffffffe01fe00fffe01fe0100010001000000fe00010001fffefe0000ff
