fefffeffff000100010001ffff01fe01feff0001010000feff010000ffff00ff010101fe000101ff01fffe00fffffffffffffefefe01fffffe00fe0100010101
fefe01000001ff00fe0000fefefeff00fe00fefffe0001feff00ff0101ff00fefefffe01fffe01fe0000feff00ff010100fe00fe0001fe0000ff00ff01fefffe
feff0100fffeff010101fffe0000ff01fefefffe00000100fefe0000feff00fe01ff01feff000000fe0001fefeff01ff0000010001fe0000000101ffff00ffff
feffff0101ff010000ff00fe0100fefffeff00000001fffe0000fe00ff0100fe010001fefeff00ffff0101ff010001ff01fffffe01fe010001fe0100feff0000
fe00fffffffe01fffefefe010000fefefe01010001fe010000fffe0001fe01fffefe01000001feffff01000000fe00fefe00fefefeff000001ffff00000001ff
feff01010000fe01ff00ff0100ff01ff00fefefe0000000101feff01ff01fe00000001000001fffe01feff01fe0100fe00fe01fffe0100fefe0101fe00fffe00
ff01fffeff00fe01fffffffe0000000000010001fffefffefe00ff00ff0000010001fffe01fefffe01fefefe01feff000001fefffe01fefe0100fffefeff0100
ff0100fe01fe00fefeff01010000ff0101fe00fffeff01fefffffffe00000000000101fefeff010101fefffeff010000fe0100fe00feff00ff00fe0000fffeff
00000000000000000000000000000000000000000000000000000000000000000000000000000000000000000000000000000000000000000000000000000000
00fe01fefe010000ff0101fe00fffe01fe0001fffefe0000ff00000000feff000000fefe000000fffe0100fffeff0001fefefffe00fe01fe01010000fe0001ff
010100000100fe01fe000001000100000100fefefe01ff00ff0100fffffe01ff000000fefeff0001fffefffefffe0001000101fe0100fefefefffe00fefeff00
fe0100fe00fe000000010001010000010001ff010100ff0000fe00010101fefffe000001ff01fefffeffffff0100fefe000001010101ff0101fefefeff00fffe
01010000fffe00ff000001ff01ff00fefffeff0000feffff01fe000001ffff0001fffefe01ff00feffffffff00fefeff01ff00000100fffeff0001ffff010101
000000fe01fefe01fefefe01fe000101fe00fffefeffffff00ff01fe000000ff00ff0101ff00ff0000000001ffff0100010100ff0100feff01fffeff00fffe00
fe010001feff0001fffffffeff01feffffff0101ff0100ff01fffffe01fe00010100fffefffe0000ff000001fefeff01ff00ff000101fffefefe0001000100fe
ff01fffe0001fefe01fefefffe0001ffff0101fefeff00ff01fefe01010001fefe0001000001ff00ffff00fefe0101010101ff0000fefe0001010000fe00ffff
01fffeff0001ff0001fefefefefe01fe0101fe00ff01fe0000fefffe00ffff010000fe00ff01feff0000fe0101000100fe00feff01ffff010000ff01ff00fffe
00000000000000000000000000000000000000000000000000000000000000000000000000000000000000000000000000000000000000000000000000000000
fe0000010000fefe010101fffefeff01ff00feff01010101fe000101010001ffff01ff00ffff0001fffefefefeff00fefefffe01feff01ffffff0000fefefe01
fe00ffff00fefeff000000fe0101ff0101ff00010100ff0000feffffffff00010100fffe01fe00fe0101fefe01fe0101fefe0100ff00fe01ff01010001fffefe
01fe01ffff000001ff0001fffefefffe0000ff01feff00ff0000ff000101fefefe00fe01fefe0000fffe01ff01ff0101fffefeff00010101000101ff000001ff
fefe01fe01010101ff00fefeff00010100fefe01ff00ff00ff0101fe01ff0001ffffff0001fffefefefffe00fffe01ff000100fffe01fefefefe0100ffff00ff
000101ffffff01fe0100fffe0100ff01ffff0000ffff01ff01ffff00ff00fe01ffff00fe000101010001fe01ffff0100ff00ff01fe00ffff01fffefe000101fe
00fefe00ff01feff0100fefe00ff0101fefefefefefefeff0000010101feff0001fefe000101fefffffeffff00fefe0100fe00ff01fefffeffff0000000000fe
ff01fffffe00010101fffe0101feff01fffefffffeff0001fe00ff0001ff010001fffefe0000fefffe01fffefe0001fefe0001fe000101fffefe01feff00ff01
00fffe010100fe01fffe00ff00ffff01fe00ffff0101ff00fe0001ffff0100ff01fffffe01fe00fffffefffffe0100010000ff000000fffe0101fe00ff000000
00000000000000000000000000000000000000000000000000000000000000000000000000000000000000000000000000000000000000000000000000000000
