ff01fffe00fefffffefeff00010001fffe01ffff00fefe010101000000feffff00ffff0001fe000100ff0100fe01010000ff00fefffefefefe000101fefefffe
0100ffffff00fefffffffeff010000ff0000ffff00fefe01ff0000000100fffefeff0101ff0001fffeff000001ffffff01fe01010100fe0100fe01fffe01ffff
fffffeffffff01feff00ff01fefffe01fe0000fe01010000fffffefe0100fe01fe01fefefe01fefffefe010001fe00000000fefe000100fe00ff01000101fffe
fe00feffff010001fe0001fe010100fffeff0100fffefe00ff000000fefefe0101000100000100fe00fe00ff0000fffe0101000100fe00fffe00ffffff0001ff
feff00fefffefeffff00fefe01feff00ff01ffff0000000101fe00fe01fefe01ff01ffff010001feff000001ffffff01fefefe0101010100fffffe00ffff00ff
ff00fffe010100000100ffff00ff0000ff000000ff0100010101ff010001010000feff00010000feff00010000ff0101feffff00ff00ff01fe00fe01feff00ff
fe01ffffffffff00fefffefe01fffe00fffefe01fffe01fe01ffffff000001000000fe00fefefefeff0100fffefeff01ffff010000fffffefeff01ff00fe0000
fffefe01fefe01fefefffffefefe00fefffffefffeff00fffe00fefefe0100fffe01fffeffff00fffefe0001ffff01ff00fe0000fffe00fffe00fe01ff0101ff
00000000000000000000000000000000000000000000000000000000000000000000000000000000000000000000000000000000000000000000000000000000
feff01ffff0101feff01ff010001fe00fefe010001fe0000fffefefffe0101fffefefefe01fe00fefffffefe00000000fe0001ff0100fefe0000ff0101ff0000
00fffffffefffefe00ffffff00feff01fe00ff0001fffe01fffffefe0100fefe0100ffff01fffe01fe0000feffff0101fefffeff01fe000000fefffefe00fe01
feffff01fe01ff0100ff0101010000fefefe00fefe0001000101ff000000ff000100ff00feff01fffe00fe0000fe000001fffe000101feff00fe01010000fe00
0001ff0000ff00fefe01ff000000fffe000101010000ff00fffffefffefe0000fe0000fefefefe01ff0101fe00ff00fffefe010000ffff01fefe0000ff0001ff
feff0101feff010100fefeff0000010001ffff00fefe0101ffff0100feffff000100ff00feff01fffe00fe0001fefe00ff000000000001000100ffff0100fefe
fffffe01ff01fefeff01fffefe01fffe00fefffe01010100fe0100010001fffe01fffefefefe00fefe01fefeff0101ff00feff00fefe01fe00fe0001ff0100ff
01fffe010001000000fffefeff00ff0101fefffe01ff00fe010001ff01ff01010000fe010101000101fffffe0100ffff01000001fe01010001010101fe000100
00ff00fffe000001ff01fe00fe000001fefefefffefe01fefe00ffff01fffe01ff01fffffefffeff00fe01fe00ff010001ff000100ff00ff0101000001fefe00
00000000000000000000000000000000000000000000000000000000000000000000000000000000000000000000000000000000000000000000000000000000
ffff0001ff0001010000fe01ff0001fe00fe01ff01ff0001ff01ffffff0000000001fe0000fe010101fefe00fefe01fefffffe00ff0000feffffff01fffeff00
00000001ff00fe000001fe0100ff0101ff0100000100ff00fffffffefeff01fe01ff01fefeffffff00fefe0101ff0101010100ff0101fe01ff0100fffe01fe00
01fe01fffffe0100fe01fe00ff000101fe000001fffffefe0000ffff0000fe01ff01fefefffffffe00ff00feffff00fe0101ff01fefe01ff00fe01feff01fe01
00ff00fe00fe01ffffff000101ff00000101ff01fffe01fe01fe00ff000101fe01fefefe0101ff01ffffff0101fefffffe01fe0000ff00000101ff00feffff00
00010001010000fe0100feff01fe00fffefefe01fffe0100fe00fefe01ffff00fffefefefe00fe0000fe000101fe00010000fe0000fffefefeff0001010001ff
0000fffefe0101ffff00fffefe010101fe00ff010000fefeff00ff00ff00ff00ff01fe00ff0101fe0101ff00010001ff0000fefe0001fffffefe00feff010101
fefe0101fefefe00010000fefffefe00010001fffffefefffefe010000feff01fffeff00010001feff00fefefe00fffffe000001ff00fe0001fe00ff0001ff01
0101010100fe00fe01ff000100fe0001fefefeff00fe0001fe01ffff010101000000feff01010001fe010101ffff00ff01ff01fe01fefe010100fe0001ff01fe
00000000000000000000000000000000000000000000000000000000000000000000000000000000000000000000000000000000000000000000000000000000
