0001fefffe010101fefe01ff0000ff01fe0001ff000000ff0000feff00fe00010100ffff010100ffff00ffff00fe000100fffffe01fffe00010101fffe0100fe
01fe00000100ff00010101ff010100ffff0000fefe00fffe01feff000100fe00fffffffffffe0001feff01fffe0000ff01ff0101fe000000000001fffe0100ff
00fffeffff0001ff0000000001fe00feff00fe00000000fffefe0001fffeffff000101fe01fffeffff0100fffffe00feffff0101000000fefffefefffe0101fe
0101ff00fe00010001fffffffeff01010001fe00ffff010000fefe0000ff000100fe00fe01ff00fe00ff01ff01ff01fffefffeff00ff0101feff000000000100
01ff0101fefffefe01fffe00fffeffff01000100fe01fe01fefe01fffeff000001fefeff0101fffffe0101000001fe0000fe010000fe00fffffefefe00fffffe
fffeff00fefe0000ffff0001fefe01fe000101ffff01fe01fe01ffff01ffffff0000fffefe01fe01fe00feff01fe00feff0001ffff01fefeff01fe00ffff00fe
fe00fffffffefffffe00fffe01feff0101fffe00ffff00fe000000ffff00fe0101ff000001fefe01fe01fe01fffe000100feff010100feff0001fe0100fe0101
00fffe0100fefefffe01ffff0000fe0101fe01fe0101fe01ffff00fe00feff0101ff00fefeff000000ff01fffefffe00ff01fefe0100ff00fe010000fefeff01
00000000000000000000000000000000000000000000000000000000000000000000000000000000000000000000000000000000000000000000000000000000
fe01fe010100fffffe01ff010101feff0100fffeff01fefe01fffeff00fefffffe0001fefefe00000000fffffeff0100fe00feff01010100fffffe010001fe00
fefeff01fe00ff0000ff000000010001fe00fe00000000ff01fffffeff00fe0101fe0000fe0101ff000000feffff010101000001fe01fe0001fffe010101fffe
ff00ff0100fefefe0001fffffe010001ffff010001ff010001fefe00fe0001ff00fffffefefffe0000fefe0001000101fe00fefe0101010001feff00fe000000
0100feff00ff0101fe0001fefe01fefefe0001010001fefe00ff010001fffffffe0000fe0100fe00ff010101fefefffeff00fe00feff00ffff01ff00ff00fe00
ff0000ffff00fefe0001ff0000ffff000001fe0100fefe00fefe0101fe010101fe01feff0100ffff00fe01feff0001010001ffffffff00fe0001fefffefefefe
00feff0001ff00fe00fefffe0000fe00ff0001fefeff0101fe01010101fefefefe00feff0100000101ffff01ff01fe0101000100000101fffffefe000000ffff
fefe01fefe00ffffff00fe0101ff00ff01000001fe0001fefe01fefffefe01ff01fe010001fffffe01fe01010100ffffff0001ff010100fefffe01fefefe00fe
ff01ff000001ffff0001fefffefe0000feffff01fefe0101ff01010001ffff01fffe0001fe01fe00fe01fe00fe0001ff00ff00fefe00fffe01ff000001010100
00000000000000000000000000000000000000000000000000000000000000000000000000000000000000000000000000000000000000000000000000000000
00000000000000000000000000000000000000000000000000000000000000000000000000000000000000000000000000000000000000000000000000000000
00000000000000000000000000000000000000000000000000000000000000000000000000000000000000000000000000000000000000000000000000000000
00000000000000000000000000000000000000000000000000000000000000000000000000000000000000000000000000000000000000000000000000000000
00000000000000000000000000000000000000000000000000000000000000000000000000000000000000000000000000000000000000000000000000000000
00000000000000000000000000000000000000000000000000000000000000000000000000000000000000000000000000000000000000000000000000000000
00000000000000000000000000000000000000000000000000000000000000000000000000000000000000000000000000000000000000000000000000000000
00000000000000000000000000000000000000000000000000000000000000000000000000000000000000000000000000000000000000000000000000000000
00000000000000000000000000000000000000000000000000000000000000000000000000000000000000000000000000000000000000000000000000000000
00000000000000000000000000000000000000000000000000000000000000000000000000000000000000000000000000000000000000000000000000000000
