0100fe0001fe00fffefe010000ff00fefe00feff00010101000001fffeff00fe00fe0000010000fefeff0101000101000001fefefe01010101ffff0101fe01ff
0100fffe000100fffe01fffe0100010100ff010100fe0001fe0000fefe01fe010100010001fefffe010100fefefffe00fe0100fe00fe00fffefefefeff01feff
ff00fefefe0001010100fffffe01010100ff0100ff01000101fe01fe00fffffeffff010001feff00feff0100ff01ffff0100fe0100ff00fefefffefe00fefe01
0000ffff01ff01fefffefeff01feff01feffff01fffffe01010000000001fe0001ff00fefefe00fe01ff000000ffff0000fefe0001fe0100ff01ffff0001ff01
