00ffff01010101ffff0001fe0000fe00010100ffffff0101010100feff0101feff00feff0100fe010001ff01ff00000001fefefeffffffff010000feff00ffff
fe01fe01feff0101fefffe0100fefefefefe00fe00fefefe010101000000ff00fffe010001010001fe0101feffff000101feff0100fffefe0100fe0000ffff01
fe00fe000101fffffe00fffe0101ffff01fefe00ff00feff01fffefeff0000fefe0100fe0101ff01ff010100fffeff01000001fe00fe00fe0001000101ffff00
0101fffe00ff01010000feff0101fffefffe01000101ff0100fe00fffe00fffe01ff00fe00fe000100fe0001ff00000000fefe00010000ff010000fefe01ff01
ff010000fefffffefffefefe0000fefefffffe0001fe01010101fffffefffffefe000001ff0001ff01ff01fe01010100fefe00000100fe010101ff01ff0100fe
fe0101fffefeffff00fe000001fe0100fe01fe00fefefffeff0000ff0101fffeff00fe01feffff00fe01000001ff0101fe0101fe000001fe0000fefefe0100ff
fefe00000101fe00ff0101fe01010100fe01fe01fefefefeff0101ff00fefe010100fe01ff0100fffffffe00ff0000fffeffff0001ffff01fffeffff01fffe00
fefe01ff00ff0001fe00ff01fe000100ff00fffefe0000fffffe01fffe0000ffff01010101fffe00fefffefefefefe010001ff010000fe010000feff00fe00fe
00000000000000000000000000000000000000000000000000000000000000000000000000000000000000000000000000000000000000000000000000000000
ff01ff01feffff0100ffff00fe010001fe01fe00000100fefe0001ffffff000000000000fe0101fe01ffff0101fe01fefe0101fffefffffe00fffefe0101fffe
fffffffe00fe0001ff01ff01ff00fefffeff0101fe01fe00fffe01feff000001ffff00000000fe0101ff00feff00feffff00fffe01fefe01000100feffffff01
fffffe01fffe01ff00fffe01fefe00fffe01fe00fffe00fefeff0000ff01fe0000fe01fffefe01fe00fffffe010000fe01ff0001010001feffffff01000001fe
0000000000feff000000ff0101ff000000fe01ff00ff0000feffffffff00fe0101fefe0101fefe00ffffff01fffe01fefefefe01000000feff00fefefe010100
fefffefe01fe000100ff00000101fefefffffe0000ff0101ffff00fe010001fe00fffe00fffefe00fffe00fe00fe0000fffefffffeff0100fffffe01fe01ff00
ff0000fe00ffff0000fefffeffff00ff0000fffe000000fffefe01fffeff0001fffffefffe00fffffe0001feff00fffe00fe0100ff000001fe01ff000100ffff
00feffffff010101fe01fe0001fffffe00ffff01fefe0100ff00ffffff0000ff01fffffefe01000000ff00ff01fefe0001fffe01ff0000fefeff0100fefeff00
fe00fe000101fffe01ff000001fefe01fe01fffefffffefffe01fffffeffff00fefffe00fffeff0100ff00feff00feff00ff00ff0000ff00fe01fffefeff00fe
00000000000000000000000000000000000000000000000000000000000000000000000000000000000000000000000000000000000000000000000000000000
00000000000000000000000000000000000000000000000000000000000000000000000000000000000000000000000000000000000000000000000000000000
00000000000000000000000000000000000000000000000000000000000000000000000000000000000000000000000000000000000000000000000000000000
00000000000000000000000000000000000000000000000000000000000000000000000000000000000000000000000000000000000000000000000000000000
00000000000000000000000000000000000000000000000000000000000000000000000000000000000000000000000000000000000000000000000000000000
00000000000000000000000000000000000000000000000000000000000000000000000000000000000000000000000000000000000000000000000000000000
00000000000000000000000000000000000000000000000000000000000000000000000000000000000000000000000000000000000000000000000000000000
00000000000000000000000000000000000000000000000000000000000000000000000000000000000000000000000000000000000000000000000000000000
00000000000000000000000000000000000000000000000000000000000000000000000000000000000000000000000000000000000000000000000000000000
00000000000000000000000000000000000000000000000000000000000000000000000000000000000000000000000000000000000000000000000000000000
