01fefe01fefefe0000ff01ff00fffeff00fe0100feffff00ffff0100fe01fe00fffefe0100fffe00000001fefe01ff000001fffe0000000001fefffefeff00fe
0101000100fe0100fe01fe0100fe0001fefe0100fffffffffe00010001fe00ffffffff00fefefe01feff00fefefefeffff0101fffe00feff01fe01000001ff00
0000ff01ff0000010101ffff01000101feffff0100fffffffeff0001fe0001fe010100fffefffffe01ff01000000000001fe0101fe01feff0101ff01ff01fe01
000000fffffefefffe0001010001fffe010100010101fe0001fe0000fe0001fe0001ff010100fefffffffefefffe00fe0101fefffffefe000001000001010001
fe00fefeff0101000100000101fe0100ff01fffeff010100fffefe00ff00fffffffe01fefffefe01fe01fffffe01fe01ffff0100ff010000feff01fffe00ff00
ff01fffefefeff000001ff000001fe01fefffffefefefe0001fe00010001feff00feff000101fe01010100000100000000ff01fe00010000ff010001feff01fe
feff010100ff010001fffffe010100fffefefe00fe01fffe00000101fe0001fefe0001000000fefefeff00ffff010100fffefffffefeff0101fffffffe00ff01
01fefeff01ff00fe0001ff00fe000100fe0001fefffe0001fffe0000ffff00fffe0101000001000100010000fe01000001ff00fe0101fffe00ff00ff01ff0000
00000000000000000000000000000000000000000000000000000000000000000000000000000000000000000000000000000000000000000000000000000000
0100fffeff00fe00feff01ff01000000ff0001ff01010000010001010100fe010101fefe00fe00ff01fffe0100ffffffff0100ff01ff0000fffffeff0101fffe
fefe01fe010100ffff0001fe0000fefefe01fefe0000fffe010000fe000001010100fefeff00ffff01feff01fe0101fe00000000feff01fefe01000000000100
ff0101ffff00ff00ff0001ff00feff0100fefe00ff01ff01ff0101ffff010001fffffefefe0100010101ff0100ffff010000fffeff0101fffe00ffff01ffff00
fffe01ff01ffffffff00fffe00fefeff010100ff00fe01ffffff01fe0100fffeff01fefefefe01ff0000fe01ffffff01fe01fe00fefffefefffe00fe01fe0001
ff0100fe01fe00fffefe01feff00fe00feff0100feff0001fe01fffe00ff01feff000101fefffe0100fe01fffe000000ff0101ffff000000fffefefffeff0000
01ffff0001fe01ffff00000100fffe00fffeff01010101000100000001ff010100ff01fe010100ff00fffe0000000100fe00010000fe010100ff0101fe0001fe
01fffe0100fe01010101000001ff00fe000101ff01fe0100fefe0001ff00ff000100fe0001feff00ff0100fefe0000fe01fffefefe01ffffffff00ff01fe01ff
00fefffe010001010101fe010100fefffe01ffff01fe00fffeff01feff00fefffe00fefffe00ffffff0001fefe00ff01fefffffeffff00fffefefefe00000101
00000000000000000000000000000000000000000000000000000000000000000000000000000000000000000000000000000000000000000000000000000000
01fe00fe0101ff01ff0101ffff0101ff0100feffff0101fffefe0000fffffe0000010100fe0001fefe01fffefefeff00fffefe00ff01fe0101feff000101ff01
fe00fffefefe01feff00ff000001fe01fffffe0101fe00ff0100ffff0000ffffff0101ffff000001ff00ffff01ff0101fe00fefffe0100010100ff0101ff01fe
010000fe00fe0001ff01ff010001fffffe0100ffff0100fe0001fe01fe00ffff0100ff01fefe00fe000100000100fffffffe00fefe00fffefeff01fe01fefefe
fefffe0100fffffe00ffff0101ff010001000000fffeff0000ff010000fe010001ff000000fe01000100fffffe000000feff01fe00fe010101fffefe01fe01fe
feff01fe000000fe0000ffffffff00fffffefe00010000000001fefeffff00ff00000100fe00fefffefeff00fffe01ff010000fffeff00feffff01fe000100fe
ff01feff010000fe01000101010001ff00ff01fe0000010000fe00ffff00ff010000000101fefffe0100ffff00fefeff01fffefe01fefffe000101010100fffe
01ffff0100ff0001ff00fe00fefe01010101fffefefffffffe00ff0000fe01fe000101fefe0101000100fffeff0001fffefffffefefefefeff01010000fe01ff
ff0100fe0001fffffeff00fe00ff00fefefefffe00ffff01fffe01fe0000feff0101fe01fe00feffffffff0001ffff00ff000101fffffffefefe01feffff0000
00000000000000000000000000000000000000000000000000000000000000000000000000000000000000000000000000000000000000000000000000000000
