fefffefefe01fefefefe01ff000100fe000001fffffeff0001ffff00010101fe0001fefefefffffffefffe010101fe01fe00fefefefe01010000ff0000fe01ff
00fe00fefe00fefffffefeffff010000fffefe01fefeff01ff00fefe01ff00fe01fe01ff01ff000101000001000001fffffe01ff01ffffff010101feff010100
fffefeffff00ff0101ffffffff00fffe0000fffeff01000001ff01ff0001fe0001fefe0000ff000100fffe010001ffff01fefefefe00fefe01fe0101fffe0001
00fe000101fe00fe01010001fffefe000101fefefffeffff01fefe00ffff0000fffffeff000001fe010001fffffffeff01fe0100fefefefffefe0100000000fe
fe01ff01000001fe00010101fffe000000fffffeff01ff00feff01fffe000100fefe01fe01fffefe01fe000000fefe0101fffe00ff000101fe00feff00ff0100
fe0001010101ffff00fe01feff0000feff00ff00fefe01fe0000ff0101feff00feff01feff01ffff0100fefe0001ff00fe0100feff00ff0000ff00fe01fe01ff
00fe0000010001000100000101fe01fffffffefe010101fe010101ff01fe0000fefffe01ffff0001ff00fffeff0100010000fffe0001ff0000fe0101ff00fe01
00feff00fe01fffefefe00010000ffffffff0000feff01000101ff00fefe010100ff01fefffe01fffe00ff01feff01fefe01ffff00ff0100fffe00fe010001fe
0100000101ff00fefe0001ff01ff010001fe00010001ffff00fe00fffffe0101ffff01fefefefffefefefe00010100010100ff000100fe00ffffffff0000fefe
ff0101feff0001fefe0101feff0101000001010001fffeff00ff00fefefe01ff0100fffffffeff01fe0101ff01ff01feff01fefffffe01fe00fefffffe0101ff
0000fe0001ff01ff010101fe01ffff01000101ff0100fe00fe00000100ffff000001ffff00fefeff00fefefe01ffff00010001ffffff01feff000000ff01ff01
fe01ff01ffff01fe01feff01feff01ff00ff00fefe01fefffffefeff0000fefefe0101010100fe00fe01ffff0101fe00ff00fefeff01000101ffffffff00ffff
ff00ff0101feff00fe0001fe01fffefeff0101fefefefe00fe0100fffe0100fefffe00ffff0000fe00fffffffffefefe0000fe0001feff0100fffe0101fe01fe
fe01fffefe01fe0101fefefe0100fe00fefe0100010000fe000001fefe00fffe00fefe0000fefffe00fe0100fe01ff010100fffefffeff0000ff0001000001fe
01fefffe01fe00000101fffe01fffeff0001ff0101fe01fe01fffefffe0000fffe01fefefe01ff00fe000100ffff00ff0000ff01fe0101ffff01fe00ff010101
fe00fefe01fefeff01fffefefe00fe0001feffff01fffe00fefe01ff000000fefefefefefefe010001ff00fffeff01ffff0101000100ffff01feff0100ff01ff
fe01010101ff0100fe00fffefefefeff01fffeffff01fffeff01000100ff0000fe01fffffefe00010101ff0100ffff01fefe000000000000feffff0100fe0001
00fe010101feff010001ff0001feff00feff00fefe01ffffff0100ff01feff01fefffe0000fefeff0001fefeff00ff00fe00feff01fe0101000101feffffff00
fefffe0100feff010101fe000101fffffe00fe0001fe00feff00fe010000ff000100ffff000000fefe00fffefffe010000feffff0001fe00ff000000fefe0001
00ff00feff01000000fe0001000001fe01fffe00fe00fe010101fefffe01fefefffefffe000101ff0000fefefe01ff01fe00fefefeff010001fefffffe000101
0001ffff010001fe0101ff0101010001ff0001fffe00ff00fefeffff00fefeff0101ff000000fffeff0001fffe0001ff0001ff01fe01feffff01fffe00fffeff
01010001fffffeff01ff01ff00fefeff01fe00ff01feff0100ff00fefeff000100010001fe00ff00010100ff01fe0101ff00fefe01fffefefefffefefe00feff
0101fe01fe0000fefefffe00fefe010001fffe0000010101fe00ff01ff00fe00fffe0100ff000100fe00feff000101fe01ffff00010001feff01fefeff00fefe
0000feff01ff0101fffffe01fefe01feff00ff00fffe0001010101fe0101feffff01fe0000fe0000fe01ffff00ff00fffffffeff0000ff00fffeff00feff01fe
