fffe01fefffefffefffefefffe00fe010100010101010001ff0100fe000001000100010101010000feffff000001fffe00fffffffffe00feff00000101fe0001
ff01ff00fefe0001ff01feff0101ff010001fffffefeffff000101fe00ff01fe00ffff010101fffffffe010001fefffe00fe01010001fe01fffe00fefe0100fe
00fefefe01fe01ffffffff01fefefefefefeffff01fe0000ff00ff00fffe0001ff00fe01fefe010101fe01feff01fefefeffffff00ff00ffff00fe0101ff0101
00fe0001000000fe01fe0100010000ff01fefefffe000000010100ff00fefe01fffe01fffe0100ff000100000001ffff01010000fffe000100fefffeffff01fe
ff00fffefffefe01000100010001feffff00fffefe0001ffffff0000ff00ff01fe00000001fe0000010000fe00fe0001fffffe0100fffe00feff0100fe000000
fe01fefffffeff00ffffff01fffefeffffffff01fe00feff0100fe00fffe00fe00ff010000ff00fe00ff0100fe00010001fefe0000feff00fffe00ff010100fe
01fffefe000101ff00fefefeffff0100fefe01010001fefe0000fffefefefeff01fe010000fefefe00ffff0100fe010001ff0100feffffff0101fe01fefefe01
fe01fe0000fffeffffffff0100000000ff00fe0101000101ffff010000fffffffe01fefefe0100fe0100ff01ffff01fefffe010100fe01ff00ff00fe00fffffe
00000000000000000000000000000000000000000000000000000000000000000000000000000000000000000000000000000000000000000000000000000000
fe0100fe01fe00ff01010101fefe01ff00fe0100feff00ffff01ff0101fffe0000fffeffff01ff00fefe0001fefe0000fe0001fe00fe00010001ff00feff0001
000001ff0100fe00fefe00ffff000100ff01ff00feffff00fffffe000101fe00010001ff00ff01ffff0001ff000000ff0000010100ff01ff000100ffffff00ff
fffefffefe01fefffffe01ff010001fefe010101fefeff01fffefeff01feff0001fe01ffffffff00fe0001000001ff0100fffefefefeff00fe00fe01fe00feff
0101ff00fefeff000101feffff00fefeff01fffeff01000101fe0100000101ffff0000fe01fffffffffefffeff00010101010001fefe01fe00000100fe00ffff
fefe010100fe0000ffffff01ff01fe01ff01000001fe01ffffff00fe000000ffff000101fefefffefe01ffff01fffe010100ffff010101010001feff01fefe01
01010000fe01fefe0001ffff01feffff0101feff0001fe01010000fe0100ff00fffefe01000100ff0101fffeffff0100fefeff00fefffeff01ff0100fefe01ff
00000000fefe01ffff00feff01010100ffff010001000001ff01fffe01fefe0000fefe00feff010001feffff01ffff01ff0100fffeff00fffffe00fefe010101
fe00ff00fe0001ffffff0100fe00010001ff010001fe01ff01fe0100ffff01fffffffeff01fffefefefeff000000fffe0100fefe0101010001ff0101ff01fe00
00000000000000000000000000000000000000000000000000000000000000000000000000000000000000000000000000000000000000000000000000000000
00000000000000000000000000000000000000000000000000000000000000000000000000000000000000000000000000000000000000000000000000000000
00000000000000000000000000000000000000000000000000000000000000000000000000000000000000000000000000000000000000000000000000000000
00000000000000000000000000000000000000000000000000000000000000000000000000000000000000000000000000000000000000000000000000000000
00000000000000000000000000000000000000000000000000000000000000000000000000000000000000000000000000000000000000000000000000000000
00000000000000000000000000000000000000000000000000000000000000000000000000000000000000000000000000000000000000000000000000000000
00000000000000000000000000000000000000000000000000000000000000000000000000000000000000000000000000000000000000000000000000000000
00000000000000000000000000000000000000000000000000000000000000000000000000000000000000000000000000000000000000000000000000000000
00000000000000000000000000000000000000000000000000000000000000000000000000000000000000000000000000000000000000000000000000000000
00000000000000000000000000000000000000000000000000000000000000000000000000000000000000000000000000000000000000000000000000000000
