0101fe00fe01fefffe01fefeffff01010101fe00fe01fffe0101fe0001ffff01fefe01ff01feff0001010100fe0101010000ff0001fe000000fe01fe00feffff
ff010101fefe01ff0001fefe00fe0101ff0000ff0101ffff01ff01fe00fe000001ff0000feff00ff0000000001fe00010001ff0100ff0101ffff0001fe01fefe
fe00ffff0101fffeff000100010000fe00ff0101010001ff010000ff0101fefe000100fe00010101fefffefeff0001fe0000ffff010101fe00fe0000fe01fe01
010000ff0001fefefe01fffe0100fffe01ff00fffe0001010100000000fe0000ff01fe0000fe0001ff0100fe01fffe0101fefeffffff00fffe0001fe010000ff
