fefffe0101fffe00fefefefeff0000fffe00fffffffefffffe0001ffff00010001ff000000010001000001feffff00fe0101fffefe00010000000100ff00feff
0000ff010100fffe0001010000fe01010101000001ff00ff010100fe00fefffefe00ffff00fefefe010001fffe00ff0101ff00fe00fe0101fe010100010101ff
00ff01ff01fefefe0000fefe01fefe0001010100ff000101fffeff01ff01fffe0000ffff00fe000101fe00010100ff0100fefe01fe01fffffffe01010101fefe
01ff0001ff000001fffefe0101fffffefefe01fe010100fe0100ffff01fefe00000000ffff0001010001feffffff01fffefe00010001ff0101fefe0101fe00ff
ff0000fe0000ff0001feff00fefe0101fffeff01fffffe00fefe01ff00ff00ffff01ff0001ff0101fe01fefefeffff0001ffff010001ff01ff00fffefefeffff
01ff0101ff01ff00fe000000010001ff00fe0100fffe01fe00ff000000fefffffeffff000001000100fffffefffe010001ff00fe000000010000ff0101fefefe
00010101fffefffe01fefeff0100fe000001ffffff0101ff0000fe00ff0001feff00000001fe01feff0101ff0100fe010101ff00fe01000100fffefe0001feff
fffe000101010001fffffe01fefeffff0000ff0001ff000100fefe00010000010000fefefe01fefe00ffff01fefffe00fffefffe01fe00fe00fefefffefffeff
00000000000000000000000000000000000000000000000000000000000000000000000000000000000000000000000000000000000000000000000000000000
ffff0001fffeff01fefffefefe0101fffe010000fefefe00010001fe00000001fffeff0101fffffe01010000feff01010101000001feff0001ff0100ff0100fe
fe01000100ffff01fefffefffe010000fffe01ffffff0100fffffefeffff01ff0100fefffe01fe0001feffffff010001ff00feffff00ff01ffff010101feff01
fe01fefefffe010001ff010000010100ff01fffefefe01fe00fffefe00fffe010001feffff00fefe0000fffefffffefffe01ff0101fffefe01fe00ff00fe01fe
00ff0100010100010100fefffe0100fe000001fe01fe0100feffff0101ff00ff00fe00fefefe0000feff01010101000101fffe0001fffeff010000fe01fe00fe
00fffffeff01fe010000010101fffe00ff00fffe01ff01fefffffe00fefeffffff0001fe00ff00fefefffffe00010001ff00fe0001fe00fefffeff0001ffff01
00ff00fffeff01feff01000101ff00fe00fefe000000fe0000fe0001000001fefe0101fffffefeff00010101fe01000000fefefeff010100ff0101000100fe01
ff00000001010000fe0101fffe0101fefe0000feff0001fe000101000001feff0000fe00010000fe00000000fffe0001fffefffe00feff00fffefe0100fe01ff
01ff0001010100ff000100ff00fefeff01feff0001feff00fffefefefefe0100fefffe0101fffefffefe00ff00fefe0000000101fefe0000fffffffffeff0001
00000000000000000000000000000000000000000000000000000000000000000000000000000000000000000000000000000000000000000000000000000000
00fe01fe00fe0101fffe010001ffff0000fe00ff01fefffe01fefe01ff01fefffefeff00ff01000001fffe0100fe00fe0000feff0100010100ff00fefffe01fe
ff01ff01010100feff000100fe010001fffffefefeff00010000ff0101ff00ff0101fffe01feffff00fe0101000001fffefeff01fe00fe000000ff01ff0001fe
000001fe00fe00ff01ff000101ff01fefe01feff01fe000100010100fffe01ffffff00fefe01ff01fefe0100ff0000fe000001000100000001ff010100fe01ff
00fe0101fefe0000fe00000101fefe01ffffffff01000101fe01ff010101fe01fe0001feff00ff0000000101fefefffeff01ff01fefffffe0000ff0101fffffe
00ff00fffe01fefeff0001ff01fffe01ffff00feffff000100fe010001fefe00fefefe00feff0101fffe0100feff01fe0000fffffe000000fefffefe00000001
0101000001fe01000101ff0100ff000101fe00000001fe01fe00fefe01fe0000fefe0001ff0101ff010100fe01fffe01ff0101010101fffeffff0101fefffefe
fe01fe01fe0001fe0000ff000100ff000000fefe0101ff0101fe0100fefe00fffefffffe01fffeff01ff010100010000feff01ffff0000fefefefffe0100fefe
fffffefefe0100fe01fe0101ff00ff0000fffefe0000ff0000fe01ff0000fe010101fe00fe00ff00fffe00fe00fffefefe0001fe010000fefe000100ff00feff
00000000000000000000000000000000000000000000000000000000000000000000000000000000000000000000000000000000000000000000000000000000
