fe010101010001fefe01fe000001feff0000fffe0000ff0001fffefe00ff01ff01ff0100ff0001ffff00ffff010101000000fe01fffe00feff00fe00fe01fe01
0001fefefe01ff01000001fe00fe00fe01ffff0101ffff01010000010100fffeff01fe0101fe00fffe01fefffffffefe01feff0001fffeff00ff01fefffe0001
feff0100fefe01fffe00fffe0101fe01fefe0100fe010101fefeff0000fffefffe01010001ff00ffff01ff01fe0000fffffefffffeff01ff010101fffefeff01
fffe01fffefefe01fe00ff0001ff01fe0001ffff0100fe0101000000feff0001fffffe0101ff010100000001fe0001010100fe0100fe0101fe01ff01010100fe
00ff00fefefefe0000ff010101fe00ff000101fffe00fefefefe000101ff0100ff0101fffeff00fffffefffffe0101fe01fffe01ff0101feff01ff01fefefe01
0100fefe0000ff01fe0001feffff000000fffffe01fe00fffefe01fe010100fefe0100000100fe00feff0100feff0101ff0101fefffe0101fefeff00fefffeff
00fffe0100fe01fefffe00ff00fffe010100fefeffff00fefffe010101fffefffefe01fffe01ffffffff0000ffff00fffeff000001fe0101fffffefeff01fffe
01000100fffe00fffe0100ff00000101ffff000101ff00ffffff000100010101feff00fe0001feff00fefe00fe00fe00ff00fffe010001fe0100ff00fe0000fe
00ff000001ffff0101000101ff00fffffffffffefe01fefe00fe0100feff0101fefefe0000feff010100fe0101fe00fe01ffff00fffe00fe010000ff01fe0001
fefffffe010101ffff01fe000000fe01000101fefefe00fe01fffeff010000fefffe01fffe0101fe000101ff00fefeff00ffff01ff01fe01ff01fe0000fe00fe
01010101fe00000001fe01ff0001ff0000fe01000100ff01ff00fe0000ffff010100ff01fefffe00fefefefefefefefefeff01ff01ff01fe01fe0101fefeff00
fffffeff01fe01fffeff01fefffffeff00fffe00fe00ff01ff00fe01fefe00feff01010000ff00000101fefffeff000100000101fffffe0000fefefffe010101
010000ff00ff0000fefe00fffefefefe01feffff0001fefe01fe00feff0100010001ffff0101feff01010100ff00fe00fffeff01fefeffffffff000100ff0101
01fefeff00ff01fe00fe010100ffffff000000feffff01fffe0001ff01fefffefefe000001ffffffff000100fe00fe010100fefe000001fefffeff0000ff01fe
fe00fefeffff0101fe00fefeff0001ff01000100fffefe010000ffff0101ffff00000100fffffffefe00fefffffffe0101fe01ff0000ffffff00fe00fe01fe00
010000fe01fe01fefe0001fefffe00fe01fe010101fffe01fffe00fe01fe0000ff0100fe00fefeff0100ff01fefeff0001fe00010001fe010001000100ff0101
00000000000000000000000000000000000000000000000000000000000000000000000000000000000000000000000000000000000000000000000000000000
00000000000000000000000000000000000000000000000000000000000000000000000000000000000000000000000000000000000000000000000000000000
00000000000000000000000000000000000000000000000000000000000000000000000000000000000000000000000000000000000000000000000000000000
00000000000000000000000000000000000000000000000000000000000000000000000000000000000000000000000000000000000000000000000000000000
00000000000000000000000000000000000000000000000000000000000000000000000000000000000000000000000000000000000000000000000000000000
00000000000000000000000000000000000000000000000000000000000000000000000000000000000000000000000000000000000000000000000000000000
00000000000000000000000000000000000000000000000000000000000000000000000000000000000000000000000000000000000000000000000000000000
00000000000000000000000000000000000000000000000000000000000000000000000000000000000000000000000000000000000000000000000000000000
