0000ff01fe0001feffffff0100fefffe01fe01fffeff010101fffe00fe0000fe01fe00ff000101fefe000001fe000100ff0000010001fe01fffe000000fe00fe
01fe01fefe00000100fffffefefeff0101feff01fffefe00fe00ff01fefe000000fe01010000ffff01fefe0100fefeff00ff01feff00fe01ffff000101fffefe
0001ff0000fe0101fefefe01fefeff0101fefe0000ff010000fefefefe000100000001ff01fffefe01010000feff01fe00feffff01fffefeff01fe0000ff0001
fefe00fe01ff01fe0101ff01000101fe00ff01fe00ff01feff0100fffe0100010000010000010100fe01fefffe0001ff01fefffe01ff00fefffffefeff000000
0100fe0100fffe01fe01ff00000101fe0000fe01feff0001fe01ff01ff0000fe01000000feffff00000001010101ffffff0100fe01fefffeff00feffff010001
ffffff000100fefffefefefe0000ffff0100ffffffffff01fefffe010001ff0100fe01feffffff00ff0100fe01fe010001feffff01fefe00fe01010101fe0100
fe000101ff01ff010000fe00fefefffe0000fe01fe01fe00000001010001000000fffefefefe00fe0000fefeff0101fffffe0000ff0000fe00fffe00ff00feff
01ff00feff000000fefe000100fe000100fe01ffff00fefe0001fe01010000fffe010001ff01fe01fe010101ff00fefe00fefffefefefffffeff0000feff0000
00000000000000000000000000000000000000000000000000000000000000000000000000000000000000000000000000000000000000000000000000000000
ff0100fe00fefe0000ff00fe010000ff0000fe01fffefefeff01fffe010100ff0101fe0100fe01ffff0101ff01ff01feff010100fe00feff01000001ffff01ff
00feff01feff000001ff0100ffffff01fffeffffff000101ffff00fffefe01ff00fffe0000fefffe01fefffefefe01010001fefe0100fffe00fffffe01010001
00ff01fffefffefe01fefe000000ff0001fefe0101ff00fefe01fe0001fffffffe0100fefffe00fefffe00ff01ff010001010100ff01ff0100fffe00fefe01fe
fffffeff00fffe0101fefefefefefe01ffff0100ff00ffff0001ff0100010101fefeff00fffeffff0001fe01feff000101010001fe00ff00ff01fffe00fe0001
00fe0001fe01fe01fffffe01ff010000000101ffff000101fefefeff00feff01ffffff01ff00010100ff01010001ff00fffe0001fefe0101fefeffff01ff0001
0101fefe0101fefefefe000001feff01fffe00fe01fefefffe01fefefefefe000001fefeff010001fe0001ffff000100fe010001fe01fefefeff0100ff010001
feffff0101fe01ffff01000100fe00fefefffffeff01fffffe0100ff0000fe010100feff00ff01fe00ff00fe0001ffff0101fe01fefeff01fffefe01fffefeff
0100fe00ff00ff0000ffff0100ff01fefe0100feff01ff01fffffe00ff010000fefe01000000fffefffeff00fe010101ffff01ff01ffff0001feffff0100fe01
00000000000000000000000000000000000000000000000000000000000000000000000000000000000000000000000000000000000000000000000000000000
ff00fffefefefe01fe000100010101010101fffe0101ffff01fe00ff01ff00fffefe01fe00fffefeff01010000fe0101ff000100010000ff0001ff00fe0001fe
feff01feffff010000010100fe00fffe00ff01ff010001fefffefefffffefefeff01fffe00fe00fffefffffeffff0000000101ff01fefeff00fefe01ffffffff
000000ffff00fefffefe0001fffe000000ff0100fefeff00000000fefeff00ff00fffe0100010000ff010101fefefe000001feff00fffe0100000100feff0000
0100fffffffffeff01fe010101fffefe000000fefeffff01ff000001fefe0101fe000100ffff0101fefffe01fefffe000000fffefffffeffff00fe0000fe0101
00fffffffefe000101ffff00fe00fffeffffff00ffff01fefeff01fefefe000001010001fefefe00010001ffff0100fffefeff0101fffe00fe0101ff0100ff00
feff01fefffeffff00ff00ffff010100fffffffffffe010001fefefefe010101ff0000feff0100ff010100ff010101010100fe00fe00fffe010101ff00010001
0000000100fffe00ff010000feff0101ffff00feffffff0001ff0001000101ff00fefe01010101fe0000ff01fffffe0000ff010100fe0100000001ff00feffff
fe0001fefe00fffe01fffffe00ff0100fffe010100fefe00fe000000feff0000fffefffe00fe01fefe01fefe00fffefe000101fefffeff0101010001000000fe
00000000000000000000000000000000000000000000000000000000000000000000000000000000000000000000000000000000000000000000000000000000
