00ff01ff01000000fe01fe000000fe0001fe01ff0000fe0001000100ff0000fe01fffeff00fefffffe00fe0001fe01fe01fffffe010001feff000101010001fe
fefeffffff0000ff01ff0001fe01fe00ff0100ff0000ff00fffffe00feff01ff01ff00fe01fffe0001fffffe00000001000000fe0101fefffffe01fe00010000
00fe0000ff0101fffffefeff0001fe00ff0000000001fffe00fffffe000001fefeff0001ffff01ffff0101fe0001fefffe010100feff01fe000101fefeff0101
0000fefe00ff00fe0100fffeff010001fefe01fffe010100fefefe00000101fffeff00ff01fefe0100ff0001fe0001fffffeff0001ff01fffe00fe00ff010100
fe01ffff01ff0001ff01ff0101feff01ff01fe0101ffff00010000fffeff0100ff000100fe00ff0101feff00fffeffff010001ff00fe00fe010100fe0100ffff
fe00fffe0100ff01fe00ffff01ff01fe00ffff01feff00fe00fe01010101fffefefe01ff01fffffe0000feff0001000100fffe01fe0001ff00000101ff000100
fffe000100000000ffff01fe00000101000001fffffe000001ffff01ffffff0100ffff01fefefffe00fefe0001fffe00fe00ff0100fe0101fffffefefefefeff
feff0101fffefe01fffe01ff00fefffffe0000ff00fe00fe00ff00ffff00fefe0001ff0100ff00ff01fe000100feff010100ffff0101fefe01fffe000100fefe
01fffe00fefe00fe0001fe00fefe0100000101ffff01ff0100ffff0100ff00ff01ff00fefffe00fe0101fe000001010001fffe00ff00ff010100fe00ff01fefe
fefffe0000ffff0000ff010001fe01ffff00010001fe010000ff0001ff00fffefe00fe01ff00fffffeffff0100fefe01ff00ff0101fffffe01ff01ff01fe0100
00000100fe010001fe01000101fffeffff0101feff01fffe0101fefe01fffeffff00fffefeff010000feff01ffff01fefefeff00fefe01fefe01ff00000000ff
fe00fe00fe010000ff0101ff010001fe00fefefffe00ffff010101fe00feffff01fefeffffff01fe00ff00fefefe00fefffeff0101fe01fefffefefeff01fefe
00010100fe0101fe0101fe01fffeff01ffffff0101fefefffe00feff00010001fe0100fe0101feff0100fe01feff000000ffffffff01ff0100010000fefe00fe
0100fefe0000fffefe010000ff0100fe00ff0101ff0100fefe00feff0101fefefefefeffff01fffe0101ff000100fffe00fe01010100010000fffefffffeff00
0101ffff0001fefe0000feff01fefffe0001feff00fefe01010000fe0001fe01fe010000000100fefe000101ff010000ff00ff00000101ff010001ff00feff01
ff00000101fefe01ff01feff00fefffe00000101fe00010001fefeff010000fefe01ff01010000fe0000ff01ff01fe0000fe00fe000101ff00fe00010100fffe
