ff00fe0000fffffe0100fe0100000101fffe0001ff00fffefefe0001fe0100010100ff01fe00ffff0001fffefe00fffe00fe00000001feff000101fe01fe01fe
fe0100fe01fe000000fffe000001000101fe00000001ff01ff0100ffff00fe00fe00ffffff0000fffffffefe00010000fffffeff0100fefeff00ffff01fefe00
fefffffe0001fffe00000001ff000000ffff01010001fefffefefefefefeff0001000001feff00ff00fefffffe01fefeff00fffe0001fefeff01fe01010101fe
fefe0001fffffefffefeff0000ff01ff0000fe01fffe00feffffff0101fefe00feff00ff01ff00fefffe01fe00fffeff0000fe00fefe0100fe0001ff01010100
ff00ffff01ff00fefefefeff0000fe00fe01ff01fefe0100fffe01fe00feff000001fefffe01fe0001ff0100feff01feff01fefffffe01fffefefffe0000feff
ff0100000001fe01ff00ff0001fffefefefe000101feff00ff0000feff01010101ff01ff000000fefffe00ff01ff01fefefe0000000000000100010000fe0100
fffe01fe0001ff01fe01fefe0101fffe01feff01fe01fffffeffff010101fffffefffffeffffff01fffe0101fefe00fffffefe01000101fe0001000001feffff
ffff0100ff0001fffeff010001fffefffe0000fffefe01fe01fefe0001010100feffff00fe00ff0100ff00000101fefefe0001fe00fefffffe000100ffff00fe
ff000100fefefefffffeff00ff00fefe0001fffe00fe01fe01fefe010101fffe0101ff00fe000101fe01fe010001fffffe000000ff01ffff00fffeff0000fe01
fefe01fefffeffff0101fe000000ff00feff01feff00fffffe0101fe01fffefffffefe01010100fe01fffffe0101ff00ffffff010100fefffeffffffffffffff
01ff01ffff00fe00fe0000fefe01ffff0101fffe0001fffe0101fe01000101fe0100000000ffffff00feffff0100feff0101feff01fffe00ff01fe01fffffe01
feff0000ffff000100fefefefefe0001fe01ff000101fffe00fffffe0000fefffffeff000100fefefe01fe00ff00000000010101ff01fefe010100fe00ff00ff
ff01fefe00fefefe01fefe01fffe0001fffeffff01fffeff01ff010001ff01ffff01fefeff01fe01ff0000feff000001ff01fe00fffefeffff00ffff010100ff
0101fffe01fe010001fe0101ff010100fe00010100ff010000feff0100010100ff01fe00ff01fe01000100fefe0001fe0000000101fffefefffffeff00ff01fe
01fffffe000000ffff0000010101ff00fefffffe0101000000fffe0000ff0001fefffefffe01fe01ff01000100fefffe0100fe01fefe00ff0100fefe0000ffff
ff0000fe01ff01ffff00ff010100fffefffe010101fe01fe0001ff010100fffeff01000000fe00feff00fefffefeff00fefeff00000000fe01ff0001fe0100ff
00000000000000000000000000000000000000000000000000000000000000000000000000000000000000000000000000000000000000000000000000000000
00000000000000000000000000000000000000000000000000000000000000000000000000000000000000000000000000000000000000000000000000000000
00000000000000000000000000000000000000000000000000000000000000000000000000000000000000000000000000000000000000000000000000000000
00000000000000000000000000000000000000000000000000000000000000000000000000000000000000000000000000000000000000000000000000000000
00000000000000000000000000000000000000000000000000000000000000000000000000000000000000000000000000000000000000000000000000000000
00000000000000000000000000000000000000000000000000000000000000000000000000000000000000000000000000000000000000000000000000000000
00000000000000000000000000000000000000000000000000000000000000000000000000000000000000000000000000000000000000000000000000000000
00000000000000000000000000000000000000000000000000000000000000000000000000000000000000000000000000000000000000000000000000000000
