00ff000000ff010101fe00000000fe010000fe01fe0100fe01fefe0001000000ffff01fe00fffeff01ff01feff01ff010001ff0100feff0101feffff010000ff
fe000001010000ff01fffffefefe01fffffe0100ff01fe00fe000100ff00feff01010000ff000101fe0101fffeff0101fffeffff0101fffffffeff00fffffffe
fe00ff00010001fefefe010000fffefe010100ff010100ff01ff0001ff0101fffeffffff0100ff0001fefeffff00fefe00fe00fffffffe00ff0100ff0100ff00
010000fe01fffeff0100fffefeff0001010100010101fe00fefe0100feff01fefefefeff01fffeff0101ff0100feff0100fefffeff01fffe01fefffefe01fffe
