01feffff01fefe000101ff01fe0101fe01fe01fefeffff010101fe01fefe01feffff0101fe00fefeff00fe01000101fe0100ff00ff0101fe0100000100ffff00
000000fe01010000ff0000fefe01010100fe0000ff0000feff000000fe01010000ff0101010100ff010001ff00ff00ff0000feffff000001ff00ffff00ff00fe
fffeff0101ff01feffffff010100000100fe01ff01ff000100fefe01feff00fffefffefffefefe01000100fefeff010100fefe01fe0101ff0100fefe0001fe00
0001fffffe00fe0001010000fe0000fffffe01ff00fe0100ff01fefffffe00fe01fffe010100ff00ffff01fffffefe01fe010001ffffffff010000fe01fffeff
