fefeff0001fefefffeff0100fefffffefefffe010100fffe01feff0100fe000000fffe01fefffefefe01fe01fffeffffffff01000001ff0001feff0101fe0101
01ff0100fe01000000fe0000ffff0000ff01fe0101feff01ff00fefffeff010101ff000000fe01ffffff0101fe00fefe000100fe0000fe01fefffffefefe0000
00fe00fefffffffefe010101ff00fefe00fffffefffffefeff010100fffe0001fe010000fe01fffffefefffefefe010100fe000000fffefefffe01ffffff0000
ffffff01ffff01fffefe0000fefefeff00feff00ffff01ff010101ff01ff01ff01010001feff00fe01fe01fffeff0100fefe000101fe00ff01ff01fefefeff00
000100ff0100feffff0000fe00fe01fe01fefe00fffefe000100fe01ff01fefefeff01fffffe01fe00fe01ff01ffffff01fe0001feff00fffe0001fffe010100
00feff00feffff00ffff00fe01010100fffe01fffeff000101ffff0000000001fe00feff00feff000100fe01fe010101ff000000ffff0101fefe00ff000001ff
fefffe0100ff0000fffefe00fffe000100ffffff00ff0001feff00fefe01feff0000fffe0101ffff00fe0001ff00feffffff000000fefefefefffefeff01fffe
ff01fe00fffe0001fe00ff010101fffeff010000ffff01feff00ff0101fe00ff010000feffffff01ffff00ff0101fefeff0000fefe0001fefe000001fefe0000
00000000000000000000000000000000000000000000000000000000000000000000000000000000000000000000000000000000000000000000000000000000
fefe00010001fe0000fe00010001fefffe01fffefefefe01ff000000fffe00ff00010101000101010000fe01fe01fe01ff00fffe00ff01feff01ff00fe000001
fe00ff01fe0000feffffff0101fe00fe00ffff0000fe00fe00fe01fe00ff01fefeffff0000fe01fe000001fffe0100ff0100010101fefefefefefeff01ff00ff
fe0000fefffefefefe00000000feff0000fffe0001fefeff01ff0100ff0000fffe01ff0001ff000000010100feff010100000000ff01fefe01fe00ffff00fe01
010000fe000101fe00000101fefe01fe000001fe010101ff01fefefe00fe000101fe00ff0101ff0000fe00000000feff0100fe00000001fe00ff010000ffffff
00fefe0100010000fefeffff000100fefeff01feff01fe01000001fe00fefffe00ff0101fe0101ff00fe01fe0100ffff00ffff01fffffeff01feff01feff00fe
feff000001000001fe0000ff01fffefffe0001fe00feffff0001ffff0101feff00fe00ffff0001fe00fffefeffffff00fe00010001feff0101fefffefeff0101
0100fefefeff0000ff00fffffe01fffe01fe0100fe000001fefeff000001ff0101feff01fefefeff00fe0100010101ff01ff0100000100ff01fe0101fffe0001
fffffefefefefe00ffff01fffeffff000101fe00fe00fffffeff00fefe0100fefe000100fe00fefeff00010100fffffe01ff000001fe010101fefe00ff0100fe
00000000000000000000000000000000000000000000000000000000000000000000000000000000000000000000000000000000000000000000000000000000
00000000000000000000000000000000000000000000000000000000000000000000000000000000000000000000000000000000000000000000000000000000
00000000000000000000000000000000000000000000000000000000000000000000000000000000000000000000000000000000000000000000000000000000
00000000000000000000000000000000000000000000000000000000000000000000000000000000000000000000000000000000000000000000000000000000
00000000000000000000000000000000000000000000000000000000000000000000000000000000000000000000000000000000000000000000000000000000
00000000000000000000000000000000000000000000000000000000000000000000000000000000000000000000000000000000000000000000000000000000
00000000000000000000000000000000000000000000000000000000000000000000000000000000000000000000000000000000000000000000000000000000
00000000000000000000000000000000000000000000000000000000000000000000000000000000000000000000000000000000000000000000000000000000
00000000000000000000000000000000000000000000000000000000000000000000000000000000000000000000000000000000000000000000000000000000
00000000000000000000000000000000000000000000000000000000000000000000000000000000000000000000000000000000000000000000000000000000
