fe000100010100fefefffffefe00feff00fe00fefe01fefefffefeff0000fefe00fe01fefe01feff0001ff00fefffeff00ff000100fefefe00feff000001fffe
ff0000fefeffff000101feff00fe01fefefefffe0001fe00fffe01fe00fe01ffffff00ff00ff00ff01fe000001fe0001fefe010000fefeff00fffe0101fffeff
fefe00fffe00ffff01fffefe01000000fefffeffffffff000101fffefffefe01fefeffff00000101ff0001fffe00fe0000fe0101fe010100fe00fefffffe00fe
01fe010101fefeffffff00ff01feff00fe00ff0000010001ffff010001feff0100fefe01fffe01ff01fffe010001ff00ff01ff00fe01ffff01feff01fefe01fe
00fffeff00ff01fefe0101010100ff01000101ff01fffefe0001ff0101fffffffefe00feff01ff010001fffffffe010100fefe01ffff00fffffe00fefffffe01
000100ff0000feffff01fffffffefffe0100fe00fffeffff000000ff00fffffe01ff0101010100ffff010101fe0001ff00fefeff00fefefefe000100fe00ffff
01ffff01fe01feffff01fefefe00ff0000fe010001fefeffff0100fe0100010001fefefffffe01fffefefefefe0001ffff01ff010000ff000000ff01fffefe01
01ff01ff01fe010001ffff01fefffe00ff0101fe01fefe00000001ff00fffefefefe01ff0100ffff01ff0001fe0101ff00010001fe00fe01ff01fe00fefe01fe
00000000000000000000000000000000000000000000000000000000000000000000000000000000000000000000000000000000000000000000000000000000
fefffefefffffe01010001fffe0100fefefefffffffffffe000100000100fffeff00fffe00000101010000fefefefeff000000010000fffe0100feff00000001
ffffff00fffe00fe00fefeff0001010101010000ff0001ffffff01fe00ff01ff01ffff01fffefe01fefffefeff00fe0001fefe01ff00fe0001ff01fefffefeff
fffeff00fffffefffeff00fe0000fffe01fe000100000000fe0000000001010001ffff01fefe0000fe0100fffe01ff00ffff01000001fe010000fffefffe01fe
0101fefe00feffff0101ffff01fefffe0001fefffe01fe01fefe0001010000fefe0001fe010001000000fe0001ff00fe0000000100fe01fe0100fefe00010001
fefe01fefefe0100fe010000ff0000fefe0000fefffe0101ff0000feff00feff00ff00feffff01ff0000fefefefe0000ff00fefffefe01fe000101ffff01fffe
feff01fe01ff0000fefefefefe01000100ff0100fffe00000100fe00ffff01ff0000feff00fffe00fe00ff00ff00fe0000fefefe01ff01fffefe00fefffe0101
fffffffe00feffff01fffffffffefffe00feff01fefffeffff00ff0100fe00ff0000fe01fe01feffffffffff01fe0000fffefe01ffff0100fe010100fe00fe00
00fefefffffe00ffff0101000001ff00fe010000fe00000000ff01fe00ff00010100fefe01010101ff0101ff01ff01fe0101000101000001ff00feff0100fe00
00000000000000000000000000000000000000000000000000000000000000000000000000000000000000000000000000000000000000000000000000000000
ff0100fe000100fffefe0000fe01fe01feff0101ff000000fe01fffffffffe0100ffffffffff010101000000fffeff010100ffff00010101ffffff01fffe00fe
010100fffe010001ff01fffe0000feffff00000000ff01fefffefefe01fefe0000fe00fefe010001ffff00ff01ff00feff0000ffffff01ff00fefe00fe0101fe
fffefffe0000fffe01ff00ff0100fe0100ffff000001fe00fefe0101ffff0000fffefffefe000100fefeff01feff01fefe00fefffefe0100fffe01fffffefffe
ff010101fe0001010101fffe00000001fffffe0000fe01010000000001fe0000fe0001fe000001ff00ff00fefefffffe00ff000001fffe010100fefefe000001
00000001fe01fefffeff010101feff0000010101ff0000000101fffe0100ffffff000001fffe010100000001fefe00010000fe0101010000010001000000fefe
0100ff0100ffffff0001fffefffefe01feff0101fffefffffefe00fefe0000fe0101fffeffff0101ff00ff000000fefefffe0001ffffffff0000ff0000fe0001
00ffffff01fefefe0100fefeff0000ff01fffefefffffe01ffff0100000101fe00000101feff00fe00fffe0101fe01feff00fffe0000fe0001010101ffff0000
fe0001fe0100fffe00fe00ff00feff00fffffffffffe000000ffffff0100fefe01fefe00fffeff00000101ff00ff0000fefe00fe000000000001feff000100ff
00000000000000000000000000000000000000000000000000000000000000000000000000000000000000000000000000000000000000000000000000000000
