01ff0000ff0000fefefe00fe0001fffeff0100fffffe01fefe000100fe00fffffeff01fe0100ff01fe0000fffeffff0101fefefffe0101ff00feff01ff0001ff
ff0101fe00fffeff01fe0101feff0100feff0100ff0001ffff0000feffff0000fe01ff01ff00fefffefefe01fe01fffffffffefffe01fffefffeffffff000101
ff010000ff0100ff00fefefefe0101fefe00feff00fefe0100fefeff0001fffefffefefffe01fffeff00fefffe000101fefe0100fefffffefeff0100ffff0100
fe0100fe0101ffff00010001000000feff00ffff000000ff01fffeff0001fffefffefefe01feff01ff00fefe00feff0100ff00feff00fffe0100fe00ff00fe01
ffff0101fe0100fe0000fefe000001fe0101000101fe01ff00000100fefeff01fe01fe00ffff00fe00fffeff010101fefe000100fefffefffffe0100010000ff
fffffe00ff01fffefefefefeff01fe01fe01fffe00fffeff000001ff01fefe01ff0101fffe010100ff01feff0100fffe00ffff0001fefe00fefe0100fe01fe00
0001ff0100ff0100ff00ff00fefefefefeff000100ffffff0000fffffe0101fe0101fffffe0000fe00fefe01fe0000fe01000001ff00fefffffefffefefe01fe
fefe00ff0000ff0100010100ff0001fefefe0001fffe0100ff01ff01fe01010000000101000001fe0001ff00fe01fffffe0000010101010101fffe0101fe01fe
00000000000000000000000000000000000000000000000000000000000000000000000000000000000000000000000000000000000000000000000000000000
01fe01fe0101010001fffefe0100000100ff0000fe00ff01fffffffe0100fffeff01fe00fffeffff0001fe0101fe0101fe0101fefefffffffe01ff000000fe01
fefffe000001000001fffeffff0101fffe00fe00fe01fffe0101fe00fefe00feff0101fefefefffefe010001feffffff0101fffffe00ff01fffefefffffe0001
ff0001fffe01fffe0101ff00ff0101ff01000101fefffe00ff01fefe01ff01ff0001010100ffff01ff0101fe000100fe01ffffff00fefefffffffefe01fffe01
ff000100ffffff0100fefffe01ff0100fe0100010101ff0100ff01ff00feff01ff0001fe0100ff00010000fefe00fefeffff01fefefeffff00ff0101fffe0101
fefeff01ff0100fe01ff0000ff00ff01ff00fffe01010001fefefffe00feff01fe00fe01fe0000010000feff0101fe0000ff01ff01fefffe01fe00fefffffefe
000100fefffeff000000fefffefffe0001feff0101fffefe01fe01ff0101feff00fefffe0000fffeff00ff010001ff00fefefeff00ffff01010100fe01fffffe
0100fe0000ff0000feff000001ff00ff00fffe01fe00ff00fefffefefefefeff01000100ffff01feff00ff00fffe0001fefe00010100fe01fffe00fe01fffffe
ff00fffefeff00ffff0101ff0001ff0000feff0001fe000101feffff00fe0001ff01fefefffe00fe0100fefeff01fe00ff0001fe00fe00fffe01fffe01000101
00000000000000000000000000000000000000000000000000000000000000000000000000000000000000000000000000000000000000000000000000000000
01fefeffffff01ffff0001fffffe00fe000001ff00feffff01feffff01fe01ffff01fefe010101fe00ff000001fe00fe00fe0001feff010100ffff01fe0101ff
fe0101ffff01ff00fe010000010000ff01ffff01fffe00fe00fffe0100feffff010101fefe01fffffffe0101fe010001fffe010000fe010000fe000101ff01ff
fffeff01010001fefe010100fffffefffeff00fefe01fe0101feff000001000100fffe0001fefffefe010000ff0000fefe01ffff01fefe0101fe01ff00000101
00010101ff01ffff0000ff01fe00fffefeff01ff00fffffe00ffff0001fefefeff00fffe0000ff0101ff010001fefe01fefffe0000fefe000001fefe010000ff
ff010001fffe0000fefe0100010001fefeff0000ff00fe01fe010101ff00ff00fefe0100ffff00ff0000ff01fffe00fffefe0100fe01fffe0100feffff01ff01
01ff000100fffefffefe00000000fe0001ff01ff000000fe00fefeff00ffff01ff00000000fefe01fffefefe0000fffffefe01fefeff01ff01ff01fffe0000ff
ff0001ffff0101fffefe000101000100000001fefffe00fe0101ff00fefefefe00ff00000000feffff00feffff0101fe0100fefeff0000fe0001ff01fffe01ff
01fffe00fffffffefffe01010001fefeff0101fe00000100fffffeff00000000fffe00fe010101fefe0101fe00fefefffe0001fefefe01fe000000fe00ffff01
00000000000000000000000000000000000000000000000000000000000000000000000000000000000000000000000000000000000000000000000000000000
