01ffff01ff00ff00fffffe010000fefefe01010001fefeff0100fffefe000000ff01fffe0001fe00fefffe0100fe01fefffeff00fe00ff01000101feff0100ff
ff00fe00ffffff01010000fe00000001feffff000101fefe00fffe00ffff000101ff01feff0100fffefffeff0100000101fe0100ff0100000000010001fffeff
fe00ff000100fefe0000fe00ff00fe000101ff00010101fe0001fefe0101feff00fe01fffeffff00fe0000fffeff0101feffff00010100fe01fffe00fe00fe00
fffefe0000fffffefe0000ffff00fe010101010001fefe01fe0001fffffeff01fe01010100010000fefffe00ff01fffe000000ff0101fefe000100000000fffe
