fffeff00fe01feffffffffff00fe0000ff00fffefefefe01ff01fefe0000fffffe010101fe00feff00fffe010100fffe0100010100fefefe0000fefe01000101
01fffeff0101fffe00fe01ffffff0100ffff01fffefeff0000010000ff01ffff0100ff01000001ff00fefe01ff01ff000000fe0100feff00010001fffffffffe
ff00ff01fe0101010100fe00ff0101fffefeff000000fefe00fefefffeff00fe0001fefeff0001fefefffffefeffffff0101ff01fffeffff0101fffefeffffff
0100ff00000000ff01010100ff0101ff000001fe01fffe01fefffffeffff01ff000000fe01fefe00ff01fefe00fe000000fe0101fe01fffe01feff01fefefeff
010001fffefefe01000100fefeff01ff01fffefe01fffe01ffffff01fe01fe0001ffffff0001fefffefffefffeffffffff00feffff01ffff010101ff0101ff00
01ffff01ffff0100fe000000ff00feff01feff00ffff01fe00fe0000fefefefffefe00fe000000fffffe00fefe01fe00fefffe01fefffeffff01fffefefffffe
00010000fe0001ff00fe01010000ffff00fffefffe0101ff01fefffefffffffefe0100ff0101000001ff00ffffff010100fefeff00fefe0001fefffffe0001ff
000100ffffff0001ff01ff01fffffeff0100fffeff01fffe010000feff0000000100fefeff01fffeffffff0100fefe00000001fffffe00fefefe01ffff000100
fe00ff01fefffefffefffffffffe0001ff0000feff0101fe01ffff01fe000000fffffffefe0101010000feff010001010001fe0100ff00fffffefe00fffffeff
fefffe000001ff0101fffe0001ff01ffff00fffffefe0000ff0100fffefefffe00fe0101fefeff00fe010001fefffe01fefe0101fefffeff01fffe000100feff
00feffffff0100fffe0101ff00ff01fffffefe0100fe00feff00fe01feff00fffefefe0000010101fe00fefe010100fe000100fefe00fe00fe0100fefeff0001
01ff010100010100fe0001fe00ff01ff01ff01ff0101ff01ff0000ff00fe0100fffe00feff010000fffeff00feff00fefefffe0001010101fefefffe00fe00ff
00feff0001fffeff0101fe000001ff0100fefe01fe010001ff01ff0100ff01010000010001ff0000fefffe01fe01fffefe0001fffe000001fe0100ff01fe01fe
00fe000101fe00fe0001ff000000fffeffffffffff010100fefefeff01fe00fffe0000ff00fe00fefefe0000000101ff0000feffff0000fffe0101000001ff00
0000fe00fffe0000fffefffefe00fefeffff01ff01000000fffefffeff00ffff0100010001000000ffff00fffffeff00ff0001fffefeffff0001fffe01ffffff
fe01fefefefefffeff01feff01fe01fefe0100fe0100ff01ff00fe00feffffff00feff01ffff00fe0001010100fffeff01fe00ff0001ffff0101fe01feff00fe
00fffeffff01fefe00ffffffff01010001ff00fffffe00fefefeffffffff00ffff0000feff01ff0101fe00fefeff000000fefffffe0001fefeff0000fefe01fe
00fe0101ffff01010001ffff00ff00fe0101fe00fefefffffe0101fffe010101ff0001fffefefe00fe00fffffeff00000001fe00ffff01fefefe00ff00fefefe
010101fffffe01010001010100fffefffe01fe01fe01000000ff01fe0101ffff01fe00fe0001feff0101fefe0101ff0000fefffefeffff01ffffff0001fe0100
010000000101ff01ffff01fe00fe01fe01fefeff0001fe00ff00fefffefefffffffe01ff00000100ff00ff01010100fefe01010101000100fe0000fffe01fffe
ff00ffff0101fffeffff0000ffffff0001010000fe0100fffe0100ff01ff00010000ffffff01ff00ff00fe00ffff0100fe00fe01ff000101fe00010100010000
01ff0001ff0101fffe01fe01fffeff01fe00feff0000ffff01ff010101ff000100fffe0100fefeff010000fe01fffe0100fefffe01feff000001fefefe000000
0100010001fe0001ff00ff0101fe0000fefe00ff01ffff01fffeffff0001fffefffffe0100fffffefefffffffefe01fefefe000101fe00fefefe000100fe0101
fefe00fefe01fffffffe000001000000feff01fe0100fffeff00ff01fffefffeff0100fefe00fefeff01ff00fe010100fefefefe00ff00fefe00fefe01fefffe
