01ffff00fe00fefe0101000001feff01ff00feff000101fefefe00ffff00fefeff000100fefe01feffff01ff0100fefe0101fffefe0101fffe01ff00ff00fe00
00ff0100fe01fe01fe010100ff0001fe00ffffff010000fe0101fe01ff00fefe01fefefe000001ff0100fffe0100fefeff00fe00ffff01000000fefefefe01fe
01ffff0100fffffffefefffe00ff01000001ff01fefffe01fffffe00000101ff0100fe01ff0100010000fe00fffefefe0101fe00000001010000fffe01fffe00
00fefefffeff01ffff0101fe0001ff0000fffefeff0001010100fe01ff0000ff01ffff010000fe0000000101ff0001fe00ffff0100fe00ffff0001fffeff01ff
ff0001fffffffe010001fffeff0101fe00fffeff01ffff0000ffff0000fefffe010000ff000001fffe0100fefffe01fffffefe00ffff0100fe00fe01fe0000fe
0101fe000000fe0101fefffefe0101fe01feff0100fefffe01feff0000fe010001fffe0101010100feff010100ffff00000100ff010001fe00ff00fe00ff00fe
fe01fefe00fe0001fefffe00fe00fe00fefffe01feff01fffe0100010101fffe00fffe01fefffefefefeff010001ff00feff00fefffefefefe0100fe010100fe
ffff00000000010101fe0001ff01feff00fe01feffff00fe0000fffffe0100ff01ff00ff01fefe0100ff00fffffefeff000100fffe00fefeffff01010001ffff
00000000000000000000000000000000000000000000000000000000000000000000000000000000000000000000000000000000000000000000000000000000
fe00010000000100fe01ff00fe0000ffffffff01000100feff0101feff01fefffffefefe00fffefefefefffe0001000100fffffe010000fe00fefefe0001ff01
0100fe0000010000fe00fefefffeff00000001fe01fe01fe01010001fe00feff000001ff0001fffe010101010001ff00ff00fe000101fffeff010100fffe00ff
ff00ff01fffe01ff00ff00fe010000fe01fffe00ff0101fffeff01ff01fe00ff0000fefffffffeffff01fefffe0101fe0001fe010100ff01ff00fefffe010000
00feff00feff0000fe00fffe0100ff01fffffeffff0101ff01ff0101ff01fe00fffe0100000100ffff01fe0001fe00ff01ffffffff00fffeff00fefffffe00ff
ff01ff0000fe00ff0101fe00fe0100fe0100fe000001ff010101fe0000fffeff00fe00fefe0100fefeff01ff0000fffffffefefe00fe01fefffeff01fe00ffff
ff01010001fffe00fe0001fefe01ff01ff0101fe000000ff00010001fe010000fe0101fffffffe010100fe00ffff00fe01fffeff00fe0100ffff00fffe00fefe
fffe0000ffff00feff01fe010001000000000000000100fe00fffffffe010100fffffeff0100fefefe000000fe0000fe0000fefe000000fe00ff01ff000001ff
010001fffe0101fe0000ff00fefe01ffff00ffff00010101ffffffff01fefe0000000000fffefe01fefe0100fffe0101ff01feffffff000001feff00ff01feff
00000000000000000000000000000000000000000000000000000000000000000000000000000000000000000000000000000000000000000000000000000000
fffffe00ffff0101ffff01ff00ff0101fe0000000100fe01fefe00fffeffffff0001000000fefffeff01fefffe01fe01ff00010000fffe00ffffffff0101fefe
ffff01000000fffffefe00fe0000feffffff00fe00fe00fefffefe0100fefe0000fffefffffe0000fefeffff000001ff010001fe00fffffe01feff0100000100
ffff00ffff01fffe00fe01ffff01fffe00fefefe01ff00fe010100fe01ffff01fffe000101fefe010000fe01fe010000fffe00010100fffffffefe0000fefeff
0100fffeff00fffe0001fe01fefefefefe01fefefefffefffefefe01ff00fefffefefeff0001ff00fffeff01feff0001ffff0100ff01feffff00fefffe00feff
00ff01010101ff000000ff0100fe01010101ffff0000fffe00ffffff00ff00010101fefefefe00fe01fe01fe00000101ffffff00fe00fe000001fefe0000ff00
fefefffefefe01fffe0000ff010101feffff01fefeffffff0100fefefe01ff0000ff01000100ff0000ff00000000ff000001fffe01ff010100ff010100010100
00010000ff01fe01fe00fffe0000ff01fe00ff01fffefe01ff010100fe01fe01fe01fffefe01ff00fffe000100ffff01fefefefe01ff0100fffefefe00fefffe
0100fefe00ff00feffffff01000000feff01ff000101fffefffefffe01fe00fefefe01fefeff000001fefe00fffe00000101fefe0001fefefe0001000001fe00
00000000000000000000000000000000000000000000000000000000000000000000000000000000000000000000000000000000000000000000000000000000
