0101ff0100fe00ff01fe00ff00fe0101000001ff0001ffff01fe0101010001010101fe010000fffefffe00fffefe000000ffff00feff01fe01fe0100ff0001fe
fefeffff0001fefffe01000101fefffe010000ff000101feffffffff01fe00000100fffe00feff010100010101fefefefe010000ffffff00010000fffffe00ff
00fe01fe0100fefefffeff0001000101fffffefffe010001fe0001010101fe00fe00fefeff01fffefffeff01fe01fefefeff0000feff01fe000000fe01fe01ff
feff01ff00ffff0101fffffefe01fe00000001ffff000101010001fe00000100ff0101010000fffeff00fefffffffeffff010101ff00fefffeff00fe01fefffe
00fefe00ff000100000001010101fe0101fefffe0001fe00ff0101fffefffe01ffff0001ff01fe000001fffefe01fffefefe0101000101fe0000fefe0000fe01
000001fe010100fe00fefe01fe0100fe000000ffff01000000fefffeffff0101ff0001fe0101fffe00fe0101fe0101010100fefe00ffff01feff000100010101
fe00fefe0001fe000000ffff0101fe0000ffff00fe00feffff0000fefe01ff01ff010101010000000000fefffeff00ffff000100fffeffff01fe000100fe01ff
0100fffeffff01ffff000000fffefe01ff0001fefe0101ff00ffff01010101fefefefefeffff01fefefe010000ff0100fefffeffff01fe0100fefefe00ff00ff
00ff01fefe00feff01fe0100ff01000101010001ff01fffe00fffefe010100feff0101fefffe00ff00fefefefe010000010000ff01fe00fffe01010100fefeff
fe00feff0001feff00fefe0001fefffeff01010100fe010001ff0101ff0101000100ff0100000101fe0100ff00ff0100ff01fe0001ff00feffff0100feff0100
ff00ffff00fe00fe00feff0100ffffff0101feffff01fe0001ff00010001ffff0101ff0000000101fefe00feff00010101ff01000001fe0100fefefe00fffefe
fffefefefe01fefe01ff01ff000001fe010000ffffff0001ff0001ff00fffffe010101fe0001010100fefe00ffff0000000100ff00ff00fffe00fefe01ffff00
0001ffff000101fffe01fe0101fefefe01000001fffffefeff0100fe0000010001000001fe01fe000100000101fefffe0100010000ff00000000fe00fe00ff00
ffff00fffffefefe010000000001fe00ff00fffefeffff010100fe0000fefffefffefe01000001ff01fe01fffefe0001fffefefe0000fffefeff0001fe010001
01fefefffffeffffff0000fefefffefe00fe01fefe00ffffff01fe00fffe0000fe00ffffff0100010101fefffe0001fefffefefe010101000100fe01010000fe
0001ff00010101ff00fffffffefeff01fe01fefeff01fe0100feffff01fefefeff0100010100ff0101ff0100fe000000ff00fffffeff00fefefefeffffff0100
fe0101fe01fefffeffff0001ff01000000fefe01000001fe010001fffeff00fefeffff000100ffffffffffff01fffe000001ff01ff01fefeff0001feff0001ff
ff00fe0000fe01ff0000fefffefe00ff0000fe00fe0000ff0000ff0001fe01010100fffe0100fffeff01feffff0001ffff01ffff01fe01fe00fefffe01fe0001
ff00fe01ff01fefffefe01ff01fffeff00fefffe0000fe0100ff0101010100feff00fefefeff000001fffe00fefe00010100fffe01ff0100fffffe000101ffff
0101ff0101fffefe00ff0100fe01ff01fe01fe0100ffff00fe00fffe00ff00fe00fefe00fe00feff00fe01fffe00fe00fe00ff00fefefefefffe0000fe010101
feffff01fffe00feff00ff0101fffefeff0000fe0001fefeff010000000000010101fe00fefefe0101fe0000ff01fe00ff01fe0001feff010100fe01000001fe
fe00ff00feffff01fe01fefeff0101fefffe0000fefefe010000fe0101000001010101ffffff00fffefffffffffefffefefeff00fffffe00fefe01010000ff00
ffffff01fffeff01000100010000000100fffefefffefefffffe01ff0001fffeff00fefefefe00feff01fffffefffeff0000fffe00ff0001fefffffffefefeff
0001fe01feff01010100feffffff00fefeff00ff0101fe0101ff010000ff01ffffff00fefefefefffffefefeff01000100fffe01fe0100010001ff01fe00feff
