00fe0001ff01fefffffe01fefe01ffffff0000fefe00010101ff0000010001fffffefefefe00ffffff01fe00000000fefefeff01ffff01000001ff000101fe00
fe00fe0100fffefe01010000ff00fe010100ff01fe010100ffffffff00fe01fe010000fe0000fefefe00fe01fe000001fffeff01fefe0001fe01fe01fffffe01
fefefe00ffff00fefe00fe0101fffefefffe0101fe0001fe00feff00ffff000101fefefe0001fe0101ff010101fe0001ffff000101fffe00ffff0100fe01fffe
00fefe01ff01fffffefffffffeff000000ffff01ff01fffeff00fe00fefefffe010000010101fefe010001fefefe01fffefe00fe00fefeffffff01fffefeff01
00fefffffefefffefefffe0100ff00010101ffff0101ff00fe0101fe0101010100fe00ff00fe00000000fffe010100010101fe01ff01ff00fefffe01fe00ff01
00fe00fffeff01fe00fe0100fffffefffe0001ff01fe0100feffffff0000010000ff01ffff000101fe01fe0101ff010000fe00fffe00ff0101ff0100fffefefe
ff01fffe01ff00feff01ffffff01fefeff01fe01ff01ff00fefefe010101fffefffe01fe0000feffffffff01ffff01ff000000000101fffeff0100feff01fe01
ff01010000ff01fffe000001feffff0101ffffff0000000000fffe01ff00ffff0001000100fe010100feff00000101fefe01010101fffffefe0100fffffe0000
01ff01fefffe00fffe00fefe0001000000fefffffffe01000101ff01fe0000ffffff00fe00ff01fefe00fe00fffe01fffefe0101fffefffeff01ff00fe0101ff
fffe0101fefeffff000101fffffeff010001ff01fffe01010101fffffe0100fffe01fffffffe01ff01ffff00010001feffff00fffffeff01010001fe00ff0100
0100fe0000fe01fefffe00fefe01fe00fefeffffff01fefe00ff0101feffff0000fffeff0001fe0100feff00fefefe01ffffff000001fe01010100ff000001ff
0000fe01fefeff00fffeff01ff0101fefe00fefeff00fe0101ff0101fffffefe0101fefeffffff00ff0101ff00fe00fefeff0100ff01fffe01ff00fe01010100
fefefe01ff0100010001fe01fefe00ff0001ffff00ff00ffff0000010001ff01fe000100ff01fefe00fefe0100000100fe0100fefe0101fe010101fe01fe00fe
01fe00ff0101ff00fe0100ffff01ffffff01ffffffff00fefffefffefe01fffefe010000fffefffefe0101fe00ffff01000100feffff0001010101ff01fefefe
ff00ff0001ff01fe01ff000101ff0101ff00fffefefffffefefefe00fe0000ff01ff00fefffe000000ffff000001feff000001fffe01feff010100010100feff
00fe0001ff0000ff0101fefffeff00fefe01010001fe00ff01fe00fffffffefe00ff0101ff00ff0001fe01fffefefffe0000000000ffff01fffeff010000fe01
