ffff0000fffe0001fefffefffe0101ff0101fefe00010000fe00fffe00ff010100fefe0001fffffe00fffeff00ff01fe00fe0000fe0100fffefefefffffefe00
fe00fefe00ff01fe0101000100fffefe0001fe00ff00ffffff0001fefe000100ff000101ff0100fe010100fe01fe01feffff00fffeff01fe01010001fefe0000
00ff01fefefefffefefffffefe000001ff00ff0101fefeffff0001fefe010000fe0001000101ffffff00fffe01ff00ff00ff01ff01000101fffffe00fe0000fe
0000feff0101ffff00fefe01010101fe0100ff0100fefefefefefffefffeff0001ffff000100fefe00010000fefffefffffe00fe000000fefefe0001fefe00ff
00fffefe0101000000fe000001feffffff00fffeff00fffefe00000001ff0001ff0000000101ff00fffffefe0001fffefefefe0100ffff0101ff000101fffeff
00ffffff00fe00000000fe01fefffe0001fefefe01fe01ff00fe0001fffefe00fefe01000001fefefefffffeffff0000ff0000feff0001ffffff00feff010000
ff0000fe00fe01ff01ff0001ff01ff01fefeffff00fffe00000000fe0000fe01000101fffffe01fe01ff0101ff01ff01ff01000001ff0100feff0101fe0000fe
fffe01fe00ff01ffffff01fffe0100fffe0000010001feff01fefe00ff0001ff00ff0001fefefffefe01feffff01fe0000fe010100ff00fe01feff00feff00ff
00000000000000000000000000000000000000000000000000000000000000000000000000000000000000000000000000000000000000000000000000000000
01fe000000fffe00fefe01ff0001feffffff0000ff00fefe00ff0000fe0100ffffff00feffff000101fe0000fefeff0100ff0000000101ff0100fe00fe0100ff
000000ff00fe0100fffe00fffefefeff0101feff01010001feff010001ffff00fe0001fffeff00010001ff010000ff01feff0101ff0100000001010001ffff00
0001fefe0100fe00fe0101fefe0101fffffefefffefe0000ff00fefeff0000feff000001ff00ff00fefefffe01fefe00fffffeff01010100fffe0100fe00fefe
fe01feffffffff01fefefe010001fe010000fe010101feffffff01fe00ff00ff0101fe00fe000100ff000000fefefeffffffffff01ffff01ff01feff0000fe01
0101fefffefe01fe0100fe01000001fe0000fffe00fe000100fefefe010101fffffffffe0101fffefffffe01fefffe0101ff01ff00ff000001ff01fefefe00ff
fffefffeff01feffff0100000100010000ff010000ff01fffffe0101ff00fe01ff00ff01fe01fe01fefefe0101fefe000100ffff0000fe0001fe0100fefefe00
fefe0100fe00ff01feff0101fefffffe01fe00ff01fefe010001ff00ff0101ff0101ff01fefeff01ff010101fe01fefe0000fffeff01fe00fe01ff01feffffff
0001fe00fffe010001fe0100feff00fe0001ffff01fefeffff00fe00fefffeff01ff01fe0100ff01ff00ff00fffefe0101fffe0100fe01fefeff000001ff0100
00000000000000000000000000000000000000000000000000000000000000000000000000000000000000000000000000000000000000000000000000000000
fefffefefe00fffefeff0000ffffff00ff0000fefefe01000000fe01fffefffefffffe01ff000000fefe010100ff00fe01ff000001fffe010101feff010101ff
fe00fe01000000ff01ff0100fffefeff0000fefefefefe00ffffffff0000ffffff0000ff01010100fefe0001fefe00feff0100fe0101ff0000feff00fffffeff
01ff00ff010001fe00fffefefffffe00ff00fe01ff00fffeff01fe0001000000fefefe010101010001fffe00fffe00ff0101fe00fe0001fefe00fffeff0001fe
fffe01ff000100fefefe00010000ff010100000100fffeff0000fefefffffffe00000001ffff00feff00fefffe0100feff00fffe00fe0101fefffeff01fffe01
fefefefeff0001fe0100000000ff010101000100fefefefffe00fefeff010001ffff00fffffefe01fefefffffffffefffe0001fe00fe0000fffe0101ff01fefe
ff00fffe0100fefffffffffeff000000ff01feff01fffefeff0101fefefefe01fefe01ffffff00fefe0000010000fe00000001fffffffe0101feff01ff0101ff
ff00fe0100ff000000fefe0100fefeff00ffffff00000101ffff000001fe01ffff0001feff01fffe000100feff01fe00ff01fe0001ff0100ff000001000100fe
ff01ffff01010100ff0001fe01fefffefefefefe000101fffffffe00fe0100fffe0001ff01fe01feff01fe0001fe000000ff0100fe0100fffe00ff01ff01fefe
00000000000000000000000000000000000000000000000000000000000000000000000000000000000000000000000000000000000000000000000000000000
