fefefefefe01ff00ff0100fe0000feffff000100ff00000001010001ff00fefefffeffff0101010000fffe0000ff010000ff0100ff00feff0101000100fefffe
00000000010100fefefffe0100fe0000fefefefe010001ff010100ffff00000100fffffe0100fe01fefe01ff00fe0100000101fe0001fe0000feff01fffffefe
fe01fffefffefe0000fe01ff01fffeff01feff0100fffffe010100010000ffff00fe01010001fefe0001fe01fefe01ff00fe00fefffe01ff01fe0000fefefefe
fffefe0001fe0000fe00000000ffff01ff0101fefe01fefffefffe0100ff0000feff00ff00fe00fe01fffeff01fe00fefffefefe000001fefefe0100fffefefe
fffffeffff0001ff00fe01fffe0101fe01ff0001fe01000101ff00ffffff01fefeff01ffff0001fe0000ffff0100ff01010001ff0100ff0000fefeffff0100fe
fe0100ffff0100fefffeffff00010100ffffff00fe01fe00ff00010001010001fe01fefe0100ff0000fe01fe00fe0100fe000001ff00010001ff01fffefeff01
fffffe000101fe00010101ff01ff000001fffe01ffff00ff0101fe01fefe01fefffffe0001ff010001ffff01fffefe000000fe010001ff01fe0000ff01feffff
01fefe0100fe0000ff010101feff01ffff01ff01ff00ff01fe0000fefe000101000001ff01fe0000fffe01000101ff01ff0001fffefefe01010000ff000100fe
ff00fe0101fe00feff010101ffff0001010000fefefffeffffff00fffefe0000fffe010101ffff0001ff01fe0000feff0100fffe01fefe01ff00fefffe0000ff
010000feffff00ff010100fffe01fe00ff01fe0000fe01fe00ffff00feff00fffffffffefefe01fffe01ff01010000ff010000000101fe0001fffefefefefffe
ffff00fffffffefffffeff01000001feff00ff010101fefffeff0101010100ff0101fffe00ffff010001feff01fe00ff000001fe00ff00ff0101000101fe0001
00fefefe00ff000100fe00ff0100fefe01feff01fffefe00010000fffefeffff0100ffffff0101fefffffeff010101ff0001000100fffffefefefffefefe01ff
0001000001fffffe000001feff0100fefe01feff0000ffff00ffff00fe00fffe01ff01fe000001000100ffffff01feff0000000001ff0001fefe01fefe010001
feff0100ff0001fefffe00010101fefefffefefe01fefefffeff00ff01fffffffe0100ff0001fe000001ff00fefeffff010001fffffffffefe00fefe01ff0001
fefe00feff0000ff0001010000fffffefefffefffffefefffe00fefffefe01fffefe00ff00fefe0101feff00ff00fffe01ffffff0000010100fefefe0101fe01
0000fe0000ff01fefe00010101ff00fefe00000100fe000101fffffefe000001fefe01fffe00fefe01fefeff00fefeff000001ff000100ffff010100fe01fe01
