ffffff0101fe0101fe0101fefefe000101fe00fefefffefefeff00fefe000101fffe00fe00fefe0100ff01ff010101feff0000ff010100fffe0101fe00fefe01
00000001feff00fe0001fffe0100fffe00fefffffeffff01ffff0101fffefe0000fe00fefffeff0001ff0001ffff010101fffe00010101ffff00ff00ff0101ff
fefe0001ff00ffff0001010001ff0001010000fe0001fe010101ff00fffe0101ff00fffefefffeff0000feff010101fefefffeff01ffff0101fffeff01ffffff
01fe0100fe01fffe00fffe0001fe000101fe0001feffff010101fefefe0000fe01fe00000000ff00fe0100fffe0000feffff00fffffffe010100fffeff00fefe
fffe0101fe00ff0000fefefe00fffffeff01fefe0101feff01fefffffffe01fffe01fefffffefefe01fe000100010001feff01fe0000fe01ff00fefe01ffff00
0001fe00fefffefe01fefeff0100fe01010000fe01fffeffffff000001fe0100010001000101ffff010001fe00fffefeff01ff00ffff01feffff01fefe0000fe
fe0100fe0101ff00010100fe010101010001fefe00fffefe000101fefe00fefeff01feff0101ff01fffe01fe01ff00000101fefe0001ff01ffffff0001fe0101
fefefe0101010001feff00fe00fe0101ff01fefffe0000ff01ffffff0001000000fe0101fefffefefe0000ffff01ff0101fefffefe000101fffefe01fffffffe
00000000000000000000000000000000000000000000000000000000000000000000000000000000000000000000000000000000000000000000000000000000
fe0000fffe000001fefe0000feffff01fe00fe0000fffffffe00fffe0101feff01fe010100fffffe00ff00fe01fefe01fe00ff0000feff00fe0000010001ff00
01ffffff00010100fefe0100fefe00fe0001ff00fffe010101ff0101ffff01fefe0001fe0100fefeffffff0101fffe01fefe000001ffff010001fefefe0101fe
0100ff000001ff01ff0101010101010101fffffe00fe01feffffff01feff0000fefeff000001fffe0100010101fefeff0101ffff01ff01010000ff0001feff01
ff01fffefffeff00feffff0000ff0001fe0101fffe00fe01ff00fe0001ff00fefffe00ff00010100ffff0000fe01ff00ffff01fffe00fffeff00fffeffff00fe
000001ff000101fffffe01fe00feff00fe01fffe00ff01ff00000101010000010001ff00fe0100ffff01ff01fefffe0101ff01fe00fefefffffe010100ffff01
01010000fe00ff00fefe0000ff000100ff01ffff000001fffffffe0100fefe00ff00ff010101fe0000fefe00010100ff01fffe00fe00000101ff000000ff0101
ff01010101fffeffff0100ff0000ff01ff00ff000100fe0000fefefeff00fefe01ff0000fffefefe01010001fe00ff01fffefeffff0100000101ff00fefffefe
0000fe01ff0001ff000101ff00fe00ff00ff0001fefffe00fe00fe00000100fefefe010001000100ff01fe00fffefefeffff01fefe00fefe00fe00000101fe00
00000000000000000000000000000000000000000000000000000000000000000000000000000000000000000000000000000000000000000000000000000000
00fffe01000100fffefe000000fefe000001fefe0100ff0101feffff00fefe00ff0000010101fefe000100fe00ffffff01fffe00fefefe00fe010000ff00ffff
fffffe0100fe00fe01ffff01fe0000fffeffff00fefe0100fefe01fe01fe00feffff00ff01010000ff010000fffe0100000100ff01ff00010001fe00feff0001
010001fffe00ffff00ff01ff01ff01fffefe0001ff01fe0000ff0001fffefe0000fffeff010100fe010101fefefefffe01fe0101fefffe0001fffefe0001ffff
0001ffff010001ff010000fefe00fffe00fe00fe0101fe0101ff0001ff00fefe0000fe00ff01fefe00feff01feff00ff00fe01fffefe01fefe00fffefefe00ff
00fffffe010100fe00ff00ff01fe0100ff01ff01ff00ff0000ff0000fffe0100010000ff01fe0100fffffefe00ff0001fe01fe00ffff01010101fefe0100fefe
fffe0101ff00fe01ff01010101feffff00fefeff01fe00ffff000100ff0101ff01fefe00feff0001fe01fe0000fe010000010000ff01fffffeff00ffff01fefe
fe01feff00fefefefffffe01000000fe01ff0100ffff000000fe0101feff00fffefe01ffff00fe0000fe01010100fe0101fe00ffff01fffe01fe010100ff01fe
01fffffefeff0100fe0100feff0001fe00ff01ff01fe0000fe000001feff01feff00ff00ff0101fefefeff00fe01ff0101ff000101feffffff000000ff00fffe
00000000000000000000000000000000000000000000000000000000000000000000000000000000000000000000000000000000000000000000000000000000
