fffeff01010101ff0000fffe0100fe0101feff01ff0101fefe00fe00ff00feff00fefffffffefe010000feff00ffff0101feff0100000001fffefe0100fffffe
01ff0000fe0101feff01fefe01fe01ff01ff0101fe00fefffefe0000ff0000fefe0001fe00ffffff00fe0001ff00ffff00fe0100feff0101feff01fe00fffe00
00ff01000100fffe00fe01010000fefffefffffefe00fefe000001000000fffeffff00fffe00fe0000fffffeff01fe000100ff0101ff01fefe000000fffe00ff
fefffefe0100010001fffeff000101fe0100ff0001fefe00ff0100fffffefefe000101fe0001fe010001000100fefefeff0000ffff00ffff00000100fefffffe
0100ff000000ff0000fe01010100feff0101fe00fffefe0000fe00ff0101fefffeff00fefe0100feff01fffeff0101fefffffffe0101fffffefefe01fe00fe00
0001fffe0001010100ffff000001000100fefe01000100000100fe0000ffff01fffeffffff00ff00fe0100ff0101ffffffffff00fffeff00ff010100fe00feff
fe00fffe01fffffeff00fffe00fe00fefe01000101fefffefe0001010101ffff000000fefefefffffefe00ff000100ff0000fffe0000010101feff0001ff01ff
0101ff00fe0101fefeff00fe00ff010001fefe0100fffe01ff01fefefffefefffefe00feffff00010100fefefeff0101fffffeffff01fffeff00fefeff01ff01
01fefefe01fe00feff0101ff0000fe01ffff01ff00fefe01fe0100ff00fefe0101010000000100ff0001fe01ff01fffe01ffff0100feff01ff00fefefe0101fe
0101fe00fe01ff01ff000001fefefefffefe0101fffeff00fffefeff0000ffffff0000fe01fffefe01ff01ff00fffefe00ff01fefe010100fffe000001ff01fe
01fefffefe0000fefefeffff0000feff010001000000000101fe00fe00ffffff00fffeff0101fe00fffeff01fffe00ff01feff00fe00fefe01ff0000fffefffe
01fffffe00fe0001ff01fefe00ff00fefe01ff00fe0000fefe01000000ff01000001fefeff0100fffe01fe0101fefe000101feff0001ff0001fe00ff000101fe
00fe010001010000fe00ff00010100fefffffefe010101fffe0101ffff0101fefffffffefeff0001feffff00fffe00fe00feff0101ffff01000101fffefe0100
00fffeff01fffe010000fffffefffffeff0001000001feffffffff0101feff01fffeffff00fe0000fffe0101fe00ff0000fffefe00fe0100010001feff0100fe
01fe01fefeff000001fffe01fffffe0100fe01010101000000ff01fe000000fffe0100fe01ff0001000000010101fe00000100ff01fe00fe010001010101fe01
fefeff00feff00fffe0001feffffff00fe0000fefe01010101ff000101fefe00fffffe0000fefeff0000fe010001fffeff01000000000001ff01fefeff0101ff
