000100000000ff00fefeff000001fe0000ffffff000000ff00ffff01ff0100fefefffe01fe00ff00fe00ff0101fe010100ff0000fffefe010000fffe0101fffe
fefefeff00ffff00fe0101ff00fefeff0100fffffefeff01feff010101fefffffefeff01000100fe000000ff01fffffefe0001fe0101fe0000feff00fefe0001
0001fe00ffffffffff00ff00feff0000ff0001fefffe0000ff01ff00feff0100fefe01fffffefeff00000101010101000001ff00feffffff0101ff0001fe01fe
00ffff00fffffefffe00ff01fefe00fefffefffefe01fefe01ff00ff00fe0001000000feffff00fefe00ff000000fe0000fefe00feff0001feff0100ff01ff01
ff00fefefefefefffeff01fffe00010001fe010100ff01fffe0100000000ff010001000101ff01ff01ff0000000101fe0101010001ff0101fefe00fe0001ff01
fe00fefffe00feff000101fefffe01000100ffff00ff00ff0100fefffefeff010101fe010101fe01fe01ff00fffffe0000fefe01ffff010001ff01fe01fffefe
0000000000000001000100ff01ffffff0100feff0000ff00fe00fefeff0100fffe00fe0000ff0000fffffe01ff01fe00fe00fefffe00fe01fe0100fefe010001
00fe01000000fe010101000001fe0101fe000000feff0000010001ffff00000100fefe0100fffeff00fe0000fe00fffe0001fffffffffe01fe010101fffeff00
fefefe00fefefe0000fe0100fefe0001ff0000fe01fe00fefe01fefeffff01ff00fe01fefe010001fe0001fe00fe010101fffe01fe00fe01fe0001ff000001fe
00ff010101ff01fe0100fe01000000fe01000000ff01ffff00fe01010101010001fefe01fefe0101ff0101feff010001fe01ff0101010100fffffe00fe0001ff
feff0000fefeffff00ff00010001010001feff0100ff01fffffe010101ff00ff010000ff00010000ffff00000001fffffefe000100feffff000101010000ff00
01fefffffefefeffff010101ff01ffff01fefefffe010100fffe00ff00ff00ff00feffff00fefefe01ffffff0001ff01fffe0001feffff0100fefffeff01fe00
01fffffe01feff0001fefffe01fefe0000ffffff01010100ff00fe0001ff00ffff000101ff01fe01fffe01feff01fffffe01fe00ff0101fe010100ff00fffefe
fefe010001ff00feff01ffff010101fefe01ff010000ff00000100fe00ff01000101fefe01fefeff000100fefffe01fffeffffff01ff0000fffefe01ff00fffe
01feffff0000ffff0101fe0001ffff00ff000100000001fe010000ffffff0101000100feffff010100ffffff0100fffffeff01feffff0000fefffffe00fefeff
ffff00fffefffeffff0100fe01fefefe0001fefe00fe0100ff000000ff01fe00fffe0101000000feff01feff00ff00feff01ff00fffe00000001ff00fffefefe
