ffff01ff010000fe01010100fe0100feffffff010001000100fe01010100ffff0000000100feff00feff00fffe010101fe00010101fefffffe00fe01010000ff
0100fefffeff010100010100fe0001feffffff010000fffe00fe0001ff01fffe0001feff01ffff00fefffefefeff01fefe01fe00fffe0000ff01fefe0000feff
0001ffff0000010001feff0101fe01ff00fe00fefe0000fe00010101010100fe00fe00ff010101ff0101000101fe01ff0000010000ff010001fefffefefe00ff
00fffe0101010100feff0001fffffe01ff00fe00ff00fffe00000000ff0000fefe00ff00fe01fe00010101fe0000ff01fffe00ff00fe0101ffff0000fe00ff01
010101fffffe00feff00000000feffff010101fe000101fefe000001feffffffff01fffefffffe01ff00fe01fe00fe000001fe01ff00ff01feffff010001fefe
010001fffeff0101010000fffe01010100ff0101fe0001fefefffefffefe0001fefe0101ff01ff0000ff010001fffe0100fe000000fffefefffffeff00fffe01
00010101010100fe0100fefe0101fefefe00ff01fe010100fe000101fe01fe0000fe010100fe01fe0101ff0101feff0001000101fffefffe0000fffe000000ff
0001fefe01ff00010001ff00fffffffeff01ff00fe01ffff01fe01ffffff01fffefeffff0001ff01ffff00000001ff0100fe00fe010101fe00fefefffe00fe00
00000000000000000000000000000000000000000000000000000000000000000000000000000000000000000000000000000000000000000000000000000000
0001000001fe010000fefe00fffffeff01ff00fe01fffe00ff0000fffe0001ffff00fe0100fe0100fe01ffffff01fe010101fe00ff0001fe000000000000ffff
00fefe010101fefeff00ff00ffff00fe0000fffffe0001fe0100ff01ffffff000000fefefeff01000001fe01000000fefffeff010100000000fe00fefffffe01
01fffeff01feff010000fefeff0001ffff00feffff00000001ff0000000101fe010101ff0100feff01feff0000fffffefeff01ffff01feff000100fe00ffff00
00ff00feff01fe000000fe010100010100ff00fffe01ff00feff01ff00fe010001000100fffe00ff010001ff0100fe00fe000100ff01fe0001ffff01fe0001fe
010000ff00ffffff00fffffe01fefefeffff00fe010100fffefe0101ff010001ff010000ff01fefefffeffffff01ff01ffff000101feff00ff01ff00000101fe
01fffffffe00fe00000001feff00ffff00ff00fffffe00fe01fefe01fefe00ff0000fe010001000101fe01fffefffffeff0001ff0100fe010100fefffffe0001
fe0100feff01ff010100ffffff0100fefffe0000010101fefe01fffe00ff0100fefffefefe00fe01fe01ff00fefe0000fffefefefefe0001ffffff0101010000
00ff010000000101010000010001ff00010100fe0100ff000101fe010001ff01fe00ff0100fe0001fffffeffffff00ff01fe00fe010000ff0101fffffefefefe
00000000000000000000000000000000000000000000000000000000000000000000000000000000000000000000000000000000000000000000000000000000
01ff01fffefefeff0101000000fffe0000fefe00fe00fe01fffffefe0101ffff00fefe01010001fffefefeff010001fffffffffe0001000001fefe00fe00ff01
000001fffefffffffe000100ffff00fe0001fffe00010100fffefeffff00fefffffffe01ff01fefffe0100fefe00fefefe01ff00feffff00ff000000ff00fe00
00ff01010100fffe00fffeff00fefffe0100feffff01fefe0000fe0100ff0101fe0001ff00fefeff01fe010000010100ff000001feffff0101feff00000101ff
ff0101ffff01000101fefffe00010101fffe00ffffffff010101000100ff00ff0101fffefefefeff0100ff0001ff00fffefffeffff01ffff00fefefe00fe0001
01ff01fefeffffff01fffe0000fefefefeffff01fffe0000fe010001ff00fffeffff00ff0000ff0100fe01ffff00fffefefeff01ff01ffffff000001fffefeff
01010101ff01ff0101fe01fffefffe01000001fffffeffff01fefefffefffffe0001ff01ffff00ff00fe00fefe0000fefffffeff010101ff01fffe000000fe00
fffe0100ffffffff0100fefefeffffff00fe00fffe0100fe00fefefefe0001fe01fe00fe00fe00000001fffefe01fe0000ff01ff00ff00010100ff0101010101
fffe01ff01010001feff00fffefffefe010001fe0100ff00fe000101feff0000fffe0101fefffffffeff0001feff0100fefefffe0101fffffe000001feffff01
00000000000000000000000000000000000000000000000000000000000000000000000000000000000000000000000000000000000000000000000000000000
