fe00fe00feffff01fefe01fe01feffff00010100fefeffff00000101fe0000feff0101fefe00ff00ffffff00ff00ffff0101fefefefffffe01ff0000fffffe01
010101ffffff000101fe0101010001010000fe0001fffffefe00fffefefefefeff01feff00ff0001000000fefe010000fe00fefefefe00fffe01fe00ffffffff
00fe00ff00fe00fffe000001fe00ffff00fffe00ff00fefe01fffe01fefe0101feff00feffff00fe000001000001fffefefeff01ffff0000ff00ff0100ff0101
01fffefe01fefefeff010000feff01fe00ff00fefffefe00fe01fe01ffff00feff01fe0100fe01000100ff00fefe01010100fffe01000101feff0101fe010100
010101ffffff010001ff00fefefffe01fffefeffff010100ff01000000feffff0101fefeff000000fffeff01fffe01ff000101fe0100fefe00fe0100fffffe01
000001fe00ff0001feff00010000000101ff01fefe00fe0000fe0000ffff0001fffe00fffffe01ff01ff01fefe00ff010000ff01010000fefe01000001fefefe
fefe010000fe0001fefefefe000100fefe00fefffeff0001fffeff00fefefefe0101ff0000000001fe00ff01fffffe01fe00feff01fe00fefefffefeffff01ff
0001ffff00fffefffefffefefeff00ff0000fe01feff0100fffeff00ff00fefe00fe000000fe0100fe000101fe01010001fe00ffff00ff01fefffefffe000000
01fe01fefeff01fffffefe010101fffffeff01fffefefe000101fefffe0000fefefffefe010001fffefffefeffffff0001010001feff0001fe00fefffe00ffff
fe01010000feffff01fe01fefe01feff010100010101fe00feff00ff00010000ffff00feff0101fe01ff00ff00ff000100fefe0001fe01fffffffffe01000001
00ffff00ffff0001fe0000ff00fe01fe01ff01fe01fe0000fefe0100fe01ffff00010000fffffe01ff00fefe00ff0100fe01ff01fffffefffffeff01ff00ff00
ff00fe01ff00ff01fefffefffefe00ff00fe00ff0001fffffffefefe0001fefe01ff00000100ffff01ffff01fefffffe000101fe0000fefefffffe00fe01fe01
01fe0100fefe00feff0000fefffe0101feff0000fefe000100ff01fe01fffe00fe01fefe00ffff0001ff01fe010101fe00fe00ff000101feff0000ff01fffefe
feffff01fefffeff01fefffffe00010101ffff00ff00feff0000fe01ff00fe000001fe00fe00fffefe010101fffffe01ff00fe01fffffeff010001ff01000000
ff010101fefefe01fe00000001ff00fffeff0000ff0101fefffefffe0001ff010000fe01fe00ff00ffffff00ff000001000100fffe01000000ff00fefe01ff00
fefffe01010001fe00fffefe01ff0000fe0100010100000001fefefe00fe0001feffffffff010100feff0100000000ffffff01ff01fffeffff0101ffff01ff01
00000000000000000000000000000000000000000000000000000000000000000000000000000000000000000000000000000000000000000000000000000000
00000000000000000000000000000000000000000000000000000000000000000000000000000000000000000000000000000000000000000000000000000000
00000000000000000000000000000000000000000000000000000000000000000000000000000000000000000000000000000000000000000000000000000000
00000000000000000000000000000000000000000000000000000000000000000000000000000000000000000000000000000000000000000000000000000000
00000000000000000000000000000000000000000000000000000000000000000000000000000000000000000000000000000000000000000000000000000000
00000000000000000000000000000000000000000000000000000000000000000000000000000000000000000000000000000000000000000000000000000000
00000000000000000000000000000000000000000000000000000000000000000000000000000000000000000000000000000000000000000000000000000000
00000000000000000000000000000000000000000000000000000000000000000000000000000000000000000000000000000000000000000000000000000000
