ff00fefefeff0100ff0001fe00ff0100fe0001000100ff00fffffe01fffefe0000ff01010000ff0001ff00fffe000001feff00010100fe0100fffffe000000ff
ff01feff01fe0000fe0000fffffefffe0000ff0000ff00fffeff01fefffe000001fe010000ff0101000001fffefffe00ff0101fffefe0101fe0101fe0101fffe
fe0001fe00fffe000100ff00fe000100fffe00ff01fe01fefe010001ff010000ffffffff0100fffffe00fffffe00000000ffffff01ff01000000fe00fe0101fe
01fe01fefe01000000010100fefe0100ff01fe00ff0100fffefefeff010000fffffe0000fe00fefefefffefe01fefffe00ff00feff0100fe01fe01fefffffefe
fe01fefe010100ff00ff0001fffe01ffff0001feffff0000fefefe000001fe00feff01010100fe01fe01fe00ffff01fffffe01ff01ff0100fe010100fe0100fe
01fe0101010101feff00fe00010101ff01fe00feff00fffefffefffe00fe00010001fe0001fefffffefefe01ff00fffffffffe010100fefefefffefeffffff01
0001fffeffffff0101000100fe01ff01feffff0000fefe0001fffffffefeff01ff01fe0001fe0001fefe000000fffe01fe01fefefe010000fefeff00ff00ff01
ff000100fffe01fefe01feff0101ffff01fe01ff00fe00fefffe00ff00ffffffff01ff0001ff0101ff01ff00ff0101fe01ff0000fe010001fefe01feffff01ff
00000000000000000000000000000000000000000000000000000000000000000000000000000000000000000000000000000000000000000000000000000000
00fffe01ff00fe00ff01ff00000100fe010100ff0100ff01fefeff0100fe00fefefe01fe00ff01ffffffff0000fe0001ff01fffefefeff0101fefffffefefe00
0001fe00fffefefeffff01fefe01fe01ff00ff0100fe00fe01ff0001ff00fffe00fefffffffe00fe00fe000101ff00ff01ff01ff00fefe010001fefffe010101
010001010001000001fe0101feffffff0100010001ff00fe00fe000000fe00fffeff01fe01fffefefefefeff01fefefe0000ffff0101fefefe01fe0100fffeff
0101feffff00fefeffffff00feff0000ff010101ffffff01feff01fffffffe000100feff0000fe00fefffeff000100fe00ff0100ff01ff00010100fe0001ffff
fffe0001ffff000001fffffe0000fffe0001fe00010100fefe0101ff0000fe0101fe0000fe0101fffefefefe0001010100fe00ffff00010100feff010101feff
0001ff01fe01fefe01ff01fffefe0000ff00fe00ff01ff0100fffefefe0101000101ffff01fefefe01ff00fffe01ff0001ff01ff01feffff01fe0000ff00fe00
feff0101ff00fffffffefe00ff00fe0000fefefffe00fefefffe010000fffefe01ffffff00fffefe01000001fefe01fefffffffffe010001010000fefe00ff01
fffe00fe01fefffe0000fffe0001feffff000100fe01ffff01ffff00fe0000fefeff01ffffff00ff01fffe0100ffffff0101ff01ff00010000fe00feff00ffff
00000000000000000000000000000000000000000000000000000000000000000000000000000000000000000000000000000000000000000000000000000000
feff010101fefe000001fefe01fefffffe01ffff01000101fe00fefe00fffffefffefffefe0000ffffff00fe010000fe0001ff00ff0101ff01ff000001ff0001
fefffeffff0001fe00010101feff00ffff0100fe010101fe01fffeff00010001fffe01000101feffff00feff00fffefe0101ff0100fefefefeff0001fffefffe
01010000fe010101fe0001feff01ffffffff0001fffeff0000010101fe01ff00ff00ff010000010101ffff0000fffffefffefefe0001fe010000fe0000feff01
fefefe01ff01fe00fe0100fe01fffe01ff010000ff010000fffffefe00fffefe00fffe00010101fffffefeff01fffefe01fffefefefefe0101ff010000ff0000
0001fefffefe01feff00fffefe00000101ff01010001fffffffe00fefe000100000100fe01ff000001ff00000100fe01fe010101fe01fffeffff00ff0100ff00
ff00fffe0101feff00000101000001fffffffe0101fe010001ffff00fefe00000000fffffffe00fe00000100ff0100fe01fffeff00fe000100fefefe00fffefe
fefffeffff00fffe000000feff010101ff01fffe00000000ffff0000ffff000101fefe00010100fffe00fe00fe0101feffff01fefe0100ff01000101ff01ff00
fefeff0101fefe0000ff01fe0001fe0101ff00fe0101ff00ff00fffffffeff00fffefe000001fefffefe010100ff01fefe01ff0101fe0101fefefefeffff00fe
00000000000000000000000000000000000000000000000000000000000000000000000000000000000000000000000000000000000000000000000000000000
