01fe01ff00fe01fe00ffff0001fefeff010000000100fffe010100ff0000ff0001fefffefffeff0001fe0101ff0000ffff0101ff01fffffe000000ff00000001
000000ffffff00fffffe0100fffeff00feff00fe000101fe0001fffffeff01000001fe000101fffe01fefefe0100fefffe010000fe000101fe01fefffe010000
ff0101ff0100ff01010001fe0000ff00ffff00fe00fe00fffe0000fefeffff01fe01ff01000001000100fefe01fe010100000000fefffe010101feffffff0001
fefffeffff0100fefffe000101ff0000ff01ffff0100fe01fefeffff0000ffffffff0100fefefefe00fe00ff000100feff000101feff01fefe010100fe0001fe
fefe0100010100ff00ff000000000100fe01010100fffe01fffeffff010101fe010100ff00ff01fefefefefffe00fffefeff0101ffffffff01fffe00fefeff00
010000010101ff00fe00ff01feff010100ffff00fefeffffff0100fefeff00ff00010100010000fe0001010000ff00fefffefefffefe01fe00fe00fe0001fefe
01fefe0100fe01ff000000fe00fefffe01feff01fe0100fe0100000000fffefffeff00ff00fefffe0101fffeffff0000fe01feff01fe00ff01fefeff0100fe01
00ff01fe01fefe00ff0101ffffff00fefeff00fffefe00fe01010101fffe00fe00ff0001fffe01fffe0101fefffe00ff01fefefe01ffffff00fe0000fffffe00
ff01ffff00fffe01fefefefe00fe0001010100ff00fefffe00fefe00fefeff000101fe01ffffffff00fe00ff01fe0001ff01ff00ff010100fffefefe0001fe01
fefe0000fefefeff0100fffffe000000000000fe01ff0100fe01fffe0000ffff0100ff0000ffff00000001fffe00fffeff010000fefefe01ff000001fe0001ff
0100fefe00fe0101fe00ff0100fe000000fefefffeff0101fefffefefefe0001010001ff01ff00ff010100feff01fefe00fe01ff0100fefe00fe01fe010101fe
0100fe01ff01ff0001000101ff01fefe01feff00ff00fefefe00ff0100fefe00ffff00ffff00ff01fffe0000fe00fffeffff01000001fe0100ff01ff010000fe
ffff01fefffefeff01fe00ff0101fe00fe0001ff01ff00ff0100fefffffe00ff010100fe0101ff0100ff00ff00ff00fe010100feffff00fe0100010001fffe01
01ff01ff01fffe0100ff00000001fffefefefefeff00fefefffe00000000fe00ff00fe01fffeffff01ffffff01feff01fefefe0101feff0101feff0000fe0101
fffffeff0101fefefefeff0001ff0000feffff00fefffe0101fe01fefffffefe0000fffeff0101000001010000feffffff00fe0101fe0101fefe00fefeffff00
feff01feff0001010001fe0001fffe00fe01fffefffe0000ff010100feff00000101000000fe0101fe00000000fefefe01ff00000001ff000100fffffe01ffff
