000101fefefeff0101000000fffffffeff010100ff0001ff01000001000100fefeff0101ff01fefffefe01fefeff000101fefe00ffff0001fffeff0100ffffff
fe0001fffefeff000101fefffffe00fefe01fe0001fe0101fffe000100fefe0101fe0001ff00fefefffefe01fefefe00fe000100fe00fefffefffe01fffefffe
010101ff01000001fffffffefeff01fe00ff000000fefffffffe0000fe01fe01ffffffff01000101fefefe0000fefeff0000feff0100000000fe0000ff01fe01
ff00feff00fe00ffff01ff00fefefefeff00ff01010000ff0100ffffff000100fe01000001ffffff0000ff0100fefefefefffe00ffff0100feff0001fffffffe
ff0100fefffe000100ff00fffe0100ff000101ffffff00feff0100fffe0101ff01ff01ff01feff01feff00fefeff00ff0100feff0001ff01ff0100fe01fffefe
fe00000001ff0101fefffefeff01fefeff01fefefeffff01fe010100010101fe010101fe0001000001feffffff000100fe0101fe01fe0001ff01ff00feff01fe
fffefefefefefe0000000101ff01000100ff00ff00fffe0100fffefe0101feffff01000101fffe00000000000001feffff00ff0100fefe01ff00000000fe0001
010101ff00fffffe01feff00feff01fe0000000001010001fefe0001010000ff00ff01fe0100fffe01feffff0000ff01010100fe000100ffff01fe010101ff00
ffffff000100fefefefffffe000100fe010101ff01fffe0101ff00000001fffffe01fefffffefe010001ff01ff00fe0100ff01fffe0001fe00fefefefffeffff
fffefffefffe00ff01ff0001fe0001fe00ff000100000101feff01fe0100000001fffe01000100ff0100fe010001fefeff01ff010000fffe01000100fffefffe
fffefffffe01000001fefefe01fffe0000ffff00fefefe0001feff00fefe010001fe01ff00fe01fe0000fefefefe010101fe010101010001ff00fe01ff00fe01
00fffffe010001ff00fe00ffff0001000000feff010101ff01fffe0000feff01ffff000001fffe0001fe01ff01000101feff0100ff010000ffff0101feff0000
00fefefe0101fffeff01ff000101fe0000fffe0000fffe0001fefe00fffefffefe0001ff0001fefe0100fe0001ff01fffe0000ff0000000100ffff0001000000
010101fefe01ff00fe01fe00fe01ff000001ff01ffffff0000ff00ffff01fefe00fffeffff0101ff010100fffe01ffff00fffeff01fefe00ff00fe0001fefe01
ffff0101ffff00010001fe01fefe01feff00feffff01000001ff010101feff0000fffe01fffe0001fefefefffe00fefefeff0000ff00ffff0001000001ff00ff
00fefe00010001010101fffe01fffe0101fe0100010100010100ff00ff01000101ffff0100ff01fe00ff01ff00fffe0101fefffefeff01fffffe01fffeff0101
