feff00fffeff01ffff00ff010000ffffffff00fffefffeff0000ff01ffff0001fefe01ff00fe01ff0100ff01fffffeff010001fe01ff01feff00010001fe01fe
fe00feff0100fffefe00fefefe01000101000001feff00ff0101fefe01fe01fefffeffff0001fe00000100fefe01fe010000fe01ff0000fffffffffefe00ff01
fe0100fe0100ff010001fe0001fe01ffff01fe01010101010100fe0100fefefffefe0101ffffffffff01fffe01fffe01feff000001fffe01ff01000100ffff01
0001fe00ff00fefffe0001ff01ff00ff0100fffe000000feff0101ff0101010000ff00fefe01fefefffefe00ffff0001ff0000ff01fe00fffefeff00ff000100
