01fe0100fefe00fffe01fffefeff0000feffff00fe00ff00ff01010100fffefefffffefefe01ff01fe01feff01000101ffff01fe01ff0101010101ff01fefe00
fe01ff0100fefeff00fffe0000fefffeff01ffffff0100fffefffe0001fffffe01fefffefffeff01ff010000fe010001fffefffffe01fefefffeffff0000ff01
fe01fefefe01ff00010100fefefe00000101fffefeff01ffff00ff0101ff010100ff01000000feffff00ff0000fefeffffff00fe0000000101fffffffeff01ff
fe0100fe00fe00fe0101fefefffefffe00fefe00fefeff000000ff00fe01fe0001fe00fe0000000101ffff000100010100fe0001fefffeffff00fe01fefe01ff
