fe01000100fe000101fffeff01fffffe0100ff01ffff00ff01fefffe0000ffffff00fefe01ff0001fe0101feffff00ff0000fe0100ffff00fe00fefeffffff01
0001fe00ffff0001fe000001fefffeff00ff0101ff00fffffeffffff0001fefefeffff010100fffeff00fe00fe000100fefffeffff01feff010000ff00010001
0100000000feff01fefe0001ff01fffefffeff010001feff01feff0001fe00feff01fffefefffe00ff0000fffffffe000001fe0001fffffeff01ff01fffffefe
fe01fe0001feff01ff00fefe0000fefe01fffffeff01feffff01fe0001fe010100010001feff01000100ff00fffe00ff000101ff000001fffe010000feff00ff
ff0100feff00fffefefffffffffe0100fe000000fffffefffe00fe01000001fe01ff0100fefe01ffff0100fefe010000fefffefe01ff00fffe00fefeff0001fe
fe00fffe00fe00fffefe000001ff00fefeffff010000010001ff01fffe00fefffefe01fefe0101ff01fe00fffe00ff01ff01fe00ffff00fffefefefe00ff00ff
00fefffefefefe01fefe01fefeff01ff00fe01fe000101000000fe00ffffff000101fe00fffefffefe01feffff000101010001fffe010001fefeff00fe00fe00
fffe00000100010001010000fefeff010001fffeff01fe00ff00fffe00fefefeff01ff000100fffefe01fe010000ff00fe0100000000ff01010000ffffffffff
fe0101fffe0000fefefe00ff0101010101fffefe0000ff00fffe01fefffe0101fffe01fefe0001ff00feffff01ffff01ff00fe0000fe01feff00ff0001fffe00
00ff00ff00fefe010001fefffe00feffff000000fefefe00ff0101fe000000ffff0000fffefffefefffe00ff0000fffffefffefefefefefe00fe0001ff0001ff
ff00ffff0000fe010101ff010001fffeff0100fefffefffefe0101000001fe0101ff01fe000000fffe01fe00ff01fffe00fffeff00ffffff010101ffff0001fe
ff01ff000101feff01fffe00feffffff01fe00fefffefefe00010101ff0001fefefe00fefffefe000001fffe000100fefe0000fefe0101000000fe000001feff
fe00fe01010100ffff00feff00fefe0101fefefefe010101ff010100ff00fe01ff0101000101fefe0000fe0001fefffe0100ff0101feffffff00ff01fffe00ff
ffff00fe01ffffffff01feff00fe01fe00ffff01ff010000fffefffefffffffe0000feff0001ff00fe00010101ff00fe01010000fe0000ff01ffff0000fffeff
fe0001ff0101fefe00ffff010001ff00fe01fefefefffefefffffefeff0100ffff00fffefefe01fe00fffefe0101ff01fefe0000010001010001fffffefefe00
fffefffe000100ff00fe00fefe000001fe01fffe01ff0000ff01ff000100ff01fe000100fffeff010001ff000000fe00ffff0000fffefe00fe00fe000000ffff
00ffffff000101fffe00fe01ff01fefffeff00ff0101fe00ff0001010101010101fffefeff01fefffe000000010000fefffe00feff00ffffff01ffff0001fe00
0100ff0101fe0001fe00000001feff000100ff01ff01ff00fe010101010101ff0000fefeff01ff01ff01ff00fe010001010001ffff0101fffefe00fe00fefe01
0001ff00fffe00ff0000ff00ffffff00fe00ff01fe010100010000ffff01010000ff00feffff0001fefffe00000000fe0001fe00ffff010001fe010100feff00
00fe00ffff0001fe0101ffff00ff00fe00ffffff00fffefefefefefefe000100fffe01feff01ff01ff00ffffffff000100fffefffefefe010100010001fe0100
010101fffefefe010000ff0100000100ff01ff0101ff010101fffe010001fffefffe0001fffefffe00ffff01010100fe0000ffffff0001fe01ff01fffefeff00
00fefefefffe0001fefefe01fe0000fe0100fe0001fefffeff00ff0100fffefffefffffe00fe0100fe000100feff010001ff01000001fe010101fffe010001ff
feff010101fe01feff01ffff00ff0001fefe01000001000101ff00000000fefe00fefe0000fefffeffff0101fe01fe01ff00fefffe00fffffe00fefe0000fe01
fefefe01ff01fe00feff01feff01010101feff00000001010101fe00fffefe000000ff010101fefffe00feff00fefefefeff00ffffff00fefeff00ffff01fe01
