ffffff00fe000100fefefeff0001ff0100fefe0100010001010101fffffe01fefefe00fefefffe0100010101ff00ffff0000feff0100fffeff01feff00fffeff
010001fffefe00fefe00fe000000fefefefefefe01fefe000100fffe0001feffff01ff0001000001fe00fefeff0000fffefe01000001fefeff01feffff000001
ff01ff00ff0101fffffefefe01ff000100feff01ff0001ff00feff0100fefe00fe01ff000100fe00000001ffff0100ff0101010000010000fffe00fe01fffeff
01ffffff00fe01fe0100ff010001fefefffe010101fffe00feffffffffffff00fe000000000001fe0000ff00fefefe01000101fffe010000fe00ffff0001feff
