0000ff01ffff00fffeff00ffff00ff01fffefffe0000fe01000001fe0101fe01fe00feffff00fffffffffeffff0001fffefefe000100ff01ff00fffe01fe0101
ff000001fffefefffefe00fe00fefeffff0000ff0100ff000000fffefe01ff0001fefe00fffe01ff00fefffffe000000fefeff01010000fe01ff0101fefefefe
fefe01fffefe010101fffffe01ffff01ff0100feffff0100ffff00fefffefe00ff0001fe01feffffff00fe01fffe010101feff000001010101fe00ff0001fffe
00fefffffefefe0000000101ff0100fe01000000ff00fefefffefefffffe01fe00fe000001fffeff00fffefffffffeff010100ff01fe010100000000fffffefe
01fffffe00fe010000ff00ffffffff0101fffe0000feffff0001fefefffe01ff010101000001fe0001fe0100ffff00ff0001fefffe0001fffefefffe00ff00fe
ff01010000fe01fffe010000fefe0001fe01000101ff0000000001ffff0000ff0000feff01fffeff01010001fe00ff010000000000ff01ffff0100fe01000001
0000ff01fefe0101fefffe00fe0000fefe00000000000001fffe000000fe0101fe00fe01fffefe01feff01fe0000000000ff0001fffe00fe00fffefeffff01ff
ff00010001ff00fe00fe00feff01fe0000000100ff00000001feff000100fe0001fe01ff00fe01fe01ff010100fe01fffe00fefffe0100ff000000fe0000ffff
01ff00ffff00feff0100fffe00ff01fffe01fe00ff01ffff00000100fffefffe01fffefe01ffff00feff000001ff00fe01ffff01ffff00ff01fe00000101ffff
feff0000ff00fe00000101ffffff01ff00fe01010000fe00fefefe010001fefffefefffe0100fe00ff0001ff0001000001feffff000100fe00fe0100fe01fefe
0001ffff0101fffe01000100010000fe00ff00ffff0100feff00ff0000fffe01feffffffff00fffe000000fffeff00000001ff010100feff01fffeffffff01ff
01fffffffefe00fefffffe00fffe00ff00ff00fffefffffe000100fefeff000000010101ff0001000001ff01ff000100fe000100ff0101feffff01fefe00fe01
0000fffefe0000feff0100ff0000ff0100fefefe01000101ff00ff01010101fe01000000feff0000ff01fefe00010000fe00ff00fffeff01fefe010001fe0000
00ff01ffff00ff0100fffefefffe010100fffefeffff01fe01fe0101fffffffefe01010001ff00fffffefffefffe01ffffffffff00ff0101ff010000fffefffe
fefefeffffff00010000ff010001fe00feff00010100fefefefeff0001010101ff00fffefeff0101feff010000ff01ffff01ff0001fe00fe01ff01ff00ffff00
00fefe0100feff00ff010101fefffe01ff00fe00ffff01fe0000fffffefe0000fffffefefeff01fe01ff00fefe0101fe00000001000101fe0101fffe01fe0001
