0001ffff01fe01fffeff00fe01010101fe01ff01ff01ffff0000fefefe00ff00fe00fe0001fe00fe00ffff000000010100feffffffffffffff010101feffff01
ff00fefefffe01ff01fefefe01ff01fffe01000100fefefefeff0000fe01fe010101fffeff01ffff00feff0000ff01ff00fe00000100fefe00010000ffff0100
fefffe00fffefffffefeff00fefe000100feff00000000fe00ff00ff000000010100fe01000001ff010001ffff01feff0000fffefffffffefffe0000fe01ffff
01fefe01ffff0001ffff00feff0001000101000100fefefe01fe01fe0100ff01ff01feff010100ffff0100010101ff01ff010001fe01fffe0001fe00ff01fefe
0100fe00fe00fe00fffefe00ff010000fe0100000001fe0101010101fe0001feff0001fe00fe00fffe0000ff01ffff0100feff010100ff000101ff0000000101
0001fefffe01fffe01feff01fffe0000ff00ff0101000100fefe01ffff000001feff00fffefefe00ffff01fefe0100fefefe00ff0100feff00fffffffefeffff
01ff010100fe0001fefe00fe000001ff0001fe00ff00fefffe01fefe010101000101fffffefffe0000ff0000ff000000fefe010000fe010101fffe0000ffff00
ff000000fe01ff00fe000000feffff0101fe0000ffffffffff0101000101000101fefe010100fe00fe00ffff01fe00ff01ff000001fefffefefe000100feff00
0001feff01fe0001fefe0100fefffeff00ff00000101fffffffefefe00ff00fe0001010000ff01fe01ffffff00fffefe000101fe00fe00fe00ffff00000001ff
01fe01fe01fefffefffe010101feff01fffffffefffefe00000000ff0000ffff01fefffe01ff01fefe0100fffffe00ff0101ff01fffe0100ff00010100010000
ff01fffffeffffffff00feff0000fefffe000100ff0100feff01010001fffefeff010100010001fe0000fe00ff00000000fffe01feff000101000101ff01fe00
fe010100feff01ffff0101feff00fffffeffff00fe010101fe00ffff01ffffffff00000000fe00fefffffeffff0101ff0001010000fe01fffeff0001000001fe
ff01fe000100fe01fffffe0001fe00feff010000ffff0001feff00feff01feffff0100fefe0100fffffefe00010000fefe01ff0101010001ff01fe010101fefe
ff0101fefefeff00ff00ff01fefffe00fe00ff01fe01ff0000fe000001fe00fefe00fefeff01fefefffffe000101fefe00fe010101ffff0001fe01ff0101fe01
fefeffffff0100fefffefe01fe0000ff0100feff01fefe00010001ff0101000100fefffefeff01fefefe01fefe0100fe00feff0000fefffe0100fffe01fe00ff
01010101fe0101ff00010101fefe01fe010001ff000100ff01010100ff00ff01010000fffefffeff0001fe01ff00ffffff0000010101feff01feff00010000ff
