ff0000fffe01ff000100fe01feff01fe01fffe01fffe0001fefefffefe01fe01fffeffff0000fefefe000001fffefeff00ff00ff01fe01fefe00ff0001fffffe
ff0100fefefffffefeff01fe01ff000101000000ff00fe00fefe00ff00fe010101ff01fefeff0000ff0001ff01fefffefe00feff00fffffefefe0001fefffe00
ff00fe010001feff0100fe01fefefefe010001fe000101ff00fe01ff00fefeffff00ff01ff01fe0101fffeffff01fffeff00000000fffffe00ff00fefffffe01
fe0000ff01fefefefefefffffffeff0001fffefe0001ff00010101fe0000fffffffefffffe0101fefeff0101fe00fffeffff00fffe0001fe01fe0001010000ff
fffffefeff0101fefefffe0101fe01fe0101fe00fffefffe010000fe01fefefffe00000101fefefffefe00fe0001010101ff00fffeff0100fe010100000001ff
ff000101ffff00fefefffffefe01000000ffffff0101fe0001ff00ff01ff00000101ff0101ff01fe0000ff00feff01fe00fe00ff01fefeff000101ff0101fffe
00ff00ff00feff01feff01fe010101fe000000fffefefffeff01ff010001ffffff01fefefefefe0101fe01feff00010000fe000101fe01ffff010100000101ff
fefffeff00fffefe0000fe01fffefe00feff00fe000001fe01000101fefefe0100fe0101fe0101fe0100ff0001010101fefeff000000fffffffeff01fefefeff
00fefffe0100ff0101ff010100fe01fe0101ffffff0101fe00fe00feffff0000feff0101feffffff0100feff0000ffff00fffffeffffff00fe01ff0101fe00fe
01fe00fffe0100ffffff00fffeff01fe0000ff0000fefffefe01ff01fe00000101ff01fe00000001ff00ff000100fe01ff01fffeffff010000fefffffe01ff01
ff000101ff0000fefe00ff01ffff0001fffe00fffe0001fe00ff00fefefffffe01fe010000feff01ff010000ffffffff01fefffffefe01fefffffffefe0101ff
ff00fe01010100ffffff01ff00010100feffff00ffff0100fefffffe00fefe00ff0000ff00fe00ff0000fffe00fe00fe00fffffefe0000ffffff01fe0100ff01
010001010101fefffe010101ff0101fefe0101ff0100000100fe0100fe01ff01fffefefffe0001feffff000000fe01ffffffff0000ffff010101fe00fe00fe01
01ff00fe00010101010100fe00ff0101ff01fe000000fefe01feff01feff0001010101ff00fe010000fffffffffe00ff00ff0001fe0100ff0000fffe000001fe
fefe01fe00ff0100fe00fe0001fffe01ffffff0100fe01010100ff00fefeff00fe01ff0001fefffe0101fffe01fffeff01010001000000fe0000000101ffffff
fffffe00ff0000feffff00ff00fffe00ff00ffff00fe00fe01fefe0000fe00fe00ffff000000ffff00ff00fffe00fe0001fe010001000001fefffeff0000ff00
