fffffe00fe000001000100feff00fffeffff00fe01ffff0001ff01ff00fe0001010000000000feff0001ff01ffff00ff00feff0000000101feff01ff000100ff
00fffefe000101010000fffe00fe00ff01fe0001fefe01000101ff0001ff00fe01feffff01fefe00feff0000010100fe00ff0001ff010100fffefeff01ff00fe
fe0100fefefffeffff01010001fefffefffe01fefffffe01ff000100fefe0100010001ff0101fefe00fe0101010101fe00fffffeffff00fe0101fefffffffeff
ff0000010101000001fefefefffffefffefe010100ffffff00ff00ff01ff01fe010001ff00fe0101010000ff0101ff00ffffff0000fffe00fe00fe01ff010000
