fefffffefffe010000fefefe000100fe01fe00ff01fffe0101fe00ff01ff0100fefeffff00fe01fffe00ffffff0001fefefefffefeff00ff00fefe00ffffff01
fe010001fe01fe00fe000101010101fefe0100fe00fe00ff01ffff00ff0000ff010000fefeffffff000000ff0001fe01fefe01ff01fefffefe01fe010001ff00
010100fe0100000000000101ff0001ff00ffffff010100ff000100ffffffff0101fe00fefeff01fe00000001feff0100feff0100feffffff000000fe010000ff
01ffffff01000100000000fffe0001fefe00fefe0101ff01fefefffe000101fefefffffe0001ff01ff000101ffff01ffff00fe010101fe01fffe00fefffefe00
fffefffefefefffeff01feff00fffe000000010100000001fe01fe010101ff00fe0101fefffe0000fffeff0000fefe00ff01fffe0001fe0101fe01fffeffffff
00fe00fe01fefffe01fffffffe01ff00fe01fffe00feff00fe0100fe0000fefe01fefffffeff01fe0100fe010001000100feff01010001fefe010001fe000000
01fe00fe000100ffff01ff0000ffff01ff0000fefeffffff00fffe0000fffffe0001010000fffe00fe0100fffffeff010101fe010101feffff00010101ffff01
fffefeff010101fe0001fe0001ff0001feff0100fe01fefffefeff01fffe01ff00010000010100fffffe000001fe01ff01fefeffff01fefe00ff01fefe01feff
01fe01fefffe01000101010100fefefe01ff0100fffefefffffefe010001ffff0000fefffffffefe00fe01ff01fe0101010000ffff01fe0001ffff00fe01feff
0100fffe01feff00fe01fffe01fefefe01ff0000fefffefe0100fefe010101ff0100fe00ffff00fefe00feff01fffe0100ff0001feff010000fefffe01ff01ff
fe00feffff0000ff0001fe0100fffe00ff00fffeff01feff00fefffe010000fe0001ff0000fefeffff00fe00ff01fe00fefefffe0101000001feff0101010000
0101fffffe01fffe01fefffe000100fffefe00fe00fe01fffffefefefefe0000ff0001ff0101000000fefffe00fffe01fefffffffefeffff0100ff00ff01feff
fe00000101000101fe01fe00fefe00fefffefefe00fe000000fefe0101fefe0101feff0101fefe00ff01fe00fffffe0101000100ff0001fffeff010100000101
fe0101feff010100fefeffff010001fefe01010100feffff01000001ff000000feff010000fe01ff01010101ff01fe000000feff01fffefe00ff00fffefe01fe
00fe00000100000100fffffe01fe01ff0100feff0101fe0000fffe0100010100ff0100fffeff0101010100feff01000100fe01fefe01fffffefe000000ff0100
feff000001fefffe00000001000100ff01fe0100ffff01ffff00010101ff01ffff00fe00fe00ff0100010000ff00ff01fe000101ffff0100fe0100fe00ffff00
fe000101fe01fefe00feff0001ff00ffffff01ffff0000feff00fffeffff010000fefe0001ffffff0000fffefe00ff00fffefe0000fefffefeff0101000100ff
fffefffe000001fffe0001ff00fe00fffe00fffffe00ff00fefe01fffe00ffff0000fefefffe0100fffeff01fefe0101fefe01fefe0000ff01ffff000001ff00
ffff00fffffe0101fe01fffefffffe00010001ff010001fe00ff000001feffff000001fefe00fffffe0000010001fffffeff01fffe00fffefffffefefefffffe
feff0001010000ff00fe01fffe00fe00ffff00fefffeff00fe0100fe01ffffff00ff00ff0000ff0101fefefffefffe00fefefffefefe0100fffffe0100fe00fe
000001fefe00010000fe01feff00fe00fe01ff01fe0001feffff0101fe00ff00fe0000ff00ff00ff01ff00ff010001fffe0100fe00ff00feff00fe01fe00fefe
ff010101010001fe00fe0100010101fefe00ff01ffff0001ff010000fffefe00ff0101fefffefe00fe00ff00fffeff000100ff01fe01ff00feff000000fe00ff
feffff0100010100feff0000fe00fe010000fe01fefeff01fe01ff0100ffffffff010001fefe010000fefeff00ff00010000feffffff00fffe00ffffff01fffe
000100fe00fefe0100fefffe0000fefffefe0000ff00fefe01ff00feff00fefe00000000fe00010000010100fefffe01ff0100fffe00ff00fefe01010101fefe
