fefefefefffffefefe01fe0101fffe000000fe0000fe00fe0101ffff0101fffefefe000001fffefefeff00fe0000fe0100000000fefefeff0100fefefffefeff
fffefffffeff00fe01fffe0100000100fefefeff00fe01fefffe00fffe00fe0000ff0101ff0100fe00ffff00fffffffffffffffefefe01fffffffefeffffff01
fe0001fffe00fffffe010000000100010101ff0000ff01fffe00ff01fffefe01fffefe00fe00000101fe01ff010001fefe00ffff010101fffe00fffefefffefe
fffefffe010001fe00000100ff00fefefffeff00010100fe01ff010001000100feff00ff01fefefe00ff01ff00ff000001feff0001fefffffe010000fffefe01
feffff00fffffefffefffefffefefe00fe01fe0000feffffffff000000fffe01000001ff01ff00fffefe0001fe0101fffffffe0000ff0000ff01feff00fefe00
00000000ff01ff01ffff0001fefeff01fffefefeff01ffff01fefeff010101fffefffe00fffffefffffe000100ff00feff01fffefe01fffe0000fe0001000001
0100fffefffefe0000fe01feff010101ff01ffff00ffffff0101010001fffefefe0000000101fffffefeffff01ff01ff0000ff01fe0000ff00ff00ffff0000fe
00feffff01ffff0001feff01ff000100ff0001ff00fe0001fe01ff00fefe01ff01ffff0101ff00ff01ff00ff0100fffefffefffe01fe010101ff010001fe0101
fefe0000fffeff00ffffff010100feff00feff0000ff01fffe0000fe0001ff010000ff00fffefe0000fe01ff00fffefffefefe00fe01ffff00fe00fefffe01fe
fe01fe0001fe0101ff0001fe00ff010101ff00fffefe01fefefffe01fffffe01fefeff00fe0100fefefefffeff00fffefe01fe0100ffff01ff01ffff00010101
010001fffe00fffffe01feff00fffefe01fffffe0000fffffe01fefefefeffff00000000fffeffff00ff00fffefffe01ff01fe000001fe0101fe01ff000000ff
fefffe01fffffe00ffff01010101ff0000fffffe0001fffe0000fefefefefffe01010000010100fe01ff000000fefeffff0100ff010000ff00fefeff00ff01fe
ff00ff01fe01ff01fffffffe00000100fefffeff0001fffefffffe0001ff00fefefffffefe0001fefffffe00fffefefffe0100fffe01fe0000fefe01ff0100ff
00ff0001fefefefefffefeffff01fe01fefe0000feff00000100fffffe0000fffe000001ffff00feff0101ff0000fffefe000101ff00feff01ff01fe01ff0000
fffefe010000ff00010100feff00feff010001fe0000fefe010101fe00fe00000101000100ff00ff010001fefffffffefe00feff010000fffe01fffefefe01fe
fe0000fe0101ff00ff00fe00fe0000fe01ff0000010001fe00feff00fffe010101fe01010001ffffff0101fefffe0100ff0101000101ff01fefffefe01fefffe
fe000001ff0001fefefe00fe01ff01ff01ff000001fefe01000100010001fe0001feff00fe00000000fe01fe01feff01010101fffffffe0001fffffffffe00ff
ff00ff01ff00fe0100010000feff00fffe01fefe000000fe00fffeff00ff01fefe0101ff01fe010101fe000100ff000101ff00ff0000feff0001fffeffff0000
fefe00ff00fe01fefffe00010000ff00fe01feffff00ffff00fe0101fffe000001ff01ff00ff0000fe000000fffffe00fffe010000fffeff0001ffff01ffffff
fe01ffff01ffffff01ffff00fe01ff01ffff01ff0000fe0101fe01fefe00fefeff01ffff010000000000fefffefeff01fffffe00010001000001010000ff0001
01ff0100fefefffeffff01fe01feffff01fe0000fefffffe0101000100fe01fefefffefe01ff010101010000fe00fffefffeff01fefffffe00ff01feffff01fe
ffff0001010100fe0000fffffeff00feff00ff0100fefeffff0100feffff01fe0100fffefefe01feff00ff0101000001ff01fe010001fffefe010100010001fe
ffffff01ff00fffe01000001ff0101ff0001ff00010101fe0100fe000101ff0001ff01fefeffff01ff000100fffe00fefefefefe00fffe01000000fffe01feff
ff010001feffff00ff000000feff01fefefe01fe00fffefe00ff010100fe01fefffffe010000ffff010101ff00000100ff00fefe01feff0101fe01fe0100fe01
